,	35332
-	17313
▁	11921
.	9301
▁và	9225
▁các	7825
▁của	6630
▁người	5899
1	5845
0	5350
2	5264
▁cho	4870
▁trong	4002
▁có	3909
▁đã	3867
▁con	3728
▁không	3712
▁dân	3523
▁được	3400
▁là	3313
▁với	3180
;	2850
▁làm	2646
▁đến	2549
▁một	2501
▁công	2363
▁Ngài	2317
▁tôi	2296
:	2253
▁trên	2239
▁để	2209
▁những	2181
▁sẽ	2061
▁Chúa	2039
5	2035
▁về	2015
3	1965
▁huyện	1960
▁năm	1916
▁như	1905
▁em	1864
▁hiện	1863
▁CHÚA	1862
▁thực	1839
▁đồng	1838
▁chúng	1816
▁phải	1816
9	1795
▁ở	1788
▁theo	1778
▁ngày	1767
▁họ	1739
▁xã	1737
▁ra	1677
▁thành	1669
▁động	1631
▁anh	1629
▁Vĩnh	1605
▁vua	1596
▁đi	1568
4	1547
▁hội	1520
▁Đức	1511
▁chính	1487
▁tế	1476
▁triển	1455
▁việc	1450
/	1438
▁từ	1430
▁nước	1416
▁lại	1411
▁nhà	1392
▁điều	1376
▁gia	1365
▁địa	1352
▁định	1351
▁đó	1346
▁vào	1343
▁số	1329
▁khi	1316
▁chức	1312
▁bị	1307
▁tại	1304
6	1304
▁chị	1273
▁tỉnh	1270
▁sự	1246
▁Trời	1237
▁dựng	1229
▁sản	1220
▁cả	1204
ra	1201
▁xây	1181
▁bảo	1179
▁phát	1177
7	1175
8	1174
▁cũng	1169
▁sinh	1169
▁vì	1152
▁mình	1151
▁nông	1141
▁hắn	1137
▁ta	1133
▁tổ	1109
▁đầu	1100
▁đất	1093
ên	1090
▁vụ	1080
▁trình	1075
▁cơ	1073
▁ông	1070
▁Ta	1064
▁viên	1061
▁này	1061
▁cây	1056
▁nhân	1048
▁quan	1047
▁thể	1030
▁học	1025
▁lên	1024
▁tác	1016
▁bàn	1013
▁Y	1001
▁sống	999
▁cùng	986
▁hợp	973
▁lễ	964
▁kinh	961
▁chỉ	954
▁còn	943
▁hành	941
▁lời	939
▁ban	936
▁kẻ	931
▁nghiệp	923
▁qua	914
▁toàn	912
▁cao	909
▁đạo	907
▁mà	905
▁nói	903
▁xuất	901
▁tộc	901
▁bộ	897
▁quả	895
▁A	893
▁thì	885
▁biết	878
▁ngươi	878
sơ	874
▁truyền	870
▁bằng	870
▁Giê	868
▁nhiều	868
▁Hội	863
▁trước	863
▁cấp	858
▁thời	854
▁nó	853
▁ăn	852
▁“	848
▁(	844
▁Thạnh	843
▁hai	841
▁sách	839
▁ấy	812
▁an	810
▁mặt	806
▁thôn	791
▁phương	781
▁-	777
▁hình	767
▁tập	765
▁phòng	765
▁tay	762
▁làng	757
▁khai	754
▁mới	740
▁vật	737
▁tư	735
▁kết	731
▁tội	717
▁nhiệm	716
▁nào	712
▁hộ	701
▁tạo	686
▁dụng	684
▁nghèo	683
▁hóa	677
▁Nhưng	674
▁trai	671
▁thấy	670
▁gian	668
▁UBND	664
▁sở	663
▁Người	663
▁lý	655
▁phần	650
▁đường	648
▁quy	643
▁nhận	643
▁tiêu	641
▁nơi	638
▁giao	630
▁lòng	627
▁đời	623
▁trợ	622
▁trồng	620
▁tất	619
▁trường	615
▁hoạch	606
▁nhưng	603
▁Vì	603
▁chủ	599
▁nghe	595
▁khác	590
▁đều	589
▁bà	587
▁đối	585
▁pháp	581
▁mọi	580
▁bò	578
▁thứ	577
▁hoạt	577
▁Con	576
▁Các	576
▁nuôi	574
▁lượng	573
▁nên	572
▁thị	569
▁sau	568
▁văn	565
▁dịch	554
▁cầu	553
▁khỏi	552
)	552
▁thông	550
▁nay	547
▁tốt	545
▁đình	542
▁đem	540
▁tiếp	537
▁thế	537
▁hỗ	537
▁rừng	536
▁đoàn	536
▁thờ	536
▁Đảng	532
▁ai	529
▁tham	526
▁tự	523
sa	521
▁vùng	520
▁Sở	520
▁Khi	518
▁giải	517
▁trị	514
▁giữ	513
▁quân	510
▁hiệu	510
▁chết	510
▁cái	510
▁mạnh	508
▁tháng	506
▁phục	506
▁lực	504
▁tâm	504
▁dự	504
▁hãy	500
▁năng	496
▁đàn	493
▁quyền	492
▁thức	492
▁ngành	491
▁thần	491
▁chống	491
▁giống	488
▁đền	488
▁án	487
▁tích	486
▁cách	481
▁thu	481
▁chi	477
▁hướng	474
▁Giô	473
▁bệnh	472
▁Định	472
▁hơn	468
▁đạt	467
▁quyết	466
▁luật	466
▁lớn	465
▁vệ	462
▁chưa	462
▁tin	462
▁Trong	461
▁gì	461
▁phạm	461
▁hàng	459
▁Ban	457
▁lấy	455
▁nâng	455
▁đề	454
▁tình	453
▁đang	450
▁thường	448
▁Bình	447
▁vị	446
▁rồi	445
▁"	445
▁tra	444
▁phân	444
▁trẻ	444
▁chất	442
▁trở	437
▁xuống	436
▁vận	433
▁lúa	432
▁hay	430
▁dâng	428
▁nhất	427
▁tục	426
▁thống	424
▁thi	422
▁ác	422
▁Nếu	421
▁dục	421
▁Đa	419
▁thuộc	418
▁cha	418
▁phong	417
▁Ê	415
▁giờ	414
▁núi	413
▁Và	412
▁chân	409
▁bỏ	407
▁Chủ	407
▁ba	407
▁phán	405
▁trung	405
▁đảm	403
▁quản	402
▁ủy	402
▁Sau	401
▁giáo	400
▁phụ	400
▁nguồn	398
▁trưởng	398
▁sáng	397
▁lập	396
▁liên	396
▁đại	395
▁yêu	395
▁thương	394
▁mẹ	391
▁tăng	389
▁giữa	388
se	388
▁ý	386
▁Tôi	385
▁cá	385
▁đánh	384
▁vậy	380
▁Hắn	380
▁phối	378
▁rằng	376
%	375
▁cần	375
vít	375
▁lãnh	373
▁giúp	371
▁tuyên	371
▁lệ	371
đa	370
▁Vua	369
▁huy	369
▁nhau	367
▁kế	367
▁mươi	363
▁giảm	363
▁xứ	361
▁gái	359
▁Văn	358
▁xử	356
▁dẫn	355
▁Sa	355
▁kiểm	354
▁kỳ	354
▁Ai	354
▁quốc	353
▁chịu	352
▁đây	352
▁phẩm	351
▁giá	350
▁vợ	349
▁Môi	349
▁bắt	348
▁dưới	347
▁Nông	347
▁trời	347
▁phí	347
▁xin	345
▁do	344
▁đổi	343
▁trọng	343
▁mô	343
▁tiên	341
▁sử	341
▁góp	340
▁lợi	340
▁báo	339
▁dạy	338
▁sức	338
▁chế	334
▁Công	334
▁tiến	334
▁bên	331
▁đưa	330
na	330
▁dùng	329
▁cứ	329
ru	328
▁cứu	328
▁chuyển	326
▁tịch	324
▁sạch	324
▁nghề	323
▁bào	323
▁vững	321
▁danh	320
▁đầy	320
▁trách	318
▁vốn	318
▁Ba	317
su	317
▁chí	316
▁nữ	312
▁kiến	310
▁chương	310
▁sao	310
▁vui	310
▁mắt	309
▁hạ	307
▁kiện	307
▁Nhà	306
▁ngoài	305
▁đúng	304
▁phía	304
▁thầy	303
▁nghị	303
▁hoặc	301
▁sát	301
▁cháu	301
▁hết	301
▁mỗi	300
ri	300
▁Giu	299
▁Vậy	299
▁Chính	299
▁Quyết	299
▁nữa	299
▁thân	298
▁tìm	298
▁Ông	297
▁thiết	296
▁điểm	296
▁trào	295
▁mười	295
▁đông	293
▁đủ	293
▁tỷ	291
▁vàng	290
▁độ	290
▁tiếng	288
▁chiến	288
▁Có	287
▁Những	286
▁diện	285
▁cuộc	285
▁nếu	284
▁Họ	282
▁trâu	281
▁tượng	281
▁lần	281
▁nội	281
▁tai	279
▁loại	279
▁mục	279
▁xét	279
▁ứng	278
▁bình	276
▁nhỏ	275
▁sâu	273
▁Điều	273
▁rượu	273
▁sai	272
▁sợ	269
▁tổng	269
▁Chúng	268
▁thanh	267
▁chung	267
▁Nam	267
▁chăn	265
▁hoàn	265
▁môi	264
▁biểu	264
▁thuật	264
li	263
▁từng	262
▁giết	262
▁khó	262
▁đốc	261
▁biến	261
▁sông	261
▁lỗi	260
▁Lê	259
▁vi	259
▁muốn	259
▁mạng	258
▁mang	258
▁Bộ	258
▁đặt	257
▁Việt	257
▁hệ	257
▁phố	256
▁thịt	256
▁trấn	256
▁đứng	255
▁thánh	255
▁đơn	254
▁tuổi	254
▁khu	253
▁đảng	252
▁cư	252
▁Phát	251
▁cực	250
"	250
▁triệu	250
▁Trung	248
▁Hãy	247
lem	245
▁tên	245
▁rất	244
▁thiểu	243
▁y	243
▁đẩy	242
a	242
gia	241
▁đáp	241
▁biển	241
▁tinh	241
▁gần	240
▁dung	240
▁rẫy	239
▁bố	239
▁Gia	239
▁bảy	239
▁xa	238
▁lao	238
▁trại	237
▁cán	237
▁luôn	236
▁vực	236
▁bản	236
?	235
▁Thế	235
▁Đại	234
môn	234
▁bao	234
▁Giám	232
▁phủ	232
▁binh	232
▁tri	230
▁chứng	230
▁bước	229
▁biệt	228
▁tớ	228
▁vẫn	227
▁Phó	227
▁ước	226
▁đá	225
▁bốn	225
▁trái	225
▁mùa	225
▁rộng	225
▁tiền	223
▁uống	223
▁Chỉ	222
▁đực	222
▁Tổ	222
▁gọi	221
▁khăn	220
▁quá	220
▁Không	220
▁Anh	220
▁đặc	219
▁hỏi	219
▁Ủy	217
▁khôn	217
▁nhằm	217
▁nguyện	216
▁chẳng	216
▁cáo	216
cập	215
▁cường	215
▁hoa	214
▁gây	214
▁lâm	213
▁Kẻ	213
▁hiểu	213
▁Một	213
▁doanh	213
▁ca	212
▁tài	211
▁chuyện	211
▁áo	211
▁đoạn	210
▁Như	210
lô	210
▁ngay	209
▁môn	208
▁cầm	208
▁chuẩn	208
▁Từ	207
▁ký	207
▁trực	207
▁chuyên	207
▁cung	207
▁chọn	207
▁Đấng	206
▁trả	206
▁Si	206
▁hưởng	204
▁tới	204
▁giới	204
▁thủy	204
▁miền	203
▁hại	203
▁lệnh	203
▁chiên	203
▁Để	203
▁lúc	202
▁Ngày	202
▁dòng	202
▁cửa	201
▁Sơn	200
▁Ma	200
▁già	199
▁ngoan	199
▁loài	198
▁thay	198
▁miệng	198
▁đào	198
rôn	197
▁họp	197
▁Kế	197
▁chiếm	197
▁chồng	196
▁tối	195
▁lành	195
▁kỹ	194
▁vay	194
▁xác	193
▁Chương	193
ma	193
▁đừng	193
▁Huyện	192
▁chăm	192
▁mở	192
▁Nghị	192
▁kia	191
▁thủ	191
▁trao	191
▁thiên	191
▁lớp	190
▁đêm	189
▁cụ	189
▁gặp	189
▁lối	189
▁hương	188
▁tín	188
▁thư	188
▁mua	188
▁đói	188
▁nhìn	187
▁tức	187
▁lửa	186
▁hạn	185
▁cộng	185
▁dài	185
▁đẹp	184
▁trang	184
▁xuyên	184
▁thù	184
▁cải	183
▁đội	183
▁buổi	182
▁lịch	182
▁diệt	182
▁kể	182
▁phá	181
▁xem	180
▁bổ	180
▁cỏ	180
▁Luật	180
▁đức	180
▁Đến	180
▁trì	179
▁trí	179
▁Bên	179
▁chỗ	179
▁Xin	179
rê	178
▁gà	178
▁bạc	177
▁heo	177
▁thiếu	176
▁nghĩa	176
▁sứ	176
▁kịp	176
▁đổ	176
▁giận	176
▁đấu	176
▁tầng	176
▁vườn	175
▁thăm	175
▁vô	175
▁phạt	175
▁vấn	175
▁niên	174
▁ô	174
▁cạnh	173
▁quanh	173
▁Theo	173
▁chạy	172
▁đóng	171
▁tưởng	171
▁vinh	170
▁vừa	170
▁thác	169
▁võ	169
▁nhập	169
▁Cứu	169
▁thêm	168
▁mưu	168
ba	168
▁thiêu	167
▁bán	167
▁tuyển	166
▁trăm	166
▁cố	166
▁nguyên	165
▁mưa	165
▁suất	165
▁càng	165
m	165
vi	165
▁Sê	164
▁vòng	164
▁giai	164
▁tử	164
▁khô	164
▁mặc	164
la	163
▁hoàng	163
▁huấn	162
▁”	162
▁soát	162
▁ngoại	161
▁chuộc	161
▁chiều	161
▁đáng	160
▁xong	159
▁Quy	159
▁rõ	159
▁ninh	159
▁cành	159
▁Hồ	158
▁cổ	158
▁mừng	157
▁khỏe	157
▁gắn	157
▁sóc	157
▁thuốc	157
▁bất	156
ôn	156
▁lá	155
▁đua	155
▁Áp	155
▁thật	154
▁to	154
▁Về	154
▁nổi	152
▁lạc	152
▁đồ	151
▁Đồng	151
▁dậy	151
▁ngân	151
▁hôm	150
▁kính	150
▁Ha	150
▁hồ	150
▁Qua	149
▁canh	149
▁thiện	149
▁suốt	149
▁nạn	149
▁thú	149
▁cảnh	148
▁Căn	148
▁chặt	148
▁sĩ	147
▁thoát	147
▁đuổi	147
▁nam	147
▁cô	147
▁lưu	146
▁Thực	146
▁suối	146
▁phù	145
▁thích	145
▁tiết	145
▁hủy	145
▁Giáo	145
▁khoảng	144
▁Tại	144
▁giàu	144
▁lai	144
▁ha	144
▁sắc	143
▁liền	143
▁chia	143
▁cận	143
▁hứa	143
▁mạc	143
▁kiếm	143
▁Cha	142
▁Bấy	141
▁hoan	141
▁dù	141
▁Tội	140
▁đâu	140
rơ	140
▁tranh	140
▁phép	139
▁Đây	139
▁hạt	139
▁chú	138
▁cất	138
▁chim	138
▁gồm	138
▁cắt	137
▁Thông	137
▁Kinh	137
▁sung	136
▁súc	136
▁nhiên	136
▁mất	136
▁thuận	136
▁ghi	136
▁Yôl	136
▁rau	135
▁đỡ	135
▁tấn	135
▁yếu	135
▁xanh	135
▁linh	135
▁khắp	134
▁xảy	134
▁thao	134
▁Đề	133
▁áp	133
▁nghệ	133
▁non	132
▁điện	132
▁giám	132
...	132
▁Thánh	131
▁dõi	131
▁dê	130
cốp	130
▁‘	130
▁bền	130
▁Thuận	130
▁tránh	129
▁Phi	129
▁Tài	129
▁kêu	129
▁nhờ	128
▁Việc	128
▁hồn	128
▁dầu	128
▁cổng	127
▁huyết	127
▁Chuyện	126
▁bánh	126
▁Nhơn	126
▁Ca	126
▁ngàn	126
▁Đào	126
",	126
▁Làng	126
▁tặng	126
▁Thời	125
QĐ	125
▁Thủ	125
▁Hòa	125
▁riêng	125
▁dại	124
▁nhớ	124
▁tấm	124
▁vâng	124
▁phước	123
▁Do	123
▁uế	123
▁sa	123
▁tận	123
▁đau	122
▁lo	122
▁đốt	122
▁ngợi	121
▁Liên	121
▁Ngân	121
▁Kim	121
▁lĩnh	120
▁biện	120
▁quý	120
▁Đinh	119
▁ổn	119
▁Ga	119
áp	118
▁cấu	118
▁ương	118
▁Còn	118
▁duyệt	118
▁ngồi	118
▁đệ	117
▁nằm	117
▁gương	117
▁tỏ	116
▁xấu	116
▁ngôi	116
▁bầu	116
▁Lời	116
▁mức	115
▁xóa	115
▁khiến	115
▁kéo	115
▁dấu	115
▁thưa	115
▁hậu	115
▁diễn	115
▁cử	115
▁Phòng	115
▁mãi	115
▁nặng	115
▁sáu	114
▁Thường	114
▁tạ	114
▁bầy	113
▁Tỉnh	113
▁tây	113
▁quang	113
▁Pha	113
).	113
▁Bí	112
c	112
▁chữa	112
▁khí	112
▁lạ	112
▁cuối	112
lơ	112
▁bón	112
▁nhanh	111
▁Nhờ	110
▁cánh	110
▁trú	110
▁gìn	110
ram	110
▁bờ	109
▁thẩm	109
▁tôn	109
▁Với	109
bi	109
▁gỗ	108
▁tính	108
▁đa	108
▁trụ	108
▁Năm	108
▁cháy	108
▁sang	108
▁thắng	108
▁Xây	107
▁Lạy	107
▁Nó	107
▁Nguyện	107
▁ngang	107
▁Chí	107
▁Dân	107
▁trận	106
▁ít	106
▁Thể	106
▁nghiệm	106
▁dây	106
▁răn	106
▁Đừng	105
▁đỏ	105
▁hòa	105
▁trông	105
▁Trưởng	104
▁Sáng	104
▁ngăn	104
▁khuyến	104
▁nàng	104
▁–	104
▁khổ	104
▁Phải	104
▁gốc	103
sép	103
suê	103
▁Chi	103
▁cai	103
▁nho	103
▁Hỡi	103
ca	103
▁Bác	103
▁màu	102
▁lắm	102
▁sửa	102
▁chấp	102
▁Thị	102
▁trương	102
▁cơn	102
▁ơn	101
▁Trường	101
▁sớm	101
▁mắc	101
▁bạn	101
▁Quân	101
▁Phê	101
▁Hê	101
▁lâu	101
▁Phối	101
▁đai	100
▁Minh	100
▁ngủ	100
▁trật	100
ha	100
▁tàu	100
lê	100
▁khoa	100
▁An	100
▁liệu	99
▁tướng	99
▁che	99
▁quần	98
▁Xuân	98
▁thề	98
si	98
▁hữu	98
▁trắng	97
▁coi	97
hô	97
lôn	97
▁ruộng	96
▁Đền	96
▁tiêm	96
▁Tuy	96
▁máu	96
▁DTTS	96
▁Mô	96
▁Bê	96
▁vọng	96
▁MTTQ	96
▁kiên	96
đê	95
▁quay	95
▁Rồi	95
▁so	95
▁chép	95
▁Tham	95
▁trạng	95
▁Làm	95
▁chín	94
▁ngu	94
▁ngũ	94
▁khích	94
▁Quốc	94
▁Đối	94
▁nghịch	94
bô	94
▁trừ	94
▁sắp	93
▁ân	93
▁bày	93
▁phấn	93
▁Vào	93
an	93
▁Tổng	92
▁dưỡng	92
▁Được	92
▁Tất	92
mi	91
▁tồn	91
▁thẳng	91
▁độc	91
▁xe	91
▁mời	91
▁cảm	90
▁khóc	90
▁đô	90
▁rời	90
▁HĐND	90
▁nghỉ	90
▁nhu	90
▁bức	90
▁vương	90
xa	90
▁Lễ	89
▁vươn	89
▁bồi	89
▁khắc	89
▁du	89
sê	89
▁cúng	89
▁thôi	89
Â	89
▁tường	89
▁ghè	89
▁bụi	89
▁ưu	88
▁nắm	88
▁chắc	88
▁chúc	88
▁luận	88
▁thổ	88
▁phó	88
▁minh	88
n	88
▁cạn	88
▁khả	87
▁mây	87
▁ngã	87
▁Bà	87
),	87
▁giả	87
am	87
▁vết	87
ni	87
▁Toàn	87
▁PTNT	86
▁chiếc	86
▁lũ	86
▁đứa	86
▁Cây	86
▁Na	86
▁phổ	86
▁chiêng	86
▁giảng	86
▁ánh	86
▁sơ	85
▁hoang	85
▁luyện	85
▁Thương	85
▁thụ	85
▁cưới	85
▁nầy	85
▁lưng	85
▁lò	85
▁khẩu	85
▁đăng	85
▁nô	85
▁sẵn	84
▁bẫy	84
▁dữ	84
▁đồi	84
▁gió	84
▁Nguyễn	84
▁quà	84
▁Đầu	83
▁tiện	83
▁thước	83
▁đeo	83
▁lừa	83
▁Linh	82
▁bệ	82
▁Sự	82
xê	82
▁nghiêm	82
▁phê	82
▁gieo	82
▁ghét	82
ham	82
▁buồn	82
▁Nội	81
▁đập	81
▁chảy	81
▁dối	81
▁Covid	81
▁sân	80
▁đen	80
▁phúc	80
▁đãi	80
▁Mỗi	80
đanh	80
▁họa	80
▁trò	80
▁ngự	80
▁Nê	80
▁triều	80
▁dám	80
▁Trước	80
▁Cũng	80
▁khẩn	79
▁Trâu	79
▁câu	79
▁thượng	79
▁đê	79
▁Mê	79
▁chuột	78
▁chàng	78
▁thúc	78
▁ngọn	78
▁rương	78
▁Quản	77
▁hồi	77
UBND	77
Hãy	77
▁niềm	77
▁nghĩ	77
▁hầu	77
▁vẻ	77
▁tưới	77
by	77
▁viết	77
▁Nước	77
▁tuyến	76
▁Hảo	76
▁mầm	76
▁rửa	76
bu	76
▁thịnh	76
▁đám	76
▁hiến	76
▁đón	76
▁nhục	76
▁Bài	75
▁dịp	75
▁Bết	75
▁Bảo	75
▁dành	75
▁đèn	75
▁tha	75
▁kg	75
tin	74
E	74
▁Hiện	74
▁Kê	74
▁cơm	74
▁vai	74
▁bắp	74
▁cậy	74
▁Giao	74
▁Ngoài	74
▁gùi	74
▁giỏi	74
▁Mẹ	74
▁vượt	74
▁Cùng	73
▁ích	73
▁gươm	73
▁đợt	73
▁than	73
▁phản	73
▁rủa	73
▁Là	72
▁mẫu	72
▁tán	72
▁bão	72
▁quê	72
▁quán	72
▁mọc	72
▁tàn	72
▁Thì	72
▁Thầy	71
▁trốn	71
▁khách	71
▁đậu	71
▁mật	71
▁tương	71
ê	71
▁Nhân	71
▁kho	71
▁sốt	71
́	71
▁lẫn	71
át	71
▁suy	70
▁nộp	70
▁tan	70
▁vầy	70
▁cột	70
▁ngụ	70
▁nhắc	70
▁dọc	70
▁sàng	69
▁kèm	69
▁gửi	69
▁tùy	69
▁lắng	69
▁dạng	69
▁chỉnh	69
mê	69
▁Cơ	69
Con	69
▁chuồng	69
mô	69
▁màng	69
▁màn	69
▁Lúc	69
▁lan	68
▁thèm	68
▁đảo	68
▁tám	68
hi	68
▁bụng	68
▁Xã	68
▁xóm	67
▁săn	67
▁cướp	67
▁rút	67
▁bóng	67
léc	67
▁toán	67
▁hư	67
▁Ô	67
▁mổ	67
▁giấu	67
▁Gát	67
▁khám	67
▁hằng	67
▁Kiểm	66
▁chạm	66
▁lão	66
▁thuê	66
▁Hai	66
▁Đất	66
▁Thanh	66
▁ảnh	66
▁tỉa	66
▁lưỡi	66
tha	66
▁Thịnh	65
▁Thái	65
im	65
▁nỗi	65
▁Cho	65
i	65
▁Trên	65
▁xót	65
▁thận	65
▁nền	65
Ở	65
▁mì	65
▁da	65
▁chặn	65
▁nát	64
▁đôi	64
%;	64
p	64
▁rông	64
cha	64
▁khen	64
▁chứa	64
đôm	64
▁thử	64
▁Du	64
▁đạp	64
▁hy	63
▁xưa	63
▁kỷ	63
▁Dự	63
%,	63
▁hoá	63
▁thải	63
▁Đoàn	63
▁kiệm	63
bát	63
▁bạo	63
▁lồng	63
▁củi	63
▁gạo	63
▁nhóm	62
▁mong	62
▁hổ	62
▁lợn	62
▁Thành	62
▁hạnh	61
▁sư	61
▁bởi	61
▁bài	61
▁xúc	61
▁quên	61
▁nợ	61
▁Ghê	61
▁đích	61
▁dỗ	61
bê	61
▁thổi	61
than	61
▁ngọc	61
▁duy	61
▁chê	61
pha	60
▁buộc	60
▁phun	60
▁đẻ	60
▁lang	60
rô	60
▁khởi	60
▁hát	60
▁ẩn	60
▁tuần	59
▁Rê	59
▁trộm	59
▁Mặt	59
▁rỗi	59
▁nắng	59
▁lương	59
▁mấy	59
▁Lao	59
ng	59
▁Sử	59
▁Bằng	59
▁khiêng	59
▁nửa	59
▁bay	58
▁bãi	58
▁ấn	58
▁hải	58
▁bác	58
▁bé	58
▁Quang	58
▁Kết	58
min	58
▁giáng	58
t	58
▁tái	58
▁nhi	58
▁phượng	58
▁nêu	58
▁khinh	57
▁cân	57
▁niệm	57
▁dọn	57
É	57
▁bây	57
▁Thật	57
đô	57
▁khốn	57
bên	57
▁giấy	57
▁Dù	57
▁Hiệp	56
▁củng	56
▁dặn	56
▁vải	56
▁kém	56
▁trạm	56
▁uy	56
▁I	56
̣	56
▁máy	55
▁rác	55
▁mối	55
▁dao	55
▁ché	55
Ư	55
▁dễ	55
▁nỗ	55
TT	55
▁phóng	55
▁âm	55
▁Xa	55
▁Canh	55
▁tươi	55
▁tuân	55
▁mai	55
▁bí	54
▁thung	54
▁nóng	54
▁Mắt	54
▁di	54
▁thấp	54
▁dư	54
▁tơ	54
▁Ghi	54
▁Hôm	54
▁ngựa	54
▁Ánh	53
▁xung	53
chia	53
▁hái	53
rít	53
▁hút	53
▁nguy	53
▁rà	53
▁khéo	52
▁bá	52
▁ấm	52
▁vĩ	52
▁chẽ	52
▁Hô	52
▁thai	52
▁thả	52
anh	52
▁đòi	52
▁sợi	52
▁thái	52
▁ranh	52
▁trúng	52
▁kênh	52
▁trọt	52
▁Chân	52
▁tố	52
▁lộ	52
▁bột	52
▁chờ	52
▁Năng	52
▁thợ	52
▁nộ	52
▁chơi	51
▁Tạm	51
▁ma	51
▁thảo	51
▁Tay	51
▁K	51
▁Am	51
▁tù	51
▁xức	51
▁cười	51
▁Lòng	51
▁lạy	51
▁Tây	51
CP	51
sác	51
▁quỷ	51
▁kê	51
▁vây	50
▁thang	50
▁Ra	50
▁LHPN	50
▁vội	50
▁hơi	50
▁đẳng	50
▁liệt	50
▁tràn	50
W	50
▁chào	50
▁Nhiều	50
▁góc	50
▁biên	50
▁cam	50
▁Mục	50
đi	50
▁hề	50
NĐ	50
▁Danh	50
▁bì	49
▁cậu	49
▁Chánh	49
▁phận	49
▁vũ	49
▁khóa	49
▁lăm	49
▁ngô	49
▁tắt	49
▁thui	49
▁mồ	49
▁chợ	49
▁bắc	49
▁mũi	49
▁dắt	49
▁ghép	49
▁ghê	49
▁nhiễm	48
▁tiểu	48
▁cừu	48
Ngày	48
TTg	48
▁Hà	48
▁khuyên	48
▁khối	48
▁Cuộc	48
▁triệt	48
▁ngọt	48
▁Nơi	48
▁khoán	48
bim	48
▁xếp	48
▁cấm	48
▁tởm	48
▁tẩy	47
▁trôi	47
▁khá	47
▁lũng	47
▁sừng	47
▁chôn	47
▁rắn	47
▁Phụ	47
▁Thu	47
▁túc	47
▁lượt	47
▁Thân	47
năm	47
▁chúa	47
▁Tăng	47
Ta	47
!	47
▁rơi	47
▁tạp	47
’	47
▁la	47
▁thừa	47
▁đày	47
▁Miệng	47
▁trống	47
▁hố	47
▁PBGDPL	47
▁gai	47
▁phường	47
▁khát	47
▁Tết	47
▁mến	47
▁ngừng	46
▁điên	46
▁Nhằm	46
▁yên	46
▁vang	46
▁hoạn	46
▁bại	46
cô	46
▁kiều	46
▁Đó	46
▁ngữ	46
▁Trẻ	46
▁lân	46
▁đâm	46
ớc	46
▁Phước	46
▁Đặc	46
▁lưới	46
nê	46
▁tăm	46
▁bắn	45
▁Võ	45
);	45
▁mẽ	45
▁hãi	45
▁cuốn	45
▁cẩn	45
ô	45
▁ngõ	45
▁rét	45
▁ong	45
▁chắn	45
▁trọn	45
▁đo	45
▁nhiệt	45
▁lặng	45
ta	45
▁hiểm	45
▁tạm	45
▁dương	45
▁kích	45
▁thâm	45
▁no	44
▁đấy	44
▁chó	44
▁Huỳnh	44
▁gậy	44
▁cốt	44
▁nghiên	44
xơ	44
▁nhiêu	44
▁Kon	44
▁sẻ	44
▁nấm	44
▁Nghe	44
▁mỡ	44
▁Xê	44
mu	44
▁sàn	44
▁Phúc	44
▁tà	44
▁ngắn	44
▁cứng	44
▁chiếu	44
▁cớ	44
▁quen	44
▁Ku	43
▁bọc	43
▁gan	43
▁tụng	43
▁Kiến	43
▁cày	43
&	43
▁Trạm	43
Các	43
▁Thần	43
▁thơm	43
▁trùng	43
▁ném	43
▁nguyền	43
▁La	43
▁lam	43
▁Rượu	43
▁mái	43
▁thảy	43
xia	43
▁cắm	43
▁thuyền	43
▁lẽ	43
▁Bana	43
▁Ngay	42
▁đuối	42
▁căn	42
▁nấu	42
▁lựa	42
▁chớ	42
▁ven	42
▁Tư	42
▁ẩm	42
▁hối	42
▁đợi	42
▁ê	42
▁Thiên	42
▁Nguồn	42
kg	41
▁U	41
▁hôn	41
Toàn	41
▁say	41
phát	41
xe	41
▁Mọi	41
▁Tập	41
▁nương	41
▁sót	41
▁đòn	41
▁Của	41
▁kiêu	41
▁nối	41
▁tầm	41
hu	41
▁bảng	41
▁bếp	41
▁ốm	41
▁rễ	41
▁gom	40
▁ổ	40
▁Di	40
▁bồ	40
▁giác	40
▁hoại	40
▁dệt	40
háp	40
▁thưởng	40
▁nghi	40
▁Mi	40
▁Truyền	40
▁Đội	40
▁thọ	40
▁cũ	40
▁đục	40
▁Ru	40
▁ngôn	40
▁Hoài	40
▁Trại	39
▁hùng	39
▁Chiều	39
▁ngai	39
▁cối	39
▁quở	39
▁đụng	39
▁Phong	39
O	39
▁Nàng	39
▁cát	39
▁buôn	39
▁mương	39
▁cãi	39
▁tâu	39
▁bọn	39
▁loạn	39
▁Nên	39
▁lục	39
▁móc	39
▁Giăng	39
▁trữ	39
▁sữa	39
▁nai	38
▁dứt	38
▁lót	38
▁tắc	38
▁dũng	38
▁dâm	38
▁miếng	38
▁thập	38
▁Vạn	38
mốt	38
▁Cháu	38
▁bê	38
▁Phần	38
▁tu	38
▁tệ	38
▁tre	38
BNN	38
▁Mà	38
▁cào	38
▁đựng	38
▁cõi	38
▁bề	38
▁tật	38
▁Chớ	38
▁nhạo	38
▁tụ	38
▁láng	38
▁bông	38
rốt	38
▁đan	37
kia	37
▁quỹ	37
▁nhảy	37
▁thiệt	37
▁lụt	37
▁lở	37
▁Chú	37
▁Hướng	37
▁Đàn	37
▁xâm	37
▁Lấy	37
%.	37
▁Tháng	37
sau	37
▁tháo	37
▁chối	37
▁Nguyên	37
▁Cát	37
▁treo	37
▁giáp	37
▁Nô	37
▁Rương	37
▁giềng	37
̀	37
▁Đông	37
▁bó	37
▁cm	37
▁Đẩu	36
▁dần	36
▁bậc	36
▁Đi	36
▁hài	36
▁run	36
▁Tờ	36
▁đứt	36
▁dừng	36
▁quét	36
▁túi	36
▁Hết	36
▁bẻ	36
▁tuyệt	36
▁mầu	36
▁cục	36
▁Thấy	36
▁tảng	36
▁góa	36
▁kèn	36
▁ủng	36
▁lông	36
▁há	36
bết	36
▁lạnh	36
▁,	36
▁lỗ	36
▁ty	36
▁mượn	36
▁đoán	36
▁trần	35
▁dập	35
chem	35
▁bội	35
▁đọc	35
▁băng	35
▁Phân	35
▁Hàng	35
ách	35
▁đằng	35
▁Tiếp	35
▁nài	35
▁Hỗ	35
▁Tiếng	35
▁Trồng	35
▁vướng	35
san	35
▁lầm	35
▁lây	34
▁xương	34
▁Vượt	34
▁chuỗi	34
bia	34
▁nghìn	34
▁ngực	34
▁muối	34
▁Cao	34
CHÚA	34
▁gặt	34
nan	34
▁thở	34
ban	34
▁xứng	34
▁lìa	34
▁quảng	34
▁đốn	34
+	34
▁vạ	34
▁chén	34
▁mã	34
̉	34
▁Sâu	34
▁Già	33
▁voi	33
▁đắng	33
▁răng	33
▁cắp	33
▁Báo	33
chê	33
Ạ	33
▁phi	33
▁tông	33
▁THCS	33
▁rẽ	33
▁kháng	33
▁héo	33
▁hiệp	33
▁kè	33
▁Xác	33
▁Bây	33
▁mộng	33
▁nở	33
▁lều	33
▁Sô	33
sít	33
▁khảo	33
▁Thưa	33
▁chừng	33
▁tóc	33
▁Bố	33
▁xá	33
▁Gióp	33
▁tô	33
▁vả	33
Tôi	33
▁Hạt	32
▁Tà	32
xã	32
▁men	32
▁khoản	32
TTr	32
▁truy	32
▁cập	32
▁vắng	32
▁sắt	32
▁nhẹ	32
▁chở	32
▁Cả	32
rết	32
./.	32
▁Cựu	32
▁vung	32
▁vác	32
nia	32
▁khỉ	32
▁Đẩy	32
▁gánh	32
tít	32
Ă	32
▁chồi	32
▁chấm	31
▁khơi	31
▁Phao	31
▁địch	31
▁na	31
▁ngập	31
▁bèn	31
▁đầm	31
▁Biên	31
▁Kôn	31
▁cườm	31
▁Rời	31
▁xé	31
Người	31
ga	31
▁mồi	31
▁chữ	31
▁rụng	31
▁XIII	31
▁chuối	31
▁mù	31
xi	31
▁kín	31
▁hung	31
▁lính	31
▁khiếp	31
▁khung	31
▁phức	31
nai	31
XH	31
▁vaccine	30
▁hào	30
▁mộ	30
▁bè	30
▁nuốt	30
tê	30
▁Chiêng	30
▁Đã	30
▁uỷ	30
▁hè	30
▁vỡ	30
▁thỏa	30
▁bọ	30
▁Thờ	30
▁rối	30
▁Rô	30
▁nếp	30
▁đùi	30
▁đột	30
ch	30
▁THPT	30
▁nạp	30
▁lấp	30
▁mả	30
▁xui	30
▁chốt	30
▁Khu	30
▁Chuẩn	30
▁tiệc	30
▁Hu	30
▁cúi	30
▁trứng	30
cm	30
▁nồi	30
▁kìa	30
▁khoen	30
▁cồng	30
▁đoạt	30
▁xống	30
▁ao	30
man	30
▁Mỹ	30
▁đ	29
▁cống	29
▁rãnh	29
▁ngon	29
▁Triển	29
▁Lãnh	29
▁đinh	29
▁phàm	29
▁Xét	29
▁Sy	29
▁cuộn	29
▁sủng	29
▁dày	29
▁vách	29
▁kiêng	29
▁ngư	29
▁Hếp	29
▁hỏng	29
▁nhẫn	29
▁múi	29
▁ván	29
▁m	29
”	29
▁báng	29
▁Tai	29
▁gấp	29
▁rào	29
▁thóc	29
▁thất	29
ỵ	29
▁khải	29
▁M	29
▁Số	29
▁giấc	29
phót	29
▁Vợ	29
▁ơi	29
▁mỏi	29
▁Chị	29
▁Phạm	28
▁vịt	28
▁đống	28
▁im	28
▁sét	28
▁ngón	28
u	28
▁mịn	28
▁lấn	28
▁dạ	28
▁đỉnh	28
▁nhé	28
▁lười	28
▁Thủy	28
▁lẻ	28
▁pha	28
▁dinh	28
Í	28
▁nấy	28
▁đếm	28
▁tùng	28
▁gạt	28
▁Vòng	28
▁Phù	28
▁măng	28
▁trăng	28
▁mốc	28
▁quăng	28
▁hân	28
▁lãi	28
▁căng	28
sai	28
▁Bất	28
".	28
▁ròng	27
▁thiệu	27
▁chém	27
▁Phương	27
▁gớm	27
▁tím	27
▁nướng	27
Z	27
▁Trần	27
▁chút	27
▁phái	27
▁nhặt	27
▁Cô	27
▁Mức	27
▁miễn	27
thái	27
▁tro	27
▁mắng	27
ki	27
Đây	27
▁Ký	27
▁Tính	27
▁thói	27
▁reo	27
▁chay	27
▁côi	27
▁ngạc	27
▁sấm	27
đan	27
▁ngại	27
▁k	27
▁phiếu	27
▁KT	27
▁rèn	27
▁Nói	26
▁chùm	26
▁Huy	26
▁chậm	26
▁Nhiệm	26
▁Nay	26
▁hạc	26
▁giường	26
▁sấp	26
▁ghiếc	26
▁hầm	26
▁sổ	26
▁tàng	26
▁trừng	26
▁Mạc	26
▁Lúa	26
lát	26
▁khoai	26
▁nhánh	26
▁chứ	26
▁Rừng	26
▁cản	26
▁lũy	26
▁đà	26
▁Thú	26
▁giã	26
A	26
▁món	26
▁ưng	26
▁xuân	26
▁Đài	26
▁Bởi	26
▁Muốn	26
▁mát	26
▁XII	26
▁Đang	26
▁thoáng	26
▁gỡ	26
▁hồng	26
▁gởi	26
▁gác	26
▁chà	25
▁mệt	25
▁tả	25
▁hang	25
▁năn	25
▁Su	25
▁Địa	25
▁thừng	25
▁dàn	25
▁vấp	25
▁vĩnh	25
▁bô	25
▁mòn	25
▁xà	25
cát	25
▁sỉ	25
▁bừa	25
▁cảng	25
▁Hát	25
▁Đời	25
▁bể	25
▁CCB	25
▁tang	25
▁Chiến	25
▁nề	25
▁trải	25
ria	25
▁Ki	25
▁khâu	25
▁lăng	25
..	25
▁Lâm	25
▁dưa	25
▁lui	25
▁Hy	25
Ð	24
đát	24
▁sanh	24
▁bám	24
▁dời	24
▁Khiến	24
▁khố	24
▁Tiên	24
▁Bò	24
▁cựu	24
▁xông	24
▁muỗi	24
▁may	24
▁rệt	24
ne	24
▁phụng	24
▁Nhất	24
▁Đan	24
▁cốc	24
▁phú	24
▁ngạo	24
▁hông	24
▁chăng	24
▁gãy	24
T	24
▁Hoặc	24
▁đế	24
▁hàm	24
▁tỏa	24
Nếu	24
▁khuẩn	24
▁Hằng	24
▁trưa	24
▁Ên	24
▁Gô	24
▁Yang	24
▁điển	24
▁Dịp	24
▁chòi	23
▁quỳ	23
▁Bệnh	23
▁lóc	23
đôn	23
▁lanh	23
▁mềm	23
▁sương	23
▁Khai	23
▁đắp	23
▁ngừa	23
▁giẫm	23
sôn	23
▁sập	23
▁Tuyên	23
▁đồn	23
▁Bón	23
▁Sao	23
▁Kìa	23
▁báu	23
▁trá	23
▁nọ	23
▁tì	23
Anh	23
▁dẹp	23
▁sắm	23
▁đán	23
▁dạn	23
▁xưng	23
▁trục	23
▁luống	23
hát	23
▁Tạo	23
▁tắm	23
▁phung	23
▁cay	23
▁cuốc	23
một	23
▁chớp	23
▁ủi	23
▁nảy	23
▁Quan	23
▁mùi	23
▁Cập	23
▁nhì	22
▁hảo	22
▁thốn	22
Vì	22
nước	22
▁giàn	22
▁mộc	22
▁chọc	22
▁ủ	22
▁biếng	22
▁tôm	22
▁sả	22
C	22
▁thẹn	22
▁Giờ	22
▁ghen	22
▁Vận	22
▁Vụ	22
▁cạo	22
nết	22
▁ép	22
▁quấn	22
▁bồn	22
▁trộn	22
▁Đêm	22
▁lược	22
▁khấn	22
thi	22
thê	22
in	22
▁Vừa	22
▁lắp	22
Tại	22
▁giếng	22
▁ạ	22
▁rảy	22
▁trinh	22
liu	22
▁rựa	22
▁nhã	22
▁nhọc	22
▁hãm	22
▁cụm	22
▁cọp	22
▁Này	22
▁viện	22
▁bật	22
▁Hè	22
▁giặt	22
▁thách	22
▁bỉ	21
▁Giải	21
▁rao	21
▁gẫy	21
▁Mai	21
▁Hoàng	21
▁sạ	21
▁nhĩ	21
▁thắt	21
▁Lưỡi	21
▁Dùng	21
▁ràng	21
▁oán	21
▁khe	21
▁tải	21
▁xảo	21
▁bạch	21
▁nhạc	21
▁nhựa	21
▁thí	21
▁chục	21
▁ngài	21
▁Lót	21
▁vượng	21
▁hiển	21
▁cặp	21
▁chầu	21
▁tim	21
người	21
▁Bùi	21
rim	21
▁móng	21
▁nhổ	21
▁song	21
▁mê	21
▁giam	21
▁hấp	21
▁Chấp	21
▁Giống	21
▁nâu	21
▁muôn	21
▁Tiêu	21
▁can	21
▁khiên	21
▁Cái	21
▁cắn	21
▁gang	21
▁phiền	21
▁Ách	21
▁xích	20
▁vẹn	20
▁mét	20
▁gối	20
▁cúm	20
▁Ty	20
,”	20
▁Át	20
▁tỉ	20
luân	20
hôn	20
):	20
▁mồng	20
▁thủng	20
▁lỡ	20
▁tháp	20
▁tòa	20
▁Tức	20
▁XVIII	20
▁bỗng	20
kim	20
▁Thăm	20
ran	20
▁sôi	20
▁tiễn	20
▁dẫy	20
▁lột	20
NQ	20
▁vỏ	20
phê	20
▁gả	20
▁qui	20
▁ganh	20
▁cọc	20
▁C	20
Dân	20
▁rình	20
▁chua	20
▁Khuyến	20
▁Suốt	20
▁múa	20
▁ngục	20
CT	20
▁lay	20
▁Chăm	20
▁Gít	20
▁dội	19
▁nhịp	19
▁Quyền	19
▁Đ	19
▁tựa	19
▁KHKT	19
▁dốc	19
Chúng	19
▁nhật	19
▁Hải	19
mát	19
▁Mích	19
▁rách	19
▁lùi	19
cơ	19
▁mại	19
▁thạo	19
▁Biển	19
▁Hiệu	19
▁khử	19
▁hô	19
đốc	19
▁mau	19
▁Tiểu	19
TU	19
▁tiềm	19
tan	19
lác	19
▁diệu	19
▁Sẽ	19
▁xen	19
▁mạch	19
▁hiếu	19
▁lôi	19
▁tết	19
▁mạ	19
ti	19
cây	19
đáp	19
▁Mùa	19
▁châm	19
▁Giai	19
Ố	19
▁tá	19
▁thắp	19
▁niêm	19
▁vuông	19
▁hom	19
▁bìa	18
▁Thư	18
▁Cơm	18
▁Tô	18
▁Hi	18
▁đe	18
▁dàng	18
▁bến	18
▁Nâng	18
▁Bắp	18
▁nhúng	18
y	18
bôn	18
▁Đê	18
▁Phủ	18
▁lát	18
▁đuôn	18
▁Trình	18
be	18
▁ám	18
Xin	18
▁Hơn	18
▁cong	18
▁thuyết	18
sáp	18
nôn	18
▁rậm	18
▁thuế	18
▁Tiến	18
▁hôi	18
▁roi	18
▁Bước	18
▁ngước	18
▁rực	18
▁yết	18
▁chai	18
▁Nuôi	18
▁Dịch	18
▁phơi	18
▁Tích	18
▁dựa	18
▁tiếc	18
▁rước	18
▁Xô	18
▁hỗn	18
▁dược	18
rát	18
▁Sông	18
▁điếu	18
▁ớt	18
▁chu	18
▁khói	18
▁bóc	18
e	18
▁B	18
▁Khoa	18
▁Chăn	18
lép	18
▁hỏa	18
km	18
▁bấy	18
▁thấu	18
▁xói	18
▁Tha	18
▁bưởi	18
▁soạn	18
sua	18
▁leo	18
▁ầm	18
▁thối	17
▁gáy	17
ảng	17
▁thẳm	17
▁dọa	17
▁Đánh	17
▁rãi	17
▁đương	17
▁nilon	17
▁huệ	17
Có	17
▁hỉ	17
ebu	17
▁vài	17
▁kiểu	17
▁CSXH	17
▁Cụ	17
▁tách	17
▁mài	17
▁sụp	17
▁siêu	17
▁liều	17
▁châu	17
▁Lão	17
tên	17
▁gặm	17
▁rung	17
▁Vốn	17
▁Ngươi	17
▁đúc	17
▁nổ	17
▁ruột	17
▁Tình	17
▁hò	17
▁khiển	17
▁bênh	17
▁Khóa	17
▁Nhìn	17
▁tổn	17
▁Lửa	17
▁Cuối	17
▁chửi	17
▁giỏ	17
▁II	17
▁đôn	17
▁Tỷ	17
▁Sinh	17
▁rải	17
út	17
▁thằng	17
▁Kỹ	17
BNNPTNT	17
▁Điêu	17
▁Cần	17
▁Đruch	17
▁Đặt	17
▁km	17
▁hăng	17
▁Hay	16
▁Đrin	16
▁trưng	16
ríp	16
▁mờ	16
▁Lỗi	16
▁túy	16
▁thêu	16
Ấ	16
rúc	16
▁mão	16
▁XI	16
▁Bao	16
▁mía	16
▁PTDTNT	16
▁cấy	16
▁bớt	16
▁Hợp	16
▁khuôn	16
▁gắng	16
▁viếng	16
▁cương	16
▁lia	16
lôm	16
▁tứ	16
▁Chim	16
▁Khoản	16
▁tuy	16
▁Cầu	16
▁Thi	16
F	16
▁mèo	16
▁long	16
rai	16
▁soi	16
▁tản	16
▁meo	16
▁Góp	16
▁ly	16
▁cõng	16
▁nhở	16
▁noi	16
▁rìu	16
▁đao	16
▁sờ	16
▁Tự	16
▁vú	16
▁khoe	16
▁nét	16
▁Chọn	16
▁keo	16
▁ngà	16
▁hẳn	16
▁trũng	16
▁Hẹt	16
▁Tam	16
▁Đạo	16
▁Đít	16
▁Dưới	16
▁xi	16
▁trầm	16
▁chừa	16
▁thuẫn	16
▁đĩa	16
phan	16
▁tặc	16
nhà	16
▁Chiên	16
▁Rẫy	16
▁miếu	16
▁chóng	16
▁lượm	16
▁ngơi	16
▁Vân	16
▁TTYT	16
▁Yêu	15
▁Điệk	15
▁Gần	15
▁mốt	15
▁lén	15
▁mơ	15
▁thiếp	15
▁lặn	15
▁tựu	15
▁dính	15
Ó	15
▁béo	15
▁bực	15
▁Ghinh	15
ganh	15
▁hẹp	15
▁bốc	15
▁diều	15
▁râu	15
▁ư	15
▁chắt	15
▁Bahnar	15
▁chốn	15
▁Phổ	15
▁rủi	15
▁đàng	15
▁vượn	15
▁Nép	15
hem	15
▁Tuần	15
nếu	15
▁xoay	15
▁đậy	15
▁dường	15
▁nghiêng	15
▁lựu	15
▁Cơn	15
Hỡi	15
▁à	15
▁ướt	15
▁nguôi	15
▁Tý	15
Phụ	15
▁giành	15
▁Chẳng	15
▁Thịt	15
▁tuôn	15
chi	15
▁Thê	15
VID	15
▁tròn	15
▁ngó	15
▁xua	15
▁lánh	15
▁bùn	15
▁chóc	15
▁Tên	15
CTr	15
▁Đường	15
▁điếc	15
▁Khách	15
va	15
tim	15
▁hiên	15
▁hỡi	15
Ai	15
▁cưỡi	15
▁lịnh	15
▁rơm	15
▁giật	15
▁Min	15
▁nắp	15
▁mảnh	15
▁rầu	15
▁hán	15
▁đuôi	15
▁phừng	15
▁Cắt	15
▁bơi	14
▁dát	14
▁Nhóm	14
▁xiêm	14
chên	14
▁Ghè	14
▁nứt	14
▁ôm	14
▁trăn	14
▁giơ	14
Thưa	14
▁nén	14
Lạy	14
▁hở	14
▁Tối	14
▁ATTP	14
▁Quỹ	14
▁tung	14
▁bối	14
▁bát	14
▁nong	14
▁chông	14
▁Dòng	14
▁sáo	14
▁Trai	14
tư	14
▁Cột	14
▁đớn	14
▁nhường	14
w	14
J	14
▁dâu	14
▁dò	14
▁Tấn	14
▁hạng	14
▁Liệt	14
▁Lớn	14
▁kẻo	14
▁ANTT	14
▁Vũ	14
Khi	14
▁trói	14
▁rẩy	14
Xây	14
▁đáo	14
▁lơ	14
▁khuyết	14
▁chày	14
▁ngưng	14
▁khoang	14
▁phẳng	14
▁nhạt	14
lia	14
▁khước	14
▁duyên	14
▁TNHH	14
▁Dũng	14
▁Câu	14
▁hiếp	14
▁Thúy	14
▁chẻ	14
▁vừng	14
▁Long	14
▁củ	14
▁điêu	14
▁rạng	14
▁Phía	14
▁vẽ	14
▁Học	14
▁Lạp	14
▁Ché	14
▁Phan	14
▁Địch	14
▁Đằng	14
▁út	14
▁Chế	14
▁váy	13
▁huống	13
▁khang	13
▁điệp	13
▁Kỳ	13
SNN	13
▁Phấn	13
▁yang	13
▁cẩm	13
▁thẻ	13
▁LHTN	13
▁Kính	13
▁Cộng	13
▁Hoàn	13
▁hà	13
▁Chưa	13
▁Đặng	13
▁Đảm	13
▁khiêm	13
▁gẫm	13
▁XX	13
▁Điểm	13
▁kệ	13
▁dồi	13
▁dào	13
lum	13
banh	13
"...	13
▁Bọn	13
▁chủng	13
▁Viện	13
Này	13
tu	13
▁bữa	13
▁vứt	13
▁khuya	13
▁van	13
▁ống	13
▁TUV	13
Ơ	13
phơ	13
▁ngờ	13
▁trích	13
▁huyền	13
▁xuôi	13
▁oan	13
▁tuyết	13
▁bôi	13
▁loan	13
▁Lượng	13
▁ái	13
▁Hoạt	13
▁thám	13
▁khúc	13
▁quấy	13
▁lỏng	13
▁trán	13
▁nhắm	13
ốt	13
▁não	13
▁Hồng	13
▁kiệt	13
▁nín	13
▁vu	13
▁cưa	13
▁dị	13
▁héc	13
▁Gò	13
▁chuyền	13
▁nghiền	13
▁đè	13
▁Lào	13
▁ngào	13
▁thoảng	13
▁nhậm	13
▁bù	13
▁đẽo	13
▁phiến	13
▁đoái	13
▁mực	13
▁thơ	13
▁tốc	13
▁trơ	13
▁điền	13
▁tờ	13
▁rủ	12
▁nhàng	12
▁viền	12
▁Gió	12
▁xuẩn	12
▁Tê	12
▁Kho	12
▁NTM	12
đơ	12
▁III	12
▁phút	12
phia	12
▁bớ	12
▁mày	12
rếp	12
▁chiêm	12
▁ngưỡng	12
▁Giấy	12
THPT	12
▁Lương	12
▁Mở	12
▁thấm	12
▁Ngôi	12
▁vắc	12
▁chước	12
▁Cổ	12
▁quyển	12
▁rưỡi	12
me	12
cỏ	12
▁Chuyên	12
nô	12
▁Máu	12
▁mùn	12
▁quyệt	12
▁lọc	12
▁rắc	12
▁Ti	12
▁ngược	12
▁Lập	12
▁Ne	12
▁chợt	12
▁Thà	12
▁Sam	12
▁khiếu	12
KHHGĐ	12
▁Châu	12
▁Tùng	12
▁rỡ	12
▁Bô	12
▁Vui	12
▁mập	12
▁vôi	12
▁phiên	12
con	12
▁Cá	12
▁bậy	12
▁Đàng	12
▁ví	12
▁gọn	12
▁cám	12
▁quyên	12
▁Lẽ	12
▁Mũi	12
▁nếm	12
▁Hùng	12
▁vun	12
▁điệu	12
▁Chiếc	12
▁thâu	12
▁báp	12
tem	12
▁Hồn	12
▁mò	12
▁loa	12
▁chập	12
▁ngộ	12
▁nỏ	12
▁cưỡng	12
▁rể	12
▁Đúng	12
▁đốm	12
▁nắn	12
▁bú	12
▁hốc	12
▁si	12
▁xô	12
▁ngả	12
▁choàng	12
▁cởi	12
▁tú	12
▁Chất	12
▁giăng	12
▁Hơ	12
▁Mười	12
▁Uống	12
▁rô	12
huyện	12
lam	12
Ế	12
▁Tế	12
▁Lều	11
▁LMLM	11
▁ngứa	11
▁vành	11
▁Tân	11
▁San	11
▁tát	11
trong	11
▁Đoạn	11
▁ấp	11
▁Trú	11
▁giòn	11
▁Uỷ	11
▁chán	11
▁khuất	11
bốt	11
▁TKCN	11
▁buông	11
▁thua	11
▁Hưởng	11
nót	11
▁bút	11
▁luồng	11
▁Váy	11
▁điếm	11
kê	11
▁chổi	11
▁kim	11
▁chậu	11
▁Nhận	11
▁mỏng	11
▁Lợn	11
▁Ráp	11
▁thảm	11
▁nồng	11
▁Bi	11
▁Bán	11
▁xả	11
▁sầu	11
▁then	11
▁Giữa	11
cốt	11
▁Thiếu	11
▁Riêng	11
▁mồm	11
▁Tìm	11
▁u	11
▁xoá	11
▁đáy	11
▁tị	11
▁súng	11
▁thùng	11
▁gói	11
▁ào	11
▁Buổi	11
▁ôn	11
▁sô	11
▁cọ	11
▁nhọn	11
▁Đưa	11
▁Mặc	11
▁quyến	11
▁Lần	11
▁Heo	11
lim	11
▁vong	11
▁trổ	11
▁thạch	11
▁Ngắt	11
▁loạt	11
▁nhai	11
▁lau	11
▁Nghĩa	11
▁sắn	11
▁hót	11
▁bơm	11
▁Lủi	11
gô	11
▁khôi	11
mết	11
▁dã	11
▁Chuộc	11
▁Diễn	11
▁CLB	11
TTLT	11
▁cờ	11
Chính	11
▁ươm	11
báp	11
▁Cục	11
▁bén	11
mách	11
▁Mấy	11
▁buồng	11
▁ghế	11
▁tê	11
▁Ngoại	11
thôn	11
lúa	11
làm	11
cam	11
▁Sim	11
▁thình	11
▁nhoáng	11
▁trỉa	11
▁nia	11
▁vất	11
▁Áo	11
đốt	11
▁giặc	10
▁Tùy	10
▁Bổ	10
▁thét	10
▁bận	10
▁Bồi	10
▁âu	10
▁vụt	10
▁ráo	10
▁Dây	10
▁chinh	10
▁Dâng	10
▁nê	10
▁Bok	10
▁khoét	10
▁Tin	10
▁bói	10
▁dịu	10
▁Đình	10
Ngươi	10
▁hễ	10
▁nại	10
▁Lá	10
▁Bọ	10
▁chích	10
▁Thêm	10
▁Bàn	10
▁rỗng	10
▁thuần	10
▁gào	10
kin	10
▁vở	10
▁dỡ	10
▁Yă	10
▁Krua	10
▁đố	10
▁toan	10
sết	10
▁Trộm	10
▁Gùi	10
▁viễn	10
hố	10
▁lường	10
▁Chồng	10
▁Cỏ	10
▁chửa	10
▁Mua	10
▁hao	10
▁muộn	10
▁liềm	10
▁Chốt	10
▁Bếp	10
▁Xiếc	10
▁xúi	10
▁đệm	10
▁lõm	10
▁.	10
▁Mời	10
▁nụ	10
▁Dọc	10
▁hiền	10
▁khẳng	10
Trong	10
▁ngói	10
▁DS	10
▁khùng	10
▁vùi	10
▁xoài	10
▁hứng	10
▁Khác	10
▁e	10
▁hẹn	10
▁nhơ	10
▁luân	10
▁kiềm	10
▁bướm	10
▁giản	10
▁nhấn	10
▁ách	10
BGDĐT	10
▁phế	10
▁Giá	10
▁mãn	10
▁siêng	10
▁xiết	10
đia	10
▁hấu	10
▁hoảng	10
▁Tục	10
▁Cấp	10
▁vọt	10
▁xẻo	10
▁đạm	10
▁rạch	10
▁Vinh	10
▁hèn	10
▁khiết	10
phu	10
▁khủng	10
▁Trách	10
▁Nun	10
▁Nắp	10
▁Cảnh	10
▁vò	10
▁quí	10
▁T	10
▁sào	10
▁Trương	10
▁trắc	10
▁kí	10
▁xiềng	10
▁Vùng	10
▁Bắc	10
▁mỹ	10
▁Thống	10
▁thô	10
▁Lét	10
▁Ngựa	10
▁Sống	10
▁sỏi	10
▁đài	10
▁Gà	10
▁vạn	10
▁lình	10
Không	10
▁rên	10
đam	10
▁đạn	10
▁Dấu	10
▁TC	10
▁Drin	9
▁truồng	9
▁phe	9
▁núp	9
▁biếu	9
▁ham	9
▁sạt	9
▁Kẻo	9
▁nhốt	9
▁quạ	9
▁hòn	9
▁chư	9
▁gầy	9
";	9
▁Đem	9
▁ưa	9
rách	9
▁tẩm	9
▁mãnh	9
▁hâu	9
▁bịt	9
▁Hưng	9
▁thốt	9
▁Chung	9
▁Ghẹt	9
Bây	9
▁sành	9
▁pho	9
Đừng	9
PTNT	9
▁Cách	9
▁gianh	9
▁lợp	9
▁đấng	9
▁IV	9
▁bẩn	9
▁vẹt	9
ghi	9
▁Đứa	9
▁Hình	9
▁tày	9
▁sóng	9
▁đuốc	9
▁chói	9
▁lung	9
▁giục	9
▁huynh	9
▁côn	9
lần	9
▁dụ	9
▁hoai	9
▁gấu	9
▁Mới	9
▁lộn	9
▁sậy	9
lết	9
▁Li	9
▁mịt	9
▁tuốt	9
trô	9
Học	9
sô	9
▁Boong	9
▁mũ	9
▁mè	9
▁nải	9
▁BCH	9
▁sườn	9
▁rập	9
▁Bế	9
▁Thứ	9
▁hãnh	9
▁Lò	9
▁Lý	9
▁tỳ	9
▁rồng	9
▁giọt	9
▁nhọt	9
▁chanh	9
▁xách	9
▁vân	9
▁sỹ	9
▁V	9
CCB	9
▁Xử	9
▁Phu	9
▁Chịu	9
▁Tâm	9
%/	9
▁Dung	9
tay	9
▁Đợt	9
▁mặn	9
▁múc	9
g	9
▁phỏng	9
▁Sư	9
▁chuôi	9
▁thiêng	9
▁què	9
▁nhộn	9
▁khánh	9
▁gũi	9
▁hận	9
▁khoẻ	9
▁cằn	9
▁Huống	9
▁Sanh	9
▁xỏ	9
▁thuỷ	9
▁Đơn	9
▁hả	9
—	9
>	9
▁Thỉnh	9
▁giêng	9
▁dáng	9
Hôm	9
▁Suối	9
▁sói	9
▁kịch	9
đu	9
Đền	9
▁Quảng	9
▁rũ	9
▁lít	9
▁xới	9
▁rá	9
▁quế	9
▁giầu	9
▁mông	9
KT	9
▁thầm	9
▁oằn	9
▁lộc	9
Những	9
học	9
▁vót	9
▁Cửa	9
▁beo	9
▁mụt	9
▁khao	9
▁trê	9
h	9
▁Bụng	9
▁dể	9
▁kali	9
chim	9
▁lác	9
▁NCT	9
▁Diêu	9
▁Tháp	9
▁Loài	9
▁chéo	8
▁Vị	8
▁len	8
▁sánh	8
▁gầm	8
▁khớp	8
▁Bánh	8
▁mắm	8
▁Rà	8
▁Vật	8
▁lãng	8
▁Trở	8
tô	8
▁Mạng	8
▁lật	8
▁Pháp	8
▁rụi	8
▁trụi	8
Ông	8
▁Hầu	8
▁Chuỗi	8
▁Líp	8
▁xít	8
▁Nại	8
▁trổi	8
▁tuệ	8
▁uốn	8
▁cú	8
▁Hệ	8
mắt	8
▁mép	8
▁dật	8
▁Nhì	8
▁cùn	8
▁PCTT	8
▁nứa	8
▁đắc	8
▁gạc	8
▁Hinh	8
▁cà	8
Chung	8
ghép	8
▁Mình	8
▁Blo	8
▁Sản	8
▁lã	8
▁NPK	8
▁đùa	8
▁xinh	8
▁Hỏi	8
▁thoại	8
▁đọt	8
▁vỗ	8
▁náu	8
phi	8
▁lùng	8
▁Hữu	8
▁Mưa	8
▁cài	8
▁bưng	8
▁bã	8
▁rộn	8
▁bụa	8
▁xăng	8
▁VII	8
▁lô	8
▁táng	8
xét	8
▁nheo	8
▁ro	8
▁nhãn	8
▁mửa	8
qua	8
▁nhượng	8
sen	8
▁ếch	8
▁đọng	8
▁nẩy	8
▁tráng	8
▁câm	8
▁co	8
▁neo	8
▁Nghiên	8
▁san	8
▁ẩu	8
▁tơi	8
▁xốp	8
▁úng	8
▁ngắm	8
▁quì	8
▁Tinh	8
̃	8
▁chỏa	8
có	8
▁...	8
▁Nhường	8
▁Bẫy	8
▁khép	8
tia	8
▁Lối	8
▁nọc	8
▁chì	8
▁cự	8
▁bàng	8
▁tạc	8
▁tuỳ	8
▁rọi	8
▁phách	8
▁chuộng	8
▁chuyến	8
▁vóc	8
Ban	8
▁tòi	8
▁đành	8
▁Ngọc	8
▁vầng	8
▁đàm	8
▁BVTV	8
▁Nghề	8
đoan	8
▁nẻo	8
▁hét	8
▁Bị	8
▁mâu	8
▁Phú	8
▁xay	8
▁liêng	8
▁bịnh	8
▁Phục	8
Sao	8
▁Chòi	8
Một	8
côn	8
▁ngạch	8
▁thăng	8
rắc	8
▁Ngành	8
▁phẫn	8
▁bẩy	8
▁Khoảng	8
▁Sức	8
Thật	8
▁khống	8
▁Trái	8
▁nan	8
▁x	8
▁Lâu	8
PCTT	8
▁nể	8
tức	8
▁lùa	8
▁vòi	8
▁Lĩnh	8
gà	8
▁Khỏi	8
▁gài	8
▁NHCSXH	8
▁thầu	8
so	8
▁Dám	8
▁lư	8
▁mướn	8
▁siếc	8
▁mệnh	8
▁náo	8
▁ngắt	8
▁Bản	8
BTC	8
tháng	8
NG	8
Vậy	8
▁ập	8
nít	8
▁hùm	8
▁lầy	8
▁vụng	8
▁Hóa	8
▁tước	8
▁Kiên	7
▁nhuận	7
▁Binh	7
▁dột	7
▁Men	7
▁Đôi	7
▁nguyệt	7
đen	7
▁ngầm	7
▁Tra	7
▁Xu	7
...)	7
▁tĩnh	7
ebsite	7
▁Hạn	7
▁Coi	7
▁hớn	7
▁Chết	7
▁Bảy	7
▁xí	7
▁nhưỡng	7
▁hờn	7
lốt	7
▁nòi	7
▁khiêu	7
▁nom	7
▁rầy	7
▁Gắn	7
▁lêu	7
▁tốn	7
▁ruồi	7
▁Thóc	7
▁Giúp	7
▁UBMTTQVN	7
▁NN	7
▁giếm	7
▁bong	7
▁Tuyến	7
▁Doanh	7
▁loáng	7
▁chấu	7
▁Phiếu	7
▁Cảm	7
▁Giép	7
▁qu	7
▁SKSS	7
▁đấm	7
▁Loại	7
▁Xi	7
▁lướt	7
▁miện	7
▁lái	7
▁gục	7
hút	7
túp	7
▁rạ	7
dao	7
▁lòa	7
▁nhủ	7
thít	7
▁Củi	7
▁gié	7
▁nản	7
▁lọ	7
▁Kur	7
▁Vay	7
▁Hoa	7
▁vơi	7
▁mủ	7
▁Giữ	7
▁nhăn	7
▁lăn	7
▁Ngủ	7
▁Quả	7
▁cuống	7
Ổ	7
▁Ni	7
ve	7
▁còng	7
▁bủa	7
▁chìm	7
▁Xem	7
▁Tám	7
đất	7
▁cò	7
▁giâm	7
▁Ranh	7
▁oai	7
▁bùng	7
▁Chia	7
▁bỏng	7
▁quát	7
▁húc	7
▁Trọng	7
▁Chữ	7
j	7
▁XIV	7
▁Cảng	7
▁rã	7
▁đậm	7
▁nhuộm	7
▁Diện	7
▁ơ	7
▁đạc	7
▁khoác	7
▁Dao	7
▁ngửi	7
Làng	7
▁nhịn	7
▁Đứng	7
▁Tuấn	7
▁Dik	7
▁Tốt	7
▁mít	7
▁gân	7
▁đoan	7
▁bế	7
▁Đấy	7
▁Ngọn	7
▁điềm	7
Kìa	7
▁nhằn	7
▁Biết	7
▁cỗi	7
▁nghênh	7
▁phô	7
▁Ríp	7
▁truân	7
▁pơkra	7
▁nịnh	7
▁khui	7
▁Xim	7
▁rống	7
▁sồi	7
ăn	7
▁nóc	7
▁Đô	7
▁Từng	7
▁lượn	7
▁Á	7
▁chẩn	7
▁Sữa	7
▁búa	7
▁khoáng	7
▁vớt	7
▁Thuộc	7
hê	7
▁hũ	7
▁KM	7
▁khuấy	7
tốt	7
▁dép	7
▁vã	7
▁mỏ	7
hốp	7
Tình	7
▁Sửa	7
BVR	7
can	7
ĕ	7
▁Lên	7
▁đòng	7
▁Nhật	7
▁Hàn	7
▁Yên	7
▁Bắt	7
▁dãy	7
▁dầy	7
▁hé	7
▁hộp	7
▁vồ	7
nát	7
▁chặng	7
▁Lai	7
▁ná	7
▁bừng	7
▁cuồng	7
▁hủ	7
▁căm	7
▁xòe	7
▁chêm	7
▁lồ	7
▁mé	7
▁khoanh	7
▁khổng	7
▁tợn	7
▁chọi	7
▁ức	6
▁Cánh	6
▁Xong	6
BCTT	6
▁Hòn	6
▁hươu	6
▁gen	6
▁gõ	6
▁nhũng	6
▁Phun	6
▁Miếng	6
▁Ruộng	6
▁Giáp	6
▁Lớp	6
theo	6
ĐT	6
Tái	6
▁Mật	6
▁thớt	6
▁plei	6
▁le	6
gai	6
▁nhện	6
Nguyện	6
▁lổng	6
▁cạm	6
▁Cứ	6
▁chụp	6
▁kì	6
▁vơ	6
▁chít	6
cua	6
Ừ	6
▁vuốt	6
méc	6
▁sà	6
▁cóc	6
▁Rim	6
▁rớt	6
mên	6
▁lì	6
▁Pleiku	6
dự	6
rác	6
▁lề	6
▁Ghok	6
phô	6
▁Chặt	6
▁tảo	6
▁cỡi	6
kích	6
▁Cúng	6
síp	6
▁Trộn	6
▁Kích	6
▁ngải	6
▁nái	6
▁ôi	6
▁Trăng	6
▁Trị	6
▁Dạy	6
▁bạt	6
thia	6
▁Thim	6
▁kề	6
hai	6
▁vạch	6
▁along	6
▁Khái	6
nu	6
lách	6
▁nhái	6
▁Hrê	6
▁Nào	6
sát	6
▁Sem	6
▁Lực	6
▁b	6
▁mác	6
▁ngoảnh	6
▁gạch	6
▁trọ	6
▁Thí	6
▁lim	6
▁Thức	6
▁nhào	6
▁bời	6
▁bia	6
▁lách	6
▁lứa	6
P	6
▁té	6
▁Bến	6
ngày	6
▁Corona	6
▁Nư	6
▁Dít	6
▁thò	6
▁chùa	6
▁Mồ	6
▁đặn	6
Cha	6
▁chài	6
ICA	6
▁dòi	6
▁đun	6
▁nòng	6
▁giương	6
▁câ	6
▁Câ	6
suâ	6
▁gốm	6
mèo	6
▁bổng	6
▁%	6
▁in	6
▁má	6
▁tiếu	6
▁Mầm	6
▁bóp	6
▁xoa	6
▁Kriêm	6
▁Trọn	6
đéc	6
▁Manh	6
▁Mất	6
▁giập	6
▁Biện	6
▁ĐT	6
Ha	6
▁lọt	6
▁sưng	6
▁mớm	6
▁dì	6
▁nhát	6
▁Luận	6
▁Kè	6
▁Rơn	6
▁ghé	6
▁thuở	6
▁máng	6
▁urê	6
▁Khối	6
▁nết	6
▁LĐ	6
TB	6
▁trèo	6
▁nhũ	6
▁Nầy	6
▁chực	6
▁blang	6
▁Họp	6
▁vạt	6
▁Ôi	6
▁mền	6
▁xó	6
▁dằn	6
▁lội	6
B	6
▁Thay	6
▁Hành	6
▁quai	6
▁Kịp	6
▁Trang	6
▁Drought	6
▁Phóng	6
líp	6
▁Vườn	6
▁vét	6
mia	6
▁Nồi	6
▁Báp	6
▁Đâu	6
▁tống	6
▁trúc	6
▁chả	6
từ	6
▁bứng	6
▁VietGAP	6
▁tụy	6
ơn	6
Trước	6
▁sưa	6
▁trĩu	6
▁Chuồng	6
▁VIII	6
▁s	6
▁nhẹn	6
▁trà	6
▁hoâi	6
▁Loan	6
▁Lại	6
cá	6
Đồng	6
▁giảo	6
▁Nền	6
▁trùm	6
▁thúng	6
ghê	6
▁CH	6
▁Bu	6
▁Nóc	6
▁tua	6
▁Chắc	6
▁Chuyển	6
mai	6
▁Gặp	6
▁bướng	6
▁Cướp	6
▁lằn	6
▁kiêm	6
▁H	6
▁tủ	6
▁bưu	6
▁nhấp	6
▁tễ	6
▁hừng	6
▁Đợi	6
▁dồn	6
▁Xếp	6
▁hiếm	6
▁Xoa	6
▁TP	6
▁mích	6
▁cưu	6
▁Gi	6
bơ	6
Nuôi	6
▁Đá	6
▁sớ	6
▁diễu	5
▁bok	5
▁dưng	5
lóc	5
▁đính	5
▁thây	5
▁Mẫu	5
▁Miên	5
▁Núi	5
▁thong	5
▁thà	5
tạc	5
▁Thao	5
▁Phơi	5
▁quật	5
▁Bão	5
▁sờn	5
len	5
▁Đỏ	5
thác	5
▁trấu	5
Ả	5
rập	5
▁tép	5
▁Gu	5
▁Ri	5
▁rượt	5
▁Bạo	5
▁Rau	5
▁chốc	5
▁chạng	5
▁vạng	5
▁vịnh	5
▁Hương	5
▁Mít	5
▁Bầu	5
▁Đầy	5
▁kị	5
▁Cạt	5
khóa	5
▁Thằng	5
▁Chông	5
▁lẻn	5
bốc	5
▁bích	5
▁Muôn	5
▁tam	5
▁nanh	5
▁ráp	5
▁phả	5
▁úa	5
▁huyệt	5
BYT	5
phe	5
▁nức	5
▁KTXH	5
▁táp	5
▁Độ	5
▁đút	5
▁gióng	5
▁:	5
▁ngậm	5
▁vẩy	5
▁nung	5
▁đu	5
▁Tiệt	5
BTTTT	5
▁cầy	5
▁Dầu	5
▁đượm	5
▁ngơ	5
tham	5
....	5
▁bọt	5
▁ngoái	5
▁vía	5
▁dặm	5
▁biêt	5
▁bùa	5
đin	5
▁Gốc	5
▁Tòa	5
▁Tiết	5
▁bạ	5
▁sướng	5
Đức	5
là	5
▁mẻ	5
▁Lợi	5
riêng	5
▁chùi	5
tam	5
▁Trống	5
▁nhả	5
rượu	5
▁Hơi	5
▁mách	5
▁phì	5
▁Mang	5
▁nách	5
Nầy	5
Như	5
Việc	5
▁rúng	5
▁Xuất	5
▁Cloramin	5
▁Trứng	5
▁Đáp	5
đối	5
▁Trò	5
▁phết	5
▁tủi	5
▁tể	5
▁KDC	5
▁Hạnh	5
▁vãn	5
▁Cham	5
▁giòng	5
▁Tiền	5
▁sáp	5
▁Rác	5
▁Đế	5
▁Vương	5
▁thết	5
▁King	5
▁rùa	5
▁đái	5
▁ghẹo	5
Phải	5
QLCL	5
▁đèo	5
▁Trịnh	5
HĐND	5
phéc	5
▁lụa	5
▁êm	5
▁nỉ	5
▁bách	5
▁Vàng	5
▁lạt	5
▁man	5
▁Điện	5
▁Súc	5
Khu	5
▁Da	5
▁Đau	5
Gia	5
▁phồng	5
▁Đám	5
mm	5
▁xửa	5
▁sùng	5
giam	5
▁Kíp	5
▁kẹp	5
▁Cố	5
▁dấy	5
▁dong	5
▁KCl	5
▁cu	5
▁vòm	5
canh	5
▁thỉnh	5
▁nha	5
▁huyê	5
▁cữ	5
▁lút	5
▁Thử	5
▁đới	5
▁xiên	5
▁giễu	5
Ứ	5
▁trễ	5
▁hóc	5
▁Cành	5
▁liệm	5
hách	5
▁XH	5
▁Khỉ	5
▁Dữ	5
Tăng	5
▁phỉ	5
▁Cụm	5
rệt	5
▁test	5
▁Chàng	5
▁sê	5
▁rú	5
KH	5
▁Thượng	5
▁Giết	5
hua	5
▁cù	5
▁Càng	5
▁Voi	5
▁bện	5
▁mắn	5
▁master	5
,...	5
▁cụt	5
▁Vầng	5
▁Sơ	5
Tuổi	5
▁Cường	5
Nước	5
▁quận	5
▁xì	5
ii	5
▁rong	5
▁nón	5
▁dủ	5
▁Tim	5
▁chấn	5
cơm	5
▁ruốc	5
...).	5
sim	5
▁giang	5
mim	5
▁thiu	5
▁nang	5
đe	5
▁dĩ	5
▁Ôn	5
▁QL	5
▁mạo	5
▁bồng	5
▁Bin	5
nui	5
▁tôdrong	5
VPCP	5
▁Gươm	5
▁triền	5
▁bấm	5
▁hàn	5
▁bon	5
▁Măng	5
▁nhầm	5
▁rằm	5
▁Hễ	5
▁Biệt	5
▁chồn	5
▁Thọ	5
▁Lệnh	5
▁Thích	5
▁Vâng	5
▁Ure	5
x	5
▁phình	5
▁Trải	5
▁sọc	5
BNV	5
Tất	5
▁láo	5
▁nạo	5
À	5
ít	5
▁đắn	5
▁túng	5
▁ngẫm	5
▁nhàn	5
đai	5
▁rúc	5
▁dìu	5
▁Sợ	5
▁hơ	5
▁sưởi	5
▁Quý	5
▁lẳng	5
▁sơn	5
▁giông	5
▁siết	5
▁lươn	5
▁Kông	5
▁hói	5
▁Cung	5
Mã	5
▁méo	5
▁kẹt	5
cửa	5
Cầu	5
▁tửu	5
▁PTDT	5
▁Cử	5
▁phai	5
▁lùm	5
▁Xanh	5
▁Nhập	5
▁sảnh	4
phết	4
nôm	4
▁yếm	4
▁thoái	4
hoặc	4
▁UBMTTQ	4
▁tân	4
▁dỗi	4
▁ắp	4
nim	4
▁nhung	4
z	4
▁Kơdơi	4
▁óc	4
▁kịt	4
▁thềm	4
long	4
lâng	4
▁atâo	4
▁dùi	4
BXD	4
▁GD	4
▁rôn	4
iii	4
iv	4
▁xược	4
▁nhô	4
▁tơm	4
’’	4
▁Sherpa	4
▁Khung	4
▁Đồ	4
▁bọng	4
▁mọt	4
▁tẻ	4
TCCB	4
▁hoà	4
▁cẳng	4
▁gă	4
▁miệt	4
▁Mát	4
▁thắc	4
▁cạp	4
ráp	4
▁trát	4
DT	4
▁a	4
▁Thôi	4
▁Đao	4
▁My	4
Kinh	4
▁hốt	4
▁vờ	4
▁Cúm	4
▁Dại	4
▁Khê	4
▁tòng	4
▁Điển	4
▁núm	4
▁sục	4
▁cỡ	4
▁Gửi	4
▁Nẹt	4
gan	4
▁cút	4
▁Ví	4
▁chõng	4
▁kẽ	4
▁Chúc	4
▁lắc	4
TY	4
▁Lu	4
▁Mối	4
▁ỷ	4
▁giây	4
▁Bích	4
▁Nằm	4
▁thự	4
▁Kiếm	4
▁Vai	4
▁lê	4
▁Huyết	4
▁Hoay	4
▁nẹt	4
▁pô	4
▁khan	4
▁nến	4
▁sải	4
▁nhuần	4
xin	4
▁vãi	4
▁MTV	4
▁Bioseed	4
▁viêm	4
▁chuốc	4
▁son	4
▁QLDA	4
▁..	4
▁nhú	4
▁chạp	4
▁Sin	4
▁Prôm	4
▁Dựng	4
▁xẻng	4
▁gót	4
Giúp	4
▁Ngăn	4
▁ghẻ	4
Năm	4
▁giấm	4
▁tiê	4
▁triê	4
ica	4
▁đẵn	4
▁bứt	4
▁Vài	4
Nâng	4
▁chỗi	4
gm	4
▁CNH	4
▁Chẻ	4
▁dang	4
▁Tạ	4
▁quệ	4
hỗ	4
sam	4
▁Trừ	4
▁trượng	4
▁NVQS	4
▁Muối	4
Sau	4
Chắc	4
▁hí	4
▁mọn	4
▁Lồng	4
▁Ria	4
▁chánh	4
▁dán	4
Ồ	4
▁dúi	4
▁VNPT	4
▁ảo	4
gát	4
▁Luôn	4
▁sững	4
▁Super	4
▁KHHGĐ	4
Tập	4
▁khoá	4
đầu	4
▁Phô	4
tấn	4
▁trút	4
I	4
▁Tuổi	4
▁Quán	4
▁thỏ	4
▁Xinh	4
áo	4
▁xẹo	4
▁Nét	4
▁Bát	4
lai	4
▁sấy	4
BTP	4
▁đẫm	4
▁Khốn	4
▁liếm	4
▁dẻo	4
▁lẩn	4
▁ngãi	4
▁đỗ	4
▁Mên	4
Ý	4
▁trượt	4
▁Lũ	4
▁Uốn	4
▁Bạch	4
;”	4
▁muỗm	4
▁nghiệt	4
▁dốt	4
▁Củng	4
gạo	4
▁mẫn	4
▁bửu	4
▁Khánh	4
▁ngời	4
thun	4
▁Lô	4
▁Liêm	4
▁Kể	4
▁trêu	4
▁mọp	4
▁ho	4
▁tóm	4
▁Hậu	4
tự	4
▁Mahyco	4
▁nấng	4
\	4
re	4
rau	4
▁huỳnh	4
▁Copper	4
▁Duy	4
▁lặp	4
▁Hốt	4
gồm	4
▁Sách	4
▁TNCS	4
▁Tưới	4
▁việt	4
▁mênh	4
Làm	4
▁ngất	4
rúp	4
▁tráo	4
▁ngấm	4
ngựa	4
▁loang	4
còn	4
▁Bôi	4
ken	4
▁tia	4
kèm	4
Chúa	4
nam	4
▁chen	4
giốt	4
Nông	4
▁Bạc	4
trâu	4
▁quái	4
▁suông	4
bồ	4
lu	4
▁bầm	4
▁the	4
▁Chào	4
▁ngâm	4
ở	4
▁UVBTV	4
▁lả	4
▁Sá	4
đim	4
▁ngán	4
▁hăm	4
phạt	4
▁GDNN	4
▁GDTX	4
BC	4
▁Trả	4
▁Lân	4
▁que	4
▁trỏ	4
▁vũng	4
▁Niên	4
ö	4
▁pôm	4
ông	4
▁ngheâ	4
▁nghieâp	4
▁loãng	4
▁Ninh	4
▁giũ	4
phôn	4
CN	4
▁trắm	4
▁rẻ	4
▁sẩy	4
▁Lưng	4
ƯƠ	4
NH	4
▁clorua	4
▁léo	4
▁Gro	4
▁túm	4
▁nhấc	4
▁kên	4
▁ó	4
▁Vả	4
▁Sết	4
▁cua	4
▁Khố	4
▁ANTQ	4
▁Trớ	4
▁Rệp	4
▁xoắn	4
▁Đổi	4
nun	4
STC	4
▁đãng	4
▁Chôn	4
▁Mác	4
▁Đăng	4
▁ve	4
▁Lộc	4
▁quây	4
▁thê	4
▁nhồi	4
▁Rít	4
▁Giới	4
▁TH	4
▁nần	4
▁/	4
▁tủa	4
▁Hạ	4
▁Mặn	4
▁lụi	4
%)	4
▁cặn	4
▁Vi	4
▁xư	4
▁sắng	4
▁mâm	4
▁yểu	4
▁đả	4
▁Nỗi	4
▁Ngãi	4
▁Cán	4
▁đẽ	4
▁chộp	4
▁đót	4
▁chui	4
cai	4
▁Ôm	4
▁Supe	4
▁tuếch	4
▁sọt	4
▁ấu	4
▁Thô	4
▁nàn	4
▁Thiết	4
▁Máng	4
▁rạp	4
▁Đà	4
▁Chỗ	4
▁hâm	4
thông	4
▁ắt	4
▁lầu	4
▁su	4
▁Hom	4
▁Mam	4
STP	4
▁táo	4
▁vặt	4
▁Tốc	4
▁họng	4
▁nạt	4
bá	4
▁virus	4
▁quất	4
▁vụn	4
các	4
▁So	4
▁Trà	4
▁Xom	4
Ọ	4
▁Xương	4
▁địu	4
▁nôn	4
▁Phản	4
bách	4
▁Thã	4
▁Bầm	4
▁Nhu	4
▁Mộc	4
▁điểu	4
▁ngạnh	4
▁vức	4
▁Bắn	3
)...	3
▁bom	3
▁Trao	3
▁Chứng	3
▁Cớ	3
ka	3
▁Chuột	3
▁khoảnh	3
▁Bốn	3
▁sá	3
KTNS	3
Tâu	3
▁lụy	3
côm	3
▁Đắk	3
▁mót	3
Lễ	3
▁nhộng	3
▁tròng	3
▁giọng	3
▁tao	3
nắng	3
phường	3
▁panô	3
▁Giảm	3
thị	3
▁xấc	3
phên	3
▁tót	3
▁liêm	3
▁Đáng	3
▁nơm	3
▁Trận	3
KL	3
▁rủn	3
Nhà	3
▁lãm	3
▁liếc	3
▁xu	3
▁Thừa	3
▁quýt	3
▁Sép	3
▁thau	3
▁Tụ	3
▁Nhẹ	3
▁phu	3
▁dạt	3
▁Rầy	3
▁rìa	3
Pháp	3
Phát	3
Bình	3
▁ù	3
▁Xát	3
▁nghiến	3
▁hecta	3
bun	3
then	3
tiên	3
▁Krông	3
▁bai	3
▁Giàu	3
▁sin	3
▁muồng	3
,,	3
▁ruồng	3
▁tâng	3
▁chiêu	3
▁còi	3
▁Tiêm	3
▁vồng	3
▁phất	3
▁thóat	3
▁Vẫn	3
▁Nhánh	3
▁Dạ	3
▁nghén	3
Bảo	3
▁Mừng	3
ealand	3
▁ngớt	3
Đất	3
▁ti	3
▁bang	3
chó	3
▁tem	3
▁Quá	3
▁chật	3
▁axit	3
bác	3
Tổ	3
▁hin	3
▁Thuốc	3
▁trội	3
▁sảo	3
▁úp	3
▁lửng	3
▁đỗi	3
▁bít	3
▁mơi	3
thịt	3
f	3
▁tần	3
▁nhởn	3
▁LLVT	3
▁Bụi	3
▁TB	3
▁Mái	3
chiếm	3
▁nhiễu	3
▁lún	3
▁mẫm	3
▁Xà	3
▁Lỡ	3
▁nhác	3
▁Gọi	3
▁Bách	3
▁Bon	3
▁Becamex	3
▁ĐBQH	3
▁choáng	3
▁váng	3
▁logistics	3
▁nháy	3
▁ung	3
Ngài	3
▁nhồng	3
▁vái	3
▁Hộ	3
▁sính	3
▁huyên	3
▁Tum	3
▁Nỏ	3
▁BVR	3
▁Chùm	3
▁trơn	3
▁Khôn	3
▁dơi	3
KHCN	3
để	3
▁gẩy	3
▁gấm	3
▁phổi	3
▁nhiếc	3
▁nua	3
▁thệ	3
vải	3
Thôn	3
▁nghiện	3
cùng	3
▁xước	3
▁nôi	3
▁lói	3
▁Cân	3
▁Ná	3
▁chùng	3
▁ngượng	3
▁lảo	3
đũa	3
▁Gây	3
▁Vách	3
▁Tạc	3
▁mí	3
▁Gạo	3
▁Urea	3
▁truất	3
▁Gồm	3
▁xoáy	3
▁Thuở	3
v	3
▁Cối	3
▁hắm	3
▁Man	3
lơn	3
▁liễu	3
▁quẫn	3
▁ngặt	3
▁khờ	3
sốt	3
đết	3
▁tưng	3
▁nhỉ	3
▁lẽo	3
▁lẫy	3
▁protein	3
▁Xíp	3
Đa	3
xu	3
▁bái	3
▁quào	3
kể	3
▁Dẫu	3
▁xẻ	3
▁dầm	3
rét	3
▁Míp	3
▁vắt	3
▁tuông	3
giai	3
khu	3
Giăng	3
mỗi	3
▁cỗ	3
thuốc	3
▁Giạt	3
▁bới	3
▁sệt	3
▁me	3
▁sưu	3
”,	3
▁CHQS	3
phim	3
▁gắp	3
xéc	3
Về	3
▁bập	3
▁gật	3
▁Mách	3
▁nhan	3
Từ	3
▁Đắt	3
CV	3
của	3
▁truyên	3
▁nguội	3
▁huýt	3
▁xôi	3
đác	3
▁ngóc	3
▁nhớp	3
▁nặn	3
▁Chuối	3
▁S	3
▁xâu	3
▁Nạo	3
tra	3
▁MHC	3
▁nã	3
▁tọa	3
Khóa	3
▁ùa	3
▁khuân	3
▁kén	3
▁sú	3
▁khoan	3
Dạy	3
▁giở	3
▁karaoke	3
▁trân	3
▁khảm	3
▁Nho	3
▁trù	3
▁lốc	3
▁trệ	3
lửa	3
▁tã	3
▁nhàu	3
▁mảng	3
▁nãm	3
▁Red	3
▁Angus	3
▁thậm	3
chăn	3
hum	3
▁Tạt	3
▁dở	3
▁Sợi	3
▁ngùng	3
khi	3
▁Thuyền	3
▁Benlate	3
Chúc	3
▁kiệu	3
▁Nha	3
▁dan	3
▁Đạt	3
▁Rèn	3
tơ	3
▁cửu	3
▁huyeân	3
ñ	3
▁daân	3
▁oei	3
▁sônaêm	3
hoa	3
▁Hổ	3
▁rảnh	3
▁gán	3
▁trỗ	3
▁Sớm	3
▁gò	3
▁vấy	3
▁viê	3
▁nghé	3
▁Nim	3
▁lẻo	3
▁Cậy	3
da	3
▁Padan	3
▁nút	3
Cỏ	3
▁trề	3
▁bổn	3
▁Nitrat	3
▁mụ	3
tuần	3
bíp	3
▁Tủ	3
▁NH	3
▁Nổi	3
▁Phích	3
▁Vết	3
Sa	3
▁nhuệ	3
▁vắn	3
▁Bạt	3
▁nịt	3
▁Lục	3
▁chỉa	3
▁nhành	3
▁nghễ	3
▁ải	3
▁Cải	3
▁Đuổi	3
▁Xáp	3
bai	3
▁rưới	3
giê	3
▁Mưu	3
▁Phá	3
▁tịnh	3
▁diêm	3
gió	3
▁văng	3
▁cợt	3
▁lận	3
▁giầy	3
▁xám	3
▁hoành	3
▁rai	3
▁ồn	3
▁chóp	3
▁lơi	3
▁mượt	3
▁thịch	3
▁đẫy	3
▁Sứ	3
▁greng	3
▁hạch	3
búc	3
▁Ngược	3
▁Ayun	3
Tiếng	3
▁Khuân	3
▁dơ	3
▁Tác	3
▁Thèm	3
▁sặc	3
▁thạnh	3
Họ	3
quả	3
▁Góc	3
▁phèn	3
▁thụt	3
nác	3
▁Khảo	3
sắc	3
▁ngòi	3
▁gở	3
xôi	3
▁nãy	3
lít	3
▁Ya	3
▁dứa	3
▁trợn	3
chồng	3
▁phôi	3
Dòng	3
lao	3
▁Hồi	3
▁xỉ	3
▁rát	3
▁bộc	3
▁lon	3
▁tược	3
▁Bảng	3
▁nhông	3
▁vút	3
▁ngụy	3
tai	3
▁vờn	3
▁om	3
(	3
▁xế	3
▁Họt	3
▁vít	3
▁Ram	3
▁đờn	3
▁Sang	3
S	3
▁Đón	3
▁hril	3
▁Gỗ	3
chai	3
ơ	3
▁dạo	3
▁sém	3
▁giày	3
Kẻ	3
▁Cự	3
▁Tảo	3
▁sạn	3
chiếu	3
▁hột	3
▁thửa	3
▁sấu	3
▁Lừa	3
▁Kha	3
▁luộc	3
▁Tẩy	3
▁ngấy	3
Bộ	3
▁lõa	3
óc	3
▁giùm	3
▁Khải	3
▁gảy	3
▁Nga	3
N	3
Sáng	3
gôn	3
▁xoi	3
▁Cháy	3
▁thoa	3
▁phim	3
▁áng	3
▁Cty	3
▁manh	3
Mỗi	3
đêm	3
▁Xưa	3
▁Thẩm	3
▁lõi	3
▁Roi	3
▁Giảng	3
▁muội	3
▁đơm	3
▁Ngó	3
UBTVQH	3
▁làn	3
▁xăm	3
▁Big	3
▁rợp	3
▁ngẩng	3
▁quắc	3
▁Kiện	3
▁tành	3
Dù	3
thai	3
▁ướp	3
▁Đâm	3
bin	3
▁Đập	3
▁lữ	3
▁thằn	3
▁Sừng	3
▁hưng	3
▁ru	3
▁bặt	3
▁níu	3
▁ngỡ	3
▁Mong	3
▁Xúc	3
▁bợ	3
▁bướu	3
▁truyện	3
tín	3
▁gồ	3
▁khạc	3
▁ới	3
▁Gieo	3
▁Gian	3
▁Rốt	3
trồng	3
▁trĩ	3
▁pơkong	3
▁Bày	2
▁Gạ	2
▁Ka	2
▁Tuyển	2
▁Mo	2
▁Nóng	2
▁mống	2
▁Trân	2
▁Miền	2
xíp	2
▁vênh	2
▁luồn	2
▁Hủy	2
▁Diệt	2
▁dòm	2
liên	2
▁Há	2
▁Carbendo	2
▁Score	2
▁Lười	2
▁lằm	2
▁bằm	2
▁Tao	2
▁Mnông	2
▁Kontum	2
BTNMT	2
▁guộc	2
▁trửng	2
▁nguậy	2
▁BVNLTS	2
▁Đồn	2
đường	2
▁phích	2
▁rứt	2
▁Đin	2
Phê	2
▁đọa	2
▁Quên	2
▁Phép	2
▁khóe	2
▁rệp	2
▁Actara	2
G	2
Bệ	2
▁bưt	2
▁HTND	2
▁khua	2
▁BVNL	2
mít	2
▁giữu	2
▁dằm	2
▁Xứ	2
▁Vôi	2
▁super	2
▁hớt	2
tiền	2
▁QCVN	2
▁lể	2
▁Breed	2
▁Bo	2
▁khét	2
▁hóng	2
▁Cuốc	2
▁ATXH	2
vùng	2
▁Phí	2
▁Hầm	2
▁trầy	2
Cựu	2
▁gập	2
▁tậu	2
▁BGDĐT	2
▁Kỷ	2
▁Đủ	2
▁Hiểu	2
▁BCĐ	2
▁Dilan	2
▁Cậu	2
▁kiễng	2
▁Gai	2
hà	2
▁tề	2
▁chang	2
▁giãn	2
gọi	2
▁bỡn	2
▁Bla	2
▁phủi	2
▁xao	2
▁cọng	2
▁Góa	2
▁Cày	2
▁vủa	2
▁chuông	2
▁khướu	2
▁R	2
II	2
▁róc	2
▁sán	2
▁lép	2
▁chửng	2
▁phơ	2
rinh	2
▁phao	2
▁lẹ	2
lêt	2
Thế	2
▁triết	2
▁Xâm	2
▁Đốt	2
▁xưởng	2
▁sám	2
▁mướp	2
▁Vệ	2
▁liêu	2
▁sủa	2
▁thiến	2
▁Gíp	2
▁Cút	2
▁Khoanh	2
▁Giòng	2
▁Đếm	2
điểm	2
▁nhấm	2
Rèn	2
▁diếm	2
Vua	2
▁lạn	2
▁võng	2
▁Khát	2
=	2
dưa	2
▁...)	2
▁doa	2
▁phên	2
▁đùm	2
đên	2
▁toạc	2
▁luy	2
▁nhậ	2
▁thiê	2
▁HL	2
▁két	2
▁CP	2
▁sẫm	2
▁tuyền	2
ghên	2
▁Sẵn	2
▁mỉa	2
▁Triều	2
▁Đắp	2
▁tía	2
▁nhạy	2
▁PCCCR	2
▁Kob	2
▁Lok	2
tập	2
KTN	2
▁supe	2
▁Thôn	2
▁Hỷ	2
▁Nấm	2
▁Sistep	2
▁VN	2
▁mào	2
▁ốt	2
▁Hanh	2
Thanh	2
▁XIX	2
Lúa	2
Liệt	2
▁Tơlok	2
▁thiệp	2
▁mím	2
▁thản	2
Quyết	2
▁hut	2
cạp	2
▁Động	2
hia	2
▁cac	2
▁bin	2
▁vê	2
▁covid	2
▁Lắm	2
▁mo	2
▁HĐH	2
▁Thoát	2
▁Giang	2
▁Đôn	2
gốp	2
▁cụp	2
Kể	2
▁miên	2
▁Nuốt	2
▁Khư	2
▁chũm	2
▁chọe	2
▁Tấm	2
▁nhuyễn	2
▁Đoạt	2
▁Mẹo	2
▁oi	2
▁Cấm	2
▁inh	2
▁ỏi	2
▁lào	2
súp	2
▁xiêu	2
▁cỏi	2
▁tấu	2
ịnh	2
▁Vỏ	2
▁Thang	2
iGate	2
▁uyển	2
▁quộc	2
▁P	2
khoảng	2
▁Quí	2
▁khản	2
Giô	2
▁HTX	2
▁nghành	2
Điều	2
▁xủa	2
▁Koon	2
Góp	2
▁huyệnVĩnh	2
▁quạnh	2
▁Hóp	2
▁cóng	2
▁Triệu	2
Đoạn	2
▁Mí	2
▁ùn	2
▁Chê	2
BCT	2
▁uất	2
▁lộng	2
đá	2
đậu	2
▁Campuchia	2
▁Ngọt	2
Cứ	2
▁đei	2
▁kon	2
▁prei	2
▁tằng	2
▁tịu	2
▁nhăng	2
▁Vạch	2
▁trốt	2
▁Rìu	2
▁Hiền	2
▁Pa	2
cu	2
▁Sọ	2
▁Try	2
nơ	2
▁Giốp	2
▁mải	2
▁thiển	2
▁Coleoptera	2
▁mm	2
▁Râu	2
Chẳng	2
▁Tuyệt	2
▁Khỏe	2
▁agar	2
▁chiểu	2
▁XV	2
xôn	2
▁Nghệ	2
▁nhún	2
dạng	2
▁nghía	2
▁tă	2
▁hưu	2
mua	2
phần	2
▁tắp	2
▁bần	2
mút	2
▁vế	2
▁xáo	2
▁Miễn	2
▁hất	2
Đề	2
Vui	2
▁CA	2
Đẩy	2
▁chìa	2
niên	2
▁nít	2
▁silic	2
miệng	2
▁Ghíp	2
Bà	2
▁blông	2
▁Thiệt	2
▁cùm	2
nó	2
▁mút	2
gỗ	2
▁yểng	2
thu	2
▁phập	2
▁xổ	2
▁Khí	2
lút	2
xương	2
%).	2
Đối	2
▁Thắng	2
▁Xung	2
và	2
về	2
the	2
▁Trailer	2
▁Cương	2
▁Đèn	2
Bàn	2
▁suplơ	2
▁IPM	2
▁rảo	2
▁bung	2
ven	2
▁bẹp	2
▁dẫm	2
▁Lít	2
▁sụt	2
sum	2
▁băn	2
▁khoăn	2
sương	2
▁Bãi	2
nốt	2
▁bioga	2
▁xạch	2
▁viêc	2
▁Cu	2
SLĐTBXH	2
▁nghinh	2
▁krong	2
▁kdư	2
▁thuất	2
▁triern	2
tùy	2
▁ké	2
Nhưng	2
▁gội	2
▁game	2
▁quờ	2
nghĩa	2
Vâng	2
sông	2
▁càu	2
▁gãi	2
vết	2
▁đắm	2
mẹ	2
▁quãng	2
▁thòi	2
▁ỉ	2
▁BBB	2
▁dồng	2
vững	2
chung	2
hàn	2
he	2
kết	2
▁sút	2
▁nhử	2
▁Cù	2
▁Trực	2
▁tuế	2
▁Rỗi	2
▁bẹ	2
▁lùn	2
rép	2
▁quẹo	2
▁díu	2
▁rót	2
Mới	2
▁Thảo	2
▁cau	2
▁Mã	2
▁khê	2
▁Lát	2
▁Liền	2
▁Rào	2
▁nguốn	2
▁sọ	2
gúp	2
▁Níp	2
tác	2
▁Thươn	2
▁Chrah	2
▁Mây	2
▁lâ	2
▁nguyê	2
▁nhă	2
▁tâ	2
▁VH	2
▁TT	2
▁luâ	2
▁phâ	2
▁chảo	2
đẹp	2
diện	2
▁mih	2
▁duch	2
▁naê	2
▁amem	2
▁mônat	2
▁Lôm	2
▁l	2
▁anu	2
▁yuoâ	2
▁ôu	2
Ñ	2
eâ	2
▁noâng	2
▁lôm	2
ung	2
▁toâ	2
▁ngo	2
▁hnhei	2
▁pôgôl	2
▁mân	2
▁Síp	2
▁cót	2
BLĐTBXH	2
Dung	2
▁ì	2
▁tich	2
▁CTĐ	2
▁Ái	2
▁Tơm	2
▁Shau	2
▁Ngũ	2
▁ngò	2
▁Cyperan	2
▁Tọa	2
▁xổng	2
bò	2
▁thảnh	2
▁thơi	2
VHXH	2
▁Bướm	2
sẻ	2
Hết	2
▁tãi	2
▁dất	2
▁Cườm	2
Ữ	2
▁QUY	2
Ị	2
▁Mắc	2
▁hoài	2
▁én	2
▁Cào	2
▁?	2
giao	2
▁Lưới	2
▁trét	2
▁Kali	2
▁BCD	2
▁Gậy	2
vỏ	2
▁băm	2
▁Tử	2
lo	2
er	2
eed	2
▁Thừng	2
gơ	2
...;	2
▁MX	2
▁nũng	2
▁lọi	2
chỉ	2
▁Nhợt	2
Kế	2
Lì	2
▁điọa	2
Đôi	2
▁xy	2
mưa	2
▁ẻo	2
▁lòi	2
▁xéo	2
▁Trôi	2
▁Chọc	2
▁Tôm	2
▁Vịnh	2
▁pham	2
Giỏi	2
▁loè	2
▁thép	2
▁Cang	2
▁Qui	2
▁tấp	2
SGDĐT	2
Được	2
▁Cổng	2
▁Xấc	2
▁Ao	2
▁ngông	2
▁tỏi	2
chợ	2
▁Xỏ	2
▁Yuan	2
▁rằn	2
▁mụn	2
ren	2
▁tủy	2
▁pháo	2
▁sum	2
▁Tỉa	2
▁thỉu	2
▁loay	2
▁hoay	2
nút	2
▁yến	2
▁Khăn	2
▁Biang	2
▁tơdrong	2
chè	2
▁Đạm	2
▁Giốc	2
tổng	2
nhân	2
▁Khuy	2
▁Nhin	2
▁Nhun	2
đua	2
▁đặng	2
|	2
▁CAND	2
▁sần	2
▁vợt	2
▁Sóng	2
▁Lơm	2
▁chát	2
▁mọng	2
Lak	2
Liên	2
▁amin	2
▁VI	2
TGAP	2
đèn	2
▁Bốt	2
▁Giả	2
▁Nhanh	2
▁Chó	2
bà	2
roi	2
▁thục	2
▁toang	2
▁Rấy	2
▁cáp	2
giấy	2
▁Nhặt	2
▁vặn	2
▁Mãn	2
▁Giường	2
▁rích	2
▁nhót	2
▁xộn	2
Xóa	2
▁dừa	2
NS	2
▁kham	2
H	2
▁nhỏm	2
Thương	2
nguồn	2
Đấng	2
▁lệch	2
ph	2
▁TR	2
ƯỜ	2
▁Thình	2
▁vàm	2
▁Giàng	2
Agar	2
▁thím	2
LMLM	2
▁TAND	2
▁Đoan	2
▁nhẵn	2
▁hẻm	2
▁Vực	2
▁rữa	2
▁khuông	2
▁diệc	2
▁quạt	2
▁chằng	2
▁chịt	2
▁mấu	2
▁CSGT	2
▁thươ	2
▁truyê	2
▁châ	2
▁Luâ	2
▁cươ	2
▁kiê	2
▁trươ	2
▁Phúng	2
độ	2
▁tanh	2
▁ẵm	2
▁Chỉnh	2
cũng	2
▁chèo	2
Đặc	2
▁Ngực	2
▁găng	2
▁Tố	2
▁Tể	2
▁Thách	2
▁Amăng	2
▁ngút	2
Sẽ	2
▁Nhiệt	2
▁khoắn	2
▁Trỉa	2
▁lưỡng	2
▁Trợ	2
▁khảy	2
▁chầm	2
▁kilogam	2
▁Cúc	2
um	2
▁nán	2
▁Sravani	2
▁Hại	2
▁ố	2
▁Chạy	2
Si	2
▁thóp	2
▁Giấu	2
▁Thung	2
▁Lũng	2
nông	2
▁hoi	2
▁Bưu	2
▁chận	2
▁đon	2
▁Dual	2
▁Antaco	2
▁xẩy	2
▁Đọc	2
▁am	2
▁đàu	2
Theo	2
▁ya	2
rên	2
▁cuội	2
▁Mượn	2
Heo	2
Hũ	2
Thắp	2
An	2
Tự	2
bảo	2
▁Củ	2
▁Lưu	2
▁dua	2
Chuyện	2
▁Ngừng	2
▁Trắng	2
xam	2
▁Thuế	2
▁Châm	2
khăn	2
▁Ngậm	2
▁rê	2
▁lậy	2
▁gơng	2
▁Đắc	2
Kring	2
▁khập	2
▁Nẵng	2
▁BigC	2
▁Khích	2
▁Gáp	2
▁mó	2
vn	2
▁Mùn	2
▁o	2
▁dai	2
sin	2
▁gàng	2
đặc	2
▁bủn	2
▁Hung	2
▁Tớ	2
Ba	2
▁Ngẫm	2
đúng	2
▁Gìn	2
▁Thác	2
▁cước	2
vòng	2
▁mạn	2
▁Sáp	2
▁Atonic	2
▁Mastrer	2
▁Ủa	2
▁Droughtmaster	2
▁mỏm	2
▁Lepidoptera	2
▁Dam	2
▁ổi	2
Ớ	2
▁đĩ	2
Vệ	2
▁vá	2
▁Lựa	2
te	2
▁Vấn	2
▁Bỗng	2
▁muống	2
▁Vô	2
▁Quăng	2
▁UB	2
▁dìm	2
▁Rình	2
Bao	2
Ca	2
▁Tương	2
▁gián	2
▁Phanh	2
▁tốp	2
▁cacbin	2
▁kdơ	2
▁Hroi	2
▁Thốt	2
cúp	2
cáp	2
Dệt	2
Chăn	2
Pha	2
▁gã	2
▁Bức	2
▁thố	2
▁Gái	2
▁In	2
▁corona	2
▁Mộ	2
▁Đố	2
GPS	2
▁Dẫn	2
▁hụt	2
▁quậy	2
▁kơnia	2
▁rinh	2
▁rọc	2
▁Nọc	2
▁TK	2
VV	2
han	2
▁thắm	2
QL	2
▁thòng	2
tính	2
Đoàn	2
▁Kenlut	2
nem	2
▁bệt	2
▁Br	2
▁đat	2
▁thuản	2
▁Chờ	2
▁Kiêu	2
ể	2
▁Bọng	2
thô	2
▁Khéo	2
Bởi	2
▁gộc	2
▁Bun	2
▁Đuối	2
▁kĩ	2
▁ngỗ	2
▁dụm	2
chuối	2
Phù	2
▁vồn	2
▁ụ	2
▁Dục	2
Di	2
▁Xí	2
tương	2
réc	2
▁chái	2
Mấy	2
▁Sàn	2
▁nốt	2
Phong	2
▁Chém	2
▁Bẩy	2
▁Nối	2
▁rướm	2
▁oang	2
▁Đo	2
▁Tốp	2
▁tróc	2
▁thừ	2
▁xướng	2
không	2
rôm	2
ại	2
đat	2
▁Dụng	2
▁Bá	2
pham	2
▁Ham	2
▁rền	2
▁mơm	2
./	2
▁cắc	2
đeo	2
▁cời	2
▁sụ	2
Bên	2
▁Tướng	2
▁Huế	2
▁nghiê	2
▁Phụng	2
▁vó	2
▁Siêu	2
▁Xăng	2
▁Phytoplasma	2
▁Lung	2
▁hoán	2
▁Logistic	2
▁ổng	2
▁Giác	2
khóc	2
▁Khuyê	2
▁suâ	2
▁lươ	2
▁mă	2
▁Phươ	2
▁TBR	2
▁ML	2
Hỗ	2
▁KH	2
resol	2
▁X	2
M	2
▁tơdap	2
▁Chậm	2
Nó	2
▁Nghiệp	2
đến	2
▁CNVC	2
▁thoi	2
▁sũng	2
▁râm	2
▁Cầm	2
▁dải	2
▁LN	2
▁BQL	2
▁Tới	2
▁gỉ	2
Để	2
▁mẩy	2
▁Song	2
▁cói	2
≥	2
Phần	2
súng	2
▁Trăm	2
▁Sải	2
▁Khơi	2
úc	2
▁tụt	2
Chi	2
Với	2
Thiếu	2
Nghìn	2
Trần	2
▁Toản	2
▁Phạt	2
Sống	2
gánh	2
▁Khấn	2
xép	2
▁đóm	2
No	2
▁hòm	2
▁duỗi	2
▁Họa	2
▁TBXH	2
cuốc	2
Ôi	2
”;	2
Đông	2
▁bịa	2
▁Sai	2
▁tánh	2
▁trụy	2
Viện	2
Ghê	2
HĐH	2
▁Hứa	2
▁Nữ	2
▁đia	2
Tội	2
▁Chứ	2
▁hiê	2
▁xuâ	2
▁bíu	2
▁chèn	2
▁hòi	2
Hắn	2
Nhờ	2
▁Nhe	2
Gặp	2
▁chuồn	2
▁PCCC	2
▁Khen	2
Hội	2
▁Chồi	2
▁VCA	2
▁rốn	2
▁pơsơru	2
▁păng	2
▁Neng	2
▁Gní	2
▁òa	2
▁khủy	2
▁Dốt	2
BQP	2
▁veo	2
▁ngoáy	1
▁chôm	1
o	1
▁Co	1
▁Khô	1
▁Nứt	1
▁liu	1
▁Hắm	1
▁khoái	1
▁đò	1
▁dấp	1
▁Xấu	1
▁Mano	1
ed	1
▁Kumulus	1
▁Sumi	1
ight	1
▁thụi	1
▁Bóng	1
▁cui	1
▁Ngọ	1
▁Mày	1
sem	1
▁video	1
▁clip	1
▁Cọt	1
nây	1
▁vống	1
kô	1
▁Thờơng	1
▁Trebon	1
▁Pegasus	1
▁Danitol	1
ATTP	1
▁bục	1
▁húp	1
▁nhắn	1
▁Ngà	1
▁Tuyết	1
▁đùn	1
đập	1
▁trọc	1
▁lóa	1
▁ngột	1
Xác	1
▁sầm	1
▁mợ	1
▁Choàng	1
Đống	1
lét	1
▁urea	1
▁Cun	1
▁rết	1
▁gô	1
▁loạng	1
▁choạng	1
▁ruỗng	1
▁rộ	1
▁ọe	1
gam	1
Vùng	1
▁thãi	1
Vân	1
▁Bám	1
▁Tang	1
khách	1
▁Khòm	1
phải	1
▁giỡn	1
▁xối	1
▁bịp	1
▁bợm	1
▁xoăn	1
▁hẵng	1
▁Hừng	1
▁bèo	1
▁Phàm	1
xo	1
▁Đăk	1
▁Đóng	1
▁Dĩ	1
▁xôn	1
Trời	1
▁khứ	1
bạn	1
▁vố	1
▁Thắt	1
vê	1
▁quặng	1
▁vacxin	1
▁vitamin	1
TL	1
Mai	1
▁nhược	1
▁huề	1
▁Lôi	1
SXD	1
QLN	1
▁Tre	1
▁dửng	1
▁xỉa	1
▁Khoác	1
▁bờm	1
▁thắn	1
thành	1
▁Rằng	1
▁cChuyện	1
▁xén	1
▁Mỡ	1
▁mưng	1
▁vầu	1
▁giơt	1
Quyền	1
▁phui	1
▁Muỗm	1
▁dũa	1
▁Rung	1
▁Bẻ	1
▁Rạng	1
▁Dệt	1
▁Chấm	1
▁suýt	1
Giao	1
▁lom	1
▁khọm	1
▁Vứt	1
▁pH	1
▁bườm	1
▁Rơm	1
▁nhòa	1
en	1
▁extra	1
nasin	1
▁Ratoin	1
▁Karuba	1
▁Bitadin	1
La	1
▁Hươu	1
▁Nik	1
▁cửi	1
▁giẻ	1
▁Mỏ	1
▁sit	1
▁PAC	1
▁Vùi	1
▁Rất	1
cười	1
%);	1
▁Biogas	1
▁Que	1
▁Nháo	1
▁Lắng	1
▁bẹt	1
▁Triêm	1
cộng	1
▁nấp	1
ép	1
▁Đỉnh	1
▁xõa	1
▁Linsuannerqing	1
ia	1
▁Karen	1
▁Thòng	1
▁lọng	1
víp	1
mía	1
▁Rót	1
hun	1
chùm	1
▁uyên	1
▁rẫ	1
Ĩ	1
nh	1
▁chĩa	1
▁nghê	1
▁mõm	1
▁Hấp	1
Thằng	1
▁Niềm	1
Thường	1
▁Lo	1
▁tuột	1
▁trối	1
▁Nut	1
▁kôpah	1
aê	1
▁aên	1
▁kapoâ	1
▁duh	1
▁tôgum	1
▁pieâu	1
▁boât	1
▁pheâ	1
▁hôbo	1
▁mum	1
▁hanh	1
▁Tâu	1
▁ớn	1
▁",	1
▁nẻ	1
dậy	1
Nào	1
▁sạo	1
▁ure	1
▁kaliclorua	1
nỏ	1
lưỡi	1
uradan	1
▁huê	1
▁vàn	1
▁Bồng	1
▁KTCB	1
Mẹ	1
▁Thuẫn	1
▁Adua	1
▁toả	1
▁oanh	1
▁huỷ	1
▁Biến	1
VX	1
▁mùng	1
▁ngưởi	1
▁Nhảy	1
Phước	1
▁Tuân	1
QH	1
▁anôphen	1
▁N	1
▁quơ	1
▁đong	1
▁Ghít	1
▁Thổi	1
Mọi	1
▁Rơpang	1
▁sẹo	1
▁bành	1
▁sầy	1
▁Lăng	1
giáp	1
▁BNNPTNT	1
nhất	1
▁Tắc	1
▁nhút	1
▁Im	1
LĐTBXH	1
BĐG	1
ke	1
▁Sâm	1
▁hiu	1
▁túa	1
▁lẩy	1
▁nạng	1
▁đữ	1
▁Ngô	1
.,	1
▁TL	1
▁tr	1
▁nguệch	1
▁ngoạc	1
▁chẩy	1
▁sậm	1
ar	1
▁hoãng	1
▁gáo	1
▁tồi	1
vỡ	1
..)	1
▁Phẩm	1
▁Cứt	1
▁Dồn	1
▁gợn	1
Khoảng	1
▁khán	1
▁Say	1
▁khướt	1
̆	1
▁kềnh	1
Cháu	1
▁hực	1
▁Xế	1
▁quãi	1
▁Bùa	1
▁Viết	1
▁nhoẻn	1
...):	1
▁Quyên	1
▁yàng	1
▁Nanh	1
▁băl	1
măng	1
▁ưh	1
▁Shu	1
▁Ngư	1
▁Nái	1
▁Phác	1
▁maket	1
▁Sớn	1
▁kèo	1
Vợ	1
tôn	1
Phi	1
▁thuyên	1
▁môt	1
két	1
▁krông	1
Đồi	1
▁Quặng	1
▁bả	1
nốp	1
▁Cerambicidae	1
SDL	1
▁dúm	1
niêm	1
▁Đổng	1
▁Tuỳ	1
▁Đụng	1
Tùy	1
chống	1
bay	1
hạng	1
bàn	1
▁Rền	1
▁lủi	1
▁thủi	1
▁Sít	1
▁quắp	1
▁Hố	1
▁vảy	1
▁Tu	1
▁Rắn	1
▁TTN	1
▁vư	1
▁thuô	1
▁Phái	1
gi	1
Tâm	1
▁Sưu	1
▁QLCL	1
▁dử	1
mùa	1
▁quẩn	1
usarium	1
▁sesami	1
▁Alittle	1
Hẳn	1
▁trien	1
▁nga	1
▁Khoe	1
▁Truất	1
Đầy	1
▁càn	1
▁Đúc	1
▁Cắn	1
▁Tóc	1
▁ngủi	1
HĐĐT	1
phích	1
▁xỉu	1
▁thẫm	1
dấu	1
▁đóa	1
▁kỉa	1
▁chót	1
vì	1
▁rười	1
▁rượi	1
▁chải	1
SVHTTDL	1
▁lảng	1
▁vảng	1
▁Thiêu	1
▁Vía	1
▁Kịch	1
▁Amnăng	1
▁Rãi	1
≤	1
▁Bio	1
▁DV	1
▁Khang	1
mầm	1
▁Mốc	1
▁Sương	1
IPM	1
▁oxi	1
▁sun	1
▁ĐăkTra	1
▁Chữa	1
▁SM	1
▁Lệ	1
▁rành	1
bộ	1
▁ngách	1
▁Tuốt	1
▁NhơnSở	1
▁Quấn	1
▁xum	1
▁xuê	1
▁Kõdõi	1
dây	1
▁dả	1
ngứa	1
▁Bih	1
▁Stiêng	1
▁lóng	1
▁rụt	1
▁Bông	1
▁;	1
túi	1
Viên	1
▁Bời	1
▁Lắp	1
▁quạng	1
Tr	1
trước	1
▁Dắt	1
ghinh	1
▁Vu	1
▁ngốc	1
chị	1
Đấy	1
▁Sáu	1
▁chểnh	1
thay	1
▁cõm	1
▁rýợu	1
ð	1
ãi	1
▁niêu	1
▁Than	1
bét	1
▁khểu	1
▁Súp	1
▁Hốp	1
▁choán	1
▁rướng	1
▁Mủ	1
▁trám	1
▁hổng	1
Lãnh	1
▁Xam	1
▁Bavistin	1
▁Xông	1
▁Khởi	1
▁Pê	1
▁Hoạch	1
ngô	1
▁Nghiến	1
▁gù	1
▁tịt	1
▁loét	1
▁Đíp	1
▁chớm	1
▁hoãn	1
▁Đổ	1
▁dế	1
lúc	1
▁còm	1
▁hác	1
gút	1
▁pơyô	1
▁loà	1
lưng	1
▁trợt	1
chủ	1
▁Ksô	1
▁naêr	1
▁pôlok	1
▁Hoâi	1
▁toâng	1
▁keât	1
ieâu	1
▁soâ	1
▁oeng	1
▁hnam	1
▁nghẽn	1
▁Siếc	1
Lời	1
▁Chù	1
▁ktu	1
▁hoạ	1
vim	1
▁nhị	1
▁ten	1
▁nơ	1
▁vớ	1
▁SGDĐT	1
▁Cực	1
bút	1
▁Tránh	1
▁dông	1
▁se	1
▁hoat	1
▁vạc	1
CĐ	1
▁Nợ	1
▁nhão	1
▁Nạn	1
Trách	1
▁ĐH	1
▁khè	1
▁tí	1
▁Ủ	1
▁băt	1
▁phèng	1
▁Bái	1
phía	1
buộc	1
▁Cất	1
môi	1
▁đìa	1
Bốn	1
▁trảm	1
SP	1
lun	1
▁Xuống	1
dư	1
▁dền	1
▁Bay	1
Thân	1
▁mỏn	1
▁dứng	1
▁xóc	1
Cũng	1
xua	1
Đại	1
▁trướng	1
▁khấm	1
▁mui	1
▁Móng	1
phạm	1
giếng	1
▁mỉm	1
▁nhơn	1
inc	1
▁Rovral	1
▁gram	1
▁CHUNG	1
▁ngửa	1
▁thán	1
▁Nhuần	1
▁stress	1
▁Hân	1
▁Liệu	1
▁KLót	1
▁Pók	1
▁nhọ	1
▁ĩ	1
▁nhũn	1
▁bạnh	1
▁gọt	1
▁Húc	1
▁alon	1
▁Tủy	1
rat	1
▁vo	1
▁Đòn	1
th	1
▁lạng	1
▁ngh	1
▁NK	1
▁LVN	1
▁Nk	1
Bt	1
GT	1
▁HN	1
tinh	1
▁Nướng	1
▁nhom	1
lên	1
▁Mao	1
Thôi	1
▁ghếnh	1
▁dấm	1
ác	1
."	1
▁giỗ	1
Nhìn	1
▁HDND	1
▁dẹt	1
▁Khoai	1
▁Thúc	1
▁biếc	1
▁lóe	1
giôn	1
▁né	1
Khơi	1
SKHĐT	1
gốc	1
▁Treo	1
Trang	1
KTXD	1
VP	1
▁Thập	1
▁bỉnh	1
▁thớ	1
▁Basitox	1
▁Mãi	1
▁Ngu	1
▁kit	1
phục	1
Chuẩn	1
HDLN	1
KBNN	1
'	1
Nghị	1
HĐNDngày	1
▁Xỉ	1
▁cặm	1
▁Uy	1
▁Nguy	1
dứa	1
▁vertiver	1
▁hoẵng	1
▁gừng	1
▁xet	1
▁mướt	1
▁bẽ	1
▁ảm	1
▁Hum	1
ICM	1
▁lởm	1
▁chởm	1
▁nhổi	1
kênh	1
▁lặt	1
▁Suy	1
▁Trù	1
▁Giốt	1
▁hú	1
▁SÁCH	1
▁Xóm	1
▁virut	1
tạ	1
▁xíu	1
Hễ	1
▁Ghiệt	1
gieo	1
▁xê	1
khuyến	1
▁bấn	1
trổ	1
▁Gan	1
▁Canbo	1
SNV	1
Ủy	1
▁Khổng	1
▁Kít	1
lêu	1
▁Cưu	1
▁bấu	1
▁buốt	1
▁Giỏ	1
oC	1
▁ngoắc	1
▁Basudin	1
▁G	1
▁cứt	1
Thông	1
Cuối	1
▁Ngang	1
▁Sấm	1
▁Đậu	1
vẫn	1
▁Lọc	1
▁Tượng	1
▁bơnơm	1
▁Ngâm	1
▁Bầy	1
▁Chín	1
▁Láp	1
▁USD	1
dùng	1
▁giựt	1
Thánh	1
▁Đẳng	1
go	1
▁Gánh	1
▁Be	1
▁MgS	1
▁Master	1
Sử	1
▁rốt	1
....;	1
HCSN	1
▁nhặng	1
▁Bẹt	1
găm	1
▁rịt	1
▁LU	1
Ậ	1
Ụ	1
ẢO	1
Ệ	1
▁NGUYÊN	1
▁MÔI	1
▁Tiếc	1
▁Phin	1
bo	1
▁Sốt	1
▁Thỏ	1
sự	1
▁bịch	1
▁queo	1
▁xấp	1
▁Mơ	1
▁mường	1
▁Hách	1
Bò	1
▁Lở	1
hộ	1
▁Hăn	1
▁Tràn	1
Tàng	1
▁thuât	1
▁Bưởi	1
▁ồ	1
▁giỗi	1
▁Chò	1
▁Buông	1
▁Ruột	1
biệt	1
▁Giúc	1
▁xuýt	1
▁Dán	1
STNMT	1
▁cen	1
▁Gân	1
Bé	1
▁Vẹt	1
▁ngoằn	1
▁ngoèo	1
▁dễn	1
Mời	1
địa	1
▁nêm	1
▁Lau	1
▁xẩm	1
▁Chùa	1
▁Phút	1
ly	1
▁bấc	1
▁Đèo	1
▁xoong	1
▁mẳng	1
Liệu	1
▁bâu	1
lơng	1
▁khơng	1
▁hám	1
mân	1
chẳng	1
▁pơkao	1
▁tôl	1
▁kơtuen	1
▁bêu	1
▁Chranh	1
▁Lộ	1
▁tơhlu	1
▁Vồ	1
▁Covd	1
▁chồm	1
mạc	1
nên	1
hậu	1
▁Ly	1
Cậu	1
Phòng	1
▁Chặn	1
âm	1
▁Kô	1
mác	1
Thần	1
num	1
▁ngấn	1
▁grech	1
▁nhóc	1
▁vẫy	1
▁Chà	1
Giai	1
Thầy	1
U	1
▁Núp	1
Võ	1
▁phiêu	1
▁thướt	1
▁nhè	1
▁Tảng	1
▁Xả	1
▁Tiện	1
Xi	1
▁Nhã	1
Trại	1
▁Khá	1
▁bâm	1
▁Thợ	1
▁Băng	1
▁khoát	1
▁Chức	1
▁nhậy	1
▁lườm	1
▁BNN	1
sun	1
▁lênh	1
▁đênh	1
ormalin	1
▁sỗ	1
cúc	1
Mình	1
b	1
chín	1
▁Kèm	1
▁sỡ	1
▁găm	1
tua	1
▁oại	1
▁mứcvốn	1
▁hoach	1
...".	1
Phổ	1
▁Tòng	1
▁Luống	1
▁Pho	1
▁Nhện	1
▁Admire	1
▁Comite	1
▁Nissorun	1
▁Thăng	1
▁nhậnChuyển	1
▁Xót	1
▁hơmon	1
▁hri	1
Nơi	1
ncol	1
bích	1
▁Ngôn	1
▁doạ	1
▁quàng	1
Tuy	1
▁tạng	1
▁Gơng	1
▁kut	1
▁klao	1
▁Nhát	1
▁vén	1
▁khểnh	1
ĐANN	1
vợ	1
▁nhảm	1
▁nhí	1
▁Rơngao	1
www	1
binhdinh	1
gov	1
▁Rắc	1
▁Brix	1
▁Giảo	1
tuỳ	1
▁chợp	1
▁mạt	1
BATGT	1
▁nép	1
▁uổng	1
qui	1
▁xỉn	1
▁Mệnh	1
▁véo	1
▁Quở	1
▁nhụt	1
BGTVT	1
Nhóm	1
▁Sĩ	1
lúp	1
▁Khắc	1
▁Lẫn	1
▁Khả	1
▁Soi	1
▁Cõi	1
Uống	1
▁BVCST	1
Ruộng	1
▁photo	1
Tốt	1
▁đật	1
đoán	1
▁Tan	1
▁Bồ	1
xén	1
▁ria	1
nha	1
▁TTNT	1
▁đoản	1
▁Luân	1
▁róm	1
▁Saturnidae	1
▁Sắp	1
▁May	1
▁ngát	1
▁HÔN	1
▁GIA	1
Ì	1
▁quẫy	1
▁Lùa	1
▁gát	1
rich	1
▁Phơ	1
móc	1
▁sây	1
▁quặp	1
▁chắp	1
▁chẹn	1
lối	1
▁rẫu	1
▁cứa	1
núp	1
xô	1
rum	1
Cao	1
▁sảy	1
▁Tát	1
Lần	1
▁chiết	1
Dẫn	1
ồ	1
Gát	1
▁báotin	1
▁Tặng	1
thuê	1
▁khẽ	1
▁dịa	1
Sáu	1
▁Đầm	1
ghem	1
▁Chợ	1
▁ghim	1
▁phực	1
▁cộ	1
▁Rút	1
▁Tanh	1
▁Vẻ	1
▁gióc	1
cờ	1
khô	1
Sy	1
hin	1
▁hổi	1
▁chòng	1
▁hau	1
▁háu	1
▁Chuôi	1
Sự	1
▁quáng	1
▁Sùng	1
▁Carbo	1
uran	1
▁Vibasu	1
▁Vicap	1
▁Visa	1
▁Regent	1
▁Dia	1
inon	1
Viết	1
▁Thắp	1
▁Thỏa	1
▁vợi	1
▁cở	1
▁mứa	1
▁phè	1
▁phỡn	1
PBGDPL	1
luống	1
▁Cọc	1
▁kiếp	1
▁Kỉnh	1
▁toái	1
Bắt	1
▁(....)	1
▁thuyển	1
▁bảm	1
▁Nốt	1
pH	1
▁hấn	1
▁ngợm	1
▁Tước	1
▁com	1
▁Tỏ	1
▁Quỷ	1
▁vói	1
Bọn	1
lý	1
▁đui	1
▁khoeo	1
chân	1
Thời	1
▁DTNT	1
chú	1
xen	1
▁Rumani	1
lãnh	1
Chín	1
tại	1
▁quầy	1
▁dnh	1
xim	1
▁khanh	1
▁xẳng	1
▁xớm	1
▁đở	1
▁huênh	1
▁mởn	1
▁Đùa	1
▁ngèo	1
▁rườm	1
▁ngoai	1
▁khoải	1
▁nhiệp	1
phụ	1
hết	1
▁mư	1
▁giằng	1
▁Điền	1
▁Hoạn	1
▁Sơro	1
CTUBNDngày	1
▁lải	1
▁nhải	1
▁Rải	1
▁Lồ	1
▁Côn	1
PL	1
▁Vgiao	1
▁tực	1
▁khốc	1
▁rấm	1
▁rắp	1
▁Bạn	1
Hoài	1
Và	1
▁Vét	1
▁dẫu	1
▁bết	1
eb	1
▁kiềng	1
Giường	1
▁Hãm	1
▁Quách	1
run	1
▁Ngồi	1
▁Khinh	1
▁Chloramin	1
▁Rạch	1
▁Lấp	1
▁vè	1
Ắ	1
▁đắt	1
▁Shơ	1
DTN	1
▁Nài	1
▁teo	1
▁Rông	1
:.	1
▁Sắt	1
▁chướng	1
bệnh	1
cà	1
hồ	1
Giờ	1
▁Run	1
▁pơplei	1
▁ói	1
UBNDngày	1
Đứng	1
▁Đẹp	1
▁Toan	1
▁loé	1
▁chè	1
thuộc	1
▁Hài	1
▁Dàn	1
▁trũi	1
▁sữu	1
▁ml	1
lựa	1
▁TQVN	1
logo	1
▁sologan	1
.);	1
pháp	1
▁bơmơn	1
▁quầng	1
▁ừ	1
▁rơpang	1
▁Giát	1
▁khấu	1
▁Cà	1
▁nhúm	1
▁bơ	1
▁Quét	1
▁Bordeaux	1
▁phăm	1
▁Sắc	1
▁ngầu	1
ngươi	1
▁Rong	1
▁víu	1
▁Dăk	1
▁bộn	1
▁thột	1
▁Toán	1
cẩu	1
▁lí	1
▁Muỗi	1
▁Lan	1
▁Hào	1
▁nhúc	1
▁ny	1
▁khay	1
▁ngớ	1
▁ngẩn	1
▁rùng	1
▁sụm	1
bẻ	1
IUU	1
▁Sân	1
▁ỉa	1
▁Chống	1
▁Kéo	1
▁Khanh	1
▁Decis	1
▁Cymerin	1
▁mẹo	1
▁ộc	1
lớp	1
▁nghịt	1
▁tò	1
củi	1
▁Trướng	1
▁hửng	1
▁vời	1
▁Dần	1
▁Chru	1
▁nhét	1
Xưa	1
dịch	1
Hishimonus	1
▁phycitis	1
▁Distant	1
Hoàng	1
▁Thơ	1
Danh	1
▁cựa	1
tôi	1
miệc	1
▁Phán	1
dòng	1
▁Ngây	1
láp	1
▁Hên	1
▁xạ	1
▁ngàng	1
▁Kênh	1
ơlâm	1
ơlu	1
▁tạnh	1
tóc	1
lit	1
▁văc	1
▁Vitamin	1
ất	1
▁ngụp	1
▁giãi	1
▁Nách	1
▁Vấp	1
▁ĐV	1
▁ANS	1
▁KD	1
men	1
▁hẩm	1
sia	1
Bọ	1
▁Giàn	1
▁KHI	1
▁PH	1
Ể	1
▁NG	1
▁KHÁC	1
▁CÁC	1
Ộ	1
▁Bó	1
▁kiết	1
▁Dư	1
giống	1
▁ngọ	1
▁Lác	1
▁đác	1
▁sùi	1
vinh	1
CTPH	1
TAND	1
▁chẵn	1
▁Soạn	1
▁Gạt	1
▁BaNa	1
đóng	1
▁Tù	1
▁ràn	1
đảm	1
▁nhiêm	1
▁vẳng	1
▁Mùi	1
▁thúi	1
▁rớ	1
▁mũn	1
▁Bọt	1
thạch	1
SCT	1
▁Giọt	1
▁lồi	1
▁phật	1
▁Hút	1
▁Cở	1
▁Mắng	1
▁hạngIV	1
▁Cẩn	1
▁Dày	1
▁hạngIII	1
▁Pyralidae	1
▁Nghi	1
▁Khe	1
▁Nửa	1
Số	1
▁Applaud	1
▁Gã	1
▁hoen	1
▁Lưc	1
▁niu	1
Chiều	1
▁dận	1
BCĐCCTPT	1
HĐPHT	1
▁ran	1
▁Cũ	1
▁Gác	1
▁phàn	1
▁đén	1
▁Trụ	1
▁Sáo	1
▁Hắc	1
▁quệt	1
▁bươm	1
▁Sơri	1
▁Ngõ	1
▁vâ	1
▁chan	1
▁Bỏ	1
NHNN	1
Lúc	1
▁Central	1
▁Group	1
▁Vietnam	1
sâu	1
▁Sumicidin	1
▁SP	1
Sản	1
▁HIV	1
AIDS	1
được	1
▁Vạt	1
▁Cắm	1
▁Trơvơ	1
▁đung	1
▁pơyan	1
▁rơmo	1
▁kư	1
▁kă	1
▁mir	1
▁găh	1
▁kơ	1
nâm	1
.)	1
▁nghẹt	1
▁ktung	1
▁hách	1
▁Sia	1
▁ráng	1
▁Yê	1
▁vưởng	1
BDT	1
▁Duyệt	1
lan	1
▁SK	1
nspray	1
▁DC	1
Tron	1
▁Plus	1
▁Map	1
▁Permethrin	1
imax	1
▁ạch	1
▁Hường	1
▁trót	1
▁rặng	1
▁Dương	1
▁Nhúng	1
▁nhừ	1
▁tuấn	1
▁Bươ	1
▁đâ	1
▁đươ	1
▁nhiê	1
▁hươ	1
dan	1
▁khiễng	1
▁Ndu	1
▁hắc	1
▁gúi	1
▁tạt	1
▁rả	1
▁Giam	1
▁Lơng	1
▁Khơng	1
Dâng	1
▁đom	1
▁Tôn	1
▁sứa	1
▁Sóc	1
▁bam	1
▁Đuang	1
▁Đốn	1
nhập	1
▁Blanc	1
▁Bleu	1
▁Belge	1
BBB	1
tỷ	1
%),	1
sử	1
▁ngýời	1
▁ãn	1
▁xẹp	1
▁Thuê	1
phòng	1
Cùng	1
▁Quà	1
Muôn	1
▁Sỹ	1
▁Se	1
mét	1
Môi	1
▁mói	1
..,	1
▁nhữ	1
▁Loáng	1
▁Hiếu	1
bấm	1
lỗ	1
Hình	1
▁Nghiêm	1
NN	1
▁Urê	1
▁t	1
▁xào	1
▁xù	1
▁dáo	1
▁dác	1
idium	1
▁sp	1
▁Ridomil	1
▁Anvil	1
▁Sẻ	1
▁Tia	1
▁sửng	1
▁bi	1
tối	1
Trường	1
Trung	1
▁cốm	1
▁lạm	1
▁http	1
://	1
sldtbxh	1
▁binhdinh	1
▁gov	1
Bê	1
rích	1
rìu	1
▁Quyển	1
▁đơi	1
▁Vũng	1
▁Chua	1
▁Săn	1
▁Bứt	1
▁Tro	1
trên	1
▁DT	1
▁cằm	1
kít	1
▁niết	1
▁đọ	1
▁Thụy	1
▁nghẹn	1
▁Búc	1
định	1
▁Đấu	1
Hát	1
▁Đành	1
▁Pôm	1
▁Glaih	1
▁Hen	1
▁Xơ	1
▁Tóp	1
▁Chói	1
sức	1
▁Huệ	1
▁í	1
▁cang	1
▁ngóng	1
▁lất	1
Cơm	1
▁Bấm	1
▁Túm	1
▁Vớt	1
▁Rửa	1
Nhơn	1
Dự	1
▁RAT	1
▁LCASP	1
mười	1
)/	1
lò	1
▁Tuôn	1
▁tói	1
▁xuyến	1
▁phảỉ	1
▁mìn	1
▁Mắm	1
▁tóp	1
▁ngụm	1
▁Siếp	1
cành	1
▁Tranh	1
DA	1
▁Đốm	1
▁Carben	1
▁thiếc	1
▁chù	1
▁gạ	1
▁nhiếp	1
▁KCN	1
▁cuồn	1
▁ni	1
▁chòe	1
ŭ	1
▁Plei	1
ŏ	1
▁dăm	1
▁bu	1
mùi	1
▁kép	1
▁ỏ	1
▁Sri	1
▁đười	1
▁ươi	1
▁hước	1
▁hong	1
▁đuốt	1
▁um	1
▁rến	1
Sam	1
▁dẻ	1
Công	1
▁rày	1
▁bấp	1
▁nhằng	1
▁Klot	1
▁Pok	1
▁bỡ	1
Gửi	1
▁hít	1
Kê	1
▁xú	1
▁trệch	1
▁giò	1
▁Biểu	1
siếc	1
▁Đống	1
▁UN	1
SC	1
▁Ngoảnh	1
▁xom	1
▁Duyên	1
▁Gót	1
▁Trí	1
▁vựa	1
▁đuợc	1
▁Diệm	1
▁rỉ	1
▁hạp	1
▁nhức	1
Thu	1
nuôi	1
▁Kêu	1
▁xát	1
Chủ	1
▁li	1
▁nỡ	1
▁ghề	1
▁riều	1
▁Dang	1
đích	1
▁Vác	1
▁tron	1
▁Diêm	1
▁Kên	1
▁Vắng	1
▁nitrat	1
Lưu	1
NC	1
▁cuỗn	1
▁chường	1
▁hèm	1
▁rắm	1
▁Gê	1
▁đít	1
▁nham	1
▁Anacardium	1
▁occidentale	1
▁Bra	1
il	1
Tên	1
▁Khiêng	1
▁rón	1
▁rén	1
▁ló	1
Bạn	1
▁địnhPhê	1
son	1
▁nhũi	1
▁nhắt	1
▁dĩa	1
▁Xích	1
▁têu	1
▁truớc	1
▁Lặn	1
’Ở	1
▁giửa	1
▁hụp	1
▁trồi	1
phin	1
Đi	1
▁khỏng	1
▁lụng	1
TCLN	1
San	1
▁Auricularia	1
▁polytricha	1
▁Auriculariaceae	1
▁sen	1
Giép	1
▁nhe	1
▁ngáy	1
miên	1
▁Lang	1
▁Vặt	1
▁Bén	1
▁Tàn	1
chông	1
▁trồ	1
▁khoắng	1
Gả	1
▁Mão	1
▁rưởng	1
▁shê	1
▁sik	1
▁por	1
▁phớt	1
▁chác	1
▁rái	1
▁phọt	1
▁thuờng	1
▁xọp	1
▁sòm	1
▁Cai	1
lịch	1
sơn	1
▁Nhỏ	1
▁Quần	1
▁Curculionidae	1
▁kem	1
Đúng	1
▁dảy	1
gim	1
▁cồn	1
▁liệng	1
▁GDSK	1
Mụ	1
▁ả	1
▁Rủ	1
▁Xé	1
▁gắt	1
▁ất	1
▁Diệu	1
▁Hác	1
chan	1
▁Dích	1
▁gạn	1
bua	1
▁quặt	1
▁Tận	1
▁mỳ	1
▁Bể	1
Bỏ	1
▁Lưỡng	1
▁....	1
▁Cạnh	1
▁Mì	1
▁Rạ	1
▁Ngợi	1
▁VIệt	1
▁ngây	1
▁khêu	1
▁Đều	1
Cô	1
▁Buồng	1
ruộng	1
,.	1
▁Rộng	1
▁thùy	1
▁Loạn	1
Y	1
đệ	1
▁hoắt	1
▁Hiên	1
▁trôn	1
▁ốc	1
▁Che	1
▁tơtrơ	1
Tháng	1
đoạn	1
Khốn	1
▁Răn	1
▁toà	1
▁chum	1
▁Lạc	1
Hòa	1
Tiền	1
▁Quế	1
Hà	1
Hưng	1
▁khúm	1
▁Cám	1
▁Hiến	1
GDTrH	1
GD	1
▁khắng	1
▁khít	1
▁khuynh	1
hải	1
▁tằm	1
▁quằn	1
▁quại	1
tiêu	1
sinh	1
▁Gơ	1
vốt	1
▁Lính	1
▁Vừng	1
▁vẹo	1
▁đũa	1
▁Dập	1
▁Cọng	1
▁nhím	1
Chị	1
loạn	1
▁chặc	1
Rô	1
Sở	1
Loài	1
▁Kdơ	1
▁Bóp	1
▁cuarThủ	1
thóc	1
▁thũng	1
▁nylon	1
▁Tóm	1
▁Tá	1
▁Thằn	1
▁lủng	1
▁Rễ	1
nua	1
song	1
▁Răng	1
▁Bom	1
▁Đak	1
▁Bung	1
▁de	1
▁dim	1
xây	1
▁rơnei	1
▁Gút	1
▁Trinh	1
Tp	1
phác	1
▁viet	1
▁cháo	1
▁Dùi	1
Mau	1
▁chần	1
đêu	1
.".	1
▁thoải	1
cung	1
▁Đẹt	1
▁Trô	1
TTR	1
▁bẵng	1
▁trìu	1
▁bùi	1
▁nhùi	1
▁Dược	1
..;	1
▁đam	1
▁sẳn	1
▁vaccin	1
▁Đòi	1
eralit	1
▁rạc	1
▁Viên	1
▁tưTổng	1
▁Cứng	1
▁Chụp	1
▁thặng	1
▁Yến	1
▁Lật	1
▁HPC	1
▁TN	1
sào	1
▁quặn	1
▁họat	1
vitamin	1
▁Yết	1
▁Đồm	1
▁độp	1
▁kaly	1
cham	1
kem	1
cách	1
▁Trút	1
▁TTr	1
TĐTN	1
▁CTTN	1
...,	1
▁rè	1
▁Bờ	1
Ẫ	1
▁quắt	1
▁mớ	1
▁vạm	1
▁Thây	1
▁tep	1
đỏ	1
