,	31787
▁'	22666
▁kơ	14409
▁tơdrong	11158
▁sư	9178
▁	8802
▁pơm	8509
▁lu	8474
-	7986
.	7423
▁bơngai	6066
▁rim	5476
▁đei	4981
▁tơ	4778
▁ăn	4512
▁đơ̆ng	4481
▁noh	4431
▁kon	4351
▁weng	4251
1	4142
▁păng	3958
▁minh	3856
▁mă	3709
2	3364
▁ưh	3332
▁khan	3293
0	3271
▁Yang	3228
▁pơlei	3196
▁Kră	3087
▁đe	2908
▁wă	2841
▁lơ̆m	2828
▁lăm	2778
▁iĕm	2777
▁thoi	2697
▁hnam	2611
▁inh	2553
;	2518
▁đak	2494
▁oei	2492
▁Sư	2385
▁năm	2335
▁truh	2324
▁sơnăm	2266
▁jĭt	2259
▁ơĭ	2198
:	2153
▁sa	2044
▁hăm	2031
▁ma	2026
▁nă	1990
Bok	1927
▁gô	1925
▁na	1882
băl	1849
▁lơm	1800
▁adrĭng	1789
▁teh	1789
▁Kei	1753
Dei	1753
▁kông	1726
▁Inh	1702
▁athei	1653
▁đĭ	1594
▁Vinh	1588
▁pơlĕi	1555
▁yua	1529
'	1514
▁cham	1507
▁đơng	1506
▁pơjing	1485
▁jang	1440
▁dêh	1433
9	1432
3	1411
▁ih	1407
▁thu	1404
5	1395
▁jơh	1364
▁‘	1362
▁boih	1350
▁tơmam	1343
▁tinh	1330
▁băt	1286
▁trong	1285
▁hăp	1254
▁Ih	1246
▁tơgŭm	1241
▁pơtho	1235
▁pơtao	1220
yŏk	1211
▁drŏ	1202
long	1200
▁năr	1168
▁đĕi	1163
4	1160
▁hôi	1126
▁an	1121
/	1112
▁kư̆m	1111
▁arih	1107
▁bơ̆n	1103
▁nơ̆r	1101
▁iŏk	1100
▁kiơ̆	1091
▁chă	1088
▁hriêng	1054
▁tơring	1038
▁hŭn	1036
▁gơh	1034
▁xa	1026
lei	1021
▁yoch	1013
▁Lu	1008
▁đông	1004
▁âu	1003
▁soi	972
▁lê̆	970
▁ơbơ̆u	970
▁Tơdrong	962
▁krao	955
▁không	955
▁kơpal	955
lơ̆ng	953
năr	952
▁măng	944
▁la	944
▁rong	926
6	921
▁Isơrael	917
▁pơnhroh	892
▁Thanh	886
▁pơgloh	876
▁pêng	871
7	863
noh	859
▁jên	857
▁huyên	856
8	853
nglo	850
▁tơjung	846
▁kơdih	841
nu	839
▁hnhĕi	836
bôh	827
▁lư	815
▁Yêsu	810
▁pơgơl	808
▁pơđăm	795
▁kơnê̆	795
▁jơnang	785
▁uĕi	780
▁nghiêp	777
▁Mă	771
▁tih	770
▁phong	769
▁ei	767
▁UBND	765
▁ŭnh	765
▁gah	761
▁pơma	760
▁ti	758
▁bu	755
▁hơ	752
bok	752
bơ̆t	743
▁apung	742
▁char	740
đăng	736
▁sơ	733
▁ksô	731
▁dơ̆ng	728
▁ngŏ	717
▁dôm	709
▁tơpă	704
▁anih	701
▁dơnuh	699
▁đinh	692
▁tơgum	689
▁(	689
▁lôch	686
▁oh	683
▁bri	682
▁choh	680
▁trŏ	679
▁pơtăm	678
▁yuô	678
▁–	675
bar	670
▁Hôi	667
▁tê	667
▁jing	666
▁trương	659
▁nai	657
▁Thoi	653
▁sinh	650
▁dơnŏ	648
▁unh	647
▁glong	647
▁đon	646
▁trinh	643
▁anu	642
▁anao	639
▁hoa	635
▁Đang	622
▁Bơngai	618
▁jĭ	617
▁khĕi	617
▁thi	615
▁đô	610
▁tŏ	605
▁hla	602
▁viên	601
)	600
▁măt	595
▁bô	595
▁adrĕch	594
▁tơm	593
▁rŏng	591
▁hiôk	586
▁pă	585
▁pôk	576
▁“	567
▁bĕ	567
▁anăp	564
▁kinh	561
▁lăng	556
▁ba	548
▁bơtho	547
▁kơjăp	544
▁pơkă	544
▁dang	544
▁nhôn	543
▁Na	542
▁Đinh	540
▁tơl	539
▁văn	539
▁ôh	532
▁nông	530
boi	526
▁pơgơ̆r	525
▁ling	518
▁yăl	515
▁jư	513
▁hok	513
▁alưng	511
▁Yua	509
▁lui	509
▁chu	506
▁Sơ	505
▁kuan	501
▁jơhngơ̆m	495
▁hơgei	492
▁kiơ	491
▁nganh	488
▁lơ	488
▁ngo	487
▁lĕch	485
▁adring	485
▁dah	484
▁tơplih	483
▁linh	482
▁hloi	480
▁đoan	480
▁tơmăn	474
▁pran	471
▁yang	470
▁apinh	468
▁tơpăt	467
▁pơyơ̆r	465
▁loi	465
▁xuôn	465
▁adrol	458
▁Đơ̆ng	455
▁kơjung	450
▁tơmưt	443
▁toan	442
▁đat	439
▁juăt	439
▁uy	430
▁hŏk	429
▁hli	428
▁pôm	427
▁kơ̆p	426
ba	423
▁pơlôch	422
▁wei	420
▁akŭm	418
▁chi	418
▁nghê	418
▁đăng	417
▁tam	413
▁yŏng	412
▁Kon	412
▁chưk	411
▁thê	410
▁Rim	407
▁akâu	406
▁bĭ	405
▁kră	404
▁sach	400
▁adrêch	399
▁hinh	397
▁roi	396
▁Hăp	395
▁sơ̆	387
▁in	387
▁puôn	387
▁hơdai	386
▁kang	386
▁chinh	386
jĭt	384
▁rơmo	384
▁phân	384
▁tơ̆	383
▁sem	383
▁tơhngam	379
▁hanh	376
▁Đawit	374
▁tich	373
▁dân	373
▁yă	373
▁mơ̆ng	372
▁Minh	371
bă	369
▁the	368
▁mai	367
▁lêch	367
▁san	367
nhŏng	367
▁blah	366
▁vei	366
măng	365
▁tri	365
▁tư	364
▁dơt	362
▁thông	362
▁rơgoh	360
▁hloh	359
▁liên	358
▁vĕi	358
▁hnhei	358
▁tô	351
▁ară	349
▁rôp	347
▁drơ̆u	347
nâu	347
▁mir	346
▁anăn	345
▁tơxĭnh	344
▁tiêu	341
▁jê̆	341
▁jơ̆ng	341
▁phap	341
▁ty	338
▁chĕp	337
▁khul	336
▁Juđa	335
▁kong	335
▁băl	330
▁Môis	329
▁mô	327
Binh	325
kăn	325
nĕ	325
▁mơ̆n	325
▁Sa	324
▁Ơ	324
▁nưih	319
▁đang	318
mêm	316
%	316
▁trơ	315
▁kêt	315
▁cơ	315
▁đĕch	315
▁kung	315
▁mơ̆t	313
▁nguôn	312
▁thanh	309
▁ky	309
▁tơjul	309
▁kơ̆l	309
▁tŏk	309
▁Păng	308
lang	308
▁lei	306
▁Văn	305
▁chih	304
▁sâu	302
▁lê	300
▁yak	300
▁glăi	299
▁ka	299
▁mơjĭt	297
▁sư̆	296
▁Kơplah	296
▁tơpơ̆h	296
▁hơgĕi	294
▁kơtơ̆ng	294
ban	294
▁đai	290
▁nhân	290
▁Pơm	290
▁yơ	289
▁mĕ	287
▁Lơ̆m	285
▁liêm	284
▁lương	284
▁đam	283
▁pơrăm	283
▁nhiêm	282
c	282
▁ao	282
▁ơ̆u	281
▁boi	280
▁yok	279
▁triu	279
▁sơngưm	279
▁keh	278
▁mơnat	274
▁luât	274
▁đĭch	273
▁bơih	270
▁Chu	268
▁pơjăng	268
▁plĕnh	268
▁ahrĕi	268
▁kơp	267
▁kach	265
▁pơ	264
▁Jêrusalem	263
▁kơpô	263
▁giao	263
▁pơjao	261
▁"	261
▁lang	260
▁Đai	260
▁tao	260
▁đưng	259
▁tôm	259
▁tơpơh	259
▁vu	259
▁iĕ	258
▁lăp	256
▁trân	256
▁plĕi	255
▁pơklaih	255
▁ha	255
▁đao	254
▁Pơlei	254
▁lưk	253
▁tơlang	253
▁hlôi	251
▁Lăm	249
▁pơnhôm	248
▁Êyiptơ	247
▁ơu	247
▁to	246
▁quy	246
▁tơmo	246
▁duh	246
▁kơplah	246
▁đ	245
▁kơkuh	243
yoh	243
▁y	243
▁iung	241
▁piêu	240
▁puăn	237
▁hiong	236
▁brŏk	236
▁pham	236
▁Đe	236
▁adruh	235
▁Tơdah	235
▁công	232
▁pơting	232
▁tơtă	232
?	231
▁nhen	229
▁jơră	227
nao	225
▁Nông	221
▁pơla	221
▁Truh	220
▁đơn	219
▁bơnê	218
▁thương	217
▁xưm	217
▁bi	217
▁tai	217
▁hlôh	216
▁triêu	216
▁tŭk	215
▁jit	215
▁hrat	215
▁adrung	215
▁Lơm	214
▁maih	213
▁loai	213
▁jô̆	212
▁Kŭ̆t	211
-'	211
▁jur	210
▁môi	209
ngla	209
▁Krist	209
▁khŭl	208
Bô	208
▁Tơ	207
▁Điêu	206
▁tơblah	206
▁dŏng	205
▁chĭnh	204
▁thôn	204
▁lâm	203
▁kjung	203
▁pơgop	202
▁mŭk	202
▁tơnap	202
lăng	202
▁akăn	202
▁tơjroh	202
▁dư	202
▁Nam	201
▁tơno	201
▁chương	200
▁bre	200
▁să	200
▁jơ̆p	199
▁Khul	199
▁Sơn	198
▁đêl	198
▁plei	197
▁lech	197
hrĕng	196
▁Trung	196
▁bơar	196
▁vŭ	195
▁pơmat	195
▁jăng	195
ang	194
▁rai	194
▁pah	193
▁vi	192
▁xem	191
▁tuh	191
bơ̆r	191
▁pơtơ̆p	190
▁đôi	190
▁chơt	190
▁akŏm	189
▁thuy	189
▁wơh	189
▁khai	188
▁chăl	187
▁tơp	187
▁ư	186
▁khei	185
▁huay	185
▁hil	185
▁Adrĭng	185
▁kơpah	184
▁lơmo	183
▁ala	183
▁kư̆	182
▁điêu	181
▁sek	181
▁asong	181
▁et	181
▁xư	180
▁rok	179
▁Lăp	178
▁Đei	178
▁năng	177
măn	175
▁tương	175
▁ayăt	174
▁vă	174
▁dăr	174
▁krong	174
▁ninh	174
▁qua	173
▁long	172
▁tin	172
▁tơbăt	171
▁tơchĕng	171
▁răk	171
▁xik	171
▁răm	171
▁nhŭng	170
▁xang	170
▁tro	170
▁Đĭ	170
▁đuôĭ	170
▁drăkăn	169
▁pơđam	169
▁khôi	169
▁chông	168
▁đunh	167
▁lĕ	167
▁kuy	165
▁.	165
▁phu	165
▁đê	164
▁akom	164
▁ôn	164
▁Lêwi	164
▁ly	163
buh	163
▁pơdơh	163
▁pŭ	163
▁lai	162
▁tơdăm	161
▁phai	161
▁chŭn	160
▁hơkăn	160
▁klo	160
▁HĐND	160
lơ̆p	160
▁chơnang	160
mê̆	159
blŏk	159
▁tê̆	158
▁trưk	158
▁Jơnang	157
▁Sôlômôn	157
▁ngăl	157
▁đôk	156
▁pơtruh	156
▁ră	156
▁hoat	156
▁hơri	155
▁grông	155
▁pŭn	154
▁dĭ	154
▁pơgơ̆p	154
▁Ưh	154
▁Kăn	153
▁kư	153
▁tăp	152
bơl	152
▁Phŏ	152
▁hương	151
▁weh	151
▁pơlok	151
▁wih	151
▁rup	150
▁hơmet	150
▁tơdah	150
▁klaih	150
"	150
▁gia	148
▁kơmăng	147
▁kơbră	146
▁Pơtao	146
▁kơng	146
▁Viêt	146
▁Hnam	146
...	145
▁yư	145
▁hrŭ	145
▁thao	145
▁bơdro	145
▁le	145
▁yom	144
▁Trương	144
▁hoach	144
▁ƀa	144
▁nghi	143
▁tơtam	143
▁bơgang	143
▁che	143
Năr	142
▁hlak	142
▁kă	142
bi	142
▁thư	141
▁tông	141
▁tang	141
▁phak	141
▁giă	140
▁kơdâu	140
▁ro	140
tat	139
▁aseh	139
▁achăng	138
▁rơih	138
▁Tơ̆ng	137
▁jơ̆	137
▁Hô	136
▁Wă	136
▁Adring	135
boh	135
▁soh	135
▁Arôn	135
▁Thu	135
▁Giam	135
▁lich	135
▁ƀă	135
▁Phong	135
▁tŭn	134
▁tâm	134
▁atŭm	134
▁tơsĭ	134
▁kĕ	133
▁Dah	132
▁Nơ̆r	132
▁Nhơn	132
▁dĭng	132
▁areh	132
▁klak	131
▁hơdah	131
▁hơp	131
▁pơtơm	131
▁hu	130
bô	130
▁găh	130
▁kua	129
▁lơ̆p	129
▁tĕch	129
a	129
▁kĭa	128
▁drong	128
▁jê	128
bâu	128
▁Pơgơl	127
▁pơlŏk	127
▁trung	127
”	127
▁cô	127
▁mah	127
▁kyê	127
▁hơlĕnh	127
▁Yôl	127
▁phô̆	126
▁Jakôp	126
▁phê	126
▁Sôl	126
▁Thuân	126
▁Anih	125
▁kơtang	125
▁Ăn	125
▁pơkao	125
▁ban	125
▁ngân	125
▁Ơĭ	125
▁phat	124
▁Binh	124
▁kơdră	124
▁bơ̆jang	124
▁Kim	124
▁đim	124
▁huai	124
▁trăm	123
▁pơhrăm	123
▁hưch	123
▁hô	123
mônh	123
m	123
▁khŏm	123
▁trach	122
▁duc	122
▁tơme	122
▁ưng	121
QĐ	121
▁bơbe	121
▁dăm	121
▁akar	121
▁ier	121
▁man	120
▁Iĕm	120
▁Gah	120
▁Noh	120
▁kăt	119
▁kăl	119
▁tơdrâu	118
▁Chi	118
▁tep	118
Nâu	118
▁Hoa	118
▁Chương	118
▁dach	118
▁tơmoi	118
▁glă	118
▁kơl	118
▁Pơtho	117
▁Nă	117
▁vân	117
▁yŭk	116
▁phâm	116
▁Năr	116
▁pơgŏp	116
▁ami	116
▁đi	116
▁muh	115
▁Apinh	115
▁dơsĭ	115
▁tơpul	115
▁hê	115
▁chơ	114
▁tah	114
▁tơlei	114
▁atung	114
▁Nghi	114
▁adrin	114
▁ăh	113
▁pjo	113
▁vê	112
▁giĕng	112
▁dih	112
▁hang	112
▁tâng	112
▁rơmă	112
▁jao	112
▁Hŭn	111
Bă	111
Nĕ	110
▁trât	110
▁Đao	110
▁Huyên	110
▁phĕi	110
▁đĭnh	109
▁quan	109
▁chô̆	109
▁Kông	109
nhĕt	109
▁mơsêh	108
▁khoang	108
▁sưt	108
▁tiêm	108
▁dui	108
▁Tai	108
▁tôch	108
▁Hăm	108
▁Bơsŭn	107
Ban	107
▁mơ	107
▁giai	107
▁nuih	107
▁tuk	107
▁quyêt	107
▁chuyên	106
▁ngôi	106
▁ken	106
▁iêl	106
▁Tinh	105
▁dơ̆t	105
▁chđeh	105
▁ning	105
▁phơ̆ng	105
▁kiêm	104
ǐ	104
▁pơtêp	104
▁ayơ	104
▁buăl	104
▁Kơ	104
▁ioh	104
▁Đê	104
▁điên	104
▁Juđê	103
▁gơnang	103
▁sŏng	103
▁ataih	103
bŏk	103
▁chuân	103
▁Tih	102
▁ương	102
▁bơl	102
▁gĭt	102
nguaih	102
▁lơĭ	101
▁kơna	101
▁,	101
▁tơmang	101
▁trang	101
▁ruôt	101
▁ƀok	101
▁Luât	101
▁quân	101
▁krưp	100
▁giăo	99
▁thŭ	99
▁wao	99
mi	99
▁thâm	99
▁hai	99
▁ranh	99
▁găn	99
bơm	99
▁Thi	99
▁gưm	98
mach	98
▁tanh	98
▁pơngot	98
▁sơ̆p	98
▁hă	98
▁hơbĕn	97
#	97
▁puh	97
Ô	97
▁tiên	97
▁brai	97
▁Teh	97
▁Krong	97
lăi	97
▁vĭ	97
▁jul	96
▁tra	96
▁Năm	96
binh	96
▁ƀuh	96
bơ̆p	96
▁hiơt	95
▁Akŭm	95
▁dan	95
nhĕm	95
▁hơmu	95
▁bôl	95
▁thiên	95
▁Dôm	95
▁-	95
▁alê̆	94
▁Jôsep	94
▁mơdrŏng	94
▁boh	94
ngon	94
▁Covid	94
▁Lê	93
▁mĭ	93
▁jrăng	93
▁Hloh	92
bang	92
▁Lư	92
▁Đak	92
▁nghia	92
bĕnh	92
▁Athei	92
▁Bơhngol	91
▁Thương	91
▁tơ̆p	91
▁như	91
▁quôc	91
▁jŭng	90
▁koan	90
▁Jôsuê	90
▁hoan	90
▁điêm	90
▁phă	90
▁tu	90
bĕng	89
▁akhan	89
nah	89
▁bơsŭn	89
▁hŏa	89
▁hơlĕch	89
▁Quy	89
▁phô	89
▁hơ̆p	89
▁tơpŭ	89
▁kuă	88
t	88
▁asêch	88
▁mưk	88
▁di	88
▁xuât	88
▁Liên	88
▁Thông	88
▁đeh	88
nh	88
▁hơdrol	88
▁ơkơ̆u	87
Lơ̆ng	87
ma	87
▁Sơnăm	87
▁hơgăt	87
▁huy	87
▁wơ̆t	87
▁pơang	87
▁rang	86
▁lơp	86
Boi	86
▁tơgar	86
maih	86
▁Bu	86
▁chưc	86
▁yuk	86
▁nguyên	85
meh	85
▁hin	85
biơ̆	85
▁Măt	85
▁têch	85
▁jơ	85
▁hrŭk	85
▁Đơng	85
▁Qua	84
▁koh	84
hian	84
▁pơ̆k	84
▁tơwih	84
▁Abraham	84
▁tơlĕch	84
bŭ	84
▁An	84
▁kŭ̆t	84
▁biêk	83
▁dech	83
▁ôr	83
▁khoa	83
▁kiên	83
▁thŭng	83
jang	82
▁Dang	82
▁Măng	82
▁groi	82
▁Kŭm	82
▁layơ	82
▁môn	81
▁Mưh	81
▁hiêu	81
▁tơtông	81
▁phĭ	81
▁Ahrĕi	81
▁Nguyên	81
▁chê	81
bal	80
▁mu	80
▁đô̆ng	80
▁tiêp	80
▁trŭn	80
▁bơngot	80
▁Xuân	79
▁Kơpô	79
▁wang	79
▁gleh	79
UBND	79
▁adrech	79
▁tơjrưm	79
▁tuyên	79
▁Pharaôn	79
▁kơnh	79
▁yuơ	79
▁glung	79
▁mơlâu	79
▁Babilôn	79
▁danh	78
▁tơ̆ng	78
▁Jôrđăn	78
▁răt	78
▁mĭl	78
▁vât	78
▁jung	78
▁kŭn	78
▁dur	78
▁sŏk	78
moih	78
▁pơjuă	78
▁khă	77
▁''	77
bơ̆l	77
▁jăn	77
▁đơ̆i	77
▁CCB	77
▁đêch	77
▁gre	77
▁lơi	77
n	76
▁kơtum	76
▁KHKT	76
▁tơdra	76
▁Philistin	76
▁Ngŏ	76
▁yân	76
▁han	76
▁sô̆	76
▁HCM	76
▁tung	76
▁Hao	75
▁bơne	75
▁axong	75
▁pơtep	75
mong	75
▁ơh	75
▁blŭng	75
▁thuât	75
▁anhăk	75
▁hlĭch	75
▁pơdơ̆ng	75
▁ưu	74
▁phang	74
u	74
▁chep	74
▁phe	74
▁pơgang	74
▁kok	74
▁thong	74
▁hiap	74
▁Tơm	74
▁ngoai	73
▁thak	73
▁rŏ	73
▁phương	73
▁dơrong	73
▁kơchăng	73
▁chêng	73
▁Trong	73
▁tơpôl	73
▁Nghĭ	73
▁suât	73
▁truyên	72
▁Đâu	72
▁khoan	72
▁Công	72
▁ƀơm	72
▁ksô̆	72
▁druh	72
▁pơkra	72
▁Chă	72
▁hyoh	72
rơbâu	71
▁phi	71
▁kơ̆u	71
▁đôc	71
▁nghiêm	71
",	71
▁jŭ̆t	71
▁bưt	71
▁thưk	71
▁Hom	71
▁mang	70
Inh	70
▁anh	70
▁pơxrŭ	70
▁hơdơĭ	70
▁đâu	70
▁gơdai	70
▁pơgê	70
▁uôil	70
▁kơđông	70
▁kơne	69
▁ƀôh	69
▁met	69
▁pơih	69
▁juă	69
▁ngu	69
▁kro	69
▁ming	69
▁păr	69
bet	69
▁kơsơ̆	69
▁Hơ	69
▁trôm	69
▁mưh	69
▁thô̆ng	69
▁mơ̆u	69
▁Pho	68
▁mong	68
▁hơmơ̆l	68
▁rông	68
▁Đưng	68
▁hao	68
▁tham	68
brê	68
▁Uy	68
▁but	68
▁xơ	68
▁tơpang	68
▁chê̆	67
▁j	67
▁mônh	67
▁cu	67
▁dêch	67
▁thac	67
▁Thê	67
▁yưng	67
▁nan	67
bŏn	67
▁gak	67
▁Tơjung	66
▁tăng	66
▁hŭt	66
▁liêu	66
▁jơrông	66
▁bơ̆	66
▁lưu	66
▁jet	66
▁nhă	66
▁tech	66
▁brem	66
▁blĕk	66
▁Lao	66
▁kial	66
▁răp	66
▁gêr	66
▁Gat	66
▁kê	66
▁gơ	66
▁Kanaan	66
▁puăt	66
▁jih	65
▁bơ	65
▁Boi	65
▁biêu	65
▁jrŭ	65
▁Yă	65
▁kơpưng	65
bĭ	65
▁Bĭ	65
▁bơhngol	65
Â	65
▁sưa	65
▁păh	64
),	64
bĭch	64
▁sĭt	64
▁lo	64
▁jei	64
Long	64
▁Mŭk	64
▁kia	64
▁kilôgam	64
▁amăn	64
▁trĭ	63
dŏ	63
▁khu	63
▁pơđĭ	63
▁Môap	63
▁đŏk	63
băo	63
▁Pơgloh	63
▁Tô	63
▁pơkăm	63
▁centimet	63
bra	63
▁tơroi	62
▁hmoi	62
▁Dơnŏ	62
▁tĭa	62
▁ơ̆i	62
▁('	62
▁tơ̆k	62
▁chât	62
▁kơđeh	62
▁tơklah	62
▁phŭk	62
▁tơpu	61
▁hơnơ̆ng	61
▁sơlŭng	61
▁Iŏk	61
▁gơal	61
%;	61
▁pơ̆n	61
▁vươn	61
▁ji	61
▁nhơ̆m	61
▁NHCSXH	61
▁re	61
▁nôi	61
▁chêp	61
▁bok	60
▁sô	60
▁Tơgŭm	60
▁pơjăm	60
▁dal	60
▁Manase	60
▁pơkăp	60
▁Pơlŏk	60
▁Jên	60
▁Pôl	59
▁muk	59
▁LHPN	59
▁dơ	59
Ơ	59
▁mi	59
▁pơchah	59
▁nĕ	59
▁Găh	58
▁bơyan	58
▁chiu	58
▁kưu	58
bao	58
bŏ	58
Bŏk	58
▁drap	58
▁soat	58
▁Thinh	57
▁mương	57
▁cheng	57
▁dăh	57
▁uh	57
▁Adrol	57
▁tau	57
▁pha	57
▁kŏ	56
▁Hiêp	56
▁phŏ	56
▁Vĭt	56
▁kơting	56
▁tơsĭn	56
▁kơlih	56
▁vo	56
▁Bênjamin	56
▁hop	56
▁Jơhngơ̆m	56
▁pơlung	56
▁chruh	56
▁sĭ	56
▁chưng	56
▁pơhlŭ	56
▁Lei	56
▁tram	56
yư	56
▁ki	55
▁tơklă	55
▁sơmah	55
▁kơtul	55
mơ̆i	55
▁găr	55
▁ơkơu	55
▁mon	55
▁Nôi	55
▁ra	55
▁mơyang	55
ng	55
▁tơkan	55
▁pơyom	54
▁xoi	54
▁găm	54
TT	54
▁tơiung	54
▁đa	54
▁jăk	54
▁Pơgơ̆p	54
▁canh	54
▁hom	54
▁apoh	53
▁ku	53
▁tô̆	53
▁hoh	53
▁Yôhan	53
▁cung	53
▁kơwao	53
▁hŏp	53
▁rơka	53
▁Kơpal	53
▁tơrơ	53
▁chang	53
▁kơđeng	53
▁hlŏ	53
▁gŏ	53
▁Jơ̆ng	53
▁hră	53
nơ̆m	53
▁chưa	53
▁thăng	53
▁tă	53
▁Jêrêmi	52
▁pĕng	52
▁rac	52
bôt	52
▁drăm	52
i	52
▁tia	52
▁Bai	52
▁đuuôĭ	52
▁Bơ̆n	52
▁hơlen	52
▁mălĕi	52
▁hecta	52
▁A	52
▁sat	52
▁por	52
▁sơng	51
▁klenh	51
▁Hesekia	51
▁Ammôn	51
▁sơhmanh	51
▁tơdrô	51
▁bơmơ̆t	51
▁yanh	51
▁duch	51
▁huch	51
▁phun	51
▁ngư	51
▁chrih	51
▁ly̆	50
▁pơgar	50
▁so	50
biêu	50
▁sang	50
▁ƀar	50
▁Đĕi	50
▁jan	50
▁yơh	50
▁tak	50
▁Eđôm	50
’	50
▁Đôi	50
▁Mĕ	50
CP	50
▁Pêtrôs	50
▁Ti	49
▁yu	49
▁K	49
▁Yoch	49
▁apah	49
▁hơdral	49
▁lao	49
▁hơdăh	49
NĐ	49
▁trăp	49
mon	49
▁Yam	48
▁gloh	48
▁ta	48
▁Pơjing	48
▁tôn	48
minh	48
▁chăt	48
▁Đĭnh	48
▁nglo	48
!	48
▁niêm	48
▁huŏng	48
▁pơnhan	48
%,	48
▁pơchrang	48
yung	48
à	48
▁kăn	48
▁Gileat	48
▁Anh	47
▁chro	47
nhŭng	47
▁pơnăr	47
blep	47
▁ge	47
TTg	47
▁Quang	47
▁diên	47
▁atŭch	47
▁pik	47
▁bơwei	47
▁kŭ	47
▁cai	47
▁thiêt	47
▁jâu	47
▁hei	47
▁chêrubim	47
▁nhi	47
▁Anu	47
▁kuyêt	46
▁Huynh	46
▁Ngân	46
▁plơ̆	46
▁tân	46
bo	46
▁UBMTTQVN	46
▁ngŭn	46
▁sik	46
▁Tây	46
▁hơpơi	46
▁Têt	46
▁Đông	46
▁kham	46
▁nhêm	45
▁lom	45
▁Bi	45
▁jra	45
▁ô	45
▁hơdơi	45
▁khuyên	45
▁ơ	45
bĭa	45
▁nge	45
▁doanh	45
▁khêl	45
ngam	44
▁xut	44
▁tơbral	44
▁jơhnơr	44
▁ôliwơ	44
▁tơduă	44
▁ƀenh	44
nhăk	44
▁tap	44
▁cư	44
▁thôi	44
▁Bô	44
▁pơđep	44
▁nhât	44
▁tơkang	44
▁klŏng	44
▁mưt	43
▁Jôap	43
▁ôm	43
p	43
▁kê̆t	43
▁vaccine	43
▁bơsat	43
▁lĭch	43
▁Chănh	43
▁Baal	43
bat	43
▁Amôrit	43
▁liơ	43
▁Đon	43
▁kơtơh	43
▁ƀơ̆r	43
▁gơ̆n	43
▁pơjah	43
▁klang	43
▁Yŏng	43
▁kanh	43
▁Isăk	43
Ih	43
▁sruôih	43
▁bơnă	43
▁dung	43
▁toh	43
yŭk	43
▁t	42
▁kơtĕch	42
▁xek	42
á	42
▁kê̆	42
▁Kjung	42
▁si	42
&	42
▁kơtă	42
▁kla	42
▁cach	42
▁Bơgê	42
▁Tham	42
▁kơdŭ	42
▁MTTQ	42
▁Pơđam	42
▁sut	42
▁hon	42
▁pang	41
▁ơda	41
▁mưng	41
▁Klaih	41
▁klah	41
▁kăp	41
▁xac	41
▁Đoan	41
▁kân	41
▁Kuy	41
▁Tram	41
▁pơyan	41
▁Pơting	41
▁tơjur	41
▁Asiri	41
▁hlôm	41
▁mơng	41
▁non	40
▁mâu	40
▁xâu	40
lơk	40
▁Ha	40
▁sriêng	40
▁jơk	40
▁yơ̆r	40
▁tơweh	40
▁pơdrâu	40
▁thơng	40
./.	40
▁tranh	40
▁tơnghiêt	40
▁arăng	40
▁Drong	40
▁hơdơ̆r	40
▁khĭ	40
▁pơpuh	40
▁bă	40
▁Krao	40
▁jơnŭm	40
▁đan	40
▁têh	40
băk	40
▁Giăo	40
▁Rubên	40
▁pơk	39
▁hrôih	39
▁dơning	39
▁nghiên	39
lưng	39
▁gưi	39
mui	39
▁La	39
▁hlĕch	39
▁pơđâu	39
▁plenh	39
▁xăng	39
▁klơ̆m	39
▁ơgah	39
bơu	39
▁hơbo	39
▁Nguôn	39
▁tiê̆p	39
▁Hoai	39
▁Pham	38
▁Jĭ	38
▁Bêt	38
▁kiê̆n	38
▁Brih	38
▁rơngei	38
▁dônh	38
▁sĕch	38
▁hư	38
▁yơ̆i	38
▁Samuel	38
▁mum	38
▁gương	38
▁lĕi	38
▁tơnuh	38
nan	38
▁hŏ	38
▁M	38
▁gơwŏk	38
▁mâm	37
yu	37
▁Mai	37
▁hăt	37
▁đŏng	37
▁hlău	37
▁tôi	37
▁sot	37
▁hre	37
▁lap	37
▁hrơ̆	37
▁khâu	37
▁khang	37
▁tơmơ̆t	37
▁lam	37
BNN	37
▁pơtrơp	37
▁nhăt	37
▁po	37
▁Dư	36
▁nhiê̆m	36
▁bơdrong	36
▁drơ̆ng	36
▁vih	36
▁hơkâu	36
▁Bao	36
▁pai	36
▁Oei	36
▁đăk	36
bak	36
ngiĕo	36
▁Jêhôsaphat	36
▁hơƀo	36
▁klong	36
▁Giao	36
▁mơu	36
▁klĕ	36
▁sơkat	36
▁klơ̆p	36
▁mua	36
▁rơkah	36
▁Ban	36
▁sơre	36
▁tăl	36
▁pơtê̆	36
▁thŏng	36
▁kơpăng	36
▁hling	36
▁pơlong	36
▁Mĭ	36
▁ham	36
▁hơtŏ	35
▁drŏnglo	35
▁kŏng	35
▁kơtơp	35
▁amem	35
▁nhĕm	35
nơ̆u	35
▁mih	35
▁tac	35
▁brŏ	35
▁gôh	35
▁erih	35
▁kơthơ	35
▁tơnăp	35
▁brư̆	35
▁Tơpă	35
▁adrơ̆u	35
nau	35
▁jơnum	35
▁xơ̆	35
▁ơla	35
▁sĕt	35
▁pơgăn	35
▁ring	35
▁bal	35
▁sơngah	35
▁mac	35
▁Abram	35
▁tơ̆r	34
▁rơbâu	34
▁tĭnh	34
''	34
▁Dơ	34
▁cam	34
▁câu	34
me	34
▁Êphraim	34
▁gom	34
▁hal	34
▁kơpơ̆ng	34
Noh	34
▁pơdrŏng	34
▁Tư	34
▁pơdăr	34
▁keng	34
▁kueng	34
▁Jop	34
▁thĭ	34
▁ang	34
▁jum	34
▁thuôc	34
▁m	34
▁thân	34
▁klơm	34
▁măy	34
▁Nĕ	34
▁rei	34
▁kumi	34
▁giam	34
▁Pơnhôm	34
▁cưa	34
▁Ta	33
oei	33
▁hơke	33
TTr	33
▁pơ̆ng	33
▁Đưc	33
▁gơ̆	33
▁apo	33
▁thưc	33
▁hek	33
▁hơpiĕt	33
▁athu	33
▁ksê	33
▁nghĭ	33
▁hô̆i	33
▁Lăng	33
▁ai	33
▁dyŏng	33
▁xư̆	33
▁ôp	33
▁bưa	33
▁nhem	33
o	33
▁lŭk	33
▁hơtŏk	33
▁păk	33
▁hnơi	33
▁nươc	32
▁bơ̆ng	32
▁Êlisê	32
▁Sichem	32
▁hmăng	32
▁kơu	32
▁vao	32
▁THCS	32
▁hơbŏ	32
▁pơtih	32
▁pơle	32
▁pra	32
▁Yao	32
▁Vo	32
▁Ahap	32
▁lơngơp	32
▁Anăn	32
brơ̆m	32
▁Canh	32
▁chrơp	32
▁atuch	32
▁hơmĕng	32
▁e	32
▁Pơma	32
Lu	32
▁tuc	32
▁se	31
brang	31
▁dương	31
▁Êli	31
▁yê	31
▁đum	31
▁plênh	31
▁mơmơ̆u	31
▁wơ̆l	31
▁Môi	31
▁prah	31
▁Ƀa	31
▁bơlôh	31
▁plôh	31
▁Jêrôbôam	31
▁juei	31
▁Bơghê	31
▁du	31
▁XIII	31
▁uôl	31
bui	31
▁sơlam	31
▁bao	31
▁alê	31
nhăt	31
yĕr	31
▁bơgê	31
Iĕm	31
▁hlơp	31
▁pơdah	31
▁vuông	31
Nhŏng	30
leh	30
▁thai	30
▁phơ	30
▁Siri	30
▁hlih	30
▁Kua	30
▁bê	30
▁hơyoh	30
▁hi	30
▁rơdu	30
bônh	30
▁tơnơm	30
▁hơdruh	30
▁dăng	30
biê̆n	30
Yua	30
▁tơnŏ	30
▁Tơmam	30
▁pơtĕp	30
▁pơsĭt	30
▁tĭn	30
▁duk	30
▁Liơ	30
▁Ling	30
▁kơdrăng	30
▁đich	30
▁“'	30
▁xơnăm	30
nơp	30
▁gơneh	30
▁kơtăp	30
▁dơng	30
▁vâÊn	30
bêt	30
▁tơpŭng	30
▁Xik	30
▁ngô	30
bu	30
▁gơn	30
▁sơnglŏng	30
▁kŭp	29
▁Pơnhroh	29
▁hiên	29
▁chop	29
bih	29
▁tơbeh	29
▁brư	29
▁duyêt	29
▁binh	29
▁hơđơ̆ng	29
▁Phân	29
▁Hêbrôn	29
▁kĕch	29
%.	29
▁achom	29
▁ke	29
▁Êlêasar	29
▁blu	29
▁kơdơ̆u	29
▁jruh	29
▁lep	29
▁tăi	29
▁Gô	29
▁Pơtăm	29
▁jô	29
▁Sư̆	29
▁êphot	29
▁xêp	29
▁p	29
..	29
▁Quôc	29
▁hơra	29
▁jri	29
▁yan	29
▁Galilê	29
▁nhâp	29
▁tuyê̆n	28
▁Đ	28
nhot	28
▁prĕl	28
▁nŏ	28
▁atâu	28
▁pơmai	28
▁Abimêlek	28
▁tuy	28
Bơ̆t	28
▁pinh	28
▁dich	28
▁yuă	28
▁Rơmo	28
▁Trŏ	28
▁Jônathan	28
▁Kơmăng	28
▁Pêng	28
▁yoanh	28
▁tơplah	28
▁Pơjao	28
▁Đaniel	28
▁chơchă	28
▁kâp	28
▁Phu	28
▁Siôn	28
▁Akâu	28
▁pơgŏ	28
▁jah	28
▁anhôm	28
▁Cty	28
▁Ty	28
▁don	28
▁thiê̆t	28
▁hơlơ̆k	28
▁xe	28
▁hơdrong	28
▁bơ̆l	28
▁mơdro	28
▁đing	28
▁ghi	28
▁Satan	28
▁bluh	28
▁My	28
▁xo	27
▁pŭk	27
▁pơyô	27
▁hlang	27
);	27
▁Chêng	27
▁reh	27
dei	27
▁giơng	27
▁hrĕng	27
bai	27
▁gian	27
▁khĭn	27
▁AÊn	27
▁Glong	27
puăn	27
▁dong	27
▁Thuy	27
▁adro	27
▁Bok	27
▁mam	27
Ŭ	27
▁Samari	27
▁lâp	27
▁lac	27
▁bia	27
▁wêch	27
▁Linh	27
▁tơng	27
▁Êsai	27
▁blung	27
▁yao	27
▁tong	27
▁môt	27
▁yoh	27
lŏ	27
▁bôp	27
▁glang	26
▁chum	26
▁Bơhnar	26
▁Khan	26
nhao	26
▁hơkap	26
▁khach	26
▁kuô̆c	26
▁kơhlôh	26
nă	26
▁hơtŭt	26
▁tor	26
▁tơgơ̆	26
▁hăn	26
▁hra	26
▁kŭk	26
▁Drăkăn	26
▁Layơ	26
▁phŭ	26
▁Pharisi	26
▁bŭk	26
▁chung	26
▁rơngơp	26
▁bô̆k	26
▁chĭt	26
▁yương	26
▁rơkai	26
▁ung	26
▁ruh	26
▁Nhŭng	26
▁pơtŏ	26
▁luyên	26
▁adoi	26
▁Hêtit	26
▁nhơn	26
▁Jơră	26
▁phơ̆k	26
▁quyên	26
▁Nôê	26
▁lanh	26
▁hiŏng	26
▁Êsâu	26
Đĭ	26
▁hơvơn	26
▁sil	26
▁jơwa	26
▁Kuyêt	26
▁Oh	26
▁trưc	25
▁nghiê̆p	25
▁Ngo	25
▁mil	25
▁kơnu	25
▁hơhĭm	25
▁pơmơ̆t	25
▁bang	25
Kră	25
▁khŭ̆n	25
▁bơsei	25
▁chư	25
▁Đan	25
▁môk	25
▁phara	25
▁Lot	25
▁Cat	25
▁keo	25
▁ching	25
▁He	25
▁Nhôn	25
▁kơdơ̆	25
▁Asa	25
▁Kê	25
▁Kiơ̆	24
▁Yi	24
▁ja	24
▁P	24
▁Ksơ	24
▁chuc	24
▁truy	24
▁Tân	24
▁Xêt	24
▁kơdŭn	24
▁Morđêkai	24
▁ơbơu	24
▁phuk	24
▁Tiên	24
▁ap	24
▁rơwĕt	24
▁xêt	24
Z	24
▁kai	24
▁anat	24
▁Hương	24
▁Phat	24
▁grŭn	24
▁pơdreo	24
▁luân	24
▁hlŏng	24
▁hưu	24
▁Nebukatnessar	24
▁lân	24
▁Nhen	24
▁dră	24
▁Mưk	24
▁pơư	24
▁yi	24
▁khăc	24
▁thây	24
▁chiên	24
▁s	24
biê̆	24
▁jơrŭ	24
▁thơĭ	24
▁tho	24
▁thim	24
▁chơ̆p	24
▁Rŏ	24
▁rơnuh	24
▁Kơlih	24
▁cao	24
▁h	24
▁khuân	24
▁yam	24
▁tơklang	24
▁sung	24
▁hiĕk	24
▁lach	24
▁Ƀơ̆r	24
▁kiĕk	24
▁muc	24
▁pih	24
▁CLB	24
▁pre	24
▁ươc	24
▁hơngo	23
▁Thư	23
▁pơgâm	23
Bar	23
▁Bĕ	23
▁cưu	23
▁nho	23
đak	23
▁tươ̆ng	23
▁mŏ	23
▁Kuô̆c	23
▁nhung	23
▁luâ̆t	23
▁hach	23
▁tơ̆n	23
▁Jơh	23
▁Pŭn	23
▁Mari	23
▁rôih	23
▁PTDTNT	23
THPT	23
▁hmŏng	23
▁Xây	23
yưng	23
▁yâu	23
băng	23
▁ư̆ng	23
▁khenh	23
▁yai	23
▁Trân	23
▁Y	23
▁bơnôh	23
▁Yuơ	23
▁THPT	23
▁lơkah	23
▁Jôas	23
▁kơdranh	23
▁kơnăl	23
▁hơĭ	23
▁kg	23
▁hâu	23
pơđăm	23
▁kơchŏk	23
▁hĕl	23
▁jơdrông	23
▁Tông	23
▁glaih	23
▁TTYT	23
▁tơblang	23
▁Uĕi	23
▁awih	23
▁awăn	23
▁xuân	23
▁Mir	23
▁pơgling	23
▁gơnơm	23
▁Balaam	23
▁lư̆k	22
▁Ka	22
buih	22
▁đech	22
▁pơtăl	22
▁kŭm	22
▁pơjâu	22
▁tơhnglo	22
▁hot	22
▁hmă	22
▁Esther	22
▁ŭi	22
▁đương	22
▁kơtŏng	22
▁đo	22
▁thuân	22
▁Pôk	22
▁Mon	22
▁Hơkâu	22
▁lyê	22
▁kô	22
▁kơchĕng	22
▁Jêrikô	22
▁wal	22
▁Lương	22
▁khĭch	22
bơ	22
▁tơbre	22
▁Tam	22
▁đăm	22
▁thê̆	22
bum	22
▁tơklăh	22
▁lot	22
▁dơnă	22
▁chôt	22
▁Kơdih	22
wang	22
TW	22
brơh	22
▁thoat	22
▁hơpang	22
▁nơnăm	22
▁săp	22
▁dưng	22
▁triêt	22
▁nâu	22
▁Tuy	22
▁Dung	22
▁hum	22
▁Amalek	22
▁riê̆h	22
▁trŭ	22
▁Diêu	22
▁xĕt	21
▁đĭk	21
▁vơnh	21
▁nŏng	21
▁Plei	21
▁jơnap	21
▁gĕl	21
▁Mălĕi	21
▁tơnăr	21
▁kơ̆m	21
▁khăn	21
mem	21
▁dim	21
▁hơđong	21
Bơ̆r	21
▁thuôk	21
▁asĕch	21
▁Vân	21
▁hơkôih	21
▁hlok	21
▁ol	21
▁pơgĕi	21
▁hơgơ̆r	21
▁chĭ	21
▁Trŭn	21
▁hơnglâu	21
▁hơch	21
▁d	21
▁Kung	21
▁nhên	21
▁kah	21
▁luô̆ch	21
▁khŏa	21
▁Chuân	21
▁xung	21
▁bơle	21
▁mưih	21
▁Ƀă	21
▁Basan	21
▁ƀơ̆t	21
▁gơ̆r	21
▁hri	21
▁bon	21
▁hlăng	21
▁kơiĕng	21
▁thơ̆	21
▁pit	21
▁kĭch	21
▁Sêđekia	21
▁phiê̆u	21
ạ	21
▁pơkeh	21
▁tăc	21
▁kơmlat	21
▁trai	21
▁săng	20
▁tơtơ̆	20
▁thơi	20
bưh	20
▁tru	20
▁đen	20
▁đom	20
▁yơ̆p	20
▁Tơnglơ̆i	20
▁tăo	20
▁bek	20
▁Pơ	20
▁Khôi	20
biên	20
▁xơkat	20
▁Yuô	20
▁dei	20
▁hrang	20
▁kyal	20
▁yinh	20
▁blei	20
A	20
▁giơĭ	20
▁bưh	20
▁đơ̆u	20
▁au	20
yă	20
▁Hơri	20
▁Trinh	20
̌	20
▁kĭ	20
▁tol	20
▁nhiêt	20
yiên	20
▁ĭch	20
▁ngai	20
▁tơbang	20
▁mơti	20
▁Roi	20
▁mơnhal	20
▁Bơnê	20
▁Bre	20
▁tôh	20
▁Jêhu	20
▁kuyên	20
▁xô̆	20
ố	20
▁Kuang	20
▁Pơgê	20
nhui	20
▁ch	20
▁phung	20
▁grun	20
▁tan	20
▁phông	20
▁Yu	20
▁Pilat	20
▁chơ̆m	20
▁gar	20
▁chơmei	20
▁Rơgoh	20
▁rĕnh	19
▁Por	19
▁bơbŭng	19
yêr	19
▁kue	19
▁muih	19
ha	19
▁kăo	19
▁mo	19
bô̆	19
▁sơnôm	19
▁phĕ	19
▁chư̆k	19
▁Dơsĭ	19
▁Tơmo	19
▁tiê̆t	19
Bơngai	19
▁Gibêah	19
▁ako	19
▁pông	19
▁Drŏ	19
▁XVIII	19
Boh	19
▁Apner	19
▁Kalđê	19
▁Sachari	19
▁Bahnar	19
▁Nhât	19
▁kăi	19
▁lơ̆k	19
▁th	19
▁jrok	19
▁mât	19
▁tơlĕi	19
▁hlo	19
▁Jêbus	19
▁dơnâu	19
▁c	19
▁sir	19
▁tiê̆n	19
NQ	19
▁hŏnh	19
▁tơnglơ̆p	19
▁tơnei	19
▁đôt	19
▁xŏng	19
▁Oêng	19
▁sơ̆m	19
▁jưng	19
▁yo	19
▁têt	19
▁ĕi	19
▁Tuh	19
▁chrek	19
▁Kalep	19
▁luôch	19
▁hung	19
).	19
".	19
▁măh	19
▁trư	19
▁lah	19
▁pơglang	19
▁atŏk	19
▁ren	19
▁Pơđăm	19
▁tôt	19
▁ngêh	19
▁hơbŭt	19
▁kơtu	18
▁pơtôch	18
▁Giĕng	18
▁kapô	18
▁kơtĭt	18
▁kơdiŏng	18
Măng	18
▁he	18
▁Ahas	18
▁krau	18
▁hơmuh	18
▁ơ̆t	18
▁Vă	18
▁hơlă	18
▁Simôn	18
▁Bri	18
▁đap	18
▁Tiêu	18
▁pho	18
Biên	18
▁tơgal	18
▁chơ̆	18
▁buk	18
▁Klo	18
▁Hlang	18
mơng	18
▁poh	18
▁huân	18
▁Ƀôh	18
▁bung	18
▁Xa	18
▁Sơ̆	18
bău	18
▁đuh	18
▁amĕm	18
▁Lê̆	18
▁bơnal	18
▁yer	18
▁lăk	18
▁thiêu	18
▁pel	18
▁Ăh	18
▁luô̆ng	18
▁khung	18
▁măr	18
▁kơđoh	18
▁Sinai	18
▁Jôsia	18
▁chin	18
▁kơdrĭng	18
bơ̆u	18
▁Ahasia	18
▁tâp	18
CT	18
▁Long	18
▁yŭng	18
BNNPTNT	18
▁pơpơ̆	18
bŏng	18
▁xet	18
▁Drin	17
tăng	17
Bĭ	17
▁Rachel	17
bôi	17
▁bơn	17
▁hơgơp	17
▁luăn	17
▁hiơ̆k	17
▁O	17
▁tâÊn	17
▁hiah	17
▁Mơ̆ng	17
▁hơnong	17
▁khăk	17
▁dâ̆t	17
ebu	17
▁til	17
▁hut	17
▁rơh	17
▁rŭng	17
▁răng	17
TU	17
▁hơdrih	17
▁Hli	17
▁chuông	17
▁Apsalôm	17
▁tơk	17
▁l	17
ờ	17
▁kuơ̆n	17
):	17
▁Hêrôt	17
▁Dĭng	17
▁tuân	17
▁gơih	17
▁xum	17
▁pơnam	17
▁hơnĕnh	17
▁pơtơp	17
nĕi	17
▁tơlơ̆	17
▁Bui	17
▁Jêhôiada	17
▁mălei	17
đa	17
▁ko	17
▁dăch	17
▁Aram	17
▁b	17
▁tơtăm	17
▁ho	17
▁pơhiôk	17
▁dĕch	17
batem	17
▁Jơdrông	17
▁phô̆i	17
▁L	17
▁Asaria	17
▁ngar	17
▁I	17
▁amêm	17
▁plang	17
▁xi	17
▁Hiram	17
▁Giđêôn	17
▁along	17
▁vong	17
▁bah	17
▁peh	17
▁Nathan	17
▁chrŭh	17
▁tơhil	17
▁jơla	17
▁ơ̆p	17
▁hơnhăm	17
▁Mô	17
▁kơsŏng	17
▁Druch	17
▁gơ̆ng	17
tơhngam	17
▁Aser	17
▁hơđa	17
▁pla	17
▁Rôp	17
▁tơja	17
dăm	16
▁drănglo	16
▁ayô	16
▁Lêa	16
▁Unh	16
▁grăng	16
▁UBMTTQ	16
▁nhơ̆p	16
▁hơdra	16
▁Kial	16
▁Yakơ	16
▁Sihôn	16
▁chao	16
▁tơrăn	16
▁tơju	16
▁anê̆	16
▁thôt	16
▁xĭ	16
▁Ƀok	16
▁khư	16
▁pơxat	16
▁triên	16
▁Đăng	16
▁bĕt	16
▁Tơmăn	16
▁păt	16
▁pơga	16
▁Tơdăm	16
▁a	16
▁duy	16
▁huăng	16
▁pơrŏ	16
▁Oĕi	16
F	16
ề	16
▁khê	16
tơ̆ng	16
▁meo	16
▁hue	16
▁Hêwit	16
▁mơĭ	16
▁tiê̆	16
Mă	16
▁adrô̆	16
▁plơ̆ng	16
▁hơ̆t	16
▁chŏng	16
▁chhôk	16
▁hiê̆n	16
▁Yôsep	16
▁TUV	16
▁êpha	16
▁Esơra	16
▁dŭch	16
▁xơdrai	16
▁kiĕng	16
▁kơthŭng	16
▁tơ̆m	16
▁ngach	16
▁amăk	16
▁jong	16
▁khuen	16
▁thŭn	16
▁anhao	16
▁trao	16
▁joh	16
▁B	16
▁phưk	16
▁hươ̆ng	16
▁gru	16
▁hơiă	16
▁suang	16
▁pơkơ̆ng	16
▁chơng	16
▁tơnung	16
▁hơyuh	16
▁u	16
▁pơlŏ	16
▁Et	16
▁Balak	16
nhă	16
▁khơ̆	16
▁ươ̆k	16
bla	16
▁bươ	16
▁Đunh	16
▁vai	16
▁kilomet	16
▁kơxơ̆	16
▁iŭ	16
▁Hat	15
▁chhơ̆	15
▁Điêk	15
▁kŭl	15
▁yêu	15
▁sim	15
▁kơlap	15
▁chŭm	15
▁hĕch	15
▁hiơ̆t	15
▁hĭ	15
▁rơhơi	15
▁Kê̆	15
▁kho	15
▁xoh	15
▁Hesbôn	15
▁tơhuŏng	15
▁Nha	15
▁Bung	15
▁EC	15
bơ̆k	15
▁rơneh	15
▁Du	15
▁abơ̆u	15
▁chuôi	15
▁chŭ	15
▁i	15
▁um	15
▁pat	15
▁tơoei	15
▁hơbuh	15
▁Rong	15
▁rơ	15
bah	15
▁Bethel	15
▁ơn	15
▁deh	15
▁Pơtih	15
▁hơwơ̆l	15
▁yiên	15
Băo	15
▁Châu	15
▁tom	15
▁Jư	15
▁nơm	15
Moih	15
▁bai	15
▁MTTQVN	15
▁phao	15
▁pơdơi	15
ï	15
▁lô	15
▁yơĭ	15
▁dơnol	15
▁Sôđôm	15
moi	15
▁grơ̆m	15
▁hơnă	15
▁tơngiĕt	15
▁chong	15
ệ	15
ụ	15
ộ	15
▁chŭah	15
▁lơmưn	15
▁khơu	15
▁pơpôi	15
▁lưng	15
▁hơdrô̆	15
▁Phê	15
▁hơngiĕng	15
▁trôk	15
\	15
▁Gibeôn	15
▁Amasia	15
▁LHTN	15
ế	15
▁pơkong	15
▁liêt	15
▁Đit	15
▁kich	15
▁bơyar	15
▁klĭk	15
▁suai	15
▁Jơrông	15
▁ghêp	15
▁lŭn	15
▁tơhnglaih	15
hnam	15
▁tuaih	15
▁phuôĭ	15
▁lơlap	15
▁tơhiong	15
▁Min	15
▁kuăng	15
▁lơngơ̆u	15
▁tiênh	15
▁lưc	15
▁Kăt	15
▁plĕch	14
▁kih	14
▁Hai	14
▁Siđôn	14
▁aleh	14
sa	14
▁tơrong	14
▁kơleng	14
▁Nhiêm	14
...)	14
▁phŭt	14
▁hơko	14
▁XI	14
▁huăt	14
▁Drăm	14
▁vơ̆	14
▁Hadadêser	14
▁lung	14
▁hơkĕ	14
▁pô̆	14
▁tơguăt	14
ủ	14
▁xâm	14
▁de	14
▁Keh	14
▁kơeng	14
▁bơdrŏng	14
ä	14
▁hơlăh	14
▁agah	14
▁phêp	14
▁blai	14
▁bơng	14
▁Tơtông	14
▁khơ̆ng	14
▁ngơk	14
▁Hơpơi	14
▁Jabes	14
▁tơdrŏ	14
▁Phi	14
▁ŏ	14
í	14
Dah	14
▁Lang	14
lăn	14
▁pơyơ̆l	14
▁khao	14
▁hluôi	14
Băl	14
▁nap	14
▁klep	14
▁hoai	14
▁gărnăt	14
▁giơ̆ng	14
▁Bênaia	14
ớ	14
▁jơ̆u	14
▁toăn	14
▁Kôrê	14
▁hơpong	14
▁châp	14
▁may	14
▁pơklep	14
▁hơnhuăl	14
lih	14
▁kuyê̆t	14
▁Hơkăn	14
▁TNHH	14
▁nhĭm	14
▁blư	14
▁Hermôn	14
▁tơhlu	14
▁Ahi	14
▁chuơh	14
▁brih	14
▁klĕng	14
▁Hêbrơ	14
▁mĭn	14
▁khinh	14
▁vinh	14
▁klă	14
▁biên	14
▁kơnhŏng	14
▁nilon	14
▁H	14
▁Quyêt	14
▁kơtao	14
▁Đarius	14
▁Kơ̆l	14
▁chŭt	14
▁Tơplih	14
▁XII	14
▁prăt	14
▁Asêrus	14
▁huang	14
▁ngoh	14
▁Jang	14
▁klai	14
▁hơdrĕch	14
▁Phan	14
▁Dich	14
▁Hamat	14
▁hơlah	14
▁gan	14
▁pĕ	14
▁Jê̆	14
▁dai	13
▁Uri	13
▁kơniê̆h	13
▁tơhlâu	13
▁ân	13
▁Tirơ	13
▁Mi	13
▁hơlŭng	13
▁hơdrông	13
▁lơngơ̆p	13
▁Baasa	13
▁tơblĕk	13
▁brah	13
▁Sabulôn	13
▁Gilgal	13
▁ƀot	13
▁pơhrŭk	13
▁Hla	13
đưng	13
▁nhŏng	13
▁kuơk	13
▁râu	13
▁Sem	13
▁nôp	13
▁Ƀơ̆t	13
▁kơdeng	13
▁Mika	13
▁Adrĕch	13
▁kram	13
▁Pran	13
pêng	13
▁chon	13
▁XX	13
▁Khoan	13
▁nhâm	13
▁Pơjăng	13
▁Tơ̆	13
▁tơtreh	13
▁quet	13
▁Betlehem	13
▁jơmŭl	13
▁tơgiĕp	13
▁goi	13
▁Tung	13
▁Tơnuh	13
▁Chăl	13
Dang	13
▁Chĭnh	13
▁pênh	13
▁hrăn	13
▁atol	13
▁Kinh	13
▁kơdrơ̆ng	13
▁xen	13
▁kơn	13
▁Rêhôbôam	13
▁cân	13
▁bơ̆k	13
▁dơbưk	13
▁Pă	13
nhŭ	13
▁yung	13
▁bôi	13
▁giac	13
▁lat	13
▁Miđian	13
nhik	13
▁chăp	13
▁bơlŭk	13
▁Kang	13
CTr	13
▁pui	13
▁Hông	13
brơ̆u	13
▁kse	13
▁pal	13
▁sop	13
▁Vŭ	13
▁hơlŏng	13
bot	13
▁Hêli	13
▁Haman	13
▁chĭu	13
▁quen	13
▁Gi	13
▁Triu	13
▁Jêsreel	13
▁chơ̆ng	13
▁lươĭ	13
blach	13
▁su	13
▁nha	13
▁ake	13
Tơdrong	13
▁glơng	13
▁pơgal	13
ợ	12
▁Ben	12
▁mơmŏ	12
ngoaih	12
▁lơ̆n	12
nei	12
▁Ge	12
SNN	12
▁tiêt	12
▁dơnŏ̆	12
▁thŭk	12
▁Baruk	12
▁Cham	12
k	12
▁tĭng	12
▁nam	12
▁Chơmei	12
▁honh	12
▁hơdruch	12
▁adron	12
▁Xac	12
Apinh	12
▁yĕt	12
▁preh	12
▁hrăp	12
▁căp	12
▁Isakar	12
▁Băt	12
▁Asap	12
▁Arnôn	12
▁chhŭr	12
▁chŭng	12
▁hơdro	12
▁Rôbôam	12
▁tơchă	12
▁bral	12
▁kơdrô̆	12
▁chiêu	12
▁Sallum	12
Nhĕt	12
▁wăn	12
b	12
▁bŏk	12
▁it	12
▁tuôi	12
▁blơ̆	12
▁sra	12
▁xap	12
▁lơngoh	12
▁pơdŭk	12
▁Truyên	12
▁rơhing	12
▁Vu	12
▁thoang	12
▁hmach	12
▁Plĕi	12
▁tuch	12
luch	12
mơ̆ng	12
▁iă	12
▁Hung	12
ể	12
▁v	12
▁dô̆	12
▁Hiap	12
▁pơlai	12
▁khĕ	12
▁Khoa	12
▁dă	12
▁name	12
▁Phinêhas	12
ó	12
▁juơ	12
▁C	12
▁hlăm	12
▁hơtat	12
▁ah	12
▁bênh	12
▁jăl	12
▁Hô̆i	12
tin	12
▁hoi	12
▁kơsô̆	12
▁mơkai	12
▁Phươc	12
ấ	12
▁kali	12
h	12
▁lơ̆i	12
▁jo	12
▁wơ̆n	12
▁kêch	12
▁ngang	12
bôm	12
▁km	12
▁Đi	12
▁bơ̆t	12
▁kleng	12
▁pơđơ̆k	12
▁pơnăh	12
▁klĕnh	12
▁Kiriat	12
▁brăh	12
▁hlôch	12
▁đô̆k	12
▁thĕng	12
▁căo	12
▁pung	12
▁Khai	12
ỡ	12
▁Ađam	12
▁khơ̆u	12
▁prơih	11
▁kuân	11
▁gưu	11
▁tơklep	11
▁pơchăh	11
▁Huy	11
▁hơiơch	11
▁klăn	11
▁pơhngol	11
▁Silô	11
▁thơn	11
▁jơru	11
▁hlêh	11
▁Hơpiĕt	11
▁pơdơĭ	11
▁bjo	11
nĭng	11
▁hơmol	11
▁đô̆i	11
▁Hôrêp	11
▁Pơlok	11
▁thuơ	11
ị	11
▁rơwơ̆ng	11
▁iơ̆m	11
▁Khĕi	11
ngot	11
▁Sêmaia	11
al	11
▁vưk	11
năk	11
▁hrŏng	11
▁brei	11
▁Kur	11
lal	11
▁thuê̆	11
▁Nhi	11
▁nhanh	11
▁nhâÊt	11
▁Chinh	11
▁hua	11
▁klĕch	11
"...	11
▁Dêch	11
▁văr	11
▁hơchô̆	11
▁kruôĭ	11
▁Rê	11
bêka	11
▁Ƀar	11
▁đoh	11
▁anguôn	11
▁vang	11
ch	11
▁yŭ	11
▁Viên	11
▁bơlŏ	11
▁hay	11
▁anô̆	11
▁Ơphrat	11
▁TBLS	11
▁mưu	11
▁Sara	11
▁traih	11
▁hăi	11
▁klăm	11
▁hăk	11
▁Sêba	11
▁tơƀăng	11
▁lua	11
▁sôr	11
▁jĭl	11
▁khuyê̆n	11
▁pơnil	11
▁ph	11
▁nư	11
▁Jêhôahas	11
▁rơgei	11
▁ĕnh	11
▁pơchi	11
▁Jôna	11
▁Pơhngol	11
▁hơdrei	11
▁phơng	11
▁hơwang	11
▁nô̆i	11
▁hơđăl	11
▁Tamar	11
▁Lâm	11
la	11
▁Pơlĕi	11
▁chôh	11
▁Tơlei	11
▁Bêrsêba	11
▁Dŏng	11
▁hông	11
▁Cao	11
▁tơnat	11
▁chhĕr	11
▁seikơl	11
▁tơpa	11
▁Hơdruh	11
▁chơp	11
▁Tơmoi	11
▁Masêđôn	11
▁pơthim	11
ở	11
▁ƀih	11
▁dơdrơ̆u	11
▁xây	11
▁kơtol	11
▁ga	11
▁Jêhôram	11
▁Saphan	11
▁rơvơ̆ng	11
▁bôt	11
▁tăm	11
TTLT	11
▁rah	11
▁Kong	11
▁hê̆	11
▁mơlôh	11
▁apăng	11
▁wơ̆	11
yol	11
▁tăk	11
▁Đamas	11
▁kơnĭ	11
▁tơpuh	11
▁giang	11
▁hrâu	11
▁Kades	11
▁rô	11
▁adrŏ	11
▁suôn	11
▁Jôram	11
▁pơjĭ	11
▁tơtuh	11
▁kơđum	11
▁rơbưn	11
▁adal	11
ỉ	10
▁đia	10
▁Thŭng	10
▁tơkĕch	10
▁Ier	10
▁pơplŏng	10
▁hơya	10
Ba	10
▁đuk	10
ngok	10
▁Rông	10
▁nang	10
▁Tôbia	10
▁Yăo	10
▁Simêôn	10
▁Hơĭ	10
băm	10
▁hong	10
▁wĕi	10
pơm	10
▁huach	10
nhĕng	10
▁jơnei	10
ơ̆ng	10
▁dreng	10
Bo	10
▁thuô̆k	10
Yă	10
Bal	10
▁tơthu	10
▁tơpen	10
▁Kruô	10
ne	10
▁lă	10
▁hơnguang	10
▁hmĕt	10
▁phăi	10
▁ngeh	10
bưa	10
▁hơngăh	10
▁chai	10
kg	10
▁tơgăk	10
▁kơchôp	10
▁Hadat	10
▁biĕm	10
▁Tuân	10
▁atuôch	10
▁hơleh	10
▁bra	10
▁Hamôr	10
▁hơnul	10
▁khŏ	10
▁Mơsêh	10
▁:	10
▁lĭ	10
▁ƀâu	10
▁kương	10
▁sơhngeu	10
▁Ksô̆	10
▁klŏk	10
▁đêm	10
▁hyôk	10
▁brơ̆u	10
ngir	10
▁vĭn	10
▁jrơ̆u	10
▁Atuch	10
▁pơyua	10
▁hơtuch	10
▁yư̆	10
▁ca	10
▁tơtok	10
▁jơva	10
▁Kain	10
▁pơdê	10
mŭi	10
▁ngoi	10
▁var	10
▁vơng	10
▁phâÊn	10
▁ăng	10
▁hiêm	10
Nhĕm	10
▁đoăn	10
Tơjung	10
▁vêr	10
▁tuôch	10
▁sră	10
▁mơ̆m	10
▁hreh	10
▁âm	10
▁guăng	10
▁Rôm	10
▁Arôe	10
▁tơhlăk	10
▁hơwŏng	10
▁jreo	10
▁To	10
▁chrăh	10
▁Hră	10
▁măk	10
▁war	10
▁kĭn	10
▁Athalia	10
ngeo	10
năm	10
▁sơdrô	10
▁pơgơp	10
▁kem	10
▁Xư	10
▁kuôk	10
▁Weh	10
▁hơpôm	10
▁GDNN	10
▁lak	10
▁kôih	10
▁tơ̆l	10
▁Yak	10
▁kuăr	10
▁mŏm	10
▁hroh	10
▁yol	10
▁găt	10
▁yêt	10
▁Jôhanan	10
▁agĕi	10
Bô̆	10
▁Nun	10
▁rơhiĕo	10
▁bơlŭ	10
▁Lui	10
▁tơdrơi	10
▁lơlang	10
▁Kăl	10
▁nhong	10
▁Grĕk	10
▁tơh	10
▁tr	10
▁NVQS	10
▁hơgrop	10
▁hmôch	10
nhem	10
▁Pre	10
▁nhưa	10
▁puih	10
▁thang	10
▁bơnat	10
▁CTĐ	10
▁Ngoai	10
▁S	10
▁thư̆	10
▁Jêhôas	10
▁bih	10
▁Kơnh	10
hŭn	10
▁yêr	10
▁TP	10
▁pơdriêu	10
▁iĕr	10
▁phep	10
▁pơtrŭt	10
▁dŭk	10
▁yuih	10
▁Asdôt	10
▁TC	10
Bai	9
▁ruôih	9
▁tĭu	9
▁pơda	9
▁sơmat	9
▁Phương	9
▁plah	9
lơ̆m	9
▁pơrĕng	9
▁ngâm	9
▁hơdôm	9
▁nhâ̆n	9
z	9
▁Drŏnglo	9
▁chĕl	9
▁xoai	9
▁Êliap	9
▁Han	9
Moi	9
▁ƀăn	9
▁kư̆u	9
▁giơ	9
▁HTX	9
▁rơdje	9
▁đâm	9
▁sơngum	9
▁Ithamar	9
▁rơnŭk	9
▁kơxêng	9
▁tĭch	9
▁Chuyên	9
▁ach	9
▁hơmrŭk	9
▁Atŭch	9
▁Hoang	9
▁Jêhôiakim	9
▁Tuyên	9
Gah	9
▁kao	9
▁văk	9
▁Kư̆m	9
▁chơhlŭng	9
▁pơjei	9
▁Phersia	9
▁pơdjoi	9
▁Naptali	9
ắ	9
▁miên	9
Bŏn	9
▁chup	9
▁yăo	9
▁Akăn	9
▁yơ̆ng	9
▁tơnglơ̆i	9
y	9
▁Hur	9
▁Vong	9
▁Mơyang	9
ồ	9
▁Kơdrăng	9
▁prit	9
▁hôn	9
▁xre	9
▁pĭt	9
Mi	9
▁đăi	9
▁chơkăl	9
▁Hơdai	9
▁gueo	9
XH	9
▁Liban	9
▁Artaserses	9
▁Ismael	9
▁pơchoh	9
ả	9
▁wơnh	9
▁tôl	9
▁Tơbre	9
▁lơliơ	9
▁sap	9
▁Amôt	9
▁tơtoh	9
▁hơbĭ	9
▁chĭng	9
▁jơlu	9
▁kơdĭp	9
▁Kơtơ̆ng	9
Bong	9
nglaih	9
▁hơlenh	9
▁dĕk	9
▁pleh	9
▁bơla	9
▁hyah	9
▁trư̆k	9
▁pơđăp	9
▁Kôhat	9
▁pơtŏk	9
ơĭ	9
▁ram	9
▁ĐBQH	9
▁Tôm	9
▁T	9
▁hle	9
▁lêk	9
▁Ala	9
▁Jrăng	9
▁chanh	9
▁Anao	9
▁gơdung	9
▁pơchĕp	9
▁hơdrơ̆ng	9
bông	9
▁Sêra	9
▁ngoan	9
▁thô	9
▁puôl	9
▁akău	9
▁Ramôt	9
▁phôi	9
ti	9
▁GDTX	9
▁HĐNVQS	9
băt	9
▁dâng	9
▁sơhmêch	9
B	9
▁Xăng	9
▁gơ̆t	9
▁chuih	9
▁mêm	9
▁kŏk	9
▁Tu	9
▁tơsi	9
▁Khŭl	9
mŏk	9
▁đŏn	9
▁Sêir	9
▁bơlang	9
▁Sêmes	9
▁sơđiêng	9
▁bơhlơ̆r	9
Meh	9
▁jop	9
▁Go	9
▁Muh	9
BTC	9
▁Đơn	9
▁xuyên	9
▁sơhngơ̆m	9
▁Tơme	9
▁Simri	9
▁muôĭ	9
▁ươm	9
▁Pơgŏp	9
▁Apung	9
▁Sôba	9
▁oĕi	9
▁Pơyan	9
▁kơep	9
▁Let	9
▁can	9
▁Gŏ	9
▁Usa	9
Iŏk	9
▁Đĭch	9
▁Sơ̆p	9
▁tơgêl	9
▁vê̆t	9
▁ngăn	9
▁Hơdral	9
▁pơchê	9
▁chrêu	9
▁phiêu	9
▁jŏk	9
▁hleh	9
▁nên	9
▁hrŏ	9
▁Ekrôn	9
▁Pơxat	9
▁xĭn	9
▁hui	9
▁nghĭp	9
sem	9
Mra	9
▁pia	9
▁Naômi	9
▁dơnih	9
▁Ao	9
▁sơgiêng	9
▁đên	9
▁Chĕp	9
▁diêu	8
▁gol	8
▁Kơtum	8
▁wăi	8
▁bôh	8
▁Rêphaim	8
▁thay	8
▁cô̆	8
▁trưng	8
▁bŏl	8
▁Senacherip	8
▁suy	8
bê̆n	8
▁tơtŏ	8
▁đô̆	8
▁Hơƀo	8
▁huơ̆r	8
▁glơi	8
▁Kênit	8
▁pơdrŭt	8
▁băng	8
▁ploh	8
▁krĕo	8
▁kơnơ̆m	8
▁alah	8
▁Đuôĭ	8
▁bơghê	8
▁hơlăng	8
bơt	8
▁chơ̆n	8
▁rơmuăn	8
▁xit	8
▁thăi	8
▁Nai	8
▁huâÊn	8
▁chhar	8
▁Sưt	8
▁mung	8
▁sơhmĕch	8
▁Jêhôiachin	8
▁Abiathar	8
▁thĭch	8
▁Rama	8
▁Hưng	8
▁tơpei	8
măt	8
▁roh	8
▁Gersôn	8
▁khô̆i	8
▁atăk	8
▁Hilkia	8
▁kưt	8
▁Blo	8
▁kơpôl	8
▁gơning	8
▁Usia	8
▁NPK	8
▁ƀum	8
bênh	8
▁mơn	8
BGDĐT	8
▁Abigail	8
▁cuc	8
Liơ	8
▁tŭ̆n	8
▁hơrao	8
▁Chô̆	8
▁axeh	8
▁Hasor	8
▁Hơtai	8
▁đah	8
▁Trŭ	8
▁phĕt	8
▁Khei	8
▁Sêruia	8
▁van	8
▁bôk	8
▁Pơtơ̆p	8
▁hơkă	8
▁Toa	8
▁jal	8
▁tơtraih	8
▁huyêt	8
▁atŏng	8
▁hram	8
▁hĕi	8
▁nhan	8
▁xŏk	8
▁veh	8
▁amne	8
▁kit	8
▁sŭt	8
▁Abisai	8
▁Pơkăp	8
▁klŭ	8
▁tĕnh	8
▁Xưm	8
▁bô̆i	8
mra	8
▁Thĭ	8
▁proi	8
▁mĭnh	8
▁khi	8
▁mơlơ̆u	8
f	8
Bôh	8
▁Bơbŭng	8
▁Giă	8
▁hơđơ̆r	8
▁IV	8
▁Nhương	8
▁leng	8
▁Gêba	8
▁hơjơ̆m	8
▁Ahija	8
▁đăo	8
▁pơhrôp	8
▁pơtoi	8
▁hơkŭng	8
▁chhơp	8
Năm	8
▁hơloh	8
▁Chđeh	8
▁hrap	8
ul	8
▁chơhlung	8
▁Chau	8
▁chiê̆u	8
▁câp	8
▁Điên	8
▁hơtai	8
▁rơvĕt	8
▁Kho	8
▁huan	8
ầ	8
inh	8
▁Ning	8
▁V	8
ũ	8
▁kơsĕ	8
▁pră	8
▁hat	8
å	8
▁mê	8
▁chhông	8
▁Kơkuh	8
▁sưc	8
▁al	8
▁Bet	8
▁pơrŭng	8
▁chơke	8
▁Chôt	8
▁goh	8
▁rôi	8
▁hơbăt	8
▁Hok	8
▁ăr	8
bich	8
▁Chăm	8
▁Thong	8
▁kuôc	8
▁lênh	8
▁ya	8
▁Wei	8
▁thươ̆k	8
▁Lakis	8
▁Klĕ	8
▁Tăng	8
▁grang	8
▁ting	8
▁Nađap	8
▁Hôr	8
▁kep	8
▁Pơklaih	8
▁kơtơih	8
▁Sarai	8
▁Bơtho	8
▁kơnă	8
▁hơtol	8
▁master	8
▁vơ̆t	8
▁Gru	8
▁gơwang	8
▁tơter	8
▁hơdrao	8
bê	8
▁đơĭ	8
▁lit	8
▁hơkăm	8
▁gŏk	8
Athei	8
▁khô	8
▁Tơpu	8
▁Nêbat	8
▁Sukôt	8
▁Thŭ	8
▁Đĭk	8
▁ksĕ	8
▁Asêra	8
Thoi	8
▁cươm	8
▁Kuyê̆t	8
▁đơ̆p	8
▁krăi	8
▁Lai	8
▁prăh	8
yang	8
net	8
▁chiê	8
▁kơđôp	8
▁soan	8
▁Jôbap	8
▁mơmơnh	8
▁PTDT	8
mĭn	8
▁bơu	7
▁Tŭn	7
▁Hlôi	7
▁kâu	7
▁dông	7
▁pơkoih	7
▁rơbua	7
▁Samsơn	7
nap	7
▁Duch	7
▁tơdong	7
lep	7
thoi	7
Ö	7
▁Êđen	7
▁ich	7
▁khoi	7
▁Đăk	7
▁tơjrư̆m	7
▁mơlung	7
▁srôp	7
▁Mispa	7
▁Phơ̆ng	7
▁lal	7
▁chêk	7
▁Rahap	7
Brê	7
▁tư̆	7
▁Tơpơh	7
▁hơkong	7
▁ksơ̆	7
▁hmong	7
▁châÊt	7
▁Thưk	7
▁rơdah	7
Mêm	7
▁Lipna	7
▁anot	7
▁wai	7
▁khich	7
▁rơnua	7
▁kơđŏng	7
biêt	7
▁pring	7
▁Hrŏng	7
▁Phap	7
l	7
▁Ư̆	7
▁Nhân	7
▁hơ̆l	7
▁jơdrơ̆u	7
▁Yơĭ	7
▁đaih	7
▁sơnguĕt	7
▁pơgiơ̆ng	7
▁Điêm	7
▁pro	7
▁Anania	7
▁hmơm	7
▁sân	7
▁TDTT	7
nhŏ	7
▁pôih	7
▁Geser	7
▁hơ̆u	7
▁Kơtrơ̆m	7
▁Adar	7
▁xă	7
▁Tĕch	7
▁drŭt	7
▁Nabal	7
▁pơglăn	7
▁ve	7
▁khơĭ	7
▁tơdŏng	7
▁Biê	7
▁Hơbĕn	7
▁Jôel	7
ự	7
▁hoch	7
▁Sisêra	7
▁Thai	7
▁ƀĭch	7
▁Hưu	7
▁Timôthê	7
▁ăi	7
▁hơvơ̆l	7
sơnăm	7
▁hiăn	7
Bơ̆l	7
▁Neptali	7
săng	7
▁lươi	7
▁Dơning	7
▁Abihai	7
▁plôi	7
▁hơie	7
▁lĭn	7
▁klok	7
Bôô	7
▁atơ̆t	7
▁Araba	7
▁anung	7
▁broch	7
▁rui	7
▁dơh	7
▁Tơpang	7
▁apong	7
▁hngăm	7
▁tơwir	7
▁kơdrâ̆m	7
nhueng	7
▁chuôh	7
▁gơnăp	7
yân	7
▁pơhĕch	7
▁Nghiên	7
▁Êphêsô	7
▁hơpuăl	7
▁rơmơ̆n	7
puôn	7
▁dak	7
teh	7
▁pơchŭt	7
▁Pơjâu	7
▁Êl	7
▁Hagar	7
▁TT	7
▁Adrêch	7
▁grơ̆	7
▁pơnhơm	7
▁hơtăng	7
▁quang	7
▁Phươk	7
▁Pơgling	7
▁Hanh	7
▁VN	7
▁XIV	7
▁pơjăh	7
▁đôm	7
▁xơ̆k	7
▁Sur	7
▁ƀoh	7
▁tơhyung	7
ậ	7
▁ƀlep	7
▁kơdrăt	7
▁hrăng	7
▁sŭng	7
▁phut	7
▁Kơ̆p	7
▁kuĕl	7
▁Jing	7
▁kôch	7
che	7
▁ngŭr	7
▁yĕr	7
▁mana	7
nhĭp	7
▁Gêsur	7
ứ	7
▁Jair	7
▁hming	7
▁LĐ	7
▁mơgrĭ	7
▁gam	7
▁Grông	7
▁mau	7
▁êt	7
ơ̆u	7
▁dje	7
▁jơdră	7
Dôm	7
▁hơwĕng	7
▁tome	7
▁Sadrak	7
▁Mêsak	7
▁Abetnigo	7
▁Ngăt	7
▁Jêphunê	7
▁Quan	7
▁Hơlen	7
▁Tĭt	7
▁Quân	7
▁Sirus	7
▁tơpanh	7
▁gong	7
▁khuôĭ	7
▁Atŭm	7
▁biê̆	7
▁Ap	7
▁praih	7
▁Haran	7
▁adĭng	7
▁tơpling	7
▁sao	7
▁kơthao	7
mơ̆u	7
▁atơ̆u	7
▁nh	7
▁bưn	7
▁toi	7
▁Sŏk	7
▁Cơ	7
▁ƀlang	7
Lơliơ	7
PCTT	7
▁tơdiong	7
▁kum	7
▁nu	7
▁III	7
▁Abihu	7
▁tơjră	7
▁kuê̆	7
▁tơdr	7
▁Jeptha	7
▁trom	7
▁Trang	7
▁Jêsua	7
▁adrih	7
▁Kŭn	7
▁Philip	7
▁yươ̆k	7
▁plŭng	7
▁đuơĭ	7
▁Tra	7
▁KM	7
▁hơtei	7
▁biêt	7
▁chơkhŏ	7
▁nơĭ	7
▁bach	7
▁buch	7
▁Dêh	7
▁Sưa	7
▁tơpăl	7
▁hơnat	7
▁om	7
▁kĭnh	7
▁Prăt	7
▁nhơ̆n	7
▁Thơng	7
▁Puôn	7
▁Klak	7
▁pơkau	7
▁nhom	7
▁kral	7
▁kheŭ	7
▁nhơng	7
▁đuô̆i	7
▁thar	7
▁rơmaih	7
▁pơgei	7
AÊn	7
▁Gômôrơ	7
▁/	7
▁bet	7
▁kret	7
▁kơchu	7
▁Plĕnh	7
▁kơdŭng	7
▁Tơtil	7
▁Simêi	7
▁Astarôt	7
▁kơđei	7
▁pơhloh	7
▁Gasa	7
▁xơđơ̆ng	7
▁hơmơt	7
▁khĕo	7
▁Drơ̆u	7
▁rôm	6
▁sơm	6
▁tơs	6
▁Kiên	6
▁giăc	6
▁khơi	6
▁Tang	6
▁kơnao	6
▁ơnhơng	6
▁tơbrŏk	6
▁hrŭl	6
BCTT	6
▁kiêu	6
Bĕng	6
▁chơđah	6
▁gen	6
▁Tôh	6
▁măm	6
▁kŭt	6
▁Jêrup	6
▁asech	6
▁krĕnh	6
yâng	6
▁Đêbir	6
▁hơmrah	6
phir	6
▁talâng	6
Đi	6
▁toaih	6
▁nol	6
▁hơmŏng	6
▁ngom	6
▁Nabôt	6
▁pơ̆	6
▁Eglôn	6
▁chơngue	6
▁bơnơ̆	6
Tăi	6
▁thưa	6
▁pơrơ̆ng	6
▁Băo	6
▁Hiơt	6
▁niên	6
▁rây	6
yŭ	6
▁kiăk	6
▁Tơpen	6
▁kơnĕ	6
▁yuc	6
bruih	6
▁tơpơng	6
▁dinh	6
▁Isbôset	6
▁jơmŏng	6
▁prei	6
▁hlot	6
▁pul	6
▁pơwao	6
▁tuơ̆n	6
▁Lêmek	6
▁siêu	6
▁get	6
▁đăc	6
Yŏk	6
▁Mêgiđô	6
▁tŭ	6
▁Xâu	6
▁yĕng	6
▁r	6
▁Tirsa	6
▁xoang	6
Lăm	6
▁bŏng	6
▁dât	6
▁plach	6
Adring	6
▁lăh	6
▁chăy	6
▁blang	6
▁Răt	6
▁xuơn	6
▁bhak	6
▁Loai	6
▁ksơ	6
▁Ghok	6
▁wăng	6
▁hrôh	6
û	6
▁mok	6
▁ƀet	6
▁Akis	6
▁Phai	6
▁Thah	6
▁Êliasip	6
▁pơxư̆	6
▁wêl	6
▁Êhut	6
▁Pơgop	6
▁rĭ	6
▁Rup	6
▁Ahitup	6
Nao	6
▁kơniêh	6
▁tơhnglăih	6
▁Kêrêthit	6
▁dŏ	6
▁Hasael	6
▁Tri	6
▁diong	6
▁Tơhngam	6
▁bo	6
▁hơdrơ̆n	6
▁Jese	6
▁dâu	6
▁phuc	6
▁tamo	6
▁Mamrê	6
▁Hơdrol	6
▁krô	6
▁Adonija	6
▁Khăi	6
▁săi	6
▁Kus	6
▁hiơ̆	6
▁pơnal	6
▁atău	6
▁kơtuăl	6
▁bơrơ̆m	6
▁Simei	6
▁tơmông	6
▁hơdrĭ	6
";	6
▁đĕo	6
▁Phadan	6
▁Bêsalel	6
▁jơlơ̆m	6
Tơdah	6
hla	6
▁sĭn	6
▁bơ̆u	6
▁yôm	6
Mưh	6
▁hrek	6
▁giâm	6
▁mat	6
▁phan	6
▁brê	6
lĕp	6
▁Rapba	6
ngeng	6
▁tơjruh	6
▁Hanan	6
▁rut	6
▁Corona	6
▁Cloramin	6
▁gruih	6
▁tơhli	6
▁Ên	6
▁Lơ	6
▁tuôn	6
Bê̆	6
▁Ly	6
▁lêh	6
▁Kiêm	6
▁tŏt	6
▁Sêphatia	6
▁Gêđôr	6
Đe	6
▁Êlim	6
▁sŏ	6
▁N	6
▁thinh	6
▁Sinh	6
Sơnăm	6
▁đong	6
▁Ikariôt	6
▁ŏng	6
▁Jica	6
km	6
meu	6
▁In	6
▁ươk	6
▁CNH	6
▁Chĭu	6
▁tơlak	6
▁Trơ̆	6
▁blông	6
▁jŭk	6
▁Mâm	6
Pơlĕi	6
▁Maaka	6
▁Hađat	6
▁chroh	6
▁Andrê	6
▁pơkăl	6
▁adrang	6
▁nhơ̆t	6
ễ	6
▁milimet	6
▁hơbong	6
ì	6
▁Aseh	6
▁ƀŭ	6
▁ioch	6
▁Kơsơ̆	6
▁Krông	6
liwơ	6
▁dunh	6
▁xơng	6
▁hơdong	6
▁ĐT	6
▁kheo	6
▁polĕi	6
Na	6
▁tưng	6
ii	6
▁pŭng	6
▁Rơn	6
▁tơkhiĕn	6
▁Bethani	6
▁Hasar	6
au	6
Ơĭ	6
▁sơleng	6
ngeh	6
▁hơbĕch	6
▁urê	6
▁hlôl	6
▁rơmuơn	6
ĐT	6
▁Sebulun	6
▁tơdă	6
▁hĭl	6
▁sum	6
▁hơchăng	6
▁kô̆	6
▁khêng	6
▁Luâ̆t	6
▁Bêrekia	6
▁Êlkana	6
▁pơhnŏng	6
▁Ba	6
▁ak	6
▁yơ̆l	6
▁prung	6
▁nguơn	6
nâm	6
▁II	6
▁hĭn	6
▁gŭm	6
ọ	6
ã	6
▁abri	6
Bơ	6
KH	6
▁tŏng	6
▁jrâu	6
▁Makir	6
▁kơmlo	6
▁mur	6
▁Tơtam	6
▁‘'	6
KT	6
▁Ênok	6
▁gra	6
▁bong	6
▁Hŏk	6
▁apoih	6
ong	6
▁Đina	6
▁chau	6
▁jĭÊng	6
▁kiê̆	6
▁đăt	6
▁Gêđalia	6
▁Ahikam	6
▁khôn	6
▁grĕnh	6
▁Ư	6
ngoh	6
▁Hu	6
đơ̆ng	6
Bung	6
▁Rêhôp	6
▁pơti	6
ơn	6
▁Pla	6
▁hơbăn	6
▁Tơdrô	6
▁VIII	6
▁bơdư	6
▁Êthiôpi	6
▁Loan	6
ka	6
Đông	6
hoy	6
▁hơpăh	6
▁Ksô	6
▁băo	6
▁akanh	6
▁Gơh	6
▁me	6
▁drŏng	6
▁ĭnh	6
▁tơpĕnh	6
▁adrê̆ch	6
▁rơhiăng	6
▁Xem	6
brưch	6
▁pơloh	6
▁mơh	6
▁Xơnong	6
▁nham	6
▁tơluh	6
▁xĕch	6
▁Đô	6
▁tŭng	6
▁blă	6
▁phŏng	6
▁Său	6
▁Lasarơ	6
▁UB	6
▁sôt	6
chi	6
adrĭng	6
▁ky̆	6
▁xrôk	6
▁gion	6
▁Jô̆	6
▁đơđik	6
▁asĕng	6
▁Pơrăm	6
▁Sĭt	6
▁tơkal	6
▁nĭm	6
▁kơpaih	6
▁tui	6
▁rêch	6
▁srơ̆p	6
▁hơpo	6
▁Tĭa	6
▁Hơbăn	6
▁khoanh	6
tơsĭn	6
▁giap	6
khĕi	6
▁têm	6
▁yư̆m	6
▁Nhŏm	6
Minh	6
ler	6
▁bac	6
▁suâÊt	6
▁Cuc	6
▁Phươ̆k	6
▁Ƀuh	5
▁kheu	5
▁chêo	5
▁Vĭ	5
▁sơtơ̆p	5
▁xơnong	5
▁Giai	5
▁hơgơn	5
▁tơkơi	5
▁Hôrôn	5
▁Kơne	5
▁pơgơ̆t	5
Buih	5
▁Pông	5
ỗ	5
▁Êlah	5
▁Mahanaim	5
▁hơnam	5
▁Phun	5
▁reng	5
▁tơb	5
▁dơhlông	5
▁Thơĭ	5
▁hiê̆u	5
▁koa	5
nguơ̆	5
▁Website	5
▁Hơnhăm	5
trong	5
▁kơpen	5
▁hơdang	5
▁Tơjul	5
▁tơmơ̆ng	5
▁Bêla	5
▁Bêôr	5
▁đưc	5
▁môch	5
▁Hagai	5
▁nĕi	5
▁rĕk	5
▁pơlơ̆m	5
▁kơnơl	5
▁Chơnang	5
▁Ênos	5
▁Sađôk	5
▁Ahimelek	5
▁kêng	5
▁Kê̆t	5
ngôch	5
▁Jabôk	5
▁grĕng	5
▁chuă	5
▁drơ̆m	5
▁riêng	5
▁dil	5
BYT	5
▁diê̆	5
▁Rapsaka	5
▁kôn	5
▁Nêr	5
▁jăm	5
▁hơdroi	5
BTTTT	5
▁păi	5
CCB	5
▁Barak	5
▁drum	5
Đơ̆ng	5
▁New	5
▁E	5
▁trĭn	5
▁go	5
▁lar	5
▁kơdah	5
▁Jôsua	5
▁put	5
▁Pơlôch	5
▁Ngŭn	5
▁Vui	5
▁hyơt	5
▁tơkưng	5
▁tât	5
▁Pơkra	5
▁Tŏk	5
▁tơhiu	5
▁thuôi	5
▁apal	5
Ưh	5
▁prơng	5
▁Sadok	5
▁Kis	5
▁chŭk	5
▁atŏ	5
▁pơcheh	5
▁Jêhiêl	5
bom	5
▁pơkŭ	5
▁kơxăi	5
▁Sêraia	5
▁ƀlal	5
▁lŏng	5
▁đơ̆k	5
▁koch	5
▁xŭk	5
iĕng	5
▁rơva	5
▁hơi	5
kua	5
kơdih	5
▁Tôch	5
▁Mêriba	5
▁nat	5
▁kơtŭm	5
▁Êlnathan	5
▁Kơpưng	5
▁jơgơ̆l	5
▁hĭnh	5
▁chăng	5
▁sŭp	5
▁dơnơm	5
▁pơch	5
▁Hơgơ̆r	5
▁Klơ̆m	5
▁Thêm	5
▁tơpơ̆k	5
sơdrô	5
▁n	5
▁pơlŭk	5
▁păl	5
▁WP	5
▁gơl	5
▁hơiuh	5
▁Xoi	5
▁grong	5
▁măi	5
▁hâp	5
▁jru	5
▁Kơdră	5
▁pi	5
▁Kơtăp	5
▁pơret	5
▁sơbŏ	5
▁De	5
▁ioi	5
▁Bơ̆	5
▁KHCN	5
▁kơmah	5
▁luai	5
▁Lo	5
▁lêm	5
▁Hơkap	5
▁jơ̆n	5
▁Khu	5
▁Răm	5
▁pơnhen	5
▁jrĕng	5
▁Er	5
▁Kêbar	5
▁Bani	5
▁Huram	5
▁San	5
▁kơtuen	5
▁Hanani	5
▁Iung	5
Barna	5
▁kam	5
▁dây	5
Tơ	5
dak	5
▁King	5
monh	5
tniêl	5
▁nhơk	5
▁Tơring	5
▁pơngơ̆t	5
▁taih	5
QLCL	5
▁viêng	5
▁vê̆	5
▁yuĭt	5
▁Sêla	5
lơm	5
▁iơch	5
▁Đa	5
HĐND	5
▁kơxu	5
▁Sil	5
▁alăng	5
▁Bac	5
▁Câu	5
▁Kŏ	5
▁Ngŏk	5
▁hrăt	5
Khu	5
▁Abija	5
▁yaih	5
▁Vei	5
▁Gêber	5
▁rơnôp	5
▁ter	5
▁kơlot	5
▁tơch	5
▁đơk	5
▁akap	5
▁rach	5
▁chơpuih	5
▁Mơnat	5
▁Tơpul	5
▁Ph	5
▁bâu	5
▁Êlon	5
▁djrŭ	5
▁Hiong	5
▁tơbôl	5
▁Naaman	5
▁Hatawa	5
▁mơkan	5
▁Huay	5
▁Pôm	5
▁Tâp	5
▁ahrei	5
▁đau	5
▁tơtil	5
Dân	5
▁Pi	5
▁Madian	5
▁Gêra	5
▁Xơnăm	5
▁yăng	5
▁kênh	5
▁Sir	5
▁Bia	5
lŭng	5
▁căt	5
▁Luân	5
Pơtih	5
▁bơgloh	5
▁Nganh	5
▁đeu	5
tha	5
▁Riblah	5
▁păn	5
▁theo	5
▁yô	5
▁klui	5
▁rơđah	5
▁Kêila	5
▁hlal	5
▁Đơ̆i	5
▁nger	5
Bao	5
▁kilogam	5
▁Aijalôn	5
▁khô̆ng	5
▁pưng	5
▁Thêra	5
▁hnang	5
▁hnglo	5
▁Pêôr	5
▁kron	5
▁hau	5
▁pơsư̆	5
▁The	5
▁drâu	5
▁mô̆i	5
▁Găr	5
▁khăi	5
▁kăch	5
▁Khoang	5
▁nhơ̆ng	5
▁Sâu	5
▁kh	5
▁Mălei	5
▁cheh	5
▁thŭ̆	5
▁Dan	5
▁phim	5
▁bar	5
▁Yân	5
▁sơn	5
▁kơpul	5
▁Phuc	5
▁Đim	5
▁Asi	5
▁hơh	5
▁test	5
▁mŏk	5
▁Hlŏ	5
▁Seba	5
▁đu	5
▁pơhoch	5
ý	5
▁pơnhoh	5
▁hơla	5
▁Sêlôpêhat	5
▁puôil	5
▁trŭk	5
▁hơkô	5
biêa	5
▁adrơ	5
▁Ruôih	5
▁Hơ̆p	5
▁hrơ̆t	5
▁gŏch	5
mơn	5
▁Tơgum	5
▁ată	5
▁Pha	5
▁ngam	5
▁bơgrong	5
Bu	5
▁klơĭ	5
▁thơ̆u	5
▁tơnang	5
▁Kương	5
▁Khŏa	5
▁lươ̆k	5
▁hơga	5
▁Nhă	5
▁gơnơ̆m	5
▁tơ̆t	5
▁Amnôn	5
▁tơt	5
▁atak	5
▁asu	5
▁ruô̆k	5
▁tơkul	5
Bak	5
▁ViêtGAP	5
▁hơnguăng	5
▁Barnêa	5
nut	5
▁Păh	5
▁kơdơ̆r	5
VPCP	5
▁Mêdi	5
▁cơng	5
▁Thây	5
▁Yanh	5
▁chruih	5
▁Đĭu	5
▁Mikaia	5
▁ket	5
▁Mêsulam	5
▁potho	5
▁Yên	5
▁Hanania	5
▁Pơkă	5
▁yuôn	5
▁Lĕch	5
▁Hêman	5
▁Mêrari	5
▁hnong	5
▁tơkêng	5
▁Tho	5
▁Iđô	5
▁dơmônh	5
▁lôm	5
▁D	5
▁Êlat	5
▁gơdron	5
▁Cu	5
▁clorua	5
▁det	5
▁tơpăk	5
▁ƀôt	5
▁jor	5
▁Tơ̆m	5
▁aninh	5
▁Sikri	5
▁Abel	5
BNV	5
▁Arah	5
▁yuh	5
▁Nô̆i	5
▁pơuh	5
▁Nil	5
▁chơkep	5
▁Nebusaradan	5
▁Ruôt	5
▁loa	5
▁trem	5
▁vơ̆l	5
tơpơh	5
▁tơkuh	5
▁sơmă	5
▁Hơdrong	5
▁Trơ	5
▁chơđong	5
Blŏk	5
%/	5
▁Sađŏk	5
▁pơdong	5
▁song	5
▁trăk	5
▁Tong	5
▁yơ̆u	5
▁Drơught	5
chă	5
▁tơpơih	5
▁tơmĭl	5
▁cm	5
▁Man	5
▁Nêbusar	5
▁Adan	5
▁dep	5
▁ê	5
▁Pơmai	5
▁Đưk	5
▁uch	5
▁nơnung	5
▁giêh	5
▁bru	5
▁bơyơ̆ng	5
▁rơnok	5
▁khanh	5
▁châu	5
▁lơnhư	5
▁bơbôl	5
▁mơ̆r	5
▁Yan	5
▁Hơkă	5
▁Khĭ	5
▁grê	5
▁doh	5
▁Maih	5
Bê̆n	5
▁hy	4
▁klơi	4
▁krê	4
▁tơjrang	4
▁cheu	4
▁bram	4
▁kơnâm	4
▁krang	4
▁hơnenh	4
▁bip	4
▁Hưch	4
▁lem	4
▁brơ̆t	4
▁kơtong	4
▁doa	4
▁Marêsa	4
▁yich	4
▁tơn	4
▁pơsĕi	4
▁hmiêt	4
▁tơwing	4
▁Nêria	4
im	4
▁gron	4
▁Mađơla	4
▁Xư̆	4
▁atâo	4
Lei	4
▁Lôch	4
▁hơlih	4
▁pơja	4
BXD	4
▁kŭi	4
Đei	4
▁J	4
▁Nhong	4
▁LHTNVN	4
▁ĐRin	4
▁Ch	4
▁rôn	4
iii	4
iv	4
▁Dinh	4
▁Pêres	4
bơ̆	4
▁hrĕnh	4
▁Sherpa	4
ol	4
▁tăt	4
▁Piêu	4
▁Kênan	4
▁sruô̆ih	4
nat	4
▁Sêlômit	4
▁Pơla	4
▁Phe	4
TCCB	4
▁gal	4
▁krŭl	4
▁Jakin	4
▁Matania	4
▁Triên	4
▁đâp	4
▁pơchek	4
▁atêng	4
▁tơplŏk	4
▁thô̆	4
▁Gaal	4
▁Adah	4
DT	4
▁tơjra	4
ỏ	4
▁Đêbôra	4
▁Yư	4
▁Êliakim	4
▁Rimmôn	4
▁hơnik	4
▁ông	4
dunh	4
▁kơchap	4
▁brŏng	4
▁Jră	4
▁tư̆u	4
▁bơdô̆	4
▁hơxeh	4
▁dat	4
▁Hana	4
▁chich	4
▁hruh	4
▁Maki	4
▁thuyêt	4
▁bơ̆i	4
▁gĕi	4
▁tơtey	4
▁Khê	4
▁Kơting	4
▁Jahasiêl	4
▁Siklak	4
▁Sôrôbabel	4
▁Jêhôsađak	4
▁Êbêt	4
▁boăl	4
▁lê̆i	4
▁nơr	4
âu	4
▁Silas	4
▁Êtien	4
▁Che	4
▁Gưi	4
▁juô̆	4
▁Sareser	4
▁Nêbô	4
▁kôp	4
▁Mês	4
▁arĕ	4
▁mưc	4
▁rơ̆u	4
▁tơkư	4
▁giây	4
+	4
▁krĕng	4
nĕng	4
▁hnhuk	4
▁gglong	4
▁chiêm	4
▁Kuă	4
▁Dui	4
▁Ksơ̆	4
măk	4
▁Ară	4
▁Ra	4
▁huen	4
▁wengăn	4
▁tơxinh	4
▁Jêiêl	4
▁đĭa	4
TY	4
▁och	4
▁kơ̆i	4
▁gơp	4
▁Thimna	4
▁xuâ̆t	4
▁Khĭn	4
▁Chiên	4
▁Char	4
▁Tep	4
▁Không	4
▁Gêr	4
▁xele	4
▁hraih	4
▁Bikri	4
▁Jêthrô	4
▁Tơng	4
▁Kơp	4
▁Hơres	4
▁ƀăt	4
▁Bê̆	4
▁pơŏm	4
Mai	4
▁uôi	4
▁neo	4
▁Reh	4
▁ngơnh	4
▁Phêrêsit	4
▁srĕ	4
M	4
ẹ	4
▁Têkôa	4
▁Aminađap	4
▁truc	4
▁tŭl	4
▁Bila	4
▁Mêtusêla	4
▁con	4
ú	4
▁Hoay	4
▁Phak	4
▁yê̆u	4
▁hlơ̆p	4
▁pô	4
buôi	4
en	4
▁nach	4
▁Gôliat	4
▁Rêsin	4
▁Pêka	4
▁Jaser	4
▁Lưk	4
▁Pơkao	4
▁Xuât	4
▁klôm	4
▁MTV	4
▁Biossed	4
▁Hri	4
▁viêm	4
Yem	4
▁TB	4
dang	4
▁pơdô̆	4
▁Jra	4
▁Ishar	4
▁kơkŏng	4
▁hơtăl	4
▁Pui	4
▁pơtĕnh	4
▁Hoan	4
▁lĭm	4
▁Gôsen	4
▁Rac	4
▁Adrê̆ch	4
▁hơlai	4
▁tơmăng	4
▁gi	4
▁JICA	4
▁hrai	4
▁kop	4
▁rơi	4
▁giŏng	4
▁măc	4
▁dĕi	4
▁bich	4
▁cacbin	4
▁Purim	4
▁Kơchăng	4
▁Aphek	4
▁pơpơn	4
▁kơhô	4
▁đô̆m	4
▁Kư	4
▁HĐH	4
▁kơsep	4
▁xanh	4
▁chơđeh	4
Pôk	4
▁Eber	4
Bơ̆n	4
▁Tâm	4
hrot	4
▁dơm	4
▁Trư	4
▁gôp	4
▁Boh	4
▁Bơh	4
uang	4
▁Gia	4
▁raih	4
sư	4
▁Nghia	4
õ	4
▁khơ̆r	4
▁tơnơ̆ng	4
▁Ria	4
▁hăl	4
▁sơ̆k	4
▁Sinar	4
▁pơglăi	4
▁Kibrôt	4
▁tơjŭng	4
▁pơklai	4
▁tưk	4
▁VNPT	4
▁Susa	4
brơ̆	4
▁Yoanh	4
▁Mơjĭt	4
▁tăh	4
▁eng	4
▁Super	4
▁KCL	4
▁Êtham	4
Pơnhôm	4
grai	4
▁hơreh	4
kơ̆l	4
▁dơnơ̆	4
▁kĕi	4
▁Mikal	4
tơdrâu	4
bunh	4
▁âp	4
▁Bơ	4
▁đâk	4
▁tơtang	4
▁Silpa	4
▁vĕ	4
▁CSGT	4
▁khuôn	4
▁Mơ̆t	4
▁hadoi	4
▁tral	4
BTP	4
▁pơthokhan	4
▁dươc	4
▁Nưih	4
▁wĕch	4
▁bĕng	4
▁jak	4
ôn	4
▁cŭm	4
▁tơgưm	4
▁đuôt	4
▁GD	4
▁kuang	4
▁Mêlkisêdek	4
▁Chiu	4
▁beh	4
▁tơmăk	4
▁Aân	4
▁Êngêđi	4
▁yơl	4
▁pơh	4
▁pơt	4
▁Manôa	4
▁Tơngăm	4
▁Đing	4
▁xoch	4
▁Uôn	4
▁Bach	4
▁tơj	4
▁tơhl	4
▁Hêsrôn	4
▁chuơĭ	4
▁Xet	4
▁Nasaret	4
▁chơnŭp	4
▁Khenh	4
Nguaih	4
▁hiêng	4
ò	4
Kjung	4
tuy	4
Yu	4
▁Mahalale	4
▁Jaret	4
▁tơbŭch	4
▁pôi	4
▁Đên	4
▁kơxŏk	4
▁xar	4
▁khuyêt	4
▁Jêsebel	4
▁Usiêl	4
▁Ră	4
▁Liêm	4
▁kơlăm	4
▁vưc	4
▁Sêruk	4
▁Nahôr	4
▁kơjing	4
▁lơng	4
▁xir	4
▁Asêrim	4
▁đôn	4
▁Mahyco	4
▁tuôĭ	4
▁ƀăk	4
▁kơđĕl	4
▁kăk	4
▁w	4
▁Chông	4
▁Pơih	4
▁pơdrơ̆ng	4
▁Copper	4
▁pơnăt	4
ŏ	4
lôp	4
▁Asahel	4
▁tơmŏm	4
▁pơgoh	4
▁Chŏng	4
▁pơkuê̆	4
▁pơkuă	4
▁TNCS	4
▁hơnuh	4
▁tơiŏk	4
▁khêp	4
▁Dơ̆ng	4
▁Kăp	4
▁diêng	4
▁krĕi	4
▁tơnui	4
▁lơngưp	4
▁loat	4
▁Ê	4
brơu	4
▁Axong	4
▁Gêrar	4
aseh	4
▁Karmel	4
▁âÊn	4
▁nơ̆k	4
▁Hiôk	4
▁Amasa	4
▁điah	4
▁gơlong	4
▁Axeh	4
▁gưng	4
▁mơlĕch	4
▁Bôi	4
pơtêp	4
▁tơrô̆	4
▁Kŏch	4
▁Plŭng	4
▁rơđăng	4
▁sương	4
lơ̆	4
▁ping	4
▁kơkach	4
▁Gơnơm	4
▁chiê̆n	4
▁lĭu	4
▁sriê̆	4
kơpô	4
▁gio	4
▁xach	4
▁khĕnh	4
▁Agak	4
▁Anathôt	4
▁Hơlŭng	4
▁Akbôr	4
▁pok	4
ŭnh	4
▁Yuăn	4
▁Kơthơ	4
nguôn	4
it	4
▁Cưu	4
▁tơlech	4
▁Jao	4
▁Êlam	4
▁cha	4
▁hơnôk	4
▁kơtăng	4
▁Thêman	4
▁Hawila	4
▁Yin	4
▁UVBTV	4
▁ong	4
▁Êskôl	4
pơgloh	4
▁Tr	4
bơ̆m	4
▁sreh	4
▁Th	4
▁Muk	4
▁bơdong	4
BC	4
▁Hơmơ̆l	4
nŭng	4
▁Phŭ	4
TB	4
▁kơtăk	4
▁Đathan	4
▁Abiram	4
▁srôh	4
▁Vĕi	4
▁kWh	4
▁Pơđĭ	4
▁Kơjung	4
▁lơhông	4
▁gih	4
▁Đrin	4
Tinh	4
▁pơxĭt	4
▁pơlênh	4
ă	4
▁chua	4
▁chơkanh	4
Nhot	4
▁chohjang	4
▁hơnar	4
▁pơkhôi	4
▁jil	4
▁Kơdŭ	4
▁chơnĕng	4
▁pơjĭp	4
▁hơlam	4
▁gram	4
▁APĂNG	4
▁MĂ	4
chơhlŭng	4
▁Êsiôn	4
Bui	4
▁Suc	4
▁Êliêser	4
▁reo	4
▁driêu	4
▁atheo	4
▁hôp	4
oh	4
▁nêp	4
▁Loi	4
iêng	4
▁Chiê̆n	4
Tơgum	4
brư̆	4
▁Set	4
▁Thao	4
▁atau	4
▁pơgreh	4
▁Muc	4
▁hro	4
▁hor	4
▁suk	4
▁kơchăm	4
▁pơtơ̆m	4
▁tơprah	4
▁Cưa	4
▁khơl	4
▁Rut	4
▁Salêka	4
blal	4
▁pơgrŏng	4
▁hơ̆	4
▁plŏk	4
▁pơlenh	4
▁hah	4
▁siêng	4
▁Haserôt	4
STC	4
▁côt	4
▁Nathanel	4
▁Samla	4
▁Chanh	4
Lang	4
▁rơĭ	4
▁Gơ	4
▁kơdăh	4
▁gŏp	4
▁sơruôih	4
dĕch	4
▁tek	4
▁wek	4
▁chô	4
▁plơh	4
▁jua	4
▁Dăm	4
▁ơdrơ̆u	4
▁trăi	4
▁Xung	4
▁Tir	4
▁gơ̆p	4
▁sơhmach	4
▁amrĕ	4
▁hơbơ̆u	4
▁kuek	4
▁Kuân	4
▁prăng	4
▁tơkach	4
▁tơxi	4
▁Dân	4
▁Charan	4
▁tron	4
khoa	4
▁rơ̆m	4
▁tre	4
▁Chê̆	4
▁Mathê	4
▁liah	4
▁huên	4
▁plih	4
▁căn	4
▁Ngai	4
▁drôih	4
▁tơyơ	4
▁ngơ̆	4
▁djăl	4
▁tưu	4
▁Mikael	4
▁Đŏk	4
mri	4
▁Ure	4
▁Supe	4
▁kơdrơ̆m	4
▁Thuôk	4
bơngai	4
▁Thôm	4
▁adrong	4
▁tơnôn	4
▁Milô	4
▁ơng	4
▁suĕng	4
▁tơdơ̆ng	4
▁tơnanh	4
▁sơnĕnh	4
▁hơwen	4
▁Siêu	4
▁BigC	4
▁pơdŭ	4
▁giơi	4
▁kuyê	4
băn	4
Ku	4
▁Pơtêp	4
▁pơlêch	4
ia	4
STP	4
▁Girgasit	4
▁yơi	4
▁Pêlek	4
▁pao	4
▁Lâp	4
nam	4
▁juôi	4
▁Kơng	4
▁Abijam	4
▁virus	4
▁kơdra	4
▁Băc	4
▁Rêbu	4
rim	4
▁Xom	4
▁Pơnhơm	4
▁ngei	4
▁Tha	4
▁Bâm	4
▁wơl	4
▁hyăh	4
▁chư̆ng	4
▁Toan	4
▁akĕ	4
xa	4
▁kơmơ̆t	3
▁đih	3
▁nhuân	3
▁Hinôm	3
▁tơjrông	3
▁Nuih	3
▁hơtâu	3
▁Sua	3
be	3
KTNS	3
▁Miên	3
▁Ky	3
▁Hon	3
▁luy	3
▁thoai	3
nơl	3
▁ơkâu	3
▁thâp	3
▁khŏnh	3
▁kuer	3
kung	3
▁Kêmôs	3
▁hral	3
▁Dră	3
yăp	3
▁kan	3
▁Ƀuih	3
▁Jăl	3
▁Lanhư	3
▁Hêlôn	3
▁Să	3
▁kơđe	3
▁pram	3
▁breh	3
▁Bal	3
▁Hathach	3
▁hngach	3
▁grŏl	3
▁plăk	3
phương	3
▁sơlah	3
▁Arâp	3
▁areng	3
Nhăk	3
▁Sêret	3
▁hniê̆	3
▁hyot	3
▁hơngiap	3
▁săk	3
▁bơneh	3
▁hrei	3
▁Brai	3
▁chĭch	3
nău	3
▁Pk	3
▁tha	3
▁pơjinh	3
▁hơrăp	3
▁ƀônh	3
▁khong	3
▁mot	3
▁hômer	3
▁Klăn	3
▁hơnhŏ	3
KL	3
khŏa	3
▁uơ̆i	3
▁Êliasap	3
▁Jêđaia	3
▁Jôiarip	3
▁hmot	3
▁Sakur	3
▁Đô̆i	3
▁Đô̆ng	3
▁Ammiel	3
ep	3
▁Bo	3
▁Sepna	3
▁Jôa	3
brŭng	3
▁Tơpôl	3
▁tĕi	3
▁Jêrahmêel	3
▁Kuôc	3
▁thuôl	3
▁Lŭk	3
▁Mênahem	3
▁Kam	3
pơtho	3
▁ghe	3
▁kơchôt	3
▁Kênania	3
▁Lêwiathan	3
▁tơdrog	3
▁kyĭng	3
▁kyơ̆ng	3
▁Êphratha	3
▁Rây	3
▁Apơi	3
▁Duh	3
Phap	3
▁yôp	3
▁Ching	3
▁paih	3
▁đĭu	3
▁thơ	3
▁gơmơ̆k	3
▁blôk	3
▁bêk	3
ngăh	3
▁Jrai	3
▁Sephania	3
▁Maaseia	3
▁chek	3
▁Satu	3
▁khiê̆u	3
▁Koh	3
▁klŭng	3
▁hơng	3
anh	3
▁kơchơ	3
▁Salathiel	3
▁te	3
▁hlơ	3
▁nhănh	3
▁Pêrisit	3
▁Aten	3
▁Nergal	3
▁wăt	3
▁adơi	3
▁xăl	3
▁muông	3
▁tơlăng	3
▁giăng	3
▁dru	3
▁Harim	3
▁Kŭ	3
▁Tiêm	3
▁laĭ	3
▁kơsoh	3
▁Kôrintô	3
▁nô	3
g	3
▁chơnglah	3
▁Atung	3
iêl	3
▁Matithia	3
▁hlăch	3
▁ngơ	3
▁lip	3
▁đăp	3
▁triê̆u	3
▁wêng	3
▁Jêrim	3
ôt	3
▁Di	3
▁gioi	3
kŏ	3
▁tăch	3
▁leech	3
▁ajin	3
▁bưk	3
▁tem	3
▁ƀŏ	3
▁khing	3
▁Niniwe	3
▁axit	3
▁rơgah	3
▁Kisôn	3
▁tơhiap	3
▁tơpih	3
▁hrơ̆p	3
▁Kư̆	3
▁Rơih	3
▁Đêlaia	3
▁Gêmaria	3
▁chơdŏng	3
▁bơdưng	3
▁gach	3
Nơ̆r	3
▁Abinôam	3
▁Nahsôn	3
▁nôĭ	3
▁Kơtĕch	3
Pơtao	3
▁nhu	3
▁Ơi	3
▁thuô	3
asĕch	3
▁glơ̆m	3
▁bơlưk	3
▁xal	3
▁ƀang	3
▁tơjrot	3
▁Jôtham	3
▁bui	3
▁hlơ̆k	3
▁Mikmas	3
▁Hiêu	3
▁BGDĐT	3
▁kiek	3
▁rơpŭk	3
▁Rôgel	3
Maih	3
yăo	3
▁Asong	3
▁Sin	3
▁đơbưk	3
▁plăt	3
▁biê̆n	3
▁Hy	3
▁pơnhŭl	3
▁hnhŭk	3
▁jơdrap	3
Becamex	3
▁rơđăh	3
▁logistics	3
aria	3
mreh	3
▁tơngơ̆l	3
▁Phô̆i	3
▁Alê̆	3
▁kơwơng	3
▁Hlak	3
▁Milê	3
▁biơh	3
▁Rơneh	3
▁chơkơi	3
▁pơlơh	3
▁Tum	3
▁tŭm	3
▁dơbŏng	3
▁Kêna	3
▁Bă	3
Trŏ	3
▁Kơl	3
▁tơbl	3
uôch	3
▁tenh	3
▁biê̆k	3
▁triêng	3
▁Hơkŭng	3
▁brĕ	3
ar	3
▁Buk	3
KHCN	3
▁chik	3
▁jơnoi	3
▁Kơna	3
▁Thân	3
▁Dơbưk	3
▁Sêlah	3
▁Chih	3
▁Rimôn	3
▁hmŏ	3
Thôn	3
▁Chơt	3
▁pluk	3
mĕt	3
▁lanhư	3
▁thuê	3
▁lăi	3
yua	3
▁Husam	3
▁Kriêm	3
▁TuâÊn	3
▁ngoăi	3
▁hmuô̆ch	3
▁sêng	3
▁awah	3
▁Hơpuăl	3
▁kơƀah	3
▁hơngan	3
▁kaih	3
duôh	3
▁bơlơ̆k	3
▁teng	3
▁jĕl	3
▁Qŭ̆t	3
▁dŭt	3
▁Malkija	3
▁Tui	3
▁Thơi	3
▁tơbla	3
▁tơnam	3
▁lơngom	3
▁Bêsai	3
▁Antiôs	3
▁chơhleng	3
▁tơteh	3
▁nuh	3
▁Gao	3
▁mĭr	3
▁Tatênai	3
▁Sêthar	3
▁Bôsênai	3
▁gơnur	3
▁rơyuh	3
bê̆	3
▁cư̆u	3
▁Hak	3
▁Pơk	3
▁bŏ	3
▁Urea	3
▁trĭu	3
▁tơngiêt	3
▁Hahirôt	3
GDTX	3
▁kơdang	3
▁blŏch	3
ăng	3
▁Rêmalia	3
v	3
▁Đibôn	3
▁agăl	3
▁Tao	3
▁Lĕ	3
▁prai	3
Mơ̆ng	3
▁kơpla	3
▁yuyêt	3
▁Sual	3
▁vŏng	3
▁tơ̆kpơ̆k	3
▁Lơng	3
▁vanh	3
▁Barsilai	3
▁doc	3
▁lŏ	3
▁pơnang	3
Hok	3
▁Hôsêa	3
▁Ami	3
▁kơsŭk	3
▁chơgaih	3
▁nhŏm	3
ẽ	3
tơmo	3
▁Kuôk	3
▁pruh	3
▁TW	3
plĕi	3
▁ơp	3
▁gơhnŏk	3
▁Hiên	3
▁rơ̆	3
▁đêh	3
▁lơh	3
▁Sisăk	3
drơ̆u	3
▁ư̆m	3
▁Yăh	3
▁khăng	3
nhat	3
▁Jôsabat	3
▁Hil	3
mai	3
▁uôh	3
▁Khanh	3
▁Tia	3
▁Hŏp	3
▁pơhuach	3
phŭ	3
▁Jêđuthun	3
▁chiêŭ	3
▁tơnhơĭ	3
▁rak	3
▁nao	3
▁Tât	3
▁hep	3
▁tơlê̆	3
▁hơkar	3
▁hơtăr	3
▁pơlao	3
▁Ewơ	3
▁Blu	3
▁Huch	3
si	3
min	3
▁achuing	3
▁Gơ̆ng	3
▁pơdô	3
▁mut	3
▁Nêthinim	3
▁Husai	3
▁theng	3
▁CHQS	3
▁băi	3
▁jâng	3
▁chia	3
▁Bêsek	3
▁tơhĭl	3
▁Hăng	3
▁cho	3
dơ̆ng	3
▁ghê	3
▁Tiêp	3
▁kup	3
▁tơblơ̆	3
▁Hêpher	3
▁Mahla	3
bloh	3
ơ̆k	3
▁drơng	3
▁Danh	3
kon	3
▁Bamôt	3
▁jơ̆l	3
▁Phashur	3
▁cương	3
▁Jan	3
▁dơnăng	3
▁jơnăm	3
bĕt	3
hơ	3
êch	3
▁gơgŭ	3
▁plư̆ng	3
▁Sêpher	3
bĭk	3
▁Thăng	3
▁Tăp	3
▁%	3
nưm	3
▁hơgơ̆m	3
▁getchai	3
▁Pơyơ̆r	3
▁Têl	3
▁piêng	3
▁glip	3
▁Pơgar	3
▁Băp	3
▁hrak	3
ară	3
▁tơkong	3
▁tơhnă	3
▁Pơtơm	3
▁gư̆ng	3
▁chơđŏk	3
▁rơgăh	3
▁chư̆	3
▁hring	3
Rim	3
▁Masa	3
▁Litrơ	3
▁MHC	3
▁nêu	3
Nơ̆u	3
▁Êliphas	3
▁Basemat	3
▁toa	3
▁kloh	3
▁ngay	3
▁Blah	3
▁Lung	3
▁ăl	3
▁Baala	3
▁Jêarim	3
▁ƀlĭk	3
▁aduh	3
▁đua	3
▁Bơgrong	3
▁Êlihu	3
Pơtơ̆p	3
▁hơrăng	3
▁giĕn	3
▁kraoke	3
eng	3
▁yông	3
▁Êmanuel	3
▁Sađok	3
▁kơdrot	3
▁vĭt	3
▁châÊn	3
▁Red	3
▁Angus	3
▁kơhioh	3
▁tơlah	3
▁wơih	3
▁Rêhum	3
▁Simsai	3
▁Husim	3
▁chŭc	3
▁Makkêđa	3
▁chơgơu	3
▁Benlate	3
▁gao	3
na	3
▁grŏn	3
▁brich	3
▁Sơng	3
▁da	3
▁Abarim	3
▁hiă	3
nĕk	3
▁Tơroi	3
▁tơtĭnh	3
Lăp	3
▁Gilbôa	3
▁Karea	3
▁pơtuah	3
▁pơkrra	3
▁Êthan	3
▁hơnot	3
▁Binnui	3
▁pơrang	3
▁Pharan	3
▁chơgăm	3
▁moi	3
▁ri	3
▁Jôs	3
de	3
▁Yok	3
▁hơbăng	3
▁Tơlĕch	3
pơkau	3
▁hnuh	3
▁kơplăh	3
▁liĕm	3
ổ	3
▁nơng	3
▁Atma	3
▁hơkăp	3
▁yưm	3
▁gơđông	3
nhau	3
▁Hơdrơ̆n	3
▁Sêpharwaim	3
▁choc	3
ě	3
▁Chrah	3
▁nươk	3
▁Bĕt	3
▁luk	3
–	3
▁bơkuĕch	3
▁hơđang	3
bŭng	3
▁khân	3
▁Pơlai	3
▁Hê	3
▁bham	3
▁Hơlam	3
▁jam	3
▁Bêthuel	3
▁jiao	3
▁kal	3
▁k	3
▁Êlisama	3
▁jat	3
▁pơgong	3
▁xê̆p	3
▁Nitrat	3
▁Gơnang	3
▁epha	3
▁tơwang	3
▁điêl	3
▁Hơnă	3
▁Nahas	3
▁phok	3
▁pơră	3
▁Kĭa	3
▁TƠDRONG	3
Ĭ	3
▁Pisga	3
▁Jêsamôt	3
▁pơrok	3
▁rơnguơ̆	3
▁hngôm	3
▁Sek	3
▁Tơlang	3
▁Bơnôh	3
mŏng	3
▁Kôra	3
▁hol	3
▁pơdal	3
▁Yêu	3
▁rơvơn	3
▁jră	3
▁Bus	3
▁khơ̆h	3
▁tôc	3
▁Mơlŏk	3
...;	3
▁bơbơ̆t	3
▁jŏ	3
▁Klang	3
▁Mŏ	3
▁Wathi	3
▁pơlôh	3
▁Naara	3
▁pơpông	3
▁pơnŭ	3
▁plaih	3
▁kha	3
▁blưk	3
▁chêr	3
▁Ja	3
▁nhang	3
▁Tơbăt	3
▁piêt	3
kial	3
Ŏ	3
▁Gitit	3
▁Itai	3
▁Bêria	3
▁xam	3
▁Hanun	3
▁hing	3
ĕch	3
trŏ	3
▁mư̆t	3
▁kơnăr	3
▁Dơnâu	3
blă	3
lơng	3
▁pôn	3
▁tơgong	3
▁jơdah	3
▁tơpal	3
▁Ma	3
▁Nghê	3
▁kơdĭm	3
▁nhăn	3
▁đây	3
▁Nêgeo	3
▁jich	3
▁greng	3
▁kŏch	3
brông	3
▁Êlis	3
▁sông	3
▁Suar	3
▁Têsalônik	3
▁kơtech	3
▁tơgăl	3
▁ver	3
▁Đam	3
▁Tơgar	3
▁kap	3
▁pơnhă	3
▁Khuân	3
jơnang	3
Đên	3
▁Pŭ	3
▁gơsŏk	3
▁Pơtruh	3
▁ot	3
▁y̆	3
▁thâu	3
▁Mum	3
▁Salmôn	3
Jư	3
▁Đôr	3
▁Lôk	3
▁Asơnat	3
▁tơngơ̆	3
▁chơpĕt	3
▁bưu	3
▁Pơhnŏng	3
▁pơpơm	3
hôliap	3
▁Dônh	3
▁Dach	3
▁Drơh	3
▁Ahiser	3
▁Sêma	3
▁apôm	3
▁moh	3
▁kŭng	3
▁nơ̆u	3
▁Hasabia	3
▁lĭnh	3
▁kơmăt	3
▁kơtoh	3
ing	3
▁hơtơng	3
▁Hmăng	3
▁pơkai	3
▁Hênadat	3
▁kơtĕi	3
|	3
▁Pơyô	3
▁sriêp	3
▁hiach	3
băi	3
▁Gôsan	3
▁tơhek	3
▁angiêng	3
▁Kanh	3
▁Kêtrôlaôme	3
▁yip	3
▁sơlung	3
ai	3
▁Belsatsar	3
▁kêo	3
▁Has	3
▁Soar	3
▁anhô	3
▁Yiên	3
▁krênh	3
▁quyê	3
▁thung	3
▁săn	3
▁Phung	3
▁krôp	3
▁hơpĕch	3
Bŭ	3
▁pơlơ̆k	3
▁Abinađap	3
▁ă	3
▁buơ̆	3
▁hơngiăng	3
▁djrăi	3
▁Môre	3
▁Dei	3
eh	3
nhĕk	3
▁Kla	3
▁Toh	3
▁pơsau	3
▁tiêng	3
▁Horma	3
▁Êliphêlet	3
▁Aring	3
yoanh	3
▁Rei	3
▁Khach	3
▁kơtêch	3
▁lêng	3
▁Sipôr	3
▁Drănglo	3
▁drung	3
▁no	3
▁Askalon	3
▁loang	3
ỹ	3
▁nơi	3
▁ƀiơ̆	3
▁nak	3
lŏng	3
▁pơđang	3
năp	3
▁kơpang	3
▁hril	3
▁Sêphôn	3
Barthôlêmi	3
▁Mathiơ	3
▁Alphê	3
▁kơch	3
▁gĭl	3
▁Mơng	3
▁Hagrit	3
Nhŭng	3
An	3
▁Hơp	3
▁pơiel	3
▁anong	3
▁Êphrôn	3
Barra	3
▁Ok	3
▁Êdrei	3
yôt	3
▁Thôi	3
▁tơyông	3
▁Khăn	3
▁glĭp	3
▁hơwo	3
▁Sêrêbia	3
▁kodơ̆u	3
chiêu	3
▁Hop	3
▁Năng	3
▁tơhlông	3
Hơpơi	3
▁nung	3
▁Ađaia	3
▁Sêrahia	3
▁Grow	3
▁tơngăm	3
▁pơguăng	3
▁Biĕm	3
▁Lơp	3
▁tơƀôh	3
▁dyong	3
▁Khin	3
▁Nga	3
ĕng	3
Ngŏ	3
▁amông	3
▁pgơl	3
▁kơchon	3
▁Ipsan	3
▁ne	3
▁Ađônikam	3
▁Lais	3
▁Tanh	3
▁hơbông	3
▁Kơs	3
▁Gơ̆r	3
▁Chĭng	3
▁jrot	3
▁tơr	3
▁puăl	3
▁Phêrisit	3
▁jă	3
▁pơlăk	3
▁sôi	3
▁tơpalh	3
▁loih	3
klo	3
▁Gênêsaret	3
▁thach	3
▁đơu	3
Brơ̆m	3
▁chôi	3
Phu	3
▁Sêlôt	3
hăp	3
▁glơ̆k	3
UBTVQH	3
▁rrih	3
▁Êlimêlek	3
▁rơngăt	3
▁dơnưp	3
▁Brŏk	3
▁xơkơ̆t	3
▁Ain	3
▁pơnai	3
▁Bơ̆ng	3
▁tơpleh	3
▁tơhum	3
▁drô̆	3
▁Jabin	3
▁Salmuna	3
▁brang	3
▁Tô̆	3
▁anai	3
▁pơchơt	3
▁hrĕch	3
T	3
▁xôn	3
▁hơpăl	3
▁Nhơ̆p	3
▁gơk	3
▁khiê	3
▁Sisa	3
▁Asêria	3
▁Pherơsơ	3
Tuôi	3
▁chơdah	3
bưu	3
▁Jahat	3
lơp	3
▁tĕk	3
▁wĕk	3
rong	3
▁chơnglôk	3
▁chơnglak	3
▁Jul	3
▁đăh	3
▁dơhnă	3
thi	3
▁bơbê	3
▁gei	2
ĕnh	2
▁lây	2
▁bom	2
▁ven	2
▁Mơlek	2
Bôi	2
▁giaĭ	2
▁ngal	2
▁Bildat	2
▁pơgol	2
▁pơgenh	2
▁Nŭi	2
▁Jah	2
▁tach	2
▁mĭu	2
▁Keila	2
▁Aksip	2
▁kơdu	2
▁athoi	2
▁Muih	2
▁pơlĕio	2
yi	2
yơĭ	2
▁brom	2
▁Astoret	2
▁Tral	2
▁Gamaliel	2
▁Pêdasur	2
▁lơnguô̆	2
▁Carbendo	2
▁Score	2
▁Bŏk	2
▁Hêber	2
▁klơ̆ng	2
▁suek	2
▁tơngla	2
▁Mnông	2
▁đaoong	2
▁bodơĭ	2
▁Kontum	2
▁hĭu	2
▁Jơ̆p	2
▁Đôn	2
▁Har	2
▁Sanbalat	2
▁panô	2
▁điê̆p	2
▁phich	2
▁Kôrnei	2
ung	2
▁Gur	2
▁Mêunit	2
Blă	2
phêl	2
▁choi	2
▁Silơ	2
▁Rimon	2
▁kkon	2
▁pơlah	2
Hăp	2
▁pjran	2
▁arah	2
▁Actara	2
▁WG	2
▁Khung	2
▁Wih	2
▁Vĭnh	2
▁Têra	2
▁Pơhlŭ	2
▁nhưng	2
▁Nethanel	2
▁jrŭng	2
yŏl	2
▁ngiêp	2
▁nghe	2
▁Ai	2
▁kơchŏ	2
▁klăh	2
▁Kar	2
▁Căn	2
▁ading	2
▁tơrih	2
▁tơjê̆	2
▁sơke	2
▁saphir	2
▁hơmôl	2
▁gŏl	2
▁sơngiĕng	2
▁Khuôĭ	2
▁tuôih	2
▁super	2
▁treng	2
▁pơnih	2
uh	2
▁Nên	2
jên	2
▁QCVN	2
▁Breed	2
▁kruuôĭ	2
▁nơ̆m	2
▁Prah	2
▁tơkloh	2
gam	2
breo	2
▁drŏk	2
▁bơdrơ̆ng	2
▁Phiêu	2
ku	2
▁Phĭ	2
▁Adrơ̆u	2
▁hŭ̆t	2
▁kơyal	2
bôch	2
▁kơyuô	2
▁ƀuih	2
▁Đêuel	2
▁apŭng	2
▁kơdrăn	2
▁ađring	2
▁Sams	2
ŏng	2
▁hrul	2
▁Chong	2
▁rô̆	2
iê̆u	2
▁đoc	2
r	2
▁tơtoanh	2
▁brơu	2
▁ria	2
▁khiêu	2
▁tŭr	2
▁pơgit	2
▁Hinh	2
▁xơkung	2
▁Jehieli	2
▁Nhơ̆n	2
ilan	2
▁x	2
nhơnăm	2
▁hađĕn	2
▁ngôh	2
▁hrơ̆ng	2
▁Sêkania	2
▁Thôn	2
▁kơphô̆	2
▁Mêphibôset	2
▁amih	2
▁điêp	2
▁hlĕng	2
▁Vang	2
krao	2
▁khơr	2
blăn	2
▁Ussia	2
▁Bla	2
▁Nguyen	2
▁sư̆t	2
▁ale	2
▁Samgar	2
▁Sar	2
▁hrĕp	2
▁kơmon	2
▁pơleio	2
▁Êbet	2
▁Mêlek	2
▁huê	2
▁djăh	2
▁văccine	2
▁kơmưt	2
▁Kăi	2
▁kơtuei	2
▁nghiêng	2
▁râng	2
▁goang	2
▁uBND	2
▁pơlang	2
▁Tiberia	2
▁chơhnong	2
▁REII	2
▁Chŭk	2
▁Vitamin	2
▁pơnhrohj	2
▁nơ̆ng	2
▁Pêlithit	2
iĕl	2
▁Xuan	2
▁Pơle	2
▁grôi	2
▁tơpau	2
▁chiÊnh	2
▁yuyê̆t	2
▁rơhau	2
sang	2
▁tơhna	2
thanh	2
▁tơniêu	2
▁bat	2
▁ăo	2
▁Sêbêđê	2
▁LĐTB	2
▁Jaas	2
▁Sêmiramôt	2
▁Unni	2
▁Maasêia	2
▁Êliphêlêhu	2
▁Miknêia	2
▁Simiôn	2
▁chĭh	2
▁kơmăp	2
▁kơdiong	2
▁Lus	2
▁Makbêla	2
▁hơlêm	2
ealand	2
▁xương	2
at	2
▁tơyăn	2
▁tơg	2
▁Vê	2
uôih	2
▁hluôt	2
▁phau	2
▁kuôl	2
▁gơlŭng	2
ơ̆t	2
▁Rơpiĕt	2
▁tơdrơ̆u	2
▁tơliê̆	2
▁dơgal	2
▁Puăl	2
▁kul	2
▁Đelila	2
▁dring	2
▁Miriam	2
▁kơnhă	2
▁Kalah	2
▁hiĕt	2
▁rơbot	2
▁Vai	2
▁pơjrâu	2
▁Apaksat	2
▁pơlăp	2
Dơnŏ	2
brơ̆k	2
▁hơxei	2
Hŏk	2
Ren	2
▁prĭt	2
▁tơnen	2
don	2
▁glah	2
▁jroh	2
brưm	2
▁ngŏi	2
▁Tisĭk	2
▁Êtam	2
▁Nêth	2
▁MT	2
▁găng	2
▁đưk	2
▁Sier	2
▁pơdŭng	2
▁Hơdrei	2
▁khêo	2
▁ngh	2
è	2
▁ĕt	2
▁jơrô	2
▁lăch	2
▁nĕt	2
▁xŭc	2
▁Pơdăr	2
▁yươ̆ng	2
ca	2
▁Hơnong	2
▁pơdôr	2
▁pek	2
▁Ơ̆i	2
▁Hơdra	2
▁Vih	2
▁yoa	2
▁Buăl	2
▁bơlah	2
▁Pơg	2
▁kơmar	2
▁Tơblah	2
▁Jaar	2
▁Ngohh	2
▁yŭn	2
▁Giđêl	2
▁tơraih	2
▁klăng	2
▁taluy	2
▁Hươ̆ng	2
▁HL	2
▁CP	2
▁xơmăt	2
▁mơtơ̆ng	2
▁jơhh	2
▁kơh	2
▁kơtơ̆h	2
▁hiê	2
▁pơdwal	2
▁pơnuôt	2
▁chơla	2
▁bơdê	2
wă	2
▁gơmơ̆t	2
▁Lok	2
▁NHCHXH	2
▁Prăh	2
▁preng	2
▁Tơmưt	2
▁lŭch	2
▁lươ̆ng	2
▁Siriôn	2
▁Sênir	2
▁drơu	2
KTN	2
▁supe	2
▁uyên	2
▁hơdrăi	2
▁Ghi	2
▁malai	2
▁noio	2
▁Prôm	2
bung	2
▁pơmâu	2
▁chuô	2
Bau	2
▁amuô̆	2
▁abĕn	2
▁Mơu	2
▁krăk	2
▁Khuyên	2
▁Sistep	2
mơ	2
▁prau	2
▁X	2
▁bơuh	2
▁tơnai	2
▁vêsinh	2
▁klik	2
▁Jêkônia	2
▁Jơva	2
▁Bơu	2
▁Kơdâu	2
▁pơsum	2
▁pơliêu	2
▁ôt	2
▁Jĭl	2
▁lŏk	2
bia	2
Tơgŭm	2
d	2
▁XIX	2
▁Hôsaia	2
▁trŏng	2
''.	2
ừ	2
▁Tơlok	2
▁hơxuang	2
▁Gơn	2
▁Aksa	2
▁jơnuh	2
Băng	2
▁boong	2
Kŭ̆t	2
▁lơhach	2
▁rĕng	2
▁bay	2
Thương	2
▁Sêbađia	2
▁Mikel	2
▁Akrabim	2
▁kơpung	2
Băk	2
▁pơg	2
▁Vương	2
▁Armơthê	2
ahia	2
▁chơnĕch	2
▁tâ	2
▁gioh	2
▁Gêđêra	2
▁jrĕnh	2
▁kaĭ	2
▁quĭ	2
▁cem	2
▁Adôram	2
▁đê̆	2
▁krŭng	2
▁Abierit	2
▁chere	2
▁blŏk	2
HĐH	2
▁Xơkung	2
▁ngă	2
tŏ	2
Lăng	2
▁pơmơ̆ng	2
▁tơhr	2
▁Giang	2
dơ	2
▁kơdĭh	2
▁Argôp	2
▁Awit	2
▁top	2
▁Japhet	2
▁lơnga	2
▁luơ̆t	2
▁Salmôna	2
▁ngi	2
Tơroi	2
▁Bêker	2
▁sêp	2
▁KHư	2
▁dơnơ̆ng	2
▁tua	2
▁Inha	2
Kon	2
nhip	2
▁Plah	2
▁kơtiêl	2
▁đăy	2
▁jot	2
▁Adin	2
▁apach	2
ŏ̆ng	2
▁plŭk	2
yơ̆k	2
▁ponh	2
▁krung	2
▁Nguy	2
▁Akanh	2
▁mơngưt	2
▁mơngat	2
▁rin	2
▁pơđêch	2
▁Adônisêdek	2
▁heh	2
▁kô̆ng	2
▁tơkơĭ	2
▁Ohôlibama	2
▁Ana	2
▁Khêl	2
▁Tôt	2
▁pơd	2
▁Jônadap	2
Ĕ	2
▁tơƀlŏk	2
▁tơtôn	2
▁jơmul	2
▁pum	2
iGate	2
▁Juăt	2
▁tơgop	2
▁takơl	2
▁rênh	2
▁Juei	2
▁pơxuh	2
▁kơhriêng	2
khoang	2
▁chăn	2
▁hrĭng	2
▁hmuôch	2
▁Mara	2
▁tơjil	2
▁ngơr	2
▁dơnê̆	2
▁kơdiơ̆ng	2
upha	2
▁rơpang	2
▁chơkăt	2
▁kơsu	2
▁Cocvid	2
▁Mêđêba	2
▁Halak	2
▁Tisbit	2
▁Mêđi	2
▁hơtơ̆m	2
▁đơgiêng	2
▁kiơng	2
▁tơdrongkhan	2
Bin	2
ẖ	2
▁Saal	2
▁jjo	2
▁gieng	2
▁xơdư	2
▁Hopni	2
▁bơdung	2
▁aluôh	2
▁Sêpha	2
▁Triêu	2
▁drêch	2
▁kơmot	2
kơtam	2
Biê	2
▁bơlă	2
▁vĕch	2
▁Kach	2
▁Klơ̆p	2
Đoan	2
▁chră	2
▁chrang	2
uih	2
▁tơnhư	2
▁Bên	2
▁hơlôk	2
▁hơlak	2
Nhôn	2
▁bơlau	2
▁protĕin	2
▁pơhroh	2
▁Khơĭ	2
mưĭ	2
▁tơbưk	2
▁Xŏng	2
▁pơhiơ̆	2
▁Sip	2
▁Til	2
▁thuâ̆t	2
▁Pơgang	2
▁bŭl	2
▁Lau	2
▁Kămpuchia	2
▁Asuba	2
Ngam	2
▁mơnh	2
▁Aiya	2
Ăn	2
▁pơdro	2
▁Băng	2
▁khen	2
▁pơpơih	2
▁tơnơl	2
▁YÊ	2
▁kơchai	2
▁Tơkang	2
▁yĭn	2
▁nghĭm	2
▁heta	2
▁Phuk	2
▁Rapha	2
▁Ir	2
TH	2
▁Riu	2
▁Yơ̆r	2
▁bĕnh	2
▁tău	2
▁paĭ	2
▁kơđĭnh	2
▁bâk	2
▁pa	2
▁Gôlgôtha	2
▁Asur	2
▁tơsu	2
drong	2
▁Japa	2
▁côi	2
optera	2
▁Mipsam	2
phe	2
▁ơ̆m	2
▁Dơnol	2
Oei	2
▁hoăch	2
▁khoe	2
▁agar	2
▁Sră	2
▁tơnăn	2
▁yiê̆n	2
▁bđơng	2
▁XV	2
▁am	2
▁Êliađa	2
▁pơtăng	2
nuôl	2
▁ơpi	2
hang	2
▁nghêp	2
▁pơlă	2
▁têk	2
▁wêk	2
tơgŭm	2
▁Galal	2
▁Nêtôpha	2
thit	2
▁đanh	2
▁kopwl	2
apung	2
▁tơlir	2
▁Tơgơ̆	2
▁plech	2
....	2
▁Misael	2
▁tok	2
▁Sammua	2
▁Sôbap	2
▁bŭ	2
kơ	2
▁rơđong	2
▁Gơwang	2
▁anhul	2
▁Kŭk	2
▁Thô̆ng	2
▁Mêsêlêmia	2
▁gơlaĭ	2
▁Jarmut	2
▁kơdrưng	2
iơl	2
▁Bêrôt	2
▁kăh	2
▁Galati	2
nong	2
▁Ac	2
▁Mĭn	2
▁achuang	2
▁kơlŭk	2
▁Asalia	2
nguah	2
▁Sưu	2
▁ơ̆l	2
Đê	2
▁luh	2
▁tic	2
Kơplah	2
▁hơjăl	2
yan	2
▁klen	2
▁klon	2
êng	2
▁tươĭ	2
▁Pơgĕi	2
▁Tơngong	2
▁Phêniel	2
▁tơjot	2
▁silic	2
▁pơngơt	2
▁rơ̆ng	2
▁xich	2
▁bâp	2
Chăl	2
▁Nôa	2
▁Hogla	2
▁Milka	2
▁hnhăi	2
▁Đôk	2
▁Gĭt	2
,'	2
▁Duy	2
▁hơnĭl	2
▁blăn	2
▁wa	2
▁akuk	2
▁Chruh	2
CV	2
▁QĐND	2
▁nuôĭ	2
▁pơdr	2
▁Thêma	2
▁Jêtur	2
▁Naphis	2
▁xô	2
▁hlom	2
▁chơhlot	2
▁Jêrôham	2
▁Ahilut	2
▁Harada	2
▁riê̆	2
kơting	2
▁Drought	2
▁Jôsađăk	2
▁Nêhêmi	2
▁BHYT	2
brơt	2
▁drech	2
▁gơdah	2
ngơn	2
▁lek	2
▁Jêther	2
▁thâÊm	2
▁Trailer	2
▁lươc	2
▁Cương	2
▁quă	2
▁năn	2
▁suplơ	2
▁IPM	2
▁Gibêthôn	2
▁Pjo	2
▁ĭt	2
e	2
▁sơhmuôn	2
▁khơh	2
▁Awen	2
▁Jơ̆	2
▁Ar	2
▁sêikơl	2
▁buôl	2
▁Jêrija	2
▁kơchiê̆	2
▁Bơr	2
▁tơra	2
▁Vươn	2
▁jơliêng	2
▁Samri	2
▁Hasum	2
uăl	2
▁giăm	2
▁tơmal	2
muôi	2
sương	2
▁ĭn	2
▁sun	2
▁kiêl	2
▁jiat	2
▁Bioga	2
▁ană	2
▁vơ̆r	2
▁Amaria	2
▁Mêrayôt	2
▁Cov	2
▁Jêhuđi	2
thania	2
▁Sêlemia	2
SLĐTBXH	2
▁jươ̆k	2
▁grăm	2
▁jăp	2
▁kdư	2
▁đuôn	2
▁că	2
▁Kơidơi	2
Nhi	2
▁Keo	2
▁dơblenh	2
▁Hamedatha	2
▁Jêsurun	2
▁rơmoi	2
▁Asiêl	2
▁game	2
▁Dech	2
▁rek	2
▁Nho	2
▁chơhning	2
▁huơ	2
▁huĭnh	2
krong	2
▁Milkôm	2
▁Hrê	2
▁kơka	2
▁Chơng	2
▁vui	2
▁ron	2
▁Asmawet	2
▁bơlai	2
▁tơchơ̆t	2
▁Ahinôam	2
▁Amram	2
▁đoo	2
▁xưng	2
▁wengdư	2
▁pơvih	2
▁BBB	2
▁pơgưl	2
▁kơtiêng	2
▁Jung	2
▁chok	2
sim	2
▁pơguo	2
▁Aphat	2
sit	2
wit	2
han	2
▁tơw	2
ơih	2
▁Apôlê	2
▁pruih	2
▁kơsŏ	2
▁Pơlgơl	2
▁grăn	2
bei	2
Yĕr	2
▁Trưk	2
▁alăh	2
▁kơnhiêm	2
▁tơgel	2
▁Kơdơi	2
ak	2
▁Răk	2
▁Ênan	2
▁ŭk	2
▁nohhăp	2
▁roch	2
▁Ađar	2
▁Asmôn	2
▁tơsĕr	2
uĕt	2
▁NhâÊt	2
▁thacc	2
am	2
▁kơchar	2
▁wing	2
▁pơdrĕo	2
Trong	2
▁hơhei	2
Adrol	2
▁kring	2
▁pơlŏng	2
▁Jêhôseba	2
▁Pơlơk	2
Huch	2
▁Rêphiđim	2
▁pe	2
▁Klah	2
▁wi	2
▁Galaat	2
▁Jesreel	2
▁bla	2
▁ran	2
▁Hơmrŭk	2
mut	2
▁hiot	2
▁Agate	2
▁kơtuang	2
▁abrĕn	2
Hơdrol	2
▁Tarsis	2
▁Pơga	2
▁kraih	2
yĕ	2
▁kơpưngmăt	2
▁Ke	2
▁tracng	2
▁Am	2
▁ng	2
ĩ	2
H	2
▁Sêgup	2
▁mơsơ̆	2
▁hiêp	2
▁Thươn	2
▁ten	2
▁rơvo	2
▁Tabêra	2
▁drê̆ch	2
▁hiê̆	2
▁trăng	2
▁VH	2
liêm	2
bơĭ	2
▁Asaia	2
chđeh	2
▁Pơch	2
▁Hrôih	2
▁klu	2
▁Rai	2
▁gĕr	2
▁chăc	2
▁chăm	2
▁Êthemôa	2
▁kơđŏh	2
BLĐTBXH	2
▁dŭng	2
▁asai	2
▁pơhrăn	2
▁mơkoh	2
▁AÊi	2
▁hlung	2
▁Tơnglơ̆p	2
ặ	2
é	2
▁Saphôn	2
▁Kinêret	2
▁Chum	2
Măn	2
▁chân	2
▁hyôi	2
CN	2
▁biŏng	2
▁găi	2
▁pơdŏng	2
▁plŏng	2
tơ	2
▁Pangtơkôt	2
akăl	2
▁ănh	2
▁Padan	2
▁SP	2
▁Cyperan	2
lơmo	2
▁chruôh	2
VHXH	2
▁Dunh	2
▁sin	2
▁nhat	2
asong	2
Nău	2
▁Mưc	2
▁trâ	2
Yok	2
▁nguy	2
▁hơkenh	2
▁hhuyên	2
HD	2
UBKTTW	2
▁chơpik	2
▁Hơdah	2
▁blâm	2
▁Trach	2
▁kreo	2
▁Lôdêbar	2
▁truk	2
▁Pagiel	2
kran	2
▁tơyung	2
▁hhei	2
▁xĭt	2
▁Chhôk	2
▁kơnôm	2
▁ui	2
▁Êphrat	2
▁ruôh	2
▁Klot	2
▁Pok	2
▁koang	2
▁chơkrơ	2
▁Urê	2
▁Kali	2
▁trôi	2
sap	2
▁Tơdrâu	2
▁kơlăng	2
Nông	2
nhôi	2
▁Geliôt	2
plei	2
▁Us	2
▁hrong	2
▁pơxĕl	2
▁Tơnguĕt	2
lower	2
eed	2
▁Per	2
êsit	2
▁ƀlŏk	2
▁MX	2
▁Timnat	2
▁Gaas	2
▁phaan	2
▁kơlăp	2
▁nhek	2
▁Kai	2
▁arĕnh	2
nhơĭ	2
glong	2
Li	2
▁goc	2
▁bông	2
Đôi	2
▁xy	2
▁thich	2
▁pơlgơl	2
▁giư̆ch	2
▁tơpăi	2
▁Jêhôsua	2
▁kơtam	2
▁gơdăp	2
▁LLVT	2
▁Atroi	2
▁Hêres	2
▁xuâÊt	2
▁Sitim	2
▁Ƀum	2
▁Tabôr	2
▁hơƀăp	2
▁Xơdrai	2
▁Jêhôhanan	2
▁hơpok	2
brăm	2
bât	2
Pơnam	2
▁Joh	2
▁Aleh	2
▁adon	2
blêt	2
▁rongka	2
▁hơyak	2
▁Phă	2
▁thep	2
▁Kêlêhata	2
▁kơma	2
SGDĐT	2
ach	2
▁pơkloh	2
▁ƀlŏng	2
▁Jorai	2
▁Makathit	2
▁bơr	2
▁gơgŏ	2
▁khonh	2
▁Tă	2
▁mơhiưch	2
▁mơhiach	2
▁kơlŭt	2
▁quat	2
▁Hơkô	2
▁đuăn	2
▁Hrŭ	2
▁tơkrau	2
▁Achăng	2
▁Jabal	2
▁axi	2
▁tơhlôh	2
▁mao	2
▁ploi	2
▁Hađa	2
▁Anakim	2
▁Êmim	2
▁kơlah	2
L	2
▁hơglŭk	2
▁hơglăk	2
▁tơdjoh	2
▁kenh	2
▁khhul	2
▁lưoi	2
▁Bêrê	2
▁Ngoc	2
▁kô̆t	2
▁Kơn	2
▁Rêhôbôt	2
▁Biang	2
▁hơdr	2
▁bruh	2
▁QĐ	2
▁Biên	2
▁Arba	2
▁Siôr	2
▁Nikôlat	2
▁pơtâu	2
▁Ngăc	2
▁Khuy	2
▁Nhin	2
▁Nhun	2
▁Đêkapôlis	2
▁Jiađa	2
▁Jađua	2
▁sơnă	2
▁lơlơl	2
▁Kueng	2
▁Sêsarê	2
▁Phêlik	2
▁hơtŭk	2
Kơdrăng	2
▁Arpat	2
▁đac	2
▁Kâp	2
▁Hơvơn	2
▁pơgiơl	2
▁xŏ	2
▁okơu	2
▁gơi	2
▁kơnơ̆l	2
▁hơrăk	2
▁trih	2
▁sĭch	2
▁sơhmech	2
▁hlăk	2
▁nhŭ	2
▁phen	2
▁tơhuăi	2
lak	2
▁trơi	2
▁Sêan	2
▁Tanak	2
▁Pơtŏl	2
▁pieu	2
▁Lơliơ	2
▁Ahiô	2
▁mĕi	2
▁amin	2
▁bơjăng	2
▁VIETGAP	2
đen	2
▁chŭp	2
▁kuô	2
▁Khŭ̆n	2
▁Bôsra	2
▁đek	2
▁Ritma	2
▁sơngưmpran	2
▁Ranh	2
▁Gêhasi	2
▁dơngưl	2
▁đĭn	2
▁thuk	2
▁gơnung	2
▁gơnơ̆k	2
▁geh	2
▁Mĭr	2
▁hơhĕi	2
▁Bêbai	2
▁Srơ̆p	2
▁TH	2
▁meng	2
▁hrông	2
ngang	2
▁pơhuch	2
▁Jatir	2
▁mơchan	2
▁thăp	2
▁Pêlêt	2
▁longue	2
▁hơtŭm	2
▁Kơkŏng	2
Adrĕch	2
▁pơxuơ̆k	2
▁pơxuơ̆l	2
▁kim	2
▁hơdrŭm	2
▁Amisadai	2
▁phơĭ	2
▁asiu	2
▁asău	2
▁sưh	2
▁tơpol	2
▁jênm	2
Lê̆	2
NS	2
▁bơmreh	2
▁pơnhên	2
▁Tôi	2
▁Hơdr	2
▁bau	2
▁kljung	2
▁yălo	2
▁đach	2
▁Êbal	2
▁chŭr	2
▁gă	2
▁grŏng	2
▁chap	2
▁jar	2
▁Hơpah	2
▁bŭch	2
▁kăc	2
▁sođah	2
Agar	2
▁Tơpai	2
▁Mêsa	2
▁Mosêrôt	2
▁tơnăi	2
blăng	2
▁hơđuh	2
▁pur	2
▁TAND	2
▁sơnagưm	2
▁chơmuk	2
âm	2
▁puôt	2
grông	2
▁tgum	2
bôk	2
▁hơmiĕt	2
▁hơda	2
▁o	2
▁Tơdron	2
▁pơchuă	2
▁lon	2
▁Bêtsan	2
▁Adrech	2
▁eh	2
▁kơwă	2
▁tơmar	2
▁kŭy	2
▁CNTT	2
▁Malk	2
▁knă	2
▁pơjingnôi	2
▁trâp	2
▁bơnăt	2
▁Chua	2
Khan	2
▁Êlimas	2
▁wơ̆r	2
▁plơk	2
▁chal	2
▁tơnghêt	2
▁jăgn	2
▁rơ̆n	2
▁kêl	2
Pơgloh	2
▁)	2
▁lưa	2
▁tĭ	2
▁Pơlong	2
▁Quyê	2
▁sơnhuăl	2
▁siêm	2
▁thio	2
▁hlŭ	2
biĕng	2
▁tơdrongbăt	2
▁Amăng	2
▁jrơi	2
▁tơman	2
▁Jjuô	2
▁Jot	2
▁jrang	2
▁jok	2
Gô	2
▁Thôt	2
▁Hananêl	2
▁Nhiêt	2
▁mân	2
▁krô̆i	2
▁Iblêam	2
▁Urim	2
▁Ako	2
▁Sarôn	2
bĭn	2
▁nô̆p	2
Phong	2
▁pơjuăt	2
▁Gơ̆n	2
▁Ramese	2
▁Brơ̆ng	2
▁aah	2
▁Hơyuh	2
▁Đeh	2
▁Băk	2
▁Apđiel	2
▁bur	2
▁maowi	2
▁huơ̆t	2
▁đơngrong	2
▁Anat	2
▁chhut	2
▁pơlôm	2
▁Hơmet	2
▁Erih	2
miêu	2
▁rơheng	2
▁Êliôenai	2
▁Alêmet	2
▁Kbăl	2
▁Kapernum	2
▁soch	2
▁Sakai	2
▁Sravani	2
ran	2
▁ruô̆	2
▁Hlăm	2
▁oăi	2
▁gơsoh	2
▁Khơr	2
▁dư̆	2
▁Yŏk	2
▁Đôe	2
▁Tơ̆n	2
▁Si	2
▁Ngay	2
tơdrong	2
▁tâ̆p	2
▁Bưu	2
▁Mikdôl	2
▁Thađê	2
▁chhŏ	2
▁vêt	2
▁đep	2
▁tơploh	2
▁sŭ	2
▁găl	2
▁Dual	2
▁Antaco	2
▁trươgn	2
▁lêl	2
▁Bơwei	2
▁brông	2
▁Bưa	2
▁Habakuk	2
▁dĕng	2
▁Thiê̆t	2
▁pl	2
▁aping	2
▁Asarel	2
Sơ̆	2
▁Phura	2
▁bơdrăng	2
Rong	2
Hu	2
Pơm	2
Kơdih	2
▁Rơdrong	2
▁hơtă	2
▁bô̆	2
▁nhương	2
▁Kidrôn	2
▁Asasên	2
▁dơgơ̆	2
▁xơnêp	2
▁rTôp	2
▁trơĭ	2
▁dơbuk	2
▁Pơang	2
▁Ngươc	2
▁YôlI	2
▁adrơ̆m	2
▁thuông	2
▁Phêlêthit	2
▁Gihôn	2
▁hnamd	2
▁nŏn	2
▁kut	2
▁Kuc	2
▁Makatit	2
▁hơtŭch	2
▁tơnglaih	2
▁Tahat	2
▁meu	2
▁Kôih	2
▁pơhrei	2
▁tơdui	2
▁tiĕ	2
▁pơhlum	2
▁Kring	2
▁thơu	2
▁khuĕ	2
▁Risa	2
▁dơl	2
▁Gabrel	2
▁tơwĕch	2
▁chru	2
dinh	2
vn	2
▁dơ̆u	2
▁pĕh	2
▁hhĕi	2
▁pơgleh	2
▁Kêtura	2
▁mơmaĭ	2
▁bât	2
▁ade	2
▁hyơl	2
▁kơkan	2
▁hơhôch	2
▁tim	2
▁gơsum	2
▁bloh	2
bơ̆i	2
▁Khao	2
▁Sik	2
▁wôi	2
▁Nêkôđa	2
▁xră	2
▁pơnah	2
▁wen	2
▁Hamensa	2
▁Têma	2
Phŭ	2
năt	2
▁tuâ̆n	2
▁jinh	2
▁grơng	2
▁king	2
▁pơăn	2
▁Kinêrot	2
▁Hêrôđia	2
▁kơtah	2
▁Ariok	2
kong	2
▁hiĕm	2
▁Xal	2
▁Usi	2
▁glarh	2
▁Atonic	2
▁Mastrer	2
▁mahưch	2
▁tơkưu	2
▁SO	2
▁Adruh	2
▁Lep	2
▁Hasasôn	2
▁ngơ̆n	2
▁Sêsai	2
▁Ahiman	2
▁sring	2
▁kơdiêng	2
Roi	2
ra	2
▁nong	2
Blep	2
▁Sôkô	2
▁Sanôa	2
▁phĭn	2
▁Lepidoptera	2
▁chươg	2
▁todrong	2
▁ôi	2
▁sôk	2
▁phưc	2
▁nhĕt	2
▁tơbăng	2
▁UNH	2
▁PĂNG	2
▁kơdung	2
▁Kasiphia	2
asar	2
beng	2
▁jâp	2
ăp	2
▁Mahlơn	2
▁Kiliôn	2
lek	2
▁jokot	2
▁Ater	2
▁muô̆ng	2
Adrĭng	2
▁Mam	2
▁Ah	2
▁ơdroch	2
▁wăl	2
▁Lơ̆p	2
▁cov	2
▁Theophil	2
ơp	2
▁adrĭngkhul	2
▁Kŭt	2
▁Hre	2
▁brăm	2
yem	2
▁Tơdă	2
▁Bêser	2
ngăp	2
▁Akup	2
▁Rêkap	2
▁Tran	2
▁nêt	2
▁rơchong	2
▁Hơpăh	2
▁pơjuô̆	2
▁'''	2
▁jơng	2
▁hech	2
▁kơtrŏ	2
▁rơga	2
▁kdơ	2
▁hơtơ̆p	2
▁tên	2
▁corona	2
▁hiup	2
▁ar	2
▁hơnhuih	2
▁Tơduă	2
▁hnhoi	2
▁nhip	2
▁pơluk	2
GPS	2
▁sal	2
▁ăt	2
▁adrăn	2
▁Chŭn	2
▁dơnu	2
▁kiĕ	2
▁Bơnăr	2
▁kơnia	2
▁hlŭt	2
▁Paran	2
bưp	2
▁Mêsael	2
▁gưp	2
▁chơkul	2
▁châm	2
▁Chrŭh	2
▁Thay	2
▁tơdrongphong	2
mŭm	2
▁Thâm	2
▁Akôr	2
▁Ađumim	2
▁Tôc	2
▁khe	2
▁Bôhan	2
▁gơlơng	2
▁Nêbusarađan	2
▁Ribla	2
▁Asan	2
▁Tơdrogn	2
▁hơdrom	2
▁Hơdôm	2
▁bor	2
▁So	2
▁qu	2
▁li	2
▁Kenlut	2
▁Makhêlôt	2
▁Sôphar	2
▁Naama	2
▁huôt	2
pơlei	2
▁Bakbuk	2
▁yŏk	2
▁gkong	2
▁tơlôp	2
▁rơlach	2
▁adrơ̆i	2
araim	2
▁Sang	2
▁kơbĭ	2
▁lơmek	2
▁atheoi	2
▁mơi	2
▁Katm	2
ơ̆l	2
▁Pŭk	2
▁hơrong	2
▁hrĕk	2
▁Masêia	2
gŭl	2
▁jen	2
▁rtơdrong	2
pit	2
▁plôih	2
▁mơnglei	2
▁tơbŏ	2
biao	2
vi	2
▁Căt	2
Di	2
▁bư̆a	2
▁yăm	2
▁kuĕnh	2
▁Êlsabat	2
▁Xi	2
▁pơbăh	2
▁lơnguach	2
▁Kêt	2
▁kuet	2
▁Chŭ	2
▁Dagôn	2
▁Xum	2
▁Sêpham	2
▁Ađulam	2
▁cah	2
▁krŏng	2
▁Êliel	2
iel	2
▁Rơvơn	2
▁Top	2
▁pơklop	2
▁tơlŏng	2
▁gok	2
ngai	2
▁Kơpen	2
▁bơdal	2
▁xŭng	2
▁hlơ̆l	2
▁lĕm	2
▁Đat	2
▁Sapđi	2
▁Akan	2
▁pươm	2
▁Thiêu	2
▁klĭ	2
▁luĕl	2
▁Mêrôm	2
▁bieu	2
▁Ni	2
▁gop	2
▁Arat	2
▁pơteo	2
▁Sôhak	2
▁Ham	2
▁Kiriathim	2
▁wăr	2
▁hnưr	2
▁drang	2
▁brêng	2
▁Hawôt	2
▁Jar	2
▁văng	2
▁makuey	2
▁hmenh	2
▁Abidan	2
▁Gideôni	2
▁Jêsaia	2
biêh	2
Sư	2
▁pôt	2
▁WB	2
▁Sưng	2
▁kơđang	2
▁pơdoh	2
▁Sôra	2
▁Êstaôl	2
▁tơdrăng	2
▁tơsĕnh	2
▁Pôtiphêra	2
▁Hŭ	2
▁Ser	2
▁Sammai	2
▁Maôn	2
▁pơnhro	2
▁brơ̆ng	2
▁ơĭtơdrong	2
ô	2
woh	2
nar	2
▁dơmuônh	2
▁Anahôt	2
▁Xơ̆	2
▁Phytoplasma	2
▁hoăn	2
bong	2
▁tơkăp	2
mik	2
▁lơmŏ	2
▁chen	2
▁arư	2
▁Diên	2
▁dơnuhkơjăp	2
▁Salem	2
▁Log	2
▁tơgloh	2
▁Rêphaia	2
▁dơnuônh	2
▁Huri	2
▁Jarôa	2
▁Jêsisai	2
▁Jađô	2
▁Bơghe	2
▁Irat	2
▁Mêhujael	2
▁Methujael	2
ưng	2
▁arĕn	2
▁TBR	2
▁ML	2
▁tơjungn	2
▁Truhatuch	2
▁choph	2
▁oresol	2
▁pơđêng	2
▁wŏng	2
badia	2
▁tơdap	2
▁srah	2
▁Mua	2
▁Balađan	2
truh	2
▁Hŭt	2
▁Mămg	2
▁CNVC	2
▁tơkơn	2
▁Mơmơ̆u	2
▁tơpăr	2
▁bôm	2
▁xơn	2
▁hoang	2
▁diêl	2
▁chưak	2
Tơpă	2
phau	2
▁Sabêthai	2
▁kơchik	2
▁pơđông	2
▁Jêrus	2
▁krêl	2
▁Kat	2
▁Aphatsak	2
nưt	2
▁kơđih	2
▁khuă	2
▁yap	2
Thiêu	2
Trân	2
▁Tôn	2
▁Jeboim	2
▁Soa	2
inim	2
▁yưal	2
▁nhơ	2
▁chơđiêng	2
▁...	2
▁Cach	2
▁bul	2
▁tơglơ̆m	2
thông	2
▁prann	2
▁Xơkat	2
▁Lơĭ	2
▁hơdrôt	2
▁Asar	2
▁Kiơ	2
▁kơdơ̆k	2
▁Xŭk	2
▁jương	2
▁Grơ̆	2
Phi	2
▁đă	2
wơ̆i	2
▁rê̆	2
▁tơdrau	2
▁ks	2
Kinh	2
▁Sidim	2
▁blong	2
kuôk	2
▁grôl	2
▁bơm	2
athit	2
▁pơhôp	2
▁jjn	2
▁hơbal	2
▁HDND	2
Viên	2
▁Agripa	2
▁Ayun	2
▁tơkai	2
▁El	2
▁yui	2
▁đeadruh	2
▁sip	2
▁tơhleh	2
▁Hiŏng	2
▁sy	2
▁Athu	2
▁Sêp	2
▁tơdrongan	2
luô̆ch	2
▁rơgong	2
▁tahei	2
▁hơbu	2
rnan	2
Yư	2
▁xăh	2
▁dia	2
▁Niên	2
▁Nhe	2
▁hŏch	2
▁tơmuh	2
▁chĕng	2
▁Jơlơ̆m	2
▁adrŭng	2
bit	2
▁kơte	2
Nă	2
▁Kênisit	2
▁tơnpa	2
▁đơ	2
▁TRương	2
ning	2
▁yoing	2
▁Gases	2
▁VAC	2
▁pơn	2
▁Buki	2
▁Abisua	2
▁Simêa	2
▁Hôsa	2
▁Thê̆	2
▁Re	2
uricularia	2
▁bơdŏ	2
▁tơmôch	2
▁ơtol	2
▁Neng	2
▁;	2
▁apăl	2
▁Abrôna	2
▁đôh	2
▁Gn	2
▁Patrôs	2
▁bĭa	2
▁bling	2
▁Bênê	2
▁Jakan	2
▁Nghiquyêt	2
▁Pashur	2
▁Jôtbata	2
Chro	2
▁blŭ	2
BQP	2
▁Anak	2
▁gling	2
▁Gutgôđa	2
▁Mêraiôt	2
▁cô̆ng	2
▁bău	2
ẻ	2
▁vng	2
▁Raham	2
▁chraih	2
▁grêh	2
▁weo	2
▁Tơdui	1
keh	1
▁Tơnăr	1
ariêka	1
▁minab	1
ao	1
▁Tôphêt	1
▁kơpơng	1
▁lơnŭn	1
▁Asêka	1
▁sol	1
▁hloch	1
▁adar	1
▁Eo	1
▁Giŏ	1
▁Ko	1
▁Khô	1
▁Chơđah	1
▁kotum	1
▁grôp	1
▁qŭn	1
▁tran	1
▁kiê̆m	1
▁chô̆ng	1
▁tâl	1
▁Wĕi	1
Yam	1
▁lươ	1
̂	1
̆ng	1
▁Abiêse	1
▁Ramat	1
▁Bêtôn	1
▁mano	1
ed	1
▁Kumul	1
us	1
▁Sumi	1
▁Eight	1
▁Kơi	1
▁Dơi	1
▁trô̆	1
uch	1
▁Salômê	1
▁Jôsê	1
▁Tin	1
▁Ak	1
▁hlum	1
▁juơ̆t	1
▁bôtri	1
▁Hơlăh	1
▁maihb	1
▁Ngô	1
▁kơtau	1
BTNMT	1
▁jĕ	1
▁đêi	1
▁oiw	1
tŏ̆	1
▁hrĭl	1
mĭl	1
▁Ƀŏ	1
▁ơdruh	1
▁bonh	1
alôt	1
▁Gêsem	1
▁video	1
▁klip	1
▁tiê̆u	1
▁kơth	1
▁adruch	1
▁Mât	1
▁vô̆ng	1
▁thơt	1
Plĕnh	1
▁Thêkô	1
xŏng	1
▁Apelơ	1
onb	1
aba	1
▁Bêtkar	1
▁trău	1
▁Chep	1
▁Hơn	1
’’	1
▁rŏnh	1
▁Trebon	1
▁Pe	1
gasus	1
▁Danit	1
▁tơgah	1
▁rơm	1
▁krên	1
▁dên	1
▁Mitka	1
▁ngeo	1
▁Tơ̆p	1
▁AÊnh	1
▁Tŭ̆t	1
▁tăr	1
bưt	1
Kôrơ	1
▁kôrơ	1
▁ayăte	1
▁rêt	1
▁hơgeia	1
▁Kalnô	1
chêmis	1
▁khơ̆t	1
▁hơhiĕk	1
▁Lael	1
▁Emeral	1
▁Pơnhan	1
▁băch	1
▁Pôi	1
▁duyê	1
▁Gêmali	1
▁Sra	1
▁urea	1
▁Tiba	1
▁Kun	1
▁Jôkim	1
▁Kôsêba	1
▁Sarap	1
▁Jasubi	1
▁Lêhem	1
▁kơnhăm	1
▁gôphea	1
▁grưng	1
▁grê̆	1
▁Yilah	1
▁pơyon	1
▁kuyt	1
▁Subăl	1
▁dơlô̆	1
▁ngươc	1
▁wêr	1
▁adri	1
Nhik	1
▁hơnan	1
uô̆ch	1
▁Chăng	1
▁kơmuôl	1
▁lơkai	1
▁Hâm	1
▁blut	1
Vân	1
Thu	1
▁pơtĭl	1
măm	1
▁Naaran	1
▁Aya	1
▁Tiưpu	1
tơmoi	1
▁Gađi	1
▁Misi	1
thini	1
▁Gêdêôn	1
▁Jêpti	1
▁gĕh	1
phai	1
▁kot	1
▁kâÊy	1
▁Gêuel	1
bâÊt	1
▁Chung	1
▁Sêtham	1
▁hơpaih	1
ǒ	1
▁Uh	1
▁rơno	1
▁hreng	1
▁Mêkôna	1
▁ơha	1
▁Jơla	1
▁Bôas	1
▁Aruma	1
▁xeh	1
▁tơth	1
ơpuih	1
sêkim	1
▁pơơ̆t	1
▁năk	1
▁hơbut	1
Yak	1
êmôt	1
▁Hakkôs	1
▁pơĕi	1
▁Tơdrơi	1
▁Ahim	1
alek	1
▁Sausa	1
▁Kơtonh	1
▁uô̆n	1
▁hơmơng	1
▁pơthop	1
TL	1
▁tơpra	1
wh	1
reng	1
▁rinh	1
▁pơdrăn	1
SXD	1
QLN	1
▁Hêgai	1
▁pơng	1
▁hơiuch	1
▁drơh	1
nhăng	1
▁chroa	1
▁trơ̆	1
gm	1
▁Tơmtih	1
▁triê	1
▁ƀo	1
▁xên	1
▁Rơmă	1
Rôp	1
iê̆t	1
▁hyok	1
▁Tyê	1
▁brong	1
▁sơĭng	1
Drăkan	1
▁hlă	1
▁Êmưh	1
▁yưă	1
▁tô̆i	1
▁Xoh	1
măy	1
▁luôi	1
▁Mahal	1
▁Xak	1
▁adê	1
Pă	1
▁chp	1
plơk	1
▁Akŏu	1
▁hơ̆r	1
Kŭn	1
onik	1
doh	1
▁Ipđêia	1
▁Pênuel	1
▁Kuăr	1
▁Resen	1
▁Plenh	1
Chơt	1
▁Kơgŭ	1
disê	1
▁Hêrơ	1
▁hanhK	1
uy	1
▁xrơ	1
ŏk	1
▁Dât	1
▁vun	1
▁ahli	1
▁jean	1
irim	1
iêt	1
▁Hek	1
apinh	1
▁Nh	1
ữ	1
▁bơh	1
▁tuih	1
▁bư̆k	1
▁Jairut	1
▁Chăp	1
▁pqưng	1
▁Hring	1
▁pH	1
bĕi	1
▁hmuôih	1
buôm	1
▁lươ̆t	1
▁rơngu	1
▁extra	1
▁Enasin	1
▁Ratoin	1
▁Karuba	1
▁Bitad	1
in	1
▁hơwing	1
Lasarơ	1
▁Kơtŏng	1
▁Nik	1
▁Gop	1
hanan	1
regim	1
alia	1
▁hyĭng	1
▁hyơ̆ng	1
ĕi	1
▁chêh	1
rêh	1
▁Ƀônh	1
bưn	1
▁Gahar	1
▁kĕt	1
▁sit	1
▁PAC	1
▁Um	1
▁vĭk	1
▁lư̆c	1
▁Ơkơ̆u	1
▁sâm	1
nhuih	1
▁vaÊân	1
dek	1
▁..	1
drŏ	1
▁hlup	1
▁Biogas	1
▁ep	1
▁vơl	1
pơnhôm	1
▁Sôar	1
▁Dôpkah	1
▁tĭm	1
▁yuiêt	1
▁kơlok	1
▁păiI	1
▁Kyê	1
▁Rơmaih	1
▁Triêm	1
hlĕch	1
▁rơwơn	1
rep	1
▁Sêep	1
▁Mĭkmas	1
▁bơwĕnh	1
▁nâm	1
▁hơnhuh	1
▁Lăn	1
▁thơ̆p	1
bach	1
▁Lơmjơ	1
▁lien	1
▁Kơdeng	1
insuan	1
nerq	1
ingjia	1
▁Karen	1
▁pet	1
▁wĕnh	1
Ó	1
▁bơang	1
êlabip	1
▁sơreh	1
kơtau	1
▁Sech	1
▁As	1
ariahu	1
ichael	1
gơh	1
▁?	1
▁dnŏ	1
Klah	1
▁Kơt	1
▁Halhul	1
▁ngĕ	1
▁Jơ	1
ẫ	1
▁buơĭl	1
▁truha	1
▁SơR	1
▁lơ̆mt	1
▁ơpôl	1
▁hơkơ̆t	1
▁korong	1
▁kĕnh	1
anih	1
▁khĭt	1
nglŭp	1
▁chơuôt	1
▁pơjĭl	1
bŏch	1
▁prum	1
▁gŭt	1
▁vơk	1
dyong	1
ring	1
▁Trĭnh	1
▁ăk	1
▁Bôkim	1
▁Blep	1
▁Pêth	1
êsabel	1
▁yon	1
▁Gruih	1
▁kơdrô	1
▁Nêtaim	1
▁Nut	1
xâm	1
▁oĕng	1
▁pơgô̆	1
▁thăm	1
yo	1
▁hơbôn	1
▁pơsoh	1
phra	1
▁kiăp	1
▁Blĕk	1
▁rơhiao	1
▁atruh	1
ôi	1
▁pơsuh	1
▁blô̆k	1
▁huôi	1
▁ammăk	1
▁chơ̆u	1
▁beng	1
▁chơđ	1
ĕk	1
▁kơbăt	1
▁Bêđat	1
▁Akar	1
▁Punon	1
▁CTr	1
▁jơluk	1
▁jơlăk	1
adring	1
kapô	1
▁khup	1
▁chrâu	1
▁ure	1
clorua	1
Tô	1
▁Kân	1
▁Trâu	1
▁coi	1
▁Lađan	1
▁hơnăt	1
▁Ninewơ	1
uradan	1
▁kơkŏch	1
▁juô	1
▁Ngơk	1
▁Pgloh	1
▁''''	1
▁kơm	1
▁six	1
▁Đo	1
▁pơro	1
▁Hi	1
ẳ	1
▁kodu	1
▁pơyoch	1
▁KTCB	1
rŏk	1
▁mit	1
▁tĕp	1
▁yiêu	1
▁gôđĕch	1
▁ghep	1
▁truyu	1
ên	1
▁Sibêôn	1
▁Hasup	1
▁Pahat	1
▁Pơlung	1
▁kơt	1
rơ̆m	1
▁pơngêh	1
▁Tirh	1
aka	1
▁Pênuêl	1
▁apreng	1
VX	1
▁hlĕh	1
trăp	1
▁pơdŏ	1
phay	1
▁arĭh	1
▁pơre	1
▁Nhăk	1
lot	1
▁adruk	1
▁hơpoh	1
▁kơtap	1
▁Yơ̆i	1
▁Kơđoh	1
▁Jơmul	1
▁howê	1
▁Agat	1
atan	1
mông	1
▁hnŏng	1
QH	1
nhông	1
▁Kênas	1
chĕng	1
▁choro	1
▁wông	1
▁puơn	1
▁hơbâu	1
▁abơ̆	1
▁hơngăm	1
▁kbră	1
▁Ki	1
▁Pikôl	1
▁Siha	1
▁Gispa	1
▁Huơ̆r	1
▁Pôtip	1
▁Sêph	1
▁Phĕt	1
▁Yem	1
▁wơch	1
▁hơdrum	1
Tin	1
▁Quĭ	1
▁kơs	1
▁Jăm	1
đĕi	1
▁nâng	1
▁chơle	1
▁Păk	1
▁Ek	1
batana	1
▁glăn	1
▁Đêl	1
mălĕi	1
bor	1
▁Xreh	1
▁Malitơ	1
▁Ggra	1
LĐTBXH	1
BĐG	1
▁Đêker	1
▁Makas	1
bim	1
▁Êlôn	1
▁ngăh	1
▁Sâm	1
▁hơken	1
▁hơkoh	1
▁UBMTQ	1
▁mơt	1
▁xep	1
▁xop	1
▁Hơbo	1
▁Klong	1
▁Rơnôp	1
▁blat	1
▁kơthau	1
▁amơt	1
▁sơle	1
▁gơhlâu	1
▁Bis	1
ôtia	1
▁Tahtim	1
▁Hôsi	1
▁Jaan	1
▁meh	1
▁kjar	1
▁rơvŏng	1
▁Pơđăp	1
▁pơ̆l	1
▁nghep	1
▁voch	1
pơchăh	1
▁bơdiêu	1
▁pơkhô	1
▁jơdr	1
▁Phâm	1
▁Sal	1
maneser	1
▁Mơ̆r	1
▁Tơjur	1
▁Rôh	1
ôbôti	1
▁lLong	1
▁jrŏng	1
Xoai	1
▁hlĭah	1
▁Bitrôn	1
▁kơpơm	1
arih	1
▁Pơs	1
ơ̆rŭ	1
▁Hakila	1
▁Jêsim	1
▁ƀăng	1
▁deng	1
đâu	1
...):	1
▁Kuyên	1
▁tơrơn	1
▁Sihli	1
▁quĕt	1
▁Ur	1
▁Yư̆	1
▁Sơnư	1
▁luŏn	1
▁Eglaim	1
—	1
▁Dak	1
▁Phac	1
▁maket	1
▁pơhlom	1
▁rơuơ	1
▁dơbeh	1
▁Êstôn	1
▁Phasêa	1
▁Têhina	1
nahas	1
akus	1
▁Harip	1
▁Êket	1
▁klĭnh	1
▁Dieu	1
▁pơglơh	1
▁Tơklah	1
▁yŏh	1
▁mui	1
▁hơhoh	1
▁hơdĭng	1
ư̆m	1
ĭn	1
▁Hideke	1
▁Triph	1
▁Triphô	1
▁Lĭn	1
▁phơ̆t	1
▁Isbi	1
▁Benop	1
▁kiĕo	1
▁kăiI	1
roh	1
erambi	1
cidae	1
▁Cole	1
▁hăng	1
▁rơyuk	1
SDL	1
▁mươih	1
▁Kêrit	1
▁Saul	1
▁Misma	1
▁tuanh	1
niêm	1
▁yê̆t	1
ngưk	1
▁Siu	1
▁kdă	1
▁Ismaia	1
arđôni	1
▁sađiô	1
▁kr	1
isôlit	1
▁berelô	1
ôpassiô	1
▁krisôp	1
rais	1
▁hiasin	1
ettih	1
▁Rêson	1
nai	1
▁bgloh	1
▁thiê̆	1
dơt	1
▁pămg	1
▁Hơlă	1
hlêr	1
▁Hơlĕch	1
▁Gơal	1
▁kapơ	1
ăih	1
▁kei	1
▁Semaia	1
bađia	1
▁Đôđô	1
▁Ahôbit	1
▁hơlăk	1
▁sâÊy	1
▁adr	1
▁kơkă	1
▁ngương	1
ngei	1
▁sơbăn	1
▁hgĕi	1
▁Lôr	1
uhama	1
saphan	1
▁Sihri	1
▁tơtei	1
hoenh	1
▁luôih	1
▁Gar	1
▁kơmng	1
▁Trôm	1
▁rap	1
thuôk	1
bưk	1
▁xuk	1
▁gơling	1
▁oxong	1
▁tơpe	1
▁tê̆t	1
▁Ƀruih	1
▁Jirim	1
êphira	1
▁Ngôn	1
▁điê	1
▁huăy	1
▁Uria	1
▁Phiji	1
▁tĭh	1
▁hanhk	1
▁Ei	1
brư̆m	1
▁lum	1
▁Chơ	1
▁Rơm	1
▁mĕưh	1
▁dŏk	1
▁sưu	1
▁Baana	1
▁Bêalôt	1
phim	1
▁anhŭk	1
▁chơnen	1
▁ây	1
▁mơgap	1
▁pơgl	1
usarium	1
▁sesame	1
▁Alit	1
tle	1
▁plêl	1
▁Chuơh	1
▁grŭp	1
▁Kơpôl	1
▁Pơư	1
▁Pơtăl	1
dong	1
▁Ahihut	1
▁Nawm	1
▁adroi	1
▁hơpuih	1
▁kyăl	1
▁Pơyơ̆l	1
ngơk	1
▁Giap	1
▁thĕi	1
▁Ddôk	1
▁Kơđông	1
▁têi	1
pih	1
▁ĕ	1
▁bơlung	1
▁bŏn	1
▁sơbur	1
▁Hơrum	1
▁nhâ̆p	1
pơk	1
▁bơpl	1
ênh	1
▁pưnhôm	1
HĐĐTW	1
▁Tanưg	1
▁hơguăt	1
▁arăk	1
ŏnh	1
▁polôch	1
▁kuaĭ	1
▁Meh	1
▁lơhu	1
▁Tou	1
▁Kêtama	1
▁plưng	1
▁mưr	1
▁Jôêla	1
wôđia	1
▁Sintĭk	1
▁Pơyom	1
▁Pơjah	1
▁Jôi	1
akim	1
jơ̆u	1
▁tơmĕt	1
▁phăt	1
▁bâc	1
▁Jĕl	1
▁bơbah	1
Deic	1
▁rm	1
▁Nơr	1
▁krŭ	1
▁Bong	1
Bet	1
▁drĭng	1
elharsa	1
hatsa	1
▁Kêrup	1
▁Ađôn	1
▁Immer	1
▁tơphĕ	1
▁thiê	1
▁hân	1
SVHTTDL	1
▁iŏh	1
▁đakb	1
▁amnĕ	1
▁do	1
▁ƀŭng	1
Ð	1
▁pơdưng	1
▁awal	1
▁pơhơi	1
▁klam	1
▁Pơxrŭ	1
▁kiê	1
▁Kĭch	1
▁Kơmlat	1
▁Prit	1
▁pĭn	1
▁vŏk	1
▁Amnăng	1
▁đĭê	1
Yi	1
▁boiquy	1
tơring	1
▁hơrui	1
▁hlah	1
▁chơkot	1
▁kơdơ̆t	1
▁Abisal	1
om	1
▁Arih	1
▁gơret	1
▁Ikôni	1
▁Bio	1
▁DV	1
▁tơdam	1
▁dŭ	1
▁hơlơ̆m	1
▁doch	1
▁Hôba	1
▁bel	1
▁Rêuel	1
▁Hơnh	1
▁Thư̆	1
▁thư̆̆	1
▁tĭk	1
▁mô̆k	1
IPM	1
▁ngăt	1
▁oxi	1
▁Tŭk	1
▁Tru	1
▁SM	1
▁kươ̆n	1
▁pơđŏng	1
▁Ênaim	1
▁Maarat	1
▁Anot	1
▁Ênt	1
êkôn	1
▁pơvĕl	1
▁Xar	1
▁hơpak	1
▁Lar	1
▁Ne	1
▁Kusi	1
Chĕp	1
▁dĕ	1
▁ôphir	1
bây	1
▁trâ̆n	1
▁măch	1
▁Broch	1
▁kĕo	1
▁pơhum	1
tơlăi	1
▁hơrum	1
▁dơnan	1
▁Stiêng	1
▁Bih	1
▁bơmrok	1
▁wah	1
▁tiha	1
▁Xoai	1
gơdung	1
▁prol	1
Tơmo	1
▁Alamôt	1
ahrĕi	1
▁ƀlĕch	1
▁kluh	1
▁hău	1
▁lât	1
▁jơjơ̆	1
▁Sêira	1
▁gơdơ̆u	1
▁hlơpa	1
▁TâÊn	1
▁Tor	1
Tơ̆ng	1
▁pơthâu	1
▁Sơmĕch	1
duh	1
▁xơgơr	1
▁hưng	1
▁Pơtă	1
▁vuôn	1
▁bơluk	1
▁hlach	1
tơplih	1
▁Hang	1
▁Palu	1
▁Đinit	1
sathit	1
▁Tatb	1
êlit	1
▁Atkê	1
▁Suwan	1
▁Đêha	1
▁Hơ̆u	1
▁Bongai	1
▁Suppit	1
▁Hupim	1
▁Aher	1
▁rơmu	1
▁trah	1
▁Djoi	1
▁djoi	1
▁hơkơch	1
nglob	1
▁Đuh	1
▁sơhm	1
▁chơi	1
▁gơhuh	1
umim	1
duơ	1
C	1
▁Bav	1
istin	1
▁hơpơ̆r	1
▁Bruh	1
▁Ku	1
chuyên	1
▁vŭxưm	1
Usa	1
▁hơyok	1
▁pơkhoy	1
▁sraih	1
Gap	1
▁dưa	1
▁leo	1
▁chănh	1
▁Pơhrôp	1
▁Ahira	1
boch	1
▁Salma	1
▁Harep	1
▁Gađer	1
▁quyet	1
▁Kiđôn	1
▁ƀuăh	1
▁Almôn	1
Diblat	1
▁Xok	1
▁trôl	1
drăm	1
▁buăh	1
▁adê̆ch	1
▁angŏi	1
▁Nepsa	1
▁Jaala	1
▁Darkôn	1
▁lơlĕ	1
▁ler	1
▁Êlôhe	1
▁hơchu	1
yer	1
▁Alus	1
gut	1
▁apin	1
▁Rơng	1
uơ̆	1
kơdŭ	1
▁khôm	1
▁pơei	1
▁plak	1
ibia	1
▁Rơbua	1
▁Đương	1
bră	1
▁Kuăn	1
▁kơ̆r	1
ethit	1
▁Pơhôp	1
▁Ađôni	1
▁Phêr	1
▁Jês	1
ania	1
▁Kôlaia	1
▁Var	1
▁kơplơt	1
▁nhâ̆	1
▁Sikêr	1
▁Japnêl	1
sena	1
▁Sethan	1
▁Mars	1
ena	1
emukan	1
▁Mêre	1
▁kơtuah	1
▁Bithia	1
▁Mêret	1
▁driêng	1
Hơmet	1
pliat	1
▁hơnơ̆l	1
▁ktu	1
▁Niphas	1
▁Tartak	1
▁Adr	1
ammelek	1
▁Anam	1
êlek	1
▁srê	1
▁tuôt	1
▁Tơngla	1
▁nơ	1
▁SGDĐT	1
▁lơ̆ma	1
▁kŏm	1
▁rơkăh	1
▁hen	1
▁Lân	1
▁moih	1
▁kơnam	1
▁tơkot	1
▁hiam	1
▁Thêbes	1
▁thươÊ	1
▁Đau	1
CĐ	1
▁rơpiĕt	1
▁sơhng	1
liêng	1
▁pơlĕch	1
▁Xre	1
▁lơmơ̆n	1
Hơ	1
▁quyđ	1
nhur	1
rang	1
▁Seirơ	1
▁mơmăn	1
▁Lach	1
▁apuih	1
▁ĐH	1
▁ăch	1
Kŭm	1
brŏu	1
▁Hares	1
▁Salbim	1
▁Sipmôt	1
▁chul	1
▁ơpôm	1
▁oen	1
▁kơchĭa	1
▁pơnuôl	1
▁jŭ	1
▁đeo	1
suar	1
▁tơlăi	1
▁hơnung	1
▁hơnăng	1
▁cuô̆n	1
▁Ninh	1
▁ngơ̆r	1
Lơ̆p	1
▁chaih	1
▁pơhi	1
▁gel	1
aspera	1
phireb	1
sêđôc	1
arađôd	1
▁trên	1
▁tay	1
▁xu	1
▁Haram	1
▁Nimra	1
▁Sơp	1
▁Đêan	1
chô̆	1
mơ̆m	1
▁pơkh	1
ông	1
▁hyai	1
▁xrôh	1
Truh	1
▁lên	1
▁men	1
▁ttach	1
▁nhĭn	1
▁bơgah	1
▁tat	1
Puôn	1
▁hngam	1
bơk	1
▁Chơđ	1
▁Đeo	1
▁hrŭh	1
▁Êlun	1
▁Mêrap	1
▁Adriel	1
▁Mêhôta	1
▁dehh	1
▁rơhŏ	1
▁Sêl	1
êmia	1
▁Pêđaia	1
▁Sep	1
harwaim	1
▁Mah	1
asiôt	1
▁phiê̆n	1
▁Jur	1
▁Brư̆	1
jư	1
tơpơ̆h	1
tơpơhê	1
▁hrŭm	1
▁Păr	1
▁kơdŏng	1
▁say	1
▁Kŭl	1
▁hơbuăt	1
▁hơnhău	1
▁Molađa	1
Akhan	1
▁Sêmer	1
▁Kusaia	1
▁kơdŏn	1
▁jư̆ng	1
▁sual	1
kăng	1
iland	1
▁Meo	1
▁nguă	1
▁Sôbi	1
▁bot	1
▁yuăn	1
jĭÊng	1
▁Ri	1
▁pơklă	1
inc	1
▁Rovral	1
,...	1
▁HƠGĂT	1
▁HƠB	1
▁gơdơl	1
Sŏ	1
▁hơron	1
▁koi	1
▁than	1
▁Vê̆t	1
▁ƀĕp	1
mănng	1
▁xuc	1
▁stress	1
▁pơkuĕ	1
▁tơđuk	1
▁Huar	1
▁Jêsar	1
êla	1
▁chrĕk	1
treng	1
▁pơdôh	1
Bat	1
▁dơi	1
▁Sêrêđa	1
▁Sêrua	1
▁Êt	1
▁Dôdaw	1
ahu	1
▁Tiê̆p	1
▁uma	1
▁kơlang	1
▁Kŏng	1
bĭnh	1
Weh	1
▁Êbia	1
▁tơnh	1
vao	1
ǎ	1
▁lơmơt	1
▁Bênôt	1
▁Kut	1
▁Asima	1
▁pơyat	1
▁Luka	1
▁Ơla	1
baŏ	1
▁đ̆inh	1
▁jiêt	1
kơđoh	1
▁phuj	1
▁Almon	1
Almon	1
▁Kêmuel	1
▁Hơtaih	1
▁dơyĕn	1
▁kiĕn	1
▁hrip	1
▁Growth	1
▁khuk	1
▁oeang	1
▁nhok	1
▁plĕng	1
▁Hidêke	1
▁NK	1
▁LVN	1
▁Nk	1
▁Bt	1
GT	1
▁HN	1
▁Hatil	1
▁Phôkar	1
êt	1
sêbaim	1
▁Salisa	1
▁Salim	1
▁pơkuĕl	1
pơxrŭ	1
▁Abrni	1
▁kơphăi	1
▁bơgơm	1
▁Ninêwơ	1
▁hơkam	1
▁ađr	1
▁xah	1
▁liĕl	1
▁Jahas	1
▁Apđôn	1
▁Hilel	1
rathon	1
▁Pơchi	1
BNNPTNN	1
nginh	1
Brŏk	1
▁Parua	1
▁jơn	1
ơ̆na	1
▁Kret	1
▁kơtăh	1
▁iôr	1
▁hiang	1
▁bơôr	1
▁Sêd	1
êkia	1
▁giô	1
▁Sabai	1
▁Bakbak	1
▁Bơngau	1
▁Gưu	1
▁nanh	1
▁hruôch	1
▁Lêbana	1
▁Hagaba	1
▁Salmai	1
▁Kêđes	1
▁Kĕng	1
loh	1
▁Khô̆i	1
▁bơnŏ	1
▁ônik	1
qua	1
▁điêch	1
▁tiêch	1
blip	1
gngam	1
▁jlo	1
▁kor	1
▁Ijôn	1
▁Maim	1
ơhnar	1
▁Sisak	1
▁adrơu	1
▁thuck	1
▁pĭu	1
▁rơw	1
ơ̆nh	1
▁rơwănh	1
dơnang	1
▁puôi	1
▁pơđom	1
▁pĕch	1
▁gôm	1
▁xưt	1
▁pơtĕng	1
▁Bơ̆r	1
▁tơtra	1
▁kơhĭnh	1
▁pk	1
SKHĐT	1
▁apơi	1
▁achăm	1
nư	1
▁hơđoh	1
tơm	1
▁pơsô̆	1
▁pơsôr	1
ð	1
▁Hơtol	1
▁khăch	1
▁nilong	1
▁luih	1
KTXD	1
VP	1
▁jŏng	1
▁Chop	1
lĕ	1
▁lơlial	1
▁rơhu	1
bri	1
▁ơdr	1
▁pơsiêm	1
▁Sêar	1
▁Jasup	1
▁Basit	1
ox	1
▁chuang	1
▁Song	1
gadan	1
▁hơgăi	1
▁toih	1
▁juang	1
▁nhông	1
▁kên	1
▁kơtolt	1
▁ơ̆	1
▁Băl	1
▁pơchră	1
tơguam	1
▁hơdahb	1
▁tŏm	1
▁thêt	1
▁Assir	1
▁Abia	1
▁huaÊân	1
▁Kêriôt	1
▁jô̆c	1
▁dăngt	1
▁ơlei	1
Jơră	1
▁HươÊng	1
HDLN	1
KBNN	1
▁chhdeh	1
êmimac	1
▁Kêsia	1
▁Keren	1
▁Hapuch	1
▁va	1
▁phư̆k	1
▁trĕch	1
aphan	1
▁Usiên	1
▁Ƀơm	1
▁phăo	1
▁kălb	1
▁phoi	1
ănd	1
▁gor	1
▁Mas	1
rêka	1
▁tơku	1
ăr	1
kơchĭk	1
tiver	1
ơng	1
▁Din	1
▁Tơh	1
▁trăch	1
▁nhĭ	1
▁ayun	1
▁sưb	1
▁prok	1
▁Humta	1
blŏ̆k	1
▁Jôktan	1
▁uiêl	1
ICM	1
▁mŏt	1
mương	1
pơting	1
▁tơan	1
▁đuôi	1
▁pơgia	1
▁rimm	1
▁Nêba	1
▁Mak	1
banai	1
bêkasa	1
▁khaih	1
▁KƠ	1
▁CH	1
ĔÂ	1
▁CHIÊNH	1
▁SACH	1
▁Tahp	1
ênes	1
▁kơpak	1
▁Phinôm	1
▁axogn	1
▁său	1
▁Girsi	1
▁rơkĕch	1
▁êp	1
jul	1
loơk	1
văn	1
nganh	1
▁hoanh	1
▁tơrĭ	1
▁Pơgơ̆r	1
▁kơkl	1
▁kơklăk	1
lêch	1
kơdoh	1
▁tơsen	1
Pơjing	1
▁Kŏk	1
▁Sêraja	1
▁Sôp	1
hôni	1
▁Klơm	1
▁Kĕk	1
▁Cambo	1
▁kôt	1
▁khiÊ	1
SNV	1
▁pơjaoa	1
▁Pơrok	1
▁moa	1
▁klau	1
▁Klôpas	1
Uy	1
▁Kisle	1
khan	1
▁Sach	1
▁Miklôt	1
▁Phôtip	1
hêra	1
▁r̆ap	1
▁ngô̆	1
ơ̆n	1
▁laiyơ	1
klang	1
blir	1
▁rŏl	1
▁Thăi	1
▁tơxĕ	1
▁Chĭ	1
▁tơbôk	1
Bơhnar	1
▁Krĭm	1
roi	1
rê	1
▁Yuơn	1
▁chĕo	1
▁tơmăm	1
▁Kirôt	1
▁Bas	1
udin	1
▁G	1
▁nghê̆	1
▁ronh	1
Thông	1
Yŏng	1
▁Luâ	1
▁akơn	1
▁mŏch	1
Ngêng	1
▁Negep	1
▁Abisur	1
▁Ahban	1
▁Môlit	1
bau	1
▁Tưk	1
▁kơnur	1
▁Gra	1
▁kơchĭk	1
đêch	1
▁pơglôn	1
▁Jêsiel	1
▁Bêraka	1
▁pơxrăm	1
▁bơnơm	1
▁ŏnga	1
▁Đum	1
▁ac	1
lop	1
▁cưk	1
apiđôt	1
▁USD	1
bĭ̆n	1
▁hơnŭng	1
yao	1
bay	1
▁Gơ̆	1
▁Ara	1
▁jưvĕi	1
▁Pêk	1
▁krơ̆	1
▁Magor	1
▁Misa	1
bip	1
▁Be	1
▁Mg	1
SOpuôn	1
▁Cabăl	1
▁POpuôn	1
▁tơpoh	1
▁Hngăt	1
▁Jơmŏng	1
▁Glă	1
HCSN	1
mălei	1
yong	1
▁nghanh	1
iphia	1
▁Nêmuel	1
▁Pêgam	1
▁Hram	1
▁drô	1
▁ơdon	1
ư̆t	1
▁dĭh	1
Tơnŏ	1
▁mêp	1
▁Jow	1
▁Hă	1
▁Lŏng	1
▁Phŏng	1
▁kơtuĕn	1
▁TƠDRON	1
▁VEI	1
▁VÊR	1
▁MU	1
K	1
▁DRĂM	1
▁CHAM	1
▁CHAR	1
ơ̆	1
klŭ	1
▁hlăi	1
▁pơlŏn	1
▁Pul	1
▁Tiglat	1
▁Phil	1
eser	1
▁Hala	1
▁Habôr	1
▁Hara	1
▁tơhăt	1
▁Sôten	1
jŭ	1
dư̆ng	1
▁tôk	1
▁cay	1
▁pơgrê	1
▁Boưng	1
▁bơlih	1
▁Ismêr	1
▁Islia	1
▁chơgâu	1
▁xơ̆p	1
▁Hơpo	1
▁Hôđes	1
▁Sibia	1
▁Malkam	1
môna	1
▁Mêôn	1
▁Tuk	1
▁Kơpla	1
Rơmo	1
▁achô̆	1
▁Asasia	1
▁Semini	1
▁pơnar	1
mhŏng	1
▁kutăng	1
Tang	1
▁mưlĕi	1
▁kiêng	1
Bŏng	1
▁kơlênh	1
▁giôi	1
▁Cho	1
▁Sut	1
▁chhom	1
▁dow	1
▁Yom	1
▁jrênh	1
▁Jơhng	1
▁ahrrei	1
▁mrot	1
Barsa	1
▁Jutu	1
thias	1
▁Krưp	1
▁hrưng	1
buôn	1
sĭt	1
plĭh	1
▁dơlăm	1
STNMT	1
▁kơpơ̆t	1
▁Tơhrĕk	1
▁Huan	1
▁dơhla	1
Be	1
▁Diê̆	1
▁Maher	1
Salal	1
Hasbas	1
▁Tuôch	1
▁kuôi	1
▁đĕu	1
▁Tơpơ̆h	1
▁bop	1
▁hrum	1
nđô̆	1
▁gôđêch	1
▁oie	1
▁plâk	1
▁Klăh	1
▁Gŭt	1
▁NHơn	1
▁hơđ	1
cham	1
issua	1
▁duônh	1
▁Amitai	1
▁Lêbơ	1
BTTMT	1
▁Nhơ̆t	1
▁loăi	1
pơ	1
▁bơdơĭ	1
Phŏ	1
▁lĕcha	1
▁adran	1
▁hơmrĕ	1
▁pơnưp	1
▁puôih	1
▁blơng	1
▁khơng	1
▁huynh	1
▁thêm	1
atir	1
▁pơsei	1
▁atŭng	1
▁kơbơ̆n	1
▁pơme	1
▁Ruma	1
▁Têba	1
▁Gaham	1
▁Tahas	1
▁Maka	1
▁Tơdrp	1
▁Bră	1
▁iêch	1
Đưng	1
beh	1
Kơkuh	1
▁blăh	1
▁beka	1
▁atŭn	1
▁gxŏng	1
ơi	1
▁vien	1
▁juaih	1
▁Tơp	1
▁mŭ	1
Huăt	1
iêp	1
▁phuơ̆t	1
▁Chơgơu	1
▁Săi	1
▁Hukô	1
▁hŭm	1
▁liêh	1
▁tơmuk	1
▁Mêunim	1
▁Nêph	1
usêsim	1
▁thât	1
▁Ađin	1
samak	1
▁Nêsia	1
▁Hatip	1
▁tơhŭm	1
nhak	1
▁Anăp	1
▁ơbơău	1
▁bơĭ	1
▁achơ̆	1
▁lơmĕ	1
Thĕng	1
hơ̆u	1
▁Thumim	1
▁Iphar	1
ua	1
▁sruh	1
▁tơă	1
▁yupư	1
▁Liđa	1
▁kơxơ̆r	1
▁brăng	1
▁jơne	1
▁Hrat	1
▁kơdăp	1
▁bum	1
▁Senak	1
êrip	1
▁pưđep	1
iê̆n	1
▁ƀôm	1
▁Hơgơ̆m	1
▁mach	1
▁ju	1
▁tơgĕl	1
▁Ispa	1
▁Jôha	1
▁Huiên	1
▁Hap	1
▁Kuan	1
▁Apah	1
▁pơthgo	1
▁Guni	1
▁Barkô	1
▁Sisera	1
▁ahrrĕi	1
Yang	1
▁klal	1
▁Janim	1
▁Tapua	1
▁Aphêka	1
▁grech	1
▁Hanat	1
▁Sêmê	1
▁Êsêk	1
iên	1
▁Busi	1
pơđam	1
▁Kabula	1
▁hlĕnh	1
▁Ơêi	1
▁Nimrôt	1
▁Sêmira	1
▁Jêr	1
emôt	1
▁aong	1
▁Bar	1
achi	1
▁Tơkan	1
Jơnang	1
▁SOpuôn	1
▁jjơl	1
Yôhan	1
▁pơsel	1
▁amĭl	1
▁jơmir	1
▁rĕn	1
▁EU	1
▁kơdơ̆l	1
Vo	1
ơnĕng	1
▁hơneng	1
▁Diưnơm	1
▁xuơ̆k	1
▁xuơ̆l	1
▁dơđah	1
▁hlai	1
hnŏng	1
Pơma	1
bôlêt	1
Sibôlêt	1
▁tơnŏk	1
▁ƀôhm	1
Bơsŭn	1
▁Rađai	1
▁giô̆	1
▁rơbơ̆r	1
▁suăn	1
▁kơdŏu	1
▁krăl	1
▁Kơxêng	1
ahairoi	1
▁Abitup	1
paal	1
▁hnơ̆k	1
▁hnăk	1
▁Asêrôt	1
▁Chưk	1
▁nhŭn	1
▁jŭt	1
▁wê	1
▁thoa	1
▁adrĕnh	1
▁Mis	1
manna	1
▁tôp	1
▁PE	1
▁Êtơdrong	1
▁Blei	1
ih	1
▁Pênina	1
▁atac	1
▁bơlơh	1
▁kŏa	1
ưih	1
▁Garet	1
▁Gôa	1
▁Hơkar	1
▁krăm	1
▁đât	1
▁Hagan	1
ormalin	1
▁gŭl	1
▁Pơsĭt	1
▁Hơgĕi	1
▁podơi	1
đum	1
▁ngui	1
▁rơđeh	1
Hăm	1
▁Kem	1
KĐ	1
î	1
̆nh	1
▁chơbĭ	1
▁chơmai	1
▁Pơmat	1
▁Khŏm	1
▁bơbŏ	1
▁Nôđap	1
▁Đana	1
▁Sana	1
Đao	1
▁pơpol	1
▁Bum	1
unh	1
▁Đoat	1
▁Me	1
▁bơlơĭ	1
ơngiăng	1
▁cưc	1
▁thuơk	1
▁Mong	1
▁hơmăt	1
Phô	1
▁phơ̆ka	1
▁Luô̆ng	1
▁prôi	1
▁Hơnul	1
▁Nakôn	1
▁Ming	1
▁Wai	1
▁Admire	1
▁Comite	1
issorun	1
▁pơl	1
▁hơtô	1
▁hơnao	1
▁Kuơk	1
▁chhưk	1
wng	1
▁Pơdŭk	1
▁plông	1
▁pluơk	1
▁pluak	1
▁vung	1
huo	1
bêA	1
▁pơhng	1
ơl	1
▁pănng	1
▁Marêka	1
▁Gasam	1
▁Pêsêa	1
▁Kkơpô	1
▁sơrăt	1
▁Kađes	1
▁Barnê	1
▁kuc	1
▁Thŭ̆	1
▁Oncol	1
▁Makbi	1
▁Pơnăr	1
nhưĭ	1
▁tơhm	1
ăi	1
▁Mahli	1
▁Sêber	1
hana	1
▁Gơng	1
▁gơng	1
▁klao	1
▁Lĭm	1
nik	1
▁ưoei	1
▁tơgl	1
ĐANN	1
▁pơđeo	1
hơkăn	1
▁Khich	1
▁tơi	1
▁wơi	1
▁ding	1
▁pơhach	1
▁Hêla	1
▁Gơdai	1
▁pơdăm	1
▁đơđơu	1
▁đơđao	1
▁Sêbul	1
▁Rơngao	1
ŏch	1
www	1
gov	1
▁grĕi	1
▁Asêch	1
▁Brix	1
▁Yanga	1
Brưch	1
▁gơnap	1
▁bơluh	1
▁klơ̆r	1
▁Hơtŏk	1
▁Hơgar	1
'',	1
▁Mưng	1
▁sơkơ̆t	1
▁Mĕbă	1
▁Xưt	1
BATGT	1
▁sâÊu	1
iniam	1
▁glưong	1
▁Akila	1
▁Prisil	1
▁kơdŭk	1
▁kơdăk	1
chĕp	1
đĭ	1
▁chĭp	1
▁pơge	1
▁sôch	1
▁yưa	1
▁Êder	1
▁Kamôn	1
▁Tơhiap	1
BGTVT	1
nhŏm	1
▁Asbuk	1
▁lcih	1
▁khjĕi	1
▁Êsri	1
▁Kêlup	1
▁chơkơ̆	1
▁Chhơ̆	1
▁milô	1
▁Hawp	1
▁Jơk	1
▁sơđa	1
năl	1
▁Chơ̆n	1
▁Rakal	1
BCT	1
▁Harôt	1
iôk	1
▁Ahawa	1
▁Naphot	1
▁kơlĕ	1
Balak	1
▁hlŏk	1
bêng	1
▁mơmĭl	1
▁Nak	1
▁Êla	1
▁cươ	1
▁roưmo	1
▁pơdĕi	1
▁lơngŭa	1
▁Bêraia	1
▁Simrat	1
▁Hơgrop	1
▁hơgrih	1
▁photo	1
▁nguan	1
▁Ênmis	1
patb	1
▁Kêdêh	1
mok	1
▁Bak	1
▁Kusan	1
▁Rôih	1
▁Hêbr	1
ôna	1
▁Tanmai	1
gah	1
▁Brŏng	1
xên	1
▁tơƀ	1
▁miêm	1
bênêser	1
▁Aspanh	1
▁TTNT	1
▁ămk	1
▁Sênan	1
▁Hađasa	1
▁Mikđal	1
▁Itali	1
▁adreck	1
uat	1
▁mưlei	1
▁Jêret	1
▁Jêk	1
uthiêl	1
▁Nain	1
▁Sêrêda	1
▁Samir	1
▁sưk	1
▁Satur	1
nidae	1
▁pơkiu	1
▁dĭl	1
▁vĭl	1
▁chơkeh	1
▁kơdô̆	1
▁Rispa	1
▁Chơchă	1
▁iok	1
▁Nhơm	1
kơjung	1
▁răr	1
▁sĕi	1
▁Chrih	1
▁bing	1
ngêng	1
▁manh	1
▁Thŭy	1
▁tơngh	1
ĭt	1
▁TƠ	1
▁OEI	1
▁OM	1
▁HNAM	1
▁gip	1
▁pơgơi	1
Hlôi	1
▁Asin	1
▁Plêgon	1
▁Hêmes	1
▁Pattrô	1
▁Hemmơ	1
▁Môlek	1
▁Hơmrĕ	1
▁anhĭn	1
iram	1
êđaia	1
▁Sên	1
▁Jêkam	1
▁Hôsama	1
êđabia	1
▁rơnon	1
_	1
▁tơjr	1
▁lươt	1
▁hơka	1
▁klĕp	1
▁Tơjroh	1
rŏl	1
▁hlack	1
▁xơrêm	1
mơkai	1
▁Giơng	1
▁Tŏ	1
▁Hơbŭt	1
▁Kôs	1
▁Anup	1
ôbêba	1
arhel	1
▁Harum	1
▁pơsir	1
▁hbo	1
▁lămưh	1
▁Balat	1
▁Pêr	1
▁Xô̆	1
▁pưdăm	1
▁Seir	1
▁Hrai	1
▁Chiprơ	1
▁Siren	1
chih	1
▁Apăng	1
▁Iyê	1
To	1
▁Sađusê	1
▁sơmĕch	1
▁Jêuel	1
▁đơt	1
▁Hơweng	1
▁pơtrŏ	1
Lĕch	1
▁lơpng	1
▁Aspen	1
as	1
▁kơsơĭ	1
▁chư̆c	1
▁ơnăm	1
▁rơmok	1
▁pơdĭp	1
▁Palti	1
▁Raphu	1
▁Bơgang	1
▁tiêa	1
▁kơdơ	1
▁Rêg	1
êmalek	1
▁Chơ̆	1
▁Hroi	1
▁Moih	1
▁Suriêl	1
▁sơ̆i	1
▁Phihah	1
irôt	1
▁Sao	1
▁pơtơ̆l	1
▁gơnhĕk	1
bơgang	1
▁Hôt	1
▁Samma	1
▁Silsa	1
▁Ithran	1
▁Beera	1
▁Tamôn	1
▁anam	1
▁dơn	1
▁Baanah	1
▁Pôih	1
▁hơmra	1
▁Atara	1
▁ƀruih	1
nheu	1
▁Rêka	1
sriêng	1
Siri	1
Betsai	1
▁Nơĭ	1
▁Nơng	1
hin	1
▁Tơgăk	1
▁bơgal	1
▁pơlư	1
▁lơtu	1
▁Bŭch	1
▁thĭt	1
rai	1
▁kơtăi	1
▁Hôram	1
▁Tơlơi	1
▁xơngu	1
et	1
▁tư̆ư	1
▁plim	1
▁Trôk	1
▁hơgeic	1
▁Sung	1
▁Carbo	1
uran	1
▁Vibasu	1
▁Vicap	1
▁Visa	1
▁Regent	1
▁Dia	1
inon	1
Chih	1
▁Tiêt	1
▁Chuh	1
▁ngon	1
ŭn	1
▁ơdăm	1
▁Tơđah	1
▁cuơk	1
joh	1
▁đung	1
▁kơtot	1
▁lơhing	1
▁Rahape	1
Ữ	1
▁Kha	1
PBGDPL	1
▁tĭ̆p	1
luô̆ng	1
isabet	1
bling	1
▁Hơtŭt	1
▁Atrôt	1
▁Sôgan	1
▁Jôbêha	1
▁Hêsrô	1
▁Paarai	1
▁Albit	1
▁pơgơĭ	1
▁sơmăt	1
▁Puăn	1
▁kơnôt	1
▁renh	1
▁Pơdreo	1
athus	1
▁ton	1
▁pơnưng	1
▁pơpŭk	1
▁hrăh	1
▁phê̆	1
▁bêng	1
▁Ađring	1
▁bơngao	1
ria	1
▁Hôrit	1
▁Sirơ	1
ei	1
▁pơran	1
▁phŭng	1
▁hơtô̆	1
▁chăk	1
pơ̆k	1
▁giê	1
▁hơleo	1
▁Not	1
pH	1
▁Hơguăt	1
▁Karka	1
▁brao	1
▁Arauna	1
▁klênh	1
▁sor	1
▁jưh	1
▁Philô	1
▁Jula	1
▁Nerê	1
lem	1
▁rơyŭk	1
▁ơŏi	1
▁Chăt	1
▁romo	1
▁Hôgla	1
anăn	1
nhon	1
jưng	1
▁Rêya	1
▁yôk	1
▁Tharê	1
▁Nakô	1
▁lơ̆ng	1
▁Hanam	1
el	1
▁Juta	1
▁ngir	1
▁Ase	1
▁iơ	1
▁tơlôm	1
▁hơnăp	1
▁hgan	1
▁gôa	1
ngŏ	1
▁Êse	1
chơ	1
▁Rumani	1
tuih	1
▁pơkep	1
▁Sihôr	1
▁Awim	1
▁đănh	1
tơxĭnh	1
▁anap	1
▁boith	1
dŏk	1
ử	1
▁Xơnơng	1
▁kơso	1
▁trĕng	1
▁Hoat	1
▁Abisak	1
▁Sunami	1
▁nĕng	1
ŭng	1
▁Kra	1
▁Brĕch	1
▁Unô	1
▁Đin	1
▁Đŏn	1
▁Pơđông	1
▁plĕnha	1
▁huâ̆n	1
▁pơnă	1
▁drĕng	1
▁Tơhĭl	1
▁Phêtus	1
▁tuai	1
▁Lêbô	1
▁Arol	1
▁Seikơl	1
▁maiha	1
▁kuôt	1
▁pơduk	1
▁Têman	1
nôm	1
Glung	1
▁Hơnik	1
kla	1
▁xoe	1
▁Pêthôr	1
▁Nah	1
▁ngenh	1
▁mơlâ	1
▁hleo	1
▁Hal	1
ôhes	1
▁pơdei	1
▁chuo	1
▁kơnăt	1
▁Khĕo	1
▁Pêl	1
êthit	1
▁Ira	1
▁Sŭt	1
▁Tơchă	1
▁Sơro	1
iêh	1
▁Sêban	1
▁Buni	1
▁Kênani	1
CTUBND	1
▁CTUBND	1
▁hơƀơ̆l	1
▁Bơyar	1
dêl	1
▁Boong	1
▁yơ̆m	1
▁ariha	1
▁jon	1
▁Kôlh	1
ôse	1
▁Hasaia	1
▁Mra	1
▁Phongh	1
▁kơmăr	1
PL	1
▁sơlih	1
▁Kơtơh	1
▁hŭr	1
▁tơdêl	1
▁kjungn	1
▁tơnăm	1
▁ngot	1
Hoai	1
▁jưvei	1
▁Jrơ̆u	1
▁pơtă	1
▁Kuyêt̆	1
bam	1
▁luôn	1
▁web	1
▁aguăt	1
▁hmông	1
▁ret	1
▁pơhrơp	1
▁đâ	1
▁Huĭ	1
▁gohư	1
▁blak	1
▁ktêp	1
▁Bêsal	1
êel	1
▁Quach	1
▁Yŭc	1
▁hiông	1
▁Phơang	1
▁măngt	1
▁thhi	1
▁Big	1
▁hning	1
▁kiăn	1
▁mra	1
▁Lơi	1
▁bơhle	1
tni	1
▁Rêphăl	1
▁Sêmak	1
▁apăk	1
▁bơse	1
tương	1
▁Rach	1
▁phăr	1
Yoch	1
▁pơdor	1
▁Jêus	1
▁Sakia	1
▁Mirma	1
▁chơkŭp	1
Nhăt	1
▁kơphŏk	1
▁Seph	1
ela	1
▁djơ̆	1
▁ưuh	1
▁Bơsat	1
TWĐTN	1
▁Chơ̆p	1
▁pơlŏau	1
▁Hơkrô̆	1
yăl	1
▁Nhơng	1
det	1
▁riêh	1
▁dom	1
▁hơker	1
▁Phô	1
▁ying	1
yông	1
▁Gre	1
▁Bơsei	1
▁đră	1
met	1
▁ngơch	1
▁Hira	1
▁Beta	1
▁Bêr	1
ôthai	1
jĭ	1
▁yuêt	1
▁yôl	1
▁kơxĭ	1
▁hiĕn	1
kruuôĭ	1
hô	1
▁thua	1
▁Ephot	1
phin	1
▁mơhlik	1
▁mơhlak	1
▁Hăk	1
▁hgei	1
▁mơ̆k	1
▁bluch	1
Kơdŭn	1
bel	1
▁Mêtsô	1
bait	1
▁Rơgei	1
▁nguang	1
▁pơhrơ̆	1
▁Phahat	1
▁Êlih	1
ôênai	1
▁cŭ	1
nguă	1
▁Plôi	1
Oĕi	1
▁Sêwa	1
▁panơ	1
đăk	1
▁sơk	1
▁kơmĭl	1
▁bơlơi	1
▁Sêđar	1
▁Hisôp	1
▁Kom	1
▁tiÊch	1
ilit	1
▁jrơ̆k	1
đei	1
▁bơ̆r	1
aip	1
▁lơmm	1
▁Karmi	1
▁khưk	1
▁hơbang	1
▁Tơnei	1
logo	1
logan	1
▁drau	1
▁ĭ̆l	1
▁đâÊu	1
▁wăk	1
▁đư̆ng	1
▁tie	1
▁biêa	1
▁bơmơn	1
▁Yơ̆p	1
▁ư̆	1
barb	1
▁kơret	1
▁viê	1
▁tơlă	1
▁hơpu	1
Chông	1
▁dơsum	1
▁grơu	1
▁anhơi	1
bâk	1
▁rơmơ̆t	1
▁Pro	1
trŏng	1
▁kưa	1
▁Borde	1
aux	1
▁đĭng	1
▁Arma	1
gedon	1
Văn	1
▁dơdruh	1
▁dơdăm	1
ự̌	1
▁Sapham	1
▁Janai	1
▁Saphat	1
▁Phêô	1
▁Kanaim	1
▁Susin	1
▁nê̆	1
▁sơmren	1
▁klôp	1
▁Yuan	1
▁amandê	1
▁Rang	1
▁anhơl	1
▁chơgi	1
ah	1
yeng	1
▁phach	1
elêthit	1
▁bơbul	1
▁hơl	1
▁akal	1
▁Hrol	1
▁Phal	1
tiel	1
▁Galim	1
▁yŏl	1
▁Hơkan	1
▁Sêbôim	1
▁rơlay	1
▁Păkkê	1
▁mor	1
▁mơkuôi	1
▁gưh	1
raih	1
▁Tơrih	1
▁Lan	1
▁Rêh	1
abia	1
▁Pit	1
▁Khuen	1
▁đơi	1
▁Salum	1
▁chuêt	1
▁tŭi	1
▁khay	1
▁xôp	1
▁dâp	1
▁Don	1
▁bơnoh	1
▁pơtôh	1
▁Mil	1
▁nhah	1
▁hơngeo	1
▁brio	1
▁hơmŏ	1
▁anŭl	1
Nhao	1
▁tơơr	1
▁rơret	1
▁Gêbal	1
▁Đap	1
▁brưa	1
tơkư	1
▁tj	1
hoi	1
▁Matan	1
IUU	1
▁nhăng	1
▁xok	1
▁pơnhôn	1
▁Sân	1
đet	1
▁aru	1
▁pru	1
▁sơaih	1
▁hơnăn	1
▁gơwĕch	1
▁sơdơ̆r	1
▁Tôu	1
anêahb	1
nc	1
▁cơsi	1
▁Chơkep	1
anhalat	1
▁tĭ̆t	1
ubabel	1
▁Sê	1
athiel	1
ỳ	1
▁khuy	1
▁Decis	1
▁Cy	1
merin	1
nhek	1
nhoi	1
▁tơjăt	1
▁khŭk	1
uôĭ	1
▁grưm	1
Pơlŏk	1
▁TƯ	1
▁hngiêl	1
▁Maok	1
Mŭi	1
▁lol	1
▁pĭng	1
▁chơn	1
▁gơnŭk	1
▁tlĕ	1
▁Amrĕ	1
▁kơnĭt	1
▁Aba	1
▁Ngăn	1
▁hĕcl	1
▁Pơgrê	1
▁Sêpbô	1
▁Jru	1
▁luâ̆n	1
▁mich	1
Biê̆	1
▁Gapbai	1
▁Salai	1
▁sơđah	1
▁bơ̆na	1
▁anhông	1
His	1
himonus	1
ycitis	1
istant	1
▁iêk	1
▁CV	1
Mơ̆t	1
▁adruhh	1
▁iê̆l	1
▁hlŭng	1
êmukan	1
▁Ngok	1
▁Thơ	1
▁rŭt	1
▁Qu	1
▁chơđa	1
▁Midian	1
Kiơ̆	1
▁mul	1
▁wau	1
▁pơđơng	1
▁Kiê̆n	1
▁Samina	1
▁hơgăl	1
▁Pơtrơp	1
▁yâ̆u	1
▁hiưp	1
Anih	1
▁âtih	1
rok	1
isics	1
▁Lôc	1
▁pơtău	1
▁Hơleng	1
etôphat	1
▁Akô	1
▁Ahlap	1
▁Helba	1
▁Aphik	1
▁Nebus	1
asban	1
▁Negai	1
▁Mương	1
▁chdruh	1
▁jơlâm	1
▁Phêl	1
atia	1
▁Nêaria	1
▁Isi	1
▁Wơh	1
▁kơkôi	1
sŏk	1
▁Baslit	1
▁Mêhiđa	1
▁Harsa	1
▁kơsơk	1
Kơ	1
Kơmăng	1
▁pơnhom	1
▁jơro	1
▁pĕnh	1
▁prăn	1
▁Nahbi	1
▁Wôsi	1
▁khưm	1
▁khơ̆p	1
▁arăi	1
▁pơhr	1
▁ĐV	1
▁ANS	1
▁thơm	1
▁KD	1
men	1
ŏr	1
môch	1
arêsia	1
▁êphaa	1
▁hinb	1
blah	1
▁PƠKĂP	1
▁ɃƠ	1
▁KHƠ	1
R	1
▁HƠK	1
U	1
▁JĂN	1
▁ĐE	1
▁NAI	1
▁YOCH	1
▁TIH	1
▁iam	1
ênhail	1
▁Nê	1
thanel	1
▁iêt	1
▁tiê	1
▁Hơchô̆	1
▁Hnong	1
▁Babel	1
▁Êrek	1
▁Akat	1
▁Kalneh	1
▁Jêđi	1
đia	1
▁pơchh	1
▁Hiơ̆	1
▁buôc	1
▁Mih	1
▁hơniê̆	1
▁pơpơ̆t	1
dum	1
▁bơk	1
▁hơmôi	1
adrêch	1
▁graxia	1
▁hyŏh	1
▁Ikabôt	1
CTPH	1
TAND	1
▁hyong	1
▁R	1
ogelim	1
▁Vi	1
▁Ngh	1
iê̆p	1
▁Mêrô	1
▁arum	1
▁Soan	1
Tiê̆ng	1
▁Tiê̆ng	1
▁Gađa	1
▁Hêsmôn	1
▁kơdrơ	1
▁Puh	1
▁kơtua	1
▁pơlô	1
▁Lêch	1
▁Dăh	1
▁yŏch	1
▁râm	1
đŏng	1
▁mơmŏk	1
tơmăn	1
▁trăn	1
▁Van	1
▁srok	1
▁hiu	1
▁Gadiel	1
▁Sôdi	1
▁hĭm	1
▁Ƀâu	1
▁jơ̆k	1
▁Dăr	1
▁rơhium	1
▁hman	1
Hơtai	1
▁Kơtă	1
▁klŏ	1
▁Bor	1
tasan	1
▁Athach	1
▁iâu	1
▁bơnhŭl	1
▁tơmon	1
SCT	1
enh	1
▁guk	1
▁tơlôr	1
yai	1
▁kuĕt	1
▁Tơtoh	1
Ma	1
V	1
▁xanga	1
▁Bơl	1
▁Kơpu	1
▁tuĕnh	1
▁trep	1
▁Pyral	1
idae	1
▁Ariêl	1
▁Jarip	1
ni	1
ôsêt	1
▁Hagôim	1
▁lơ̆h	1
▁Hơlŏng	1
▁Kiđes	1
ksô	1
▁tơvih	1
▁App	1
laud	1
▁knĭ	1
▁mây	1
▁mak	1
▁Jamin	1
▁Hôđia	1
▁Masêja	1
▁Kêlita	1
▁Pêlaia	1
blang	1
▁Gơsơ̆	1
▁jơmuk	1
▁Tôken	1
BCĐCCTP	1
HĐPHTW	1
▁dơhlu	1
▁CT	1
▁Gak	1
▁teha	1
ơkăn	1
▁Tơtă	1
▁Pơđêng	1
▁hioh	1
▁tơngl	1
ĭng	1
▁Siphi	1
▁Alôn	1
▁kơnăng	1
▁tŏdon	1
▁Hôsai	1
▁xrah	1
ŭt	1
Lơ̆m	1
▁Akelđ	1
ama	1
blŏch	1
▁grung	1
▁kơkot	1
▁Sơri	1
uơng	1
▁huyen	1
▁pơbăr	1
▁huơ̆ng	1
▁Sêm	1
▁Saham	1
▁Prơih	1
▁nau	1
▁sơmanh	1
▁Bêtr	1
êhot	1
atôpha	1
NHNN	1
▁ƀĭh	1
▁Bluh	1
ngil	1
Blŭng	1
▁Cent	1
ral	1
▁Group	1
jơrông	1
bua	1
▁Sum	1
icidin	1
▁padan	1
Chi	1
choh	1
▁gơsô̆	1
▁pĭm	1
▁bhat	1
▁rơhoi	1
▁HIV	1
AIDS	1
▁pim	1
▁Bơngao	1
Bơnê	1
giĕng	1
klep	1
▁tơbơl	1
▁pơhiĕk	1
▁Gai	1
wĕt	1
▁kơsum	1
đêmôt	1
▁Chro	1
▁jĭng	1
▁Trơvơ	1
▁Hiăng	1
▁hơno	1
▁juh	1
▁Kĭnh	1
▁Thiên	1
▁Jêhôi	1
akin	1
▁virut	1
▁bơhnơr	1
▁ktung	1
▁Deng	1
▁bơjan	1
▁Kêros	1
▁Sia	1
▁Pađôn	1
▁Jơmŭl	1
▁nămc	1
▁cat	1
▁Kêđa	1
▁Ie	1
▁Bêra	1
▁Birsa	1
▁Sinap	1
▁Sêmeb	1
êr	1
▁pap	1
nhươi	1
▁phiơ̆k	1
Pêng	1
▁hơkok	1
BDT	1
▁Nêh	1
▁Jô	1
▁Miph	1
ơkat	1
▁co	1
▁xŭn	1
▁rŭk	1
Găh	1
▁Gôlan	1
▁SK	1
▁Enspra	1
▁DC	1
Tron	1
▁Plus	1
▁Map	1
methrin	1
▁Wimax	1
hơkă	1
▁pơrơih	1
▁Pơnăh	1
▁Pơkong	1
▁pơdriu	1
▁Igal	1
▁Rơka	1
▁Bơbe	1
▁đưn	1
▁Bôngko	1
▁tơhri	1
inađap	1
▁hơyô	1
▁hơlem	1
▁hơjăm	1
▁tĭr	1
▁Rêtsep	1
▁ơmat	1
▁Ndu	1
▁Kwi	1
▁Pơtŏk	1
Nêth	1
▁xơih	1
▁gơdĭm	1
▁pơgơm	1
▁Neptôa	1
,'''	1
ôbap	1
▁Jamlek	1
▁Jôsa	1
êsalôn	1
▁êkơ	1
jung	1
▁plok	1
▁Khêo	1
▁Khơng	1
pơang	1
▁săch	1
▁Sêthur	1
▁Anhăk	1
lŏk	1
▁ơdrơu	1
▁hơgăm	1
▁bơdô	1
▁kơlĕl	1
▁Phalê	1
▁tehd	1
▁tơe	1
▁pơxăn	1
▁Kraih	1
▁tơpai	1
▁Đakc	1
ăh	1
Duang	1
▁Itrêam	1
▁Egla	1
▁sơmôch	1
▁ưi	1
▁rimrôm	1
ongŏ	1
▁Japnê	1
nhơ̆p	1
▁Blanc	1
▁Bleu	1
▁Belge	1
BBB	1
▁atrep	1
▁athŭm	1
▁Phuơk	1
▁điinh	1
▁pơj	1
▁Bul	1
▁Hêna	1
▁Iwa	1
▁Abdia	1
▁Ramse	1
▁anihi	1
▁gu	1
▁Hơtŏ	1
▁Trunng	1
▁wât	1
▁grai	1
▁nhơ̆i	1
▁Thư̆k	1
▁hiưng	1
▁Sy	1
▁khĭk	1
▁khơ̆k	1
▁pơhang	1
▁Jêras	1
alem	1
wĕi	1
▁Vdring	1
đông	1
▁glơh	1
▁Iĕr	1
▁hơk	1
▁kuĕ	1
▁hrơ̆b	1
▁Silôa	1
▁hăpo	1
ơ̆i	1
▁Sihô	1
▁hoăk	1
không	1
▁dơglưm	1
▁Tira	1
▁Sime	1
▁Suk	1
ngŭk	1
▁hia	1
▁kơlenh	1
▁Lêbaôt	1
▁Silhim	1
▁cŏp	1
▁ngŏn	1
trôm	1
▁yĭ	1
▁Lipni	1
▁Kiĕk	1
▁Drap	1
NN	1
(	1
N	1
▁ruih	1
▁Bơnal	1
bưl	1
yô̆k	1
▁adrach	1
▁Thap	1
▁Ahusam	1
▁Têmeni	1
▁Ahach	1
tari	1
▁Oidium	1
▁sp	1
▁Rid	1
omil	1
▁Anvil	1
▁thap	1
▁Hơxei	1
▁văh	1
▁yôh	1
▁Đêdan	1
▁seng	1
gloh	1
wia	1
▁jrăh	1
▁jrai	1
▁pơdơ̆n	1
▁kơcheh	1
▁ngur	1
▁Nhĕm	1
trung	1
▁bơnang	1
▁hơlăn	1
▁pơdiêu	1
▁thĭ̆t	1
▁Tiênh	1
cher	1
▁Tĭnh	1
▁liê̆u	1
▁điê̆n	1
▁http	1
://	1
sldtbxh	1
▁gov	1
▁pơnh	1
uôi	1
▁Bêrit	1
▁Rihtô	1
sung	1
▁Jin	1
▁Migrôn	1
▁hơgĕii	1
▁điong	1
▁Giơ	1
yươ̆ng	1
▁Tiê̆n	1
▁Sông	1
▁Kơ̆u	1
▁Vung	1
▁Hơđong	1
▁tơdŭl	1
▁Hơtat	1
▁kơmuh	1
▁Pơgăn	1
▁Pơchŭt	1
▁Geras	1
▁bơĭh	1
▁chuah	1
▁tơnŭh	1
▁rơgohc	1
loi	1
▁Hơtei	1
▁kơnê	1
▁Kariat	1
▁Jearim	1
▁Sila	1
Yah	1
▁Subael	1
▁Gersôm	1
▁SƠ	1
nđ	1
cp	1
▁hmnăng	1
▁Isri	1
▁lơlu	1
ĭnh	1
▁Abi	1
▁bơhnar	1
▁Sêpôra	1
▁homerb	1
▁kơđong	1
▁mơgrĕk	1
▁mơgrŏk	1
▁Arkit	1
▁chăh	1
▁pơtêng	1
tar	1
▁tơrak	1
brak	1
▁Tơbral	1
Biĕm	1
▁Bukkia	1
▁tơleh	1
Yêsu	1
▁kuăn	1
▁Dăng	1
êrubim	1
▁pơdŏk	1
▁hit	1
▁xak	1
▁Ong	1
êg	1
▁xrĕp	1
▁Nêphek	1
▁Glaih	1
▁tơăn	1
▁Helđai	1
hania	1
▁ađrĭng	1
▁Tôp	1
an	1
▁Srĕ	1
▁Gibar	1
jăng	1
▁jrŭb	1
tân	1
▁Mahan	1
▁Huŭ	1
▁Ađina	1
▁gonăl	1
Oh	1
▁luât̆	1
▁pual	1
▁Phôi	1
▁pơthơr	1
▁Tơlĕi	1
▁tơdro	1
▁kơtơ̆n	1
▁Penuel	1
▁Êser	1
▁Husa	1
▁phlak	1
▁trêch	1
▁gơhret	1
▁blơ̆r	1
▁yul	1
▁chơtŭ	1
êbia	1
miel	1
Nhơn	1
▁RAT	1
▁LCASP	1
▁bơtŏl	1
▁xôch	1
▁dao	1
▁bơi	1
▁mơnôh	1
▁ƀla	1
▁pơnơng	1
▁lơmă	1
▁pơjôk	1
▁Hơtơ̆p	1
▁đem	1
▁Jơrai	1
▁min	1
mral	1
Y	1
▁lăl	1
▁Kơhr	1
Pơlei	1
Sĭt	1
▁ƀĭ	1
▁hlong	1
▁Mơ̆m	1
▁AÊ	1
luôn	1
▁giaih	1
PTNN	1
▁kơih	1
▁Sipra	1
▁Phuah	1
Bĭch	1
▁Rêaja	1
▁Sôbal	1
▁Ahumai	1
▁Lahat	1
▁Tranh	1
▁ODA	1
▁Đô̆m	1
▁Carben	1
▁Tuôi	1
▁xrêm	1
▁srung	1
ngiêt	1
▁Silôm	1
▁Kue	1
▁dam	1
▁pơhơ̆p	1
▁Satana	1
▁Webs	1
site	1
▁ƀong	1
▁khôch	1
,,	1
▁prot	1
ein	1
▁sêkơla	1
▁hômerb	1
▁Jôra	1
▁hơiĕ	1
▁lillul	1
▁Tơƀăng	1
▁nitơ	1
▁Amăn	1
▁Nêhel	1
▁Brŭng	1
▁Bŏng	1
▁giay	1
▁dê̆	1
▁kêp	1
nhŏngoh	1
▁Gêbil	1
▁Sri	1
▁kĭt	1
▁toch	1
arêsis	1
bac	1
▁pơtơnh	1
▁Êlia	1
brôm	1
ôih	1
▁phiơl	1
▁Ganim	1
▁Thapua	1
▁Ênam	1
▁Bơhê	1
▁Rĭng	1
ngư	1
▁bơngol	1
Lŏ	1
ngăl	1
▁Tơxŭl	1
▁tơxăl	1
▁Kơpăng	1
▁apuung	1
▁băh	1
▁Droug	1
hrt	1
Bê	1
▁hơna	1
▁loh	1
nhŭk	1
▁Toc	1
▁gai	1
Ben	1
▁abŭt	1
Drŏnglo	1
Biinh	1
ư̆k	1
▁Mêsĕk	1
▁khŭ̆t	1
nơ̆p	1
▁UNESCO	1
Brơ̆u	1
▁Vêt	1
▁ahan	1
▁Veh	1
▁bơdơi	1
▁Sêmara	1
▁xuăr	1
▁Rêsep	1
▁kơrăi	1
▁Lôt	1
nô	1
▁Diêm	1
▁Giđ	1
alti	1
▁pơgrŭn	1
▁tơv	1
▁Gatdi	1
▁Susi	1
▁hĕo	1
▁Jubal	1
▁kơchêr	1
▁Asôs	1
▁Mitil	1
▁mina	1
▁hơnh	1
uey	1
▁Êpha	1
▁Môsa	1
▁ƀăr	1
▁Wơ̆	1
▁Hơu	1
▁Phŭk	1
▁sơtêt	1
▁lơlĭ	1
▁trêo	1
▁Atheo	1
▁Asuri	1
▁sơgol	1
▁sơgônh	1
▁xăr	1
▁anhuk	1
▁Abiel	1
▁ditdut	1
Iung	1
▁Judit	1
▁Bêri	1
▁Abadon	1
▁Apôli	1
▁hơwơ̆	1
▁jơu	1
▁cươc	1
▁trôp	1
▁Mlaih	1
▁chơnok	1
▁Halep	1
▁Sardis	1
▁Topas	1
▁Car	1
bucle	1
▁Aliaba	1
bôn	1
▁Jasen	1
▁kăm	1
▁aguôt	1
▁or	1
▁jangd	1
▁nitrat	1
NC	1
▁Nhơk	1
▁xoăy	1
▁kơdroh	1
▁Dơng	1
mrơh	1
▁tuơch	1
▁phôm	1
▁trêl	1
▁ayuh	1
ahat	1
▁Jê	1
duthun	1
▁yôr	1
▁pơloih	1
▁tơrĕk	1
▁Anac	1
ardium	1
▁occid	1
entale	1
▁Bra	1
il	1
iot	1
▁ghĭp	1
▁gioa	1
▁sơh	1
lung	1
▁Mikma	1
▁Tơpo	1
kư̆m	1
nglă	1
▁Tơmĭl	1
▁hơpăn	1
▁del	1
▁pơkr	1
▁Môch	1
▁Bŏn	1
▁Amra	1
phel	1
▁Tidal	1
▁Gôim	1
▁rơdơh	1
▁gơli	1
▁rơĭh	1
▁Persia	1
▁mơdrâp	1
▁mơdrăp	1
TCLN	1
▁Upha	1
Sen	1
acherip	1
iamin	1
▁Arêtah	1
▁kơpat	1
▁hoc	1
▁pol	1
ytricha	1
▁adrinh	1
ceae	1
▁sen	1
▁Sôrek	1
▁Klôwê	1
▁buah	1
▁Sêlum	1
▁Suri	1
sadai	1
▁Pĕ	1
▁chet	1
srŏng	1
dung	1
▁vưng	1
▁Môk	1
▁ada	1
▁sekơl	1
▁gơdi	1
▁Jei	1
▁Arơ̆p	1
▁Bham	1
▁blôl	1
▁chrui	1
▁Abana	1
▁Pharp	1
▁Madon	1
▁Simrôn	1
▁Aksap	1
ƀă	1
tinh	1
▁rơmô	1
▁Pơnhoh	1
▁jrưm	1
▁Hêset	1
▁Arubôt	1
▁Kaiphe	1
▁Al	1
eksan	1
drê	1
▁kơgŭ	1
▁Găn	1
La	1
▁pơthod	1
▁Kơmar	1
▁Kanna	1
▁Hammat	1
▁Thim	1
▁pơyĕng	1
▁Malô	1
▁Xơkơ̆t	1
▁xơlam	1
▁Ơkom	1
▁rĕch	1
▁thơ̆m	1
urculi	1
onidae	1
▁Clle	1
Tơm	1
▁phay	1
nguk	1
▁Kêpha	1
pni	1
▁Phoă	1
▁tơwơh	1
▁Saraim	1
▁Êkrôn	1
▁côn	1
▁gơsĕ	1
ǔ	1
▁Tơmoa	1
▁Viê	1
▁Pơhlôm	1
gĕi	1
▁kưk	1
▁atăng	1
▁Hôlôn	1
▁Gilô	1
▁pơchok	1
▁xuon	1
▁dơbuh	1
▁Lơ̆mt	1
môni	1
▁Siram	1
▁Jôksan	1
▁Medan	1
▁Isbak	1
adatha	1
▁Hahur	1
▁Êlêal	1
▁kơnho	1
▁tŏpŏk	1
quel	1
▁blôh	1
▁kơchăt	1
▁uhư	1
▁Bơng	1
▁Mesôp	1
ôtôme	1
▁Mơ̆u	1
▁Kumi	1
▁graih	1
▁bơdr	1
▁prêu	1
▁prao	1
Dêh	1
▁plă	1
▁Parwai	1
▁Mit	1
rêdat	1
▁Sês	1
basar	1
▁klepe	1
Ti	1
▁sŭk	1
▁Jut	1
▁aklo	1
▁Hlôh	1
ưch	1
▁Bah	1
urim	1
▁chơnăt	1
▁buh	1
▁Akap	1
▁klop	1
đơng	1
hơdra	1
▁Pơpuh	1
▁phơ̆	1
▁kơxi	1
▁trâÊn	1
▁phôch	1
▁Dihôn	1
▁Atarôt	1
Nge	1
▁adech	1
▁hlik	1
▁bư	1
▁phui	1
ŭm	1
▁Sah	1
▁Baara	1
▁Ro	1
▁Uriel	1
▁Pơhrăm	1
▁hơmưl	1
▁xier	1
▁xơnua	1
▁ơtŭm	1
▁djrông	1
▁djrang	1
▁Khen	1
▁pơvinh	1
▁Đăt	1
▁Pra	1
▁trơvơ	1
▁Hơnĕnh	1
▁cop	1
▁rơhal	1
plăi	1
▁vô	1
▁vâ̆n	1
Khĕi	1
▁Pah	1
▁kơŭl	1
ngiêng	1
▁Hagit	1
gat	1
Epha	1
pơnhan	1
▁nghiep	1
▁Tŭ̆n	1
dơnŏ	1
▁Siba	1
▁Djrŭ	1
▁Khŏnh	1
▁lin	1
▁nĭng	1
Răm	1
▁Sơtơ̆p	1
▁anhang	1
▁ĕim	1
▁hlêk	1
▁Măr	1
▁iem	1
▁Lak	1
Hoa	1
Tiên	1
▁Qŭ̆	1
Ha	1
Hưng	1
)...	1
▁Mattan	1
▁Jêhuk	1
▁Hiê̆n	1
GDTrH	1
GD	1
▁tur	1
▁makk	1
▁xăi	1
lĕng	1
▁kơmăn	1
▁Thamar	1
▁pơhlôh	1
▁kranh	1
▁ger	1
▁Tơnơl	1
▁tơneh	1
▁bơda	1
▁Cân	1
ilemôt	1
▁Jêh	1
iskia	1
▁Hatlai	1
almanu	1
▁sơkok	1
hanna	1
▁bơsu	1
▁bơsuăt	1
▁trŏch	1
Ngok	1
▁kơmăi	1
▁inhb	1
▁duôh	1
▁junh	1
▁gunh	1
▁Pơchăh	1
▁chô̆̆	1
▁Hơlơ̆k	1
▁jơma	1
▁kơdei	1
agam	1
bươ	1
▁Lĭnh	1
▁rơp	1
▁pơtir	1
▁Hôham	1
▁Phiram	1
▁Japhia	1
Sơ	1
dơn	1
▁xŏa	1
khei	1
▁Têbet	1
▁pơhư	1
▁đuih	1
▁Koan	1
,''	1
almai	1
Bi	1
▁chim	1
brach	1
▁tơtu	1
▁jơ̆t	1
▁hơlênh	1
phong	1
lơ̆ngb	1
▁nê	1
▁Rơh	1
enua	1
▁hru	1
lah	1
▁Bison	1
▁Hơgơp	1
▁pưm	1
▁thei	1
▁dêl	1
▁gơseh	1
▁asơl	1
▁khor	1
▁Sadôk	1
▁Bom	1
chung	1
▁juăr	1
▁pơgăi	1
▁lươk	1
▁rơnei	1
▁yăla	1
istics	1
▁jla	1
▁aom	1
TP	1
▁Soph	1
▁plui	1
▁pơnĭl	1
▁pơhlôm	1
Jôrđăn	1
ethan	1
▁Pơdjoi	1
▁hnuk	1
▁hnua	1
bơi	1
▁Rơjây	1
▁chor	1
▁joanh	1
▁băk	1
▁hwar	1
▁hơkuk	1
▁ƀ	1
ur	1
▁Sêdur	1
▁agrưch	1
▁chuy	1
▁Sôpatê	1
▁Piru	1
▁Aritak	1
êkônđa	1
▁Guơs	1
▁Dibơ	1
ôphĭm	1
▁Gŏl	1
▁chơneh	1
▁lôk	1
▁waih	1
▁Hamm	1
ôleket	1
▁Ishôt	1
▁Ab	1
iêser	1
ơm	1
▁Hrŭk	1
▁nhui	1
▁ruk	1
▁Nimsi	1
▁Drơ̆ng	1
▁poai	1
▁chui	1
▁hgăm	1
▁chô̆t	1
▁Jơ̆nge	1
â̆n	1
▁Athoi	1
▁lơgah	1
▁bơngoi	1
▁Pơxĕnh	1
eralit	1
▁Têm	1
phagê	1
▁Hơrăng	1
▁kơdŭt	1
▁gơnĭng	1
▁g	1
▁Sêraya	1
▁Yê̆n	1
▁Tơj	1
rông	1
▁Mana	1
▁krŏt	1
▁trơn	1
▁cng	1
▁trich	1
▁HPC	1
▁TN	1
▁puk	1
Vitamin	1
▁liet	1
▁Nipsan	1
▁tring	1
rŏng	1
▁Đĭr	1
▁đŭr	1
▁kơhret	1
▁Lêhi	1
▁rơwak	1
pran	1
▁Jôr	1
kêam	1
▁Rêkem	1
▁tihb	1
kach	1
▁hô̆	1
▁hlut	1
▁sota	1
TĐTN	1
CTTN	1
...,	1
▁Pêrês	1
ưh	1
▁Bơnơ̆	1
langi	1
▁mŏng	1
▁drăkn	1
▁akoih	1
▁đoang	1
▁aliet	1
đô	1
▁Bơsŭna	1
▁Hiĕk	1
▁Ihd	1
▁abloch	1
▁Akhan	1
▁Anem	1
gôh	1
▁arônh	1
