<unk>	0
<s>	0
</s>	0
ng	-0
▁t	-1
▁k	-2
▁p	-3
▁tơ	-4
▁pơ	-5
nh	-6
▁l	-7
▁đ	-8
▁h	-9
ơ̆	-10
▁kơ	-11
▁'	-12
ei	-13
▁s	-14
ch	-15
dr	-16
▁b	-17
ong	-18
▁a	-19
▁m	-20
inh	-21
▁n	-22
▁j	-23
ăm	-24
ai	-25
drong	-26
ang	-27
ơng	-28
▁r	-29
▁tơdrong	-30
oh	-31
▁ch	-32
▁d	-33
ih	-34
▁sư	-35
▁pơm	-36
ăng	-37
▁lu	-38
am	-39
▁th	-40
▁tr	-41
▁g	-42
ơ̆ng	-43
▁K	-44
▁w	-45
an	-46
ăn	-47
▁y	-48
iê	-49
▁kh	-50
ơn	-51
oi	-52
▁T	-53
ĕi	-54
ơngai	-55
im	-56
ông	-57
▁bơngai	-58
on	-59
▁pơl	-60
ao	-61
▁rim	-62
uh	-63
▁hơ	-64
ing	-65
▁Y	-66
▁i	-67
ah	-68
▁đei	-69
▁S	-70
▁ng	-71
ung	-72
eng	-73
▁adr	-74
▁ăn	-75
ră	-76
▁đơ̆ng	-77
▁mă	-78
▁noh	-79
ơh	-80
▁kon	-81
▁pơt	-82
ŏk	-83
▁Đ	-84
▁weng	-85
ok	-86
▁I	-87
▁ph	-88
ơm	-89
▁an	-90
ơ̆m	-91
ak	-92
▁păng	-93
▁ư	-94
▁minh	-95
▁H	-96
▁ơ	-97
ăp	-98
▁v	-99
ôi	-100
âu	-101
ăl	-102
▁x	-103
▁tơm	-104
eh	-105
▁P	-106
ăt	-107
▁ưh	-108
uy	-109
ôn	-110
ĭt	-111
▁khan	-112
▁Yang	-113
▁L	-114
▁pơlei	-115
▁nă	-116
▁pơg	-117
ĕm	-118
▁Kră	-119
▁hl	-120
▁tơp	-121
ê̆	-122
▁đe	-123
▁N	-124
anh	-125
▁wă	-126
▁M	-127
th	-128
ua	-129
▁lơ̆m	-130
nam	-131
ar	-132
▁lăm	-133
▁iĕm	-134
ên	-135
▁thoi	-136
ơ̆r	-137
ŏng	-138
▁hnam	-139
▁A	-140
ân	-141
at	-142
▁inh	-143
▁o	-144
▁B	-145
▁đak	-146
▁oei	-147
▁sa	-148
▁Th	-149
al	-150
ơnăm	-151
▁Sư	-152
ương	-153
▁J	-154
ôm	-155
▁nh	-156
▁năm	-157
▁truh	-158
▁V	-159
▁sơnăm	-160
▁pơj	-161
▁jĭt	-162
ĭng	-163
ơ̆u	-164
▁ơĭ	-165
▁bơ	-166
ŭn	-167
ŭm	-168
▁tơg	-169
▁ma	-170
▁kơp	-171
▁dr	-172
ĕch	-173
▁hăm	-174
▁lơm	-175
ôh	-176
▁đĭ	-177
long	-178
▁gô	-179
▁ki	-180
Bok	-181
ơl	-182
▁jơh	-183
▁na	-184
▁hr	-185
băl	-186
êh	-187
ơ̆p	-188
▁adrĭng	-189
▁teh	-190
iên	-191
thei	-192
Dei	-193
▁Kei	-194
▁Tơ	-195
▁kông	-196
▁Inh	-197
ăr	-198
▁ak	-199
jung	-200
▁athei	-201
ơ̆n	-202
▁ngh	-203
▁thu	-204
▁u	-205
iêu	-206
▁Vinh	-207
ơ̆t	-208
▁pơlĕi	-209
ôk	-210
ư̆	-211
uyên	-212
▁yua	-213
▁đơng	-214
▁cham	-215
▁br	-216
▁dơn	-217
▁pơjing	-218
uô	-219
oih	-220
▁jang	-221
▁kr	-222
▁dêh	-223
▁hi	-224
▁ap	-225
▁ih	-226
ho	-227
▁C	-228
lei	-229
▁c	-230
▁ti	-231
▁‘	-232
ra	-233
▁boih	-234
▁tơmam	-235
▁tinh	-236
ôch	-237
lah	-238
▁ar	-239
▁kư̆	-240
▁trong	-241
ap	-242
▁băt	-243
▁pơk	-244
ô̆	-245
uôn	-246
ưng	-247
oan	-248
▁hăp	-249
lo	-250
▁Ih	-251
▁tơgŭm	-252
▁pơtho	-253
ul	-254
▁pơnh	-255
ơnang	-256
el	-257
yŏk	-258
▁pơtao	-259
▁yo	-260
▁hnh	-261
▁drŏ	-262
▁tơr	-263
▁kơd	-264
▁lư	-265
êch	-266
um	-267
iêng	-268
▁năr	-269
▁đĕi	-270
em	-271
aih	-272
▁ho	-273
▁pơđ	-274
roh	-275
loh	-276
▁Lu	-277
▁hôi	-278
▁arih	-279
▁chă	-280
▁kơn	-281
▁kư̆m	-282
▁bơ̆n	-283
▁iŏk	-284
▁nơ̆r	-285
▁gi	-286
▁kiơ̆	-287
êng	-288
▁la	-289
▁xa	-290
ơt	-291
▁hriêng	-292
iêm	-293
ŭk	-294
▁gơh	-295
▁hŭn	-296
▁tơring	-297
▁G	-298
ND	-299
ach	-300
năr	-301
▁U	-302
▁đông	-303
▁yoch	-304
bơ̆u	-305
▁âu	-306
▁Is	-307
▁lê̆	-308
ât	-309
▁ơbơ̆u	-310
lơ̆ng	-311
▁soi	-312
▁Tơdrong	-313
▁bu	-314
▁krao	-315
ês	-316
▁không	-317
▁kơt	-318
▁kơpal	-319
▁măng	-320
▁hơg	-321
▁tơl	-322
▁rong	-323
iêp	-324
ơra	-325
ol	-326
▁ƀ	-327
ơrael	-328
▁Isơrael	-329
▁Ch	-330
ơp	-331
▁q	-332
nu	-333
ĕng	-334
▁pơnhroh	-335
êt	-336
it	-337
▁Thanh	-338
▁ks	-339
▁R	-340
nglo	-341
▁pơgloh	-342
▁pêng	-343
ăk	-344
ơg	-345
noh	-346
▁jên	-347
▁Tr	-348
▁D	-349
▁tơjung	-350
▁huyên	-351
▁al	-352
▁sơ	-353
BND	-354
ưk	-355
▁kơdih	-356
▁hnhĕi	-357
et	-358
bôh	-359
ŭng	-360
êsu	-361
▁Ph	-362
▁ku	-363
▁kl	-364
▁Yêsu	-365
▁pơgơl	-366
ôl	-367
▁pl	-368
▁pơđăm	-369
▁kơnê̆	-370
▁ŭ	-371
▁mơ	-372
▁jơnang	-373
▁nghiêp	-374
▁uĕi	-375
▁tih	-376
▁phong	-377
▁ju	-378
▁Mă	-379
hr	-380
▁ŭnh	-381
▁ei	-382
▁UBND	-383
▁gah	-384
▁pơma	-385
▁(	-386
bok	-387
▁hơd	-388
bơ̆t	-389
▁ksô	-390
▁apung	-391
đăng	-392
▁char	-393
âm	-394
▁tơj	-395
▁dơ̆ng	-396
▁ngŏ	-397
êr	-398
▁chu	-399
▁dôm	-400
▁dơnuh	-401
▁đô	-402
▁tơ̆	-403
▁tơpă	-404
ưm	-405
▁lơ	-406
▁anih	-407
en	-408
▁tơgum	-409
ĭnh	-410
▁đinh	-411
▁choh	-412
ep	-413
▁bri	-414
▁yuô	-415
▁lôch	-416
jĭt	-417
▁–	-418
▁pơtăm	-419
▁oh	-420
bar	-421
▁tê	-422
tho	-423
▁trŏ	-424
ôp	-425
▁pr	-426
▁Hôi	-427
▁jing	-428
▁gl	-429
▁dơnŏ	-430
▁unh	-431
▁trương	-432
▁nai	-433
▁pă	-434
▁Ê	-435
▁Thoi	-436
▁glong	-437
▁sinh	-438
▁tri	-439
▁trinh	-440
▁đon	-441
▁anu	-442
▁hoa	-443
▁anao	-444
▁jĭ	-445
ir	-446
▁Đang	-447
▁thi	-448
▁tơn	-449
ơ̆l	-450
▁tŏ	-451
ĕnh	-452
▁khĕi	-453
▁Bơngai	-454
▁pơy	-455
▁bô	-456
▁Na	-457
▁hla	-458
▁viên	-459
▁“	-460
▁măt	-461
▁rŏng	-462
▁adrĕch	-463
▁tơt	-464
▁hiôk	-465
lih	-466
▁bĕ	-467
▁pôk	-468
ưt	-469
▁at	-470
▁ngo	-471
▁tơh	-472
▁tơb	-473
▁kinh	-474
ăi	-475
▁anăp	-476
▁kơj	-477
ăh	-478
ngơ̆m	-479
▁kơjăp	-480
▁ba	-481
▁lăng	-482
êm	-483
kăn	-484
măng	-485
ia	-486
▁dang	-487
▁bơtho	-488
▁văn	-489
▁pơkă	-490
▁nhôn	-491
in	-492
▁Đinh	-493
▁jơ	-494
▁nông	-495
▁Ng	-496
▁ôh	-497
▁rơm	-498
boi	-499
▁pơgơ̆r	-500
ba	-501
▁yăl	-502
ek	-503
▁jư	-504
▁ling	-505
▁alưng	-506
▁hok	-507
il	-508
▁Yua	-509
▁lui	-510
ri	-511
▁Sơ	-512
▁kuan	-513
▁hu	-514
▁hơgei	-515
▁jơhngơ̆m	-516
▁gr	-517
▁kiơ	-518
om	-519
▁tơplih	-520
▁đoan	-521
▁nganh	-522
▁adring	-523
▁chi	-524
▁lĕch	-525
▁dah	-526
̆t	-527
▁linh	-528
▁hloi	-529
▁tơmăn	-530
▁rơ	-531
▁pran	-532
▁loi	-533
▁ky	-534
▁yang	-535
▁Ơ	-536
▁xuôn	-537
▁apinh	-538
▁tơpăt	-539
▁pơyơ̆r	-540
er	-541
▁Pơ	-542
▁adrol	-543
ech	-544
▁kơjung	-545
▁Đơ̆ng	-546
▁as	-547
bă	-548
ngam	-549
▁Ju	-550
dah	-551
▁Kơp	-552
▁đat	-553
▁toan	-554
▁tơmưt	-555
▁juăt	-556
▁Juđ	-557
ik	-558
▁du	-559
▁uy	-560
▁hŏk	-561
▁hli	-562
▁pôm	-563
▁mô	-564
▁kơ̆p	-565
▁đăng	-566
as	-567
▁pơlôch	-568
lang	-569
▁wei	-570
▁nghê	-571
uân	-572
▁tam	-573
▁bơn	-574
▁akŭm	-575
▁Rim	-576
▁sơng	-577
▁kră	-578
▁thê	-579
▁Kon	-580
▁hơm	-581
ĕp	-582
▁yŏng	-583
▁chưk	-584
▁Adr	-585
▁bĭ	-586
▁hơl	-587
▁akâu	-588
êl	-589
▁sach	-590
..	-591
▁adrêch	-592
▁hinh	-593
▁Jô	-594
ot	-595
▁X	-596
▁roi	-597
▁Hăp	-598
br	-599
uk	-600
wit	-601
▁tư	-602
▁sơ̆	-603
iê̆	-604
▁kang	-605
▁chinh	-606
▁in	-607
▁Jêr	-608
▁puôn	-609
us	-610
▁hơdai	-611
▁the	-612
▁yă	-613
▁Đa	-614
▁phân	-615
▁rơmo	-616
▁sem	-617
▁rơg	-618
nhŏng	-619
▁pơd	-620
▁hanh	-621
▁tơhngam	-622
ŭ̆t	-623
▁dân	-624
▁tich	-625
▁Đawit	-626
▁Sa	-627
▁tô	-628
▁san	-629
▁mơ̆ng	-630
▁Minh	-631
▁mai	-632
▁lêch	-633
▁nư	-634
▁dơt	-635
▁vei	-636
▁Kh	-637
▁blah	-638
▁quy	-639
▁tơk	-640
▁thông	-641
▁rơgoh	-642
▁Môi	-643
▁hloh	-644
▁vĕi	-645
▁liên	-646
êp	-647
▁hnhei	-648
la	-649
▁ară	-650
▁tơx	-651
▁ty	-652
▁Pơl	-653
hrĕi	-654
▁mir	-655
▁drơ̆u	-656
nâu	-657
yoh	-658
▁rôp	-659
op	-660
▁tơxĭnh	-661
▁pu	-662
▁anăn	-663
ŏm	-664
iêt	-665
▁tiêu	-666
▁jê̆	-667
▁phap	-668
▁jơ̆ng	-669
ĕt	-670
▁chĕp	-671
▁pơr	-672
▁khul	-673
▁Juđa	-674
▁kong	-675
sĭ	-676
mêm	-677
ip	-678
laih	-679
▁băl	-680
nĕ	-681
▁Pơm	-682
▁Môis	-683
▁lê	-684
Binh	-685
▁mơ̆n	-686
▁kêt	-687
▁hơdr	-688
▁trơ	-689
▁nưih	-690
▁đang	-691
▁Gi	-692
▁cơ	-693
▁tơjul	-694
st	-695
▁Nh	-696
▁đĕch	-697
▁kung	-698
▁mơ̆t	-699
▁nguôn	-700
ban	-701
▁tŏk	-702
▁kơ̆l	-703
▁thanh	-704
bô	-705
▁yơ	-706
▁Păng	-707
▁gơ	-708
TT	-709
hi	-710
▁bl	-711
▁Văn	-712
▁lei	-713
ơ̆h	-714
▁chih	-715
▁ka	-716
▁sâu	-717
ơ̆i	-718
▁Pơg	-719
▁yak	-720
▁sư̆	-721
▁glăi	-722
▁to	-723
▁ay	-724
▁vu	-725
▁mơjĭt	-726
▁tơpơ̆h	-727
▁hơgĕi	-728
▁Kơplah	-729
▁kơtơ̆ng	-730
▁lo	-731
▁đai	-732
▁Q	-733
uôĭ	-734
▁hơp	-735
▁nhân	-736
ơnat	-737
▁mĕ	-738
▁lương	-739
▁An	-740
▁liêm	-741
ĭch	-742
▁dơ	-743
▁Lơ̆m	-744
▁tơdr	-745
▁yok	-746
▁ơ̆u	-747
▁Sôl	-748
▁đam	-749
▁nhiêm	-750
▁pơrăm	-751
▁sơngưm	-752
bi	-753
▁ao	-754
▁boi	-755
▁Lê	-756
▁am	-757
▁ha	-758
▁triu	-759
ơi	-760
▁keh	-761
▁luât	-762
ŭl	-763
▁mơnat	-764
▁đĭch	-765
▁ahrĕi	-766
▁bơih	-767
tơ	-768
▁iĕ	-769
▁Chu	-770
▁plĕnh	-771
▁kơpô	-772
▁pơjăng	-773
ich	-774
▁kach	-775
alem	-776
▁"	-777
▁giao	-778
▁Jêrus	-779
ôr	-780
▁pơjao	-781
▁Jêrusalem	-782
▁kơk	-783
▁tao	-784
▁tôm	-785
▁Đai	-786
▁trân	-787
▁đưng	-788
▁lang	-789
▁jr	-790
▁tơpơh	-791
▁đao	-792
▁Pơt	-793
▁lăp	-794
▁Hơ	-795
▁plĕi	-796
▁pơklaih	-797
▁Pơlei	-798
▁lưk	-799
▁tơlang	-800
▁hơb	-801
▁kơđ	-802
▁hlôi	-803
▁kơdr	-804
▁ơu	-805
▁Lăm	-806
▁duh	-807
▁chr	-808
▁pơnhôm	-809
ac	-810
yip	-811
▁giă	-812
yiptơ	-813
▁Êyiptơ	-814
▁tơmo	-815
▁kơplah	-816
ĭa	-817
▁tơd	-818
▁piêu	-819
▁kơkuh	-820
bl	-821
▁bi	-822
▁iung	-823
▁pơting	-824
▁Đe	-825
▁puăn	-826
ơ̆k	-827
▁đu	-828
▁brŏk	-829
▁pham	-830
▁adruh	-831
▁hiong	-832
▁ly	-833
rong	-834
▁Tơdah	-835
bâu	-836
▁phu	-837
▁công	-838
▁tơtă	-839
oa	-840
▁kuy	-841
▁nhen	-842
▁jơră	-843
ơĭ	-844
nao	-845
▁triêu	-846
ôt	-847
▁Truh	-848
chăng	-849
▁tai	-850
▁đơn	-851
▁Nông	-852
▁pơla	-853
▁kư	-854
▁chơ	-855
▁bơnê	-856
▁Jôs	-857
▁Lơm	-858
▁jit	-859
▁xưm	-860
▁hrat	-861
▁thương	-862
▁Ar	-863
▁hlôh	-864
Bô	-865
▁tŭk	-866
▁maih	-867
▁kjung	-868
▁adrung	-869
▁jô̆	-870
▁loai	-871
-'	-872
uih	-873
▁As	-874
ngla	-875
▁jur	-876
▁Kŭ̆t	-877
jang	-878
rist	-879
▁lâm	-880
▁môi	-881
▁Krist	-882
▁Nam	-883
▁khŭl	-884
ŭt	-885
▁dư	-886
▁hua	-887
▁thôn	-888
▁Điêu	-889
▁tơblah	-890
▁dŏng	-891
▁chĭnh	-892
lăng	-893
▁bơl	-894
▁pơtr	-895
▁pơgop	-896
▁tơnap	-897
▁tơjroh	-898
▁hư	-899
▁mŭk	-900
▁hŏ	-901
▁să	-902
▁akăn	-903
▁thuy	-904
up	-905
ưh	-906
▁anh	-907
▁tơno	-908
enh	-909
▁bre	-910
▁hơk	-911
▁chương	-912
ưc	-913
▁Sơn	-914
▁Khul	-915
▁jơ̆p	-916
▁lech	-917
sŭn	-918
▁đêl	-919
▁plei	-920
▁Trung	-921
▁vŭ	-922
hrĕng	-923
▁bơar	-924
▁vi	-925
▁bơg	-926
▁jăng	-927
▁pơmat	-928
▁rai	-929
chĕng	-930
▁Kơ	-931
▁pah	-932
▁xem	-933
▁Ap	-934
bơ̆r	-935
▁bơ̆	-936
▁tuh	-937
▁chơt	-938
▁tơsĭ	-939
▁mĭ	-940
▁đôi	-941
▁akŏm	-942
▁pơtơ̆p	-943
▁wơh	-944
▁Êl	-945
▁khai	-946
▁chăl	-947
▁hil	-948
▁pơ̆	-949
▁huay	-950
▁khei	-951
▁pơch	-952
▁Adrĭng	-953
▁Đĭ	-954
▁lơmo	-955
▁kơpah	-956
es	-957
...	-958
▁et	-959
lơ̆p	-960
ô̆ng	-961
▁ala	-962
▁sek	-963
▁hm	-964
▁điêu	-965
▁asong	-966
▁W	-967
măn	-968
▁tu	-969
▁xư	-970
▁long	-971
au	-972
dro	-973
▁vă	-974
ơhng	-975
▁rok	-976
▁Lăp	-977
▁Đei	-978
▁đuôĭ	-979
▁năng	-980
▁tương	-981
▁su	-982
▁qua	-983
ĕk	-984
ônh	-985
▁HĐ	-986
▁ayăt	-987
▁dăr	-988
▁xik	-989
▁ninh	-990
▁krong	-991
▁nhŭng	-992
▁hơt	-993
▁hơkăn	-994
▁yu	-995
▁tin	-996
▁tro	-997
▁xang	-998
▁Am	-999
▁răk	-1000
▁răm	-1001
▁drăk	-1002
▁tơbăt	-1003
▁tơchĕng	-1004
▁pơđam	-1005
▁drăkăn	-1006
▁khôi	-1007
▁E	-1008
▁kă	-1009
▁akom	-1010
▁đunh	-1011
▁chông	-1012
wi	-1013
▁Ư	-1014
▁lĕ	-1015
▁klo	-1016
ơhngol	-1017
is	-1018
ơu	-1019
▁.	-1020
▁ôn	-1021
▁đê	-1022
▁Tơm	-1023
▁kơl	-1024
▁lai	-1025
buh	-1026
▁Lêwi	-1027
▁pŭ	-1028
▁hơn	-1029
▁pơdơh	-1030
âp	-1031
▁HĐND	-1032
▁phai	-1033
▁tơdăm	-1034
▁tê̆	-1035
▁chŭn	-1036
▁chơnang	-1037
ưa	-1038
mê̆	-1039
▁Ak	-1040
blŏk	-1041
▁hoat	-1042
▁trưk	-1043
▁grông	-1044
▁yư	-1045
ômôn	-1046
▁ngăl	-1047
▁Jơnang	-1048
▁Sôlômôn	-1049
▁dĭ	-1050
▁ră	-1051
▁đôk	-1052
▁pơtruh	-1053
▁hơri	-1054
▁Ưh	-1055
▁pŭn	-1056
▁Viêt	-1057
▁pơgơ̆p	-1058
▁Kăn	-1059
▁bơb	-1060
▁gia	-1061
ơk	-1062
bơl	-1063
▁Phŏ	-1064
▁tăp	-1065
▁Ƀ	-1066
iêl	-1067
▁weh	-1068
▁wih	-1069
▁pơhr	-1070
▁hơmet	-1071
▁hương	-1072
▁pơlok	-1073
▁Hô	-1074
▁xu	-1075
▁hrŭ	-1076
▁kơb	-1077
▁rup	-1078
▁thư	-1079
▁klaih	-1080
▁tơdah	-1081
▁Ba	-1082
▁le	-1083
▁qu	-1084
ui	-1085
▁hoach	-1086
▁kơmăng	-1087
▁ƀa	-1088
▁che	-1089
▁Hnam	-1090
▁kơng	-1091
▁Pơtao	-1092
▁kơbră	-1093
▁Ă	-1094
▁ơk	-1095
▁thao	-1096
▁bơdro	-1097
▁Trương	-1098
or	-1099
▁ro	-1100
▁yom	-1101
▁nghi	-1102
▁pơgŏ	-1103
▁tơw	-1104
drŏng	-1105
▁phô̆	-1106
▁tông	-1107
▁tơtam	-1108
▁bơgang	-1109
Năr	-1110
▁Jêh	-1111
▁hlak	-1112
âng	-1113
▁Thu	-1114
▁phak	-1115
▁tang	-1116
oang	-1117
▁kơdâu	-1118
tat	-1119
▁aseh	-1120
▁rơih	-1121
uă	-1122
ôs	-1123
▁lich	-1124
▁Tơ̆ng	-1125
▁achăng	-1126
ĭn	-1127
▁jơ̆	-1128
ây	-1129
ara	-1130
▁Bơ	-1131
▁Wă	-1132
▁tâm	-1133
▁Phong	-1134
II	-1135
eo	-1136
boh	-1137
▁ƀă	-1138
▁soh	-1139
▁Arôn	-1140
▁Giam	-1141
▁atŭm	-1142
▁Adring	-1143
▁kĕ	-1144
▁tŭn	-1145
bŏ	-1146
uôc	-1147
▁Dah	-1148
▁Jak	-1149
▁kua	-1150
▁đim	-1151
▁Nhơn	-1152
▁Nơ̆r	-1153
▁areh	-1154
▁dĭng	-1155
▁hơdah	-1156
▁pơtơm	-1157
▁klak	-1158
▁găh	-1159
▁mah	-1160
▁lơ̆p	-1161
re	-1162
▁Yôl	-1163
▁tĕch	-1164
▁trung	-1165
jo	-1166
▁jê	-1167
▁sr	-1168
▁kĭa	-1169
▁man	-1170
▁ngân	-1171
▁tơng	-1172
▁drong	-1173
▁cô	-1174
▁kyê	-1175
▁phat	-1176
▁Pơgơl	-1177
▁Thuân	-1178
▁pơlŏk	-1179
▁hơlĕnh	-1180
Bă	-1181
ĕn	-1182
▁đi	-1183
▁phê	-1184
▁Jakôp	-1185
▁O	-1186
uôt	-1187
▁Ăn	-1188
▁Ơĭ	-1189
▁ban	-1190
▁kơs	-1191
▁Anih	-1192
▁pơkao	-1193
▁kơtang	-1194
đeh	-1195
▁Kim	-1196
▁duc	-1197
▁Binh	-1198
▁huai	-1199
▁hưch	-1200
▁kơdră	-1201
▁bơ̆jang	-1202
han	-1203
▁hô	-1204
mônh	-1205
▁khŏm	-1206
▁trăm	-1207
▁pơhrăm	-1208
iê̆n	-1209
▁Abr	-1210
▁Chi	-1211
▁Gah	-1212
▁Hoa	-1213
▁ier	-1214
▁tơme	-1215
▁trach	-1216
QĐ	-1217
▁Đê	-1218
▁dăm	-1219
▁ưng	-1220
▁akar	-1221
▁bơbe	-1222
▁Iĕm	-1223
▁Noh	-1224
▁kăl	-1225
▁tep	-1226
TTQ	-1227
uch	-1228
▁jơn	-1229
▁kăt	-1230
▁Nghi	-1231
Nâu	-1232
sêh	-1233
▁Nă	-1234
▁glă	-1235
▁dach	-1236
▁tơmoi	-1237
▁Chương	-1238
▁tơdrâu	-1239
ma	-1240
ur	-1241
▁rơk	-1242
▁vân	-1243
▁Pơtho	-1244
▁Năr	-1245
▁ami	-1246
▁tah	-1247
▁yŭk	-1248
▁phâm	-1249
▁pơgŏp	-1250
iơ	-1251
ưp	-1252
▁hê	-1253
▁Chă	-1254
▁muh	-1255
▁dơsĭ	-1256
▁Apinh	-1257
▁tơpul	-1258
ôih	-1259
▁tâng	-1260
▁adrin	-1261
▁atung	-1262
▁tơlei	-1263
yơ	-1264
▁so	-1265
▁ăh	-1266
▁dih	-1267
▁gơn	-1268
▁pjo	-1269
▁hang	-1270
id	-1271
âÊ	-1272
▁vê	-1273
▁jao	-1274
▁pơh	-1275
▁chô̆	-1276
▁rơmă	-1277
▁giĕng	-1278
▁Hŭn	-1279
Nĕ	-1280
▁mu	-1281
ngot	-1282
▁iêl	-1283
▁mơl	-1284
▁Đao	-1285
▁phĕi	-1286
▁trât	-1287
▁Huyên	-1288
▁quyêt	-1289
ngu	-1290
nhĕt	-1291
▁Kông	-1292
▁quan	-1293
▁đĭnh	-1294
▁chđeh	-1295
ăo	-1296
Ban	-1297
▁Hăm	-1298
▁Tai	-1299
▁dui	-1300
▁sưt	-1301
▁tiêm	-1302
▁tôch	-1303
▁điên	-1304
▁Bơsŭn	-1305
▁mơsêh	-1306
▁khoang	-1307
HC	-1308
ĕl	-1309
▁tuk	-1310
▁giai	-1311
▁nuih	-1312
rŭ	-1313
▁ken	-1314
▁pơx	-1315
▁sơl	-1316
▁Tinh	-1317
▁ngôi	-1318
▁chuyên	-1319
HP	-1320
▁Ha	-1321
▁Quy	-1322
▁dơ̆t	-1323
▁kơna	-1324
▁ning	-1325
▁phơ̆ng	-1326
mi	-1327
▁ayơ	-1328
▁ioh	-1329
▁lơĭ	-1330
▁thŭ	-1331
▁buăl	-1332
▁kiêm	-1333
▁ruôt	-1334
▁pơtêp	-1335
▁trang	-1336
bŏk	-1337
ô̆i	-1338
▁Ah	-1339
▁khă	-1340
▁Juđê	-1341
▁sŏng	-1342
▁tơjr	-1343
▁ương	-1344
▁ataih	-1345
▁chuân	-1346
▁gơnang	-1347
hĭ	-1348
lăi	-1349
mach	-1350
▁Tih	-1351
▁gĭt	-1352
nguaih	-1353
ov	-1354
▁,	-1355
▁ƀok	-1356
▁Luât	-1357
▁quân	-1358
▁tơmang	-1359
iêk	-1360
▁vĭ	-1361
▁krưp	-1362
▁thiên	-1363
bơm	-1364
▁Dr	-1365
▁hă	-1366
rông	-1367
▁Thi	-1368
▁găn	-1369
▁hai	-1370
▁jul	-1371
▁wao	-1372
▁giăo	-1373
▁ranh	-1374
▁thâm	-1375
▁pơngot	-1376
ari	-1377
bal	-1378
▁gưm	-1379
▁huy	-1380
▁pơp	-1381
▁hơng	-1382
▁sơ̆p	-1383
▁tanh	-1384
▁Pơj	-1385
▁Teh	-1386
▁puh	-1387
▁brai	-1388
▁bơng	-1389
▁tiên	-1390
▁Krong	-1391
▁hơbĕn	-1392
binh	-1393
bơ̆p	-1394
▁Cov	-1395
▁Dôm	-1396
▁Năm	-1397
▁tra	-1398
▁ƀuh	-1399
▁-	-1400
▁xơ	-1401
nhĕm	-1402
▁bôl	-1403
▁dan	-1404
▁Akŭm	-1405
▁hiơt	-1406
▁hơmu	-1407
HCS	-1408
▁di	-1409
ngon	-1410
▁boh	-1411
▁alê̆	-1412
▁pơdr	-1413
▁Covid	-1414
▁Jôsep	-1415
▁mơdrŏng	-1416
▁chê	-1417
▁hơđ	-1418
▁Đak	-1419
▁jrăng	-1420
nah	-1421
▁Lư	-1422
bang	-1423
bĕnh	-1424
▁phă	-1425
▁Hloh	-1426
▁Athei	-1427
▁nghia	-1428
▁Tơp	-1429
▁như	-1430
▁quôc	-1431
▁tơ̆p	-1432
▁Thương	-1433
▁Bơhngol	-1434
uê	-1435
▁ax	-1436
▁Jôr	-1437
▁hoan	-1438
▁jŭng	-1439
▁koan	-1440
▁lơng	-1441
▁điêm	-1442
▁Jôsuê	-1443
▁Bu	-1444
bĕng	-1445
uang	-1446
▁Sam	-1447
▁hŏa	-1448
▁mưk	-1449
▁phô	-1450
▁hơ̆p	-1451
▁tơpŭ	-1452
▁akhan	-1453
▁bơsŭn	-1454
▁hơlĕch	-1455
KT	-1456
ub	-1457
iri	-1458
uô̆	-1459
▁kuă	-1460
▁đeh	-1461
▁Liên	-1462
▁tơkl	-1463
▁xuât	-1464
▁Sơnăm	-1465
▁Thông	-1466
▁asêch	-1467
▁hơdrol	-1468
CB	-1469
aham	-1470
▁lơp	-1471
▁sơh	-1472
Lơ̆ng	-1473
▁wơ̆t	-1474
▁hơgăt	-1475
▁pơang	-1476
▁ơkơ̆u	-1477
Boi	-1478
maih	-1479
▁hin	-1480
▁yuk	-1481
▁chưc	-1482
▁kŭ̆t	-1483
▁rang	-1484
▁tơgar	-1485
bet	-1486
meh	-1487
biơ̆	-1488
▁Măt	-1489
▁Qua	-1490
▁gơd	-1491
▁koh	-1492
▁kê̆	-1493
▁Phil	-1494
▁hrŭk	-1495
▁kơnh	-1496
▁têch	-1497
▁Đơng	-1498
▁nguyên	-1499
NN	-1500
bŭ	-1501
ist	-1502
ênh	-1503
hian	-1504
▁chh	-1505
▁kiên	-1506
▁pơ̆k	-1507
▁tơwih	-1508
▁tơlĕch	-1509
▁Abraham	-1510
êk	-1511
ŭch	-1512
▁kŭ	-1513
▁ôr	-1514
▁biêk	-1515
▁dech	-1516
▁khoa	-1517
▁thŭng	-1518
ana	-1519
▁Kŭm	-1520
▁phĭ	-1521
▁Dang	-1522
▁Măng	-1523
▁groi	-1524
▁layơ	-1525
da	-1526
ôil	-1527
UBND	-1528
▁Jơh	-1529
▁Mưh	-1530
▁khu	-1531
▁môn	-1532
▁hiêu	-1533
▁Ahrĕi	-1534
▁Nguyên	-1535
▁tơtông	-1536
rơ	-1537
bil	-1538
môn	-1539
▁''	-1540
▁Mô	-1541
▁Sê	-1542
▁sơm	-1543
▁chep	-1544
▁tiêp	-1545
▁trŭn	-1546
▁đô̆ng	-1547
▁bơngot	-1548
CM	-1549
XH	-1550
ơc	-1551
och	-1552
đăn	-1553
▁KH	-1554
▁tă	-1555
▁Bơg	-1556
▁lơi	-1557
▁yuơ	-1558
araôn	-1559
bilôn	-1560
▁Kơpô	-1561
▁Xuân	-1562
▁gleh	-1563
▁wang	-1564
▁đơ̆i	-1565
▁glung	-1566
▁mơlâu	-1567
▁tuyên	-1568
▁adrech	-1569
▁tơjrưm	-1570
▁Babilôn	-1571
▁Pharaôn	-1572
▁cu	-1573
ekia	-1574
moih	-1575
▁HCM	-1576
▁bơy	-1577
▁dur	-1578
▁kŭn	-1579
▁mĭl	-1580
▁răt	-1581
▁sŏk	-1582
▁vât	-1583
▁danh	-1584
▁jung	-1585
▁đêch	-1586
▁pơjuă	-1587
▁tơ̆ng	-1588
▁Jôrđăn	-1589
âÊn	-1590
▁cư	-1591
bơ̆l	-1592
than	-1593
▁CCB	-1594
▁gre	-1595
▁jăn	-1596
istin	-1597
▁pơtep	-1598
bat	-1599
▁Tô	-1600
▁ơh	-1601
▁Kuy	-1602
▁Ngŏ	-1603
▁han	-1604
▁ngu	-1605
▁sô̆	-1606
▁yân	-1607
▁KHKT	-1608
▁tung	-1609
▁axong	-1610
▁kơtum	-1611
▁tơdra	-1612
▁Philistin	-1613
un	-1614
gam	-1615
▁rŏ	-1616
mong	-1617
▁Bên	-1618
▁Dơn	-1619
▁Hao	-1620
▁Nghĭ	-1621
▁bơne	-1622
▁kơch	-1623
▁anhăk	-1624
▁blŭng	-1625
▁hlĭch	-1626
▁thuât	-1627
▁pơdơ̆ng	-1628
▁ưu	-1629
▁kok	-1630
▁phe	-1631
▁hiap	-1632
▁hyoh	-1633
▁uôil	-1634
▁phang	-1635
▁thong	-1636
▁pơgang	-1637
ĕo	-1638
▁Thê	-1639
▁phi	-1640
▁Đâu	-1641
▁ksô̆	-1642
▁suât	-1643
▁sơhm	-1644
▁thak	-1645
▁Trong	-1646
▁chêng	-1647
▁ngoai	-1648
▁tơpôl	-1649
▁dơrong	-1650
▁phương	-1651
▁kơchăng	-1652
%;	-1653
yang	-1654
▁nan	-1655
▁ƀơm	-1656
▁Công	-1657
▁druh	-1658
▁mang	-1659
▁khoan	-1660
▁pơkra	-1661
▁truyên	-1662
",	-1663
ău	-1664
oai	-1665
▁Hom	-1666
▁Tơg	-1667
▁bơs	-1668
▁bưt	-1669
▁hră	-1670
▁đôc	-1671
▁ƀôh	-1672
rơbâu	-1673
▁jŭ̆t	-1674
▁kơ̆u	-1675
▁rơng	-1676
▁thưk	-1677
▁hơdơĭ	-1678
▁nghiêm	-1679
bĭ	-1680
Inh	-1681
lĕi	-1682
▁Ab	-1683
▁he	-1684
▁găr	-1685
▁rơh	-1686
▁đâu	-1687
▁pơgê	-1688
▁Đưng	-1689
▁gơdai	-1690
▁pơxrŭ	-1691
▁kơđông	-1692
▁UB	-1693
▁kê	-1694
imet	-1695
▁Man	-1696
▁Pho	-1697
▁juă	-1698
▁kro	-1699
▁met	-1700
▁mưh	-1701
▁nhă	-1702
▁păr	-1703
▁Pơnh	-1704
▁kơne	-1705
▁ming	-1706
▁mơ̆u	-1707
▁pơih	-1708
▁thac	-1709
▁trôm	-1710
▁kơsơ̆	-1711
▁thô̆ng	-1712
VN	-1713
brê	-1714
▁Uy	-1715
▁ji	-1716
iê̆p	-1717
ôhan	-1718
▁Pơđ	-1719
▁but	-1720
▁hao	-1721
▁rơn	-1722
▁mong	-1723
▁mônh	-1724
▁rông	-1725
▁tham	-1726
▁hơmơ̆l	-1727
▁tơpang	-1728
eb	-1729
bŏn	-1730
▁La	-1731
▁Yă	-1732
amin	-1733
uôih	-1734
▁Boi	-1735
▁Gat	-1736
▁gak	-1737
▁chê̆	-1738
▁dêch	-1739
▁yưng	-1740
▁kơpưng	-1741
ent	-1742
▁Bĭ	-1743
▁Hê	-1744
▁Hes	-1745
▁Lao	-1746
▁gêr	-1747
▁hŭt	-1748
▁jet	-1749
▁jrŭ	-1750
▁lưu	-1751
▁răp	-1752
▁sưa	-1753
▁trĭ	-1754
anaan	-1755
▁blĕk	-1756
▁brem	-1757
▁kial	-1758
▁liêu	-1759
▁puăt	-1760
▁tech	-1761
▁tăng	-1762
▁Kanaan	-1763
▁Tơjung	-1764
▁jơrông	-1765
),	-1766
TN	-1767
dŏ	-1768
lô	-1769
đôm	-1770
ươn	-1771
▁Ês	-1772
Long	-1773
▁Gil	-1774
▁Mŭk	-1775
▁jih	-1776
▁biêu	-1777
▁tơ̆k	-1778
▁bơhngol	-1779
Nh	-1780
bra	-1781
iĕt	-1782
▁Bi	-1783
▁gŏ	-1784
bĭch	-1785
▁jei	-1786
▁kia	-1787
▁păh	-1788
▁sĭt	-1789
lôgam	-1790
▁amăn	-1791
▁pơđĭ	-1792
▁kilôgam	-1793
bôt	-1794
băo	-1795
bơu	-1796
▁UBM	-1797
▁kưu	-1798
▁đŏk	-1799
▁Dơnŏ	-1800
▁Môap	-1801
▁cent	-1802
▁phŭk	-1803
▁pơkăm	-1804
▁Pơgloh	-1805
▁centimet	-1806
ơr	-1807
▁('	-1808
▁ad	-1809
▁sô	-1810
▁tĭa	-1811
▁ơ̆i	-1812
▁chât	-1813
▁hmoi	-1814
▁kơđeh	-1815
▁tơroi	-1816
▁UBMTTQ	-1817
▁tơklah	-1818
aia	-1819
êph	-1820
▁Jơ	-1821
▁re	-1822
oanh	-1823
▁Iŏk	-1824
▁nôi	-1825
HCSXH	-1826
▁chêp	-1827
▁gơal	-1828
▁pơ̆n	-1829
▁tơpu	-1830
▁vươn	-1831
▁nhơ̆m	-1832
▁NHCSXH	-1833
▁sơlŭng	-1834
▁hơnơ̆ng	-1835
lŭ	-1836
aim	-1837
ase	-1838
▁kŏ	-1839
▁Jên	-1840
▁Sim	-1841
▁bok	-1842
▁dal	-1843
▁pha	-1844
▁kơth	-1845
▁Pơlŏk	-1846
▁Tơgŭm	-1847
▁pơjăm	-1848
▁pơkăp	-1849
▁Manase	-1850
HPN	-1851
wao	-1852
▁Kr	-1853
▁mi	-1854
▁nĕ	-1855
▁Pôl	-1856
▁muk	-1857
▁tơi	-1858
▁LHPN	-1859
▁soat	-1860
▁pơchah	-1861
ĕr	-1862
Bŏk	-1863
bao	-1864
êmi	-1865
▁uh	-1866
▁Găh	-1867
▁chiu	-1868
▁drap	-1869
▁bơyan	-1870
yư	-1871
BNN	-1872
▁Ti	-1873
yung	-1874
▁Huy	-1875
▁bơm	-1876
▁dăh	-1877
▁tau	-1878
▁xoi	-1879
▁MTTQ	-1880
▁Adrol	-1881
▁Thinh	-1882
▁cheng	-1883
▁mương	-1884
III	-1885
ôbô	-1886
▁Dơ	-1887
▁hn	-1888
▁ra	-1889
▁sĭ	-1890
▁vo	-1891
▁Lei	-1892
▁Vĭt	-1893
▁hop	-1894
▁mơm	-1895
▁phŏ	-1896
▁tuy	-1897
jamin	-1898
ôbôam	-1899
▁Hiêp	-1900
▁canh	-1901
▁chưa	-1902
▁tram	-1903
▁chruh	-1904
▁chưng	-1905
▁kơlih	-1906
▁pơhlŭ	-1907
▁tơsĭn	-1908
▁kơting	-1909
▁pơlung	-1910
▁Bênjamin	-1911
▁Jơhngơ̆m	-1912
CP	-1913
wơ	-1914
mơ̆i	-1915
▁Nôi	-1916
▁hom	-1917
▁kơm	-1918
▁mon	-1919
▁pơn	-1920
▁ơkơu	-1921
▁kơtul	-1922
▁sơmah	-1923
▁tơkan	-1924
▁tơklă	-1925
▁mơyang	-1926
ct	-1927
gah	-1928
êtr	-1929
ôli	-1930
ư̆k	-1931
▁đa	-1932
▁găm	-1933
▁hŏp	-1934
▁jăk	-1935
▁por	-1936
▁tơhl	-1937
▁Jơ̆ng	-1938
▁mălĕi	-1939
▁pơyom	-1940
▁Pơgơ̆p	-1941
▁tơiung	-1942
êđ	-1943
̆n	-1944
iel	-1945
uel	-1946
ê̆n	-1947
nơ̆m	-1948
▁hlŏ	-1949
▁hoh	-1950
▁tô̆	-1951
▁Đan	-1952
▁apoh	-1953
▁cung	-1954
▁rơka	-1955
▁tơrơ	-1956
▁Kơpal	-1957
▁Yôhan	-1958
▁chang	-1959
▁klenh	-1960
▁kơwao	-1961
▁thăng	-1962
▁kơđeng	-1963
%,	-1964
cta	-1965
nar	-1966
â̆t	-1967
▁Br	-1968
▁Si	-1969
▁Bai	-1970
▁hơw	-1971
▁ngư	-1972
▁pơs	-1973
▁rac	-1974
▁sat	-1975
▁tak	-1976
▁tia	-1977
▁ƀar	-1978
▁Bơ̆n	-1979
▁drăm	-1980
▁pĕng	-1981
▁hecta	-1982
▁hơlen	-1983
▁đuuôĭ	-1984
▁Jêrêmi	-1985
hê	-1986
mon	-1987
ô̆k	-1988
▁Mĕ	-1989
▁duch	-1990
▁huch	-1991
▁phun	-1992
▁yanh	-1993
▁Ammôn	-1994
▁chrih	-1995
▁tơdrô	-1996
▁bơmơ̆t	-1997
▁Hesekia	-1998
▁sơhmanh	-1999
bo	-2000
leh	-2001
phr	-2002
▁Ki	-2003
▁aw	-2004
▁gư	-2005
biêu	-2006
iê̆t	-2007
minh	-2008
rang	-2009
▁jan	-2010
▁lao	-2011
▁ly̆	-2012
▁yơh	-2013
▁Đôi	-2014
▁Đĕi	-2015
êtrôs	-2016
▁Eđôm	-2017
▁chêr	-2018
▁sang	-2019
▁tơbr	-2020
▁pơgar	-2021
▁Pêtrôs	-2022
NĐ	-2023
oei	-2024
wei	-2025
ơnh	-2026
▁Yu	-2027
▁ta	-2028
uô̆c	-2029
▁ang	-2030
▁Yoch	-2031
▁apah	-2032
▁trăp	-2033
▁hơdăh	-2034
▁hơdral	-2035
▁khuyên	-2036
eat	-2037
thu	-2038
ubim	-2039
▁Anh	-2040
▁Anu	-2041
▁Yam	-2042
▁kăn	-2043
▁tôn	-2044
nhŭng	-2045
▁chăt	-2046
▁gloh	-2047
▁kham	-2048
▁nglo	-2049
▁niêm	-2050
▁Đĭnh	-2051
▁huŏng	-2052
▁thiêt	-2053
▁Gileat	-2054
▁Pơjing	-2055
▁pơnhan	-2056
▁pơchrang	-2057
ph	-2058
sa	-2059
TTg	-2060
chă	-2061
▁ge	-2062
blep	-2063
▁cai	-2064
▁gơw	-2065
▁hei	-2066
▁jâu	-2067
▁nhi	-2068
▁pik	-2069
▁chro	-2070
▁diên	-2071
▁mơng	-2072
▁Quang	-2073
▁atŭch	-2074
▁bơwei	-2075
▁pơnăr	-2076
▁chêrubim	-2077
HPT	-2078
aph	-2079
ine	-2080
isê	-2081
iĕo	-2082
▁yê	-2083
▁Tây	-2084
▁Têt	-2085
▁ach	-2086
▁duy	-2087
▁sik	-2088
▁tho	-2089
▁tân	-2090
▁Êli	-2091
▁Baal	-2092
▁Ngân	-2093
▁chơk	-2094
▁ngŭn	-2095
▁plơ̆	-2096
▁Đông	-2097
▁Huynh	-2098
▁hơdơi	-2099
▁hơpơi	-2100
▁kuyêt	-2101
▁UBMTTQVN	-2102
▁ô	-2103
bĭa	-2104
nơr	-2105
ôna	-2106
▁At	-2107
▁Bô	-2108
▁hy	-2109
▁po	-2110
cine	-2111
lŏng	-2112
▁Bal	-2113
▁Ham	-2114
▁jra	-2115
▁lom	-2116
▁nge	-2117
ŏnglo	-2118
▁khêl	-2119
▁nhêm	-2120
▁ƀenh	-2121
▁doanh	-2122
bu	-2123
ƀo	-2124
yŭk	-2125
▁Ks	-2126
asar	-2127
iê̆u	-2128
iĕng	-2129
nhăk	-2130
ôrit	-2131
▁Kal	-2132
▁mưt	-2133
▁tap	-2134
▁xut	-2135
▁ôli	-2136
▁Hêbr	-2137
▁nghĭ	-2138
▁nhât	-2139
▁thôi	-2140
▁Jêhôs	-2141
▁klŏng	-2142
▁pơđep	-2143
▁tơduă	-2144
▁ôliwơ	-2145
▁jơhnơr	-2146
▁tơbral	-2147
▁tơkang	-2148
Ih	-2149
ơhl	-2150
▁si	-2151
▁ôm	-2152
▁liơ	-2153
▁toh	-2154
▁vac	-2155
▁Đon	-2156
▁Isăk	-2157
▁Jôap	-2158
▁Tham	-2159
▁Yŏng	-2160
▁bơnă	-2161
▁dung	-2162
▁gơ̆n	-2163
▁kanh	-2164
▁kê̆t	-2165
▁lĭch	-2166
▁ƀơ̆r	-2167
▁Chănh	-2168
▁bơsat	-2169
▁klang	-2170
▁kơtơh	-2171
▁pơjah	-2172
▁tơngh	-2173
▁Amôrit	-2174
▁sruôih	-2175
▁vaccine	-2176
du	-2177
TNT	-2178
nan	-2179
▁Bêt	-2180
▁hon	-2181
▁kla	-2182
▁kơx	-2183
▁sut	-2184
▁xek	-2185
▁Bơgê	-2186
▁cach	-2187
▁kơdŭ	-2188
▁kơtă	-2189
▁Kjung	-2190
▁Pơđam	-2191
▁jơnŭm	-2192
▁kơtĕch	-2193
''	-2194
me	-2195
lơk	-2196
▁bă	-2197
▁Ban	-2198
▁Kơt	-2199
▁khĭ	-2200
▁kum	-2201
▁kân	-2202
▁kăp	-2203
▁sơk	-2204
▁xac	-2205
▁xâu	-2206
▁ơda	-2207
▁Jôna	-2208
▁Tram	-2209
▁hlôm	-2210
▁jơdr	-2211
▁klah	-2212
▁mưng	-2213
▁pang	-2214
▁Đoan	-2215
▁Asiri	-2216
▁Klaih	-2217
▁pơyan	-2218
▁tơjur	-2219
▁Pơting	-2220
./	-2221
./.	-2222
bak	-2223
băk	-2224
ê̆t	-2225
▁Jĭ	-2226
ubên	-2227
▁Hơk	-2228
▁jơk	-2229
▁lơl	-2230
▁mâu	-2231
▁non	-2232
▁têh	-2233
▁đan	-2234
▁Giăo	-2235
▁Krao	-2236
▁yơ̆r	-2237
▁Drong	-2238
▁Rubên	-2239
▁arăng	-2240
▁pơpuh	-2241
▁thơng	-2242
▁tranh	-2243
▁tơweh	-2244
▁hơdơ̆r	-2245
▁pơdrâu	-2246
▁sriêng	-2247
▁tơnghiêt	-2248
đê	-2249
mui	-2250
▁Mĭ	-2251
lưng	-2252
▁gưi	-2253
▁rơw	-2254
▁Hoai	-2255
▁hơbo	-2256
▁hơnh	-2257
▁xăng	-2258
▁Êphr	-2259
▁ơgah	-2260
▁Nguôn	-2261
▁hlĕch	-2262
▁hrôih	-2263
▁jơnum	-2264
▁klơ̆m	-2265
▁plenh	-2266
▁pơđâu	-2267
▁tiê̆p	-2268
▁dơning	-2269
▁nghiên	-2270
CT	-2271
ut	-2272
êb	-2273
asa	-2274
▁Es	-2275
êlek	-2276
▁Kho	-2277
▁Mik	-2278
▁hre	-2279
▁lĕi	-2280
▁mua	-2281
▁mum	-2282
▁sot	-2283
▁Brih	-2284
▁Pham	-2285
▁dônh	-2286
▁hrơ̆	-2287
▁sĕch	-2288
▁yơ̆i	-2289
▁gơwŏk	-2290
▁gương	-2291
▁kiê̆n	-2292
▁tơnuh	-2293
▁Samuel	-2294
▁rơngei	-2295
yu	-2296
uăn	-2297
▁Ja	-2298
▁Ta	-2299
iê̆m	-2300
ling	-2301
▁Mai	-2302
▁Phu	-2303
▁bal	-2304
▁chĭ	-2305
▁chŭ	-2306
▁hăt	-2307
▁jơl	-2308
▁lam	-2309
▁lap	-2310
▁mâm	-2311
▁tôi	-2312
aphat	-2313
▁hlău	-2314
▁khâu	-2315
▁nhăt	-2316
▁thuô	-2317
▁thưc	-2318
▁đŏng	-2319
▁khang	-2320
▁pơtrơp	-2321
▁tơmơ̆t	-2322
bê	-2323
ưn	-2324
uăl	-2325
ŭ̆n	-2326
ơih	-2327
▁Dư	-2328
▁Kê	-2329
▁dy	-2330
▁mư	-2331
▁đo	-2332
nơ̆u	-2333
▁Abi	-2334
▁Bao	-2335
▁Gal	-2336
▁Hơp	-2337
▁Oei	-2338
▁Sal	-2339
▁ham	-2340
▁klĕ	-2341
▁mơu	-2342
▁pai	-2343
▁tăl	-2344
▁vih	-2345
▁đăk	-2346
▁ơla	-2347
ngiĕo	-2348
▁Ahas	-2349
▁Giao	-2350
▁hơƀo	-2351
▁sơre	-2352
▁hling	-2353
▁hơkâu	-2354
▁klong	-2355
▁klơ̆p	-2356
▁pơtê̆	-2357
▁rơkah	-2358
▁sơkat	-2359
▁thŏng	-2360
▁drơ̆ng	-2361
▁kơpăng	-2362
▁nhiê̆m	-2363
▁pơlong	-2364
▁bơdrong	-2365
▁Jêhôsaphat	-2366
ơđ	-2367
Bar	-2368
dăm	-2369
hot	-2370
nau	-2371
ơmo	-2372
▁Hl	-2373
▁Ka	-2374
▁Ma	-2375
▁er	-2376
iê̆h	-2377
▁Jês	-2378
▁Pơk	-2379
▁apo	-2380
▁brŏ	-2381
▁gôh	-2382
▁hơi	-2383
▁mac	-2384
▁mih	-2385
▁sĕt	-2386
▁tac	-2387
▁thĭ	-2388
▁xơ̆	-2389
▁Hơdr	-2390
▁Tơng	-2391
▁Tơpă	-2392
▁amem	-2393
▁brư̆	-2394
▁erih	-2395
▁hơtŏ	-2396
▁kŏng	-2397
▁nhĕm	-2398
▁ring	-2399
▁Abram	-2400
▁Jêhôi	-2401
▁kơthơ	-2402
▁kơtơp	-2403
▁pơgăn	-2404
▁tơnăp	-2405
▁adrơ̆u	-2406
▁sơngah	-2407
▁drŏnglo	-2408
Tơ	-2409
nă	-2410
wa	-2411
Ên	-2412
đa	-2413
Noh	-2414
bêt	-2415
▁Hi	-2416
▁Nĕ	-2417
▁Tư	-2418
▁ôp	-2419
atan	-2420
▁Jop	-2421
▁Tam	-2422
▁cam	-2423
▁câu	-2424
▁cưa	-2425
▁gom	-2426
▁hal	-2427
▁jum	-2428
▁khŏ	-2429
▁mil	-2430
▁măy	-2431
▁pra	-2432
▁rei	-2433
▁giam	-2434
▁keng	-2435
▁klơm	-2436
▁kumi	-2437
▁pơle	-2438
▁thân	-2439
▁tĭnh	-2440
▁tơ̆r	-2441
▁atuch	-2442
▁kueng	-2443
▁pơdăr	-2444
▁rơbâu	-2445
▁thuôc	-2446
▁Pơnhôm	-2447
▁kơpơ̆ng	-2448
▁pơdrŏng	-2449
▁Êphraim	-2450
ĭm	-2451
▁e	-2452
TTr	-2453
răh	-2454
vơn	-2455
yĕr	-2456
▁Sô	-2457
▁ai	-2458
▁bưa	-2459
▁gơ̆	-2460
▁hek	-2461
▁ksê	-2462
▁kơh	-2463
▁lŭk	-2464
▁păk	-2465
▁xư̆	-2466
▁Đưc	-2467
▁Lăng	-2468
▁athu	-2469
▁hnơi	-2470
▁hô̆i	-2471
▁hơch	-2472
▁hơke	-2473
▁nhem	-2474
▁dyŏng	-2475
▁dương	-2476
▁hơtŏk	-2477
▁pơ̆ng	-2478
▁hơpiĕt	-2479
Lu	-2480
na	-2481
ilê	-2482
lep	-2483
sar	-2484
▁Vo	-2485
▁bê	-2486
▁se	-2487
ơmei	-2488
▁Bơh	-2489
▁Han	-2490
▁Yao	-2491
▁kơu	-2492
▁ngô	-2493
▁sơn	-2494
▁tuc	-2495
▁vao	-2496
brơ̆m	-2497
ichem	-2498
▁Ahap	-2499
▁Anăn	-2500
▁Canh	-2501
▁Pơma	-2502
▁Siri	-2503
▁THCS	-2504
▁dơng	-2505
▁hlơp	-2506
▁hơbŏ	-2507
▁nươc	-2508
▁bơ̆ng	-2509
▁chrơp	-2510
▁hmăng	-2511
▁pơtih	-2512
▁Êlisê	-2513
▁Sichem	-2514
▁hơmĕng	-2515
▁lơngơp	-2516
TD	-2517
ja	-2518
Iĕm	-2519
bai	-2520
bui	-2521
▁Gô	-2522
▁Ƀa	-2523
nhăt	-2524
▁Kơd	-2525
▁PTD	-2526
▁Sil	-2527
▁Sêm	-2528
▁alê	-2529
▁bao	-2530
▁uôl	-2531
▁đum	-2532
brang	-2533
▁XIII	-2534
▁bơgê	-2535
▁chop	-2536
▁dăng	-2537
▁juei	-2538
▁plôh	-2539
▁prah	-2540
▁wơ̆l	-2541
imêlek	-2542
▁Bơghê	-2543
▁Tơmam	-2544
▁bơlôh	-2545
▁chơng	-2546
▁plênh	-2547
▁pơdah	-2548
▁sơlam	-2549
▁tơbeh	-2550
▁vuông	-2551
▁mơmơ̆u	-2552
▁Jêrôbôam	-2553
YT	-2554
Yua	-2555
ali	-2556
nơp	-2557
▁TT	-2558
▁nŏ	-2559
▁êp	-2560
▁“'	-2561
bônh	-2562
▁Kua	-2563
▁Kơm	-2564
▁Liơ	-2565
▁Neb	-2566
▁Xik	-2567
▁duk	-2568
▁hơy	-2569
▁phơ	-2570
▁tĭn	-2571
▁Êlê	-2572
Nhŏng	-2573
biê̆n	-2574
▁Ling	-2575
▁Phar	-2576
▁hlih	-2577
▁rơdu	-2578
▁thai	-2579
▁tơnŏ	-2580
▁vâÊn	-2581
▁đich	-2582
▁gơneh	-2583
▁hơyoh	-2584
▁kơtăp	-2585
▁pơsĭt	-2586
▁pơtĕp	-2587
▁tơnơm	-2588
▁xơnăm	-2589
▁hơdruh	-2590
▁kơdơ̆u	-2591
▁tơpŭng	-2592
▁kơdrăng	-2593
▁sơnglŏng	-2594
%.	-2595
ĐT	-2596
ĭl	-2597
bih	-2598
âÊt	-2599
▁Ađ	-2600
▁Nô	-2601
▁Ty	-2602
▁dă	-2603
▁jô	-2604
▁ke	-2605
▁xe	-2606
▁xo	-2607
lơ̆i	-2608
▁Bêr	-2609
▁Dră	-2610
▁Sêr	-2611
▁Sư̆	-2612
▁Tơt	-2613
▁bia	-2614
▁blu	-2615
▁brư	-2616
▁chư	-2617
▁jri	-2618
▁kŭp	-2619
▁lep	-2620
▁luy	-2621
▁tăi	-2622
▁xêp	-2623
▁yan	-2624
▁Phân	-2625
▁Quôc	-2626
▁binh	-2627
▁hiên	-2628
▁hơra	-2629
▁jruh	-2630
▁kĕch	-2631
▁lanh	-2632
▁nhâp	-2633
▁đing	-2634
▁Pơtăm	-2635
▁achom	-2636
▁duyêt	-2637
▁êphot	-2638
▁Galilê	-2639
▁Hêbrôn	-2640
▁Pơnhroh	-2641
▁hơđơ̆ng	-2642
▁Êlêasar	-2643
rê	-2644
ty	-2645
ers	-2646
isi	-2647
reh	-2648
▁My	-2649
▁Oh	-2650
Bơ̆t	-2651
aria	-2652
nhot	-2653
uôch	-2654
▁Ahi	-2655
▁Bar	-2656
▁Cty	-2657
▁Trŏ	-2658
▁don	-2659
▁ghi	-2660
▁jah	-2661
▁kâp	-2662
▁pre	-2663
▁sil	-2664
▁yuă	-2665
▁Akâu	-2666
▁Pêng	-2667
▁Rơmo	-2668
▁Siôn	-2669
▁adoi	-2670
▁atâu	-2671
▁bluh	-2672
▁bơ̆l	-2673
▁dich	-2674
▁pinh	-2675
▁prĕl	-2676
▁Pơjao	-2677
▁Satan	-2678
▁anhôm	-2679
▁mơdro	-2680
▁pơmai	-2681
▁yoanh	-2682
▁Kơmăng	-2683
▁chơchă	-2684
▁hơlơ̆k	-2685
▁thiê̆t	-2686
▁tuyê̆n	-2687
▁tơplah	-2688
▁Đaniel	-2689
▁hơdrong	-2690
▁Abimêlek	-2691
▁Jônathan	-2692
);	-2693
ha	-2694
lŏ	-2695
ŏn	-2696
dei	-2697
lôh	-2698
êth	-2699
đak	-2700
▁Mi	-2701
▁ư̆	-2702
puăn	-2703
▁AÊn	-2704
▁Bas	-2705
▁Bok	-2706
▁Bơn	-2707
▁Kơl	-2708
▁Ngo	-2709
▁Sin	-2710
▁bôp	-2711
▁bơd	-2712
▁lac	-2713
▁lâp	-2714
▁mam	-2715
▁môt	-2716
▁pŭk	-2717
▁reh	-2718
▁rơv	-2719
▁yao	-2720
▁yoh	-2721
▁Linh	-2722
▁Thuy	-2723
▁adro	-2724
▁dong	-2725
▁gian	-2726
▁khĭn	-2727
▁kơtu	-2728
▁pơyô	-2729
▁tong	-2730
▁trai	-2731
▁wêch	-2732
▁Êsai	-2733
▁Chêng	-2734
▁Glong	-2735
▁Kuyêt	-2736
▁blung	-2737
▁giơng	-2738
▁hlang	-2739
▁hrĕng	-2740
▁phơ̆k	-2741
▁Bơhnar	-2742
▁Samari	-2743
TW	-2744
Đĭ	-2745
hĭm	-2746
lat	-2747
▁Gr	-2748
▁Kl	-2749
▁dj	-2750
iram	-2751
nhao	-2752
êbus	-2753
êtit	-2754
▁Măl	-2755
▁Nôê	-2756
▁Yak	-2757
▁bŭk	-2758
▁hra	-2759
▁hăn	-2760
▁kŭk	-2761
▁phŭ	-2762
▁ruh	-2763
▁tor	-2764
▁ung	-2765
▁Jơră	-2766
▁Khan	-2767
▁Layơ	-2768
▁bô̆k	-2769
▁chum	-2770
▁chĭt	-2771
▁jơwa	-2772
▁luân	-2773
▁nhơn	-2774
▁pơtŏ	-2775
▁Êsâu	-2776
▁Hêtit	-2777
▁Nhŭng	-2778
▁chung	-2779
▁glang	-2780
▁hiŏng	-2781
▁hơkap	-2782
▁hơtŭt	-2783
▁hơvơn	-2784
▁khach	-2785
▁kuô̆c	-2786
▁luyên	-2787
▁quyên	-2788
▁rơkai	-2789
▁tơgơ̆	-2790
▁yương	-2791
▁Drăkăn	-2792
▁kơhlôh	-2793
▁rơngơp	-2794
▁Pharisi	-2795
bơ	-2796
Kră	-2797
dan	-2798
ư̆m	-2799
▁He	-2800
▁Yi	-2801
▁mŏ	-2802
▁Asa	-2803
▁Cat	-2804
▁Hôr	-2805
▁Lot	-2806
▁Mak	-2807
▁Phư	-2808
▁Rêh	-2809
▁keo	-2810
▁môk	-2811
▁nam	-2812
▁xơk	-2813
▁Bala	-2814
▁Nhôn	-2815
▁anat	-2816
▁bang	-2817
▁khăc	-2818
▁kơnu	-2819
▁truy	-2820
▁trưc	-2821
▁bơsei	-2822
▁ching	-2823
▁chiên	-2824
▁chơ̆p	-2825
▁hơhĭm	-2826
▁khŭ̆n	-2827
▁kơdơ̆	-2828
▁nhung	-2829
▁phara	-2830
▁pơdreo	-2831
▁pơmơ̆t	-2832
▁nghiê̆p	-2833
LB	-2834
NH	-2835
eu	-2836
iu	-2837
ĭp	-2838
atn	-2839
kah	-2840
orđ	-2841
pơđ	-2842
êba	-2843
êka	-2844
▁Rŏ	-2845
▁ja	-2846
▁yi	-2847
alek	-2848
biê̆	-2849
iong	-2850
wang	-2851
êkai	-2852
▁CLB	-2853
▁Ksơ	-2854
▁Mir	-2855
▁Mưk	-2856
▁Tir	-2857
▁Tân	-2858
▁Uĕi	-2859
▁Xêt	-2860
▁cao	-2861
▁dră	-2862
▁hưu	-2863
▁jơm	-2864
▁kai	-2865
▁lân	-2866
▁muc	-2867
▁pih	-2868
▁pơư	-2869
▁tru	-2870
▁xêt	-2871
▁yam	-2872
▁yâu	-2873
▁ươc	-2874
atnes	-2875
▁Kiơ̆	-2876
▁Morđ	-2877
▁Nhen	-2878
▁Phat	-2879
▁Tiên	-2880
▁chuc	-2881
▁grŭn	-2882
▁hiĕk	-2883
▁jơrŭ	-2884
▁kiĕk	-2885
▁lach	-2886
▁phuk	-2887
▁sung	-2888
▁thim	-2889
▁thây	-2890
▁thơĭ	-2891
▁ơbơu	-2892
▁Ƀơ̆r	-2893
nglaih	-2894
▁Hương	-2895
▁Kơlih	-2896
▁Nebuk	-2897
▁glaih	-2898
▁hlŏng	-2899
▁khuân	-2900
▁kơdŭn	-2901
▁rơnuh	-2902
▁rơwĕt	-2903
atnessar	-2904
▁tơklang	-2905
▁Morđêkai	-2906
▁Nebukatnessar	-2907
pa	-2908
ŭr	-2909
ran	-2910
▁Be	-2911
▁Bĕ	-2912
▁GD	-2913
▁Mơ	-2914
▁XI	-2915
▁kg	-2916
THPT	-2917
băng	-2918
yưng	-2919
▁Hat	-2920
▁Mah	-2921
▁Mês	-2922
▁Pŭn	-2923
▁Thư	-2924
▁Xây	-2925
▁Yuơ	-2926
▁cưu	-2927
▁hâu	-2928
▁hĕl	-2929
▁hơĭ	-2930
▁mơt	-2931
▁nho	-2932
▁pit	-2933
▁yai	-2934
pơđăm	-2935
▁Jôas	-2936
▁Mari	-2937
▁THPT	-2938
▁TTYT	-2939
▁Trân	-2940
▁Tông	-2941
▁awih	-2942
▁awăn	-2943
▁hach	-2944
▁rôih	-2945
▁tơ̆n	-2946
▁xuân	-2947
▁ư̆ng	-2948
ơhngam	-2949
▁Kuô̆c	-2950
▁bơnôh	-2951
▁gơnơm	-2952
▁hmŏng	-2953
▁hơngo	-2954
▁khenh	-2955
▁kơnăl	-2956
▁luâ̆t	-2957
▁lơkah	-2958
▁pơgâm	-2959
▁Balaam	-2960
▁PTDTNT	-2961
▁kơchŏk	-2962
▁tươ̆ng	-2963
▁jơdrông	-2964
▁kơdranh	-2965
▁pơgling	-2966
▁tơblang	-2967
QS	-2968
ĭk	-2969
ĭu	-2970
ưu	-2971
bum	-2972
ikô	-2973
lâu	-2974
răt	-2975
uôi	-2976
uăt	-2977
êra	-2978
▁ko	-2979
▁kô	-2980
▁ŭi	-2981
Biên	-2982
alia	-2983
brơh	-2984
buih	-2985
ther	-2986
▁Bet	-2987
▁Bre	-2988
▁Hêr	-2989
▁Jab	-2990
▁Kên	-2991
▁Mon	-2992
▁Pôk	-2993
▁Sêđ	-2994
▁Tuy	-2995
▁hmă	-2996
▁hot	-2997
▁hri	-2998
▁hum	-2999
▁kap	-3000
▁kŭm	-3001
▁lot	-3002
▁lyê	-3003
▁nâu	-3004
▁săp	-3005
▁tom	-3006
▁trŭ	-3007
▁tơs	-3008
▁wal	-3009
▁đăm	-3010
▁Asêr	-3011
▁Diêu	-3012
▁Dung	-3013
▁Jêhu	-3014
▁chôt	-3015
▁dơnă	-3016
▁dưng	-3017
▁lư̆k	-3018
▁mơnh	-3019
▁thê̆	-3020
▁đech	-3021
▁Hơkâu	-3022
▁Kơdih	-3023
▁Lương	-3024
▁khĭch	-3025
▁nơnăm	-3026
▁pơjâu	-3027
▁pơtăl	-3028
▁riê̆h	-3029
▁thoat	-3030
▁thuân	-3031
▁triêt	-3032
▁tơbre	-3033
▁đương	-3034
▁Amalek	-3035
▁Esther	-3036
▁Jêrikô	-3037
▁hơpang	-3038
▁kơtŏng	-3039
▁tơklăh	-3040
▁kơchĕng	-3041
▁tơhnglo	-3042
NQ	-3043
TX	-3044
drô	-3045
lăn	-3046
mem	-3047
▁XV	-3048
▁gu	-3049
▁mo	-3050
▁ol	-3051
▁ĕi	-3052
▁Ƀă	-3053
Bơ̆r	-3054
bŏng	-3055
ô̆ch	-3056
▁Has	-3057
▁Ram	-3058
▁Rơg	-3059
▁Sih	-3060
▁Sêl	-3061
▁Tơl	-3062
▁Vân	-3063
▁bek	-3064
▁bon	-3065
▁dim	-3066
▁gar	-3067
▁gĕl	-3068
▁kah	-3069
▁trư	-3070
▁tăc	-3071
▁xĕt	-3072
▁đĭk	-3073
▁Gibê	-3074
▁Jêhô	-3075
▁Kung	-3076
▁Plei	-3077
▁Trŭn	-3078
▁bơle	-3079
▁chơp	-3080
▁gơ̆r	-3081
▁hlok	-3082
▁khăn	-3083
▁khŏa	-3084
▁kilo	-3085
▁kĭch	-3086
▁kơ̆m	-3087
▁mưih	-3088
▁nhên	-3089
▁nŏng	-3090
▁pơhi	-3091
▁rĕnh	-3092
▁săng	-3093
▁thơ̆	-3094
▁vơnh	-3095
▁xung	-3096
▁ƀơ̆t	-3097
▁Basan	-3098
▁Chuân	-3099
▁Mălĕi	-3100
▁asĕch	-3101
▁hlăng	-3102
▁jơnap	-3103
▁pơgĕi	-3104
▁pơkeh	-3105
▁thuôk	-3106
▁tơnăr	-3107
▁Nathan	-3108
▁hơgơ̆r	-3109
▁hơkôih	-3110
▁hơđong	-3111
▁kơiĕng	-3112
▁kơmlat	-3113
▁luô̆ch	-3114
▁phiê̆u	-3115
▁Sêđekia	-3116
▁hơnglâu	-3117
BT	-3118
GD	-3119
ti	-3120
yă	-3121
Boh	-3122
bia	-3123
bưh	-3124
bưk	-3125
ina	-3126
ner	-3127
tha	-3128
▁Ad	-3129
▁au	-3130
▁kĭ	-3131
▁xi	-3132
▁Ên	-3133
▁Ăh	-3134
ahas	-3135
biên	-3136
ilat	-3137
nhui	-3138
yiên	-3139
êpha	-3140
▁Bah	-3141
▁Hơl	-3142
▁Klo	-3143
▁Roi	-3144
▁Yuô	-3145
▁bưh	-3146
▁dei	-3147
▁kăi	-3148
▁mơk	-3149
▁rơb	-3150
▁tan	-3151
▁tiê	-3152
▁tol	-3153
▁tôh	-3154
▁tăo	-3155
▁xô̆	-3156
▁đen	-3157
▁đom	-3158
▁ĭch	-3159
ănglo	-3160
▁Bơnê	-3161
▁Hơri	-3162
▁Khôi	-3163
▁Pơgê	-3164
▁Sach	-3165
▁blei	-3166
▁giơĭ	-3167
▁grun	-3168
▁kyal	-3169
▁kơdi	-3170
▁mơti	-3171
▁ngai	-3172
▁thơi	-3173
▁yinh	-3174
▁yơ̆p	-3175
▁đơ̆u	-3176
▁Kuang	-3177
▁Pilat	-3178
▁Rơgoh	-3179
▁Trinh	-3180
▁chơhl	-3181
▁chơ̆m	-3182
▁hrang	-3183
▁kuyên	-3184
▁nhiêt	-3185
▁phung	-3186
▁phông	-3187
▁tơlĕi	-3188
▁tơtơ̆	-3189
▁xơkat	-3190
▁chơmei	-3191
▁mơnhal	-3192
▁tơbang	-3193
▁Tơnglơ̆i	-3194
".	-3195
).	-3196
TU	-3197
ay	-3198
be	-3199
đi	-3200
ŏl	-3201
HTN	-3202
VQS	-3203
bôn	-3204
bô̆	-3205
unh	-3206
yêr	-3207
▁Rê	-3208
▁Us	-3209
▁ag	-3210
▁gh	-3211
BNNP	-3212
▁Bri	-3213
▁Drŏ	-3214
▁Hag	-3215
▁Har	-3216
▁Kôr	-3217
▁Por	-3218
▁Sar	-3219
▁Tuh	-3220
▁ako	-3221
▁buk	-3222
▁goi	-3223
▁hlo	-3224
▁kho	-3225
▁kue	-3226
▁kăo	-3227
▁lah	-3228
▁mât	-3229
▁măh	-3230
▁phĕ	-3231
▁ren	-3232
▁sir	-3233
▁têt	-3234
▁tôt	-3235
▁đôt	-3236
▁Dơsĭ	-3237
▁LHTN	-3238
▁Nhât	-3239
▁Oêng	-3240
▁Simê	-3241
▁Tơmo	-3242
▁atŏk	-3243
▁hung	-3244
▁hŏnh	-3245
▁jrok	-3246
▁jưng	-3247
▁lơ̆k	-3248
▁muih	-3249
▁ngêh	-3250
▁pông	-3251
▁sơ̆m	-3252
▁tơbl	-3253
▁xŏng	-3254
Bơngai	-3255
▁Apner	-3256
▁Jêbus	-3257
▁Kalep	-3258
▁Kalđê	-3259
▁Pơđăm	-3260
▁XVIII	-3261
▁chrek	-3262
▁chư̆k	-3263
▁dơnâu	-3264
▁hơbŭt	-3265
▁luôch	-3266
▁mălei	-3267
▁plang	-3268
▁sơnôm	-3269
▁tiê̆n	-3270
▁tiê̆t	-3271
▁tơnei	-3272
▁Bahnar	-3273
▁Gibêah	-3274
▁bơbŭng	-3275
▁Sachari	-3276
▁pơglang	-3277
▁tơnglơ̆p	-3278
):	-3279
Th	-3280
ne	-3281
ŭh	-3282
ươ	-3283
ada	-3284
bla	-3285
bău	-3286
sal	-3287
đôn	-3288
▁Et	-3289
▁Vă	-3290
▁Xa	-3291
Măng	-3292
ania	-3293
drai	-3294
mơng	-3295
tăng	-3296
▁Lê̆	-3297
▁Sơ̆	-3298
▁khê	-3299
▁lăk	-3300
▁măr	-3301
▁pel	-3302
▁pho	-3303
▁poh	-3304
▁tâp	-3305
▁xet	-3306
▁yer	-3307
▁đap	-3308
▁đuh	-3309
▁ơ̆p	-3310
▁ơ̆t	-3311
▁Ƀôh	-3312
drơ̆u	-3313
▁Long	-3314
▁Rach	-3315
▁Sêph	-3316
▁Tiêu	-3317
▁amĕm	-3318
▁bung	-3319
▁chin	-3320
▁chơ̆	-3321
▁huân	-3322
▁hơlă	-3323
▁kapô	-3324
▁krau	-3325
▁pơth	-3326
▁yŭng	-3327
▁Druch	-3328
▁Giĕng	-3329
▁Hlang	-3330
▁Jôsia	-3331
▁Simôn	-3332
▁Sinai	-3333
▁bơnal	-3334
▁chŏng	-3335
▁hơmuh	-3336
▁khung	-3337
▁kơtĭt	-3338
▁kơđoh	-3339
▁pơpơ̆	-3340
▁thiêu	-3341
▁tơgal	-3342
BNNPTNT	-3343
▁Ahasia	-3344
▁luô̆ng	-3345
▁pơkong	-3346
▁pơtôch	-3347
▁kơdiŏng	-3348
▁kơdrĭng	-3349
Bĭ	-3350
ni	-3351
bôi	-3352
ebu	-3353
gal	-3354
ila	-3355
iêh	-3356
met	-3357
nôn	-3358
nĕi	-3359
rôn	-3360
uôl	-3361
đap	-3362
ưch	-3363
▁Al	-3364
▁Nê	-3365
▁TB	-3366
rơ̆m	-3367
tali	-3368
tham	-3369
êser	-3370
đêôn	-3371
▁Bui	-3372
▁Hli	-3373
▁Hêl	-3374
▁Mas	-3375
▁Mêr	-3376
▁Pơy	-3377
▁Rôp	-3378
▁bah	-3379
▁hut	-3380
▁peh	-3381
▁pla	-3382
▁til	-3383
▁tơƀ	-3384
▁xum	-3385
batem	-3386
drông	-3387
salôm	-3388
▁Aram	-3389
▁Aser	-3390
▁Drin	-3391
▁Dĭng	-3392
▁Mika	-3393
▁amêm	-3394
▁chơđ	-3395
▁dâ̆t	-3396
▁dăch	-3397
▁dĕch	-3398
▁gơih	-3399
▁hiah	-3400
▁hơđa	-3401
▁jơla	-3402
▁khăk	-3403
▁kich	-3404
▁luăn	-3405
▁ngar	-3406
▁pơlŏ	-3407
▁răng	-3408
▁rŭng	-3409
▁suai	-3410
▁tiê̆	-3411
▁tuân	-3412
▁tâÊn	-3413
▁tơhu	-3414
▁tơja	-3415
▁vong	-3416
▁êpha	-3417
▁Hiram	-3418
▁Hêrôt	-3419
▁Mơ̆ng	-3420
▁adrô̆	-3421
▁along	-3422
▁chrŭh	-3423
▁gơ̆ng	-3424
▁hiơ̆k	-3425
▁hơgơp	-3426
▁kuơ̆n	-3427
▁phô̆i	-3428
▁pơnam	-3429
▁pơtơp	-3430
▁tiênh	-3431
▁tơhil	-3432
▁tơlơ̆	-3433
▁tơtăm	-3434
tơhngam	-3435
▁Asaria	-3436
▁Giđêôn	-3437
▁Rachel	-3438
▁chuông	-3439
▁hơdrih	-3440
▁hơnhăm	-3441
▁hơnong	-3442
▁hơnĕnh	-3443
▁kơsŏng	-3444
▁pơhiôk	-3445
▁Apsalôm	-3446
▁Jơdrông	-3447
▁drănglo	-3448
▁Jêhôiada	-3449
Mă	-3450
UV	-3451
ic	-3452
uc	-3453
êu	-3454
ôa	-3455
đô	-3456
ath	-3457
dat	-3458
lal	-3459
nhă	-3460
năt	-3461
rah	-3462
â̆n	-3463
▁Hr	-3464
▁iŭ	-3465
▁pĕ	-3466
▁xĭ	-3467
akim	-3468
asia	-3469
ôsep	-3470
▁Ben	-3471
▁Hơt	-3472
▁Lêa	-3473
▁Oĕi	-3474
▁Phê	-3475
▁TUV	-3476
▁Tơn	-3477
▁Unh	-3478
▁ayô	-3479
▁bĕt	-3480
▁bươ	-3481
▁deh	-3482
▁gru	-3483
▁hue	-3484
▁joh	-3485
▁khư	-3486
▁meo	-3487
▁mơĭ	-3488
▁păt	-3489
▁vai	-3490
▁Ƀok	-3491
tơ̆ng	-3492
▁Kial	-3493
▁Yakơ	-3494
▁amăk	-3495
▁anê̆	-3496
▁chao	-3497
▁dŭch	-3498
▁hơiă	-3499
▁hơ̆t	-3500
▁jong	-3501
▁khuy	-3502
▁khơ̆	-3503
▁phưk	-3504
▁pơga	-3505
▁pơrŏ	-3506
▁thôt	-3507
▁thŭn	-3508
▁trao	-3509
▁tơju	-3510
▁tơ̆m	-3511
▁Đunh	-3512
▁Đăng	-3513
▁ươ̆k	-3514
▁Balak	-3515
▁Esơra	-3516
▁Hêwit	-3517
▁Sihôn	-3518
▁Tơdăm	-3519
▁Tơmăn	-3520
▁Yôsep	-3521
▁anhao	-3522
▁chhôk	-3523
▁grăng	-3524
▁hiê̆n	-3525
▁huăng	-3526
▁hơdra	-3527
▁hơyuh	-3528
▁khuen	-3529
▁kiĕng	-3530
▁kơxơ̆	-3531
▁ngach	-3532
▁nhơ̆p	-3533
▁pơxat	-3534
▁suang	-3535
▁triên	-3536
▁tơrăn	-3537
▁hươ̆ng	-3538
▁plơ̆ng	-3539
▁tơnung	-3540
▁xơdrai	-3541
▁kilomet	-3542
▁kơthŭng	-3543
▁pơkơ̆ng	-3544
Băo	-3545
CTr	-3546
bah	-3547
bul	-3548
iph	-3549
moi	-3550
▁Du	-3551
▁EC	-3552
▁Jư	-3553
▁Mê	-3554
▁Pl	-3555
▁bo	-3556
▁hĭ	-3557
▁lô	-3558
▁um	-3559
▁Đi	-3560
▁ơn	-3561
Moih	-3562
beôn	-3563
bơ̆k	-3564
hnam	-3565
reel	-3566
thel	-3567
▁Kê̆	-3568
▁Kăt	-3569
▁Min	-3570
▁Nha	-3571
▁Phi	-3572
▁Sem	-3573
▁bai	-3574
▁gan	-3575
▁kŭl	-3576
▁lŭn	-3577
▁lưc	-3578
▁nap	-3579
▁nơm	-3580
▁pat	-3581
▁sim	-3582
▁xoh	-3583
▁yêu	-3584
▁yơĭ	-3585
▁Đit	-3586
▁Bung	-3587
▁Châu	-3588
▁Rong	-3589
▁chŭm	-3590
▁chơn	-3591
▁ghêp	-3592
▁hĕch	-3593
▁hơnă	-3594
▁khơu	-3595
▁klep	-3596
▁klĭk	-3597
▁liêt	-3598
▁lưng	-3599
▁ngoh	-3600
▁phao	-3601
▁trôk	-3602
▁yiên	-3603
▁Điêk	-3604
▁Hơkăn	-3605
▁Pơtih	-3606
▁Sôđôm	-3607
▁abơ̆u	-3608
▁bơyar	-3609
▁chhơ̆	-3610
▁chong	-3611
▁chuôi	-3612
▁chŭah	-3613
▁dơnol	-3614
▁grơ̆m	-3615
▁hiơ̆t	-3616
▁hơbuh	-3617
▁kuăng	-3618
▁kơlap	-3619
▁lơlap	-3620
▁lơmưn	-3621
▁phuôĭ	-3622
▁pơdơi	-3623
▁pơpôi	-3624
▁rơhơi	-3625
▁rơneh	-3626
▁tuaih	-3627
▁tơoei	-3628
▁Amasia	-3629
▁Bethel	-3630
▁Gibeôn	-3631
▁Hesbôn	-3632
▁Jơrông	-3633
▁MTTQVN	-3634
▁hơdrô̆	-3635
▁hơwơ̆l	-3636
▁bơdrŏng	-3637
▁lơngơ̆u	-3638
▁tơhiong	-3639
▁tơhuŏng	-3640
▁tơngiĕt	-3641
▁hơngiĕng	-3642
▁tơhnglaih	-3643
ii	-3644
ka	-3645
kh	-3646
ŭi	-3647
▁ŏ	-3648
Băl	-3649
CTT	-3650
Dah	-3651
NHH	-3652
băt	-3653
dad	-3654
lum	-3655
lŏk	-3656
nei	-3657
êla	-3658
▁Jr	-3659
▁de	-3660
...)	-3661
GDĐT	-3662
ilon	-3663
êhas	-3664
đưng	-3665
ư̆ng	-3666
▁Gêđ	-3667
▁Hai	-3668
▁Her	-3669
▁Hur	-3670
▁Hơb	-3671
▁Jê̆	-3672
▁Keh	-3673
▁Sađ	-3674
▁Sir	-3675
▁Uri	-3676
▁XII	-3677
▁blư	-3678
▁hng	-3679
▁hơr	-3680
▁jơr	-3681
▁kih	-3682
▁klă	-3683
▁may	-3684
▁mĭn	-3685
▁pô̆	-3686
▁vơ̆	-3687
▁xâm	-3688
▁Đam	-3689
arius	-3690
▁Abih	-3691
▁Dich	-3692
▁Drăm	-3693
▁Jang	-3694
▁Kôrê	-3695
▁Kơdr	-3696
▁Kơ̆l	-3697
▁Lang	-3698
▁Phan	-3699
▁TNHH	-3700
▁agah	-3701
▁aleh	-3702
▁biên	-3703
▁blai	-3704
▁brih	-3705
▁châp	-3706
▁chŭt	-3707
▁hoai	-3708
▁huăt	-3709
▁hơko	-3710
▁hơkĕ	-3711
▁jơ̆u	-3712
▁khao	-3713
▁klai	-3714
▁lung	-3715
▁lươĭ	-3716
▁ngơk	-3717
▁nhĭm	-3718
▁phêp	-3719
▁phŭt	-3720
▁prăt	-3721
▁toăn	-3722
▁vinh	-3723
▁Ƀơ̆t	-3724
▁Hadad	-3725
▁Hamat	-3726
▁Hêbrơ	-3727
▁Hơpơi	-3728
▁Jabes	-3729
▁Nhiêm	-3730
▁Quyêt	-3731
▁Siđôn	-3732
▁chuơh	-3733
▁hluôi	-3734
▁huang	-3735
▁hơlah	-3736
▁hơlăh	-3737
▁khinh	-3738
▁klĕng	-3739
▁kơeng	-3740
▁kơtao	-3741
▁nilon	-3742
▁plĕch	-3743
▁tơdrŏ	-3744
▁tơhlu	-3745
▁Asêrus	-3746
▁Bênaia	-3747
▁Hermôn	-3748
▁Tơplih	-3749
▁Tơtông	-3750
▁giơ̆ng	-3751
▁gărnăt	-3752
▁hơpong	-3753
▁khơ̆ng	-3754
▁kuyê̆t	-3755
▁kơleng	-3756
▁pơklep	-3757
▁pơyơ̆l	-3758
▁tơguăt	-3759
▁tơrong	-3760
▁Đarius	-3761
▁hơdrĕch	-3762
▁hơnhuăl	-3763
▁kơnhŏng	-3764
▁Hadadêser	-3765
QH	-3766
di	-3767
ed	-3768
kơ	-3769
tr	-3770
ŏp	-3771
aka	-3772
bot	-3773
dai	-3774
isa	-3775
iĕp	-3776
nhŭ	-3777
sai	-3778
thê	-3779
▁CT	-3780
▁Ge	-3781
▁Hu	-3782
▁Pă	-3783
▁Vŭ	-3784
▁XX	-3785
▁ah	-3786
▁ân	-3787
Dang	-3788
eser	-3789
nhik	-3790
pêng	-3791
ê̆ch	-3792
ôram	-3793
đian	-3794
▁Ath	-3795
▁Bês	-3796
▁Hla	-3797
▁Kai	-3798
▁Kar	-3799
▁Sap	-3800
▁Tơ̆	-3801
▁ake	-3802
▁bôi	-3803
▁cân	-3804
▁dai	-3805
▁gơl	-3806
▁khĕ	-3807
▁kse	-3808
▁lat	-3809
▁nha	-3810
▁nôp	-3811
▁pal	-3812
▁pui	-3813
▁râu	-3814
▁sop	-3815
▁xen	-3816
▁ƀot	-3817
blach	-3818
brơ̆u	-3819
bulôn	-3820
lehem	-3821
đơ̆ng	-3822
ơnong	-3823
▁Chăl	-3824
▁Hêli	-3825
▁Hông	-3826
▁Kang	-3827
▁Kinh	-3828
▁Phin	-3829
▁Pran	-3830
▁Sêba	-3831
▁Tirơ	-3832
▁Triu	-3833
▁Tung	-3834
▁atol	-3835
▁brah	-3836
▁bơ̆k	-3837
▁chon	-3838
▁chăp	-3839
▁chĭu	-3840
▁giac	-3841
▁hrăn	-3842
▁kram	-3843
▁kuơk	-3844
▁nhâm	-3845
▁pênh	-3846
▁quen	-3847
▁quet	-3848
▁yung	-3849
▁Baasa	-3850
▁Chĭnh	-3851
▁Haman	-3852
▁Hanan	-3853
▁Khoan	-3854
▁Tơnuh	-3855
▁bơlŭk	-3856
▁dơbưk	-3857
▁glơng	-3858
▁jơmŭl	-3859
▁nhŏng	-3860
▁pơgal	-3861
Tơdrong	-3862
▁Adrĕch	-3863
▁Gilgal	-3864
▁Miđian	-3865
▁Pơjăng	-3866
▁chơ̆ng	-3867
▁hơlŏng	-3868
▁hơlŭng	-3869
▁kơdeng	-3870
▁pơhrŭk	-3871
▁tơblĕk	-3872
▁tơgiĕp	-3873
▁tơhlâu	-3874
▁tơtreh	-3875
▁Jêsreel	-3876
▁Sabulôn	-3877
▁hơdrông	-3878
▁kơniê̆h	-3879
▁lơngơ̆p	-3880
▁Betlehem	-3881
▁Rêhôbôam	-3882
▁kơdrơ̆ng	-3883
Ap	-3884
Ph	-3885
og	-3886
os	-3887
ue	-3888
va	-3889
â̆	-3890
ôe	-3891
ăc	-3892
Adr	-3893
SNN	-3894
bôm	-3895
eik	-3896
lor	-3897
ngo	-3898
tin	-3899
▁Ga	-3900
▁To	-3901
▁Tu	-3902
▁Vu	-3903
▁ca	-3904
▁it	-3905
▁iă	-3906
▁jo	-3907
▁km	-3908
▁li	-3909
▁lă	-3910
Nhĕt	-3911
akar	-3912
luch	-3913
▁Băt	-3914
▁Hil	-3915
▁Nap	-3916
▁Ngh	-3917
▁Sik	-3918
▁Xac	-3919
▁bôt	-3920
▁bŏk	-3921
▁căo	-3922
▁căp	-3923
▁dô̆	-3924
▁hoi	-3925
▁hơh	-3926
▁juơ	-3927
▁jăl	-3928
▁lơh	-3929
▁sra	-3930
▁tư̆	-3931
▁wăn	-3932
▁xap	-3933
▁yĕt	-3934
▁đô̆	-3935
Apinh	-3936
eikơl	-3937
iriat	-3938
mơ̆ng	-3939
▁Asap	-3940
▁Ađam	-3941
▁Cham	-3942
▁Hiap	-3943
▁Hung	-3944
▁Hô̆i	-3945
▁Khai	-3946
▁Khoa	-3947
▁Plĕi	-3948
▁blơ̆	-3949
▁bral	-3950
▁brăh	-3951
▁bênh	-3952
▁bơ̆t	-3953
▁hlăm	-3954
▁honh	-3955
▁hrăp	-3956
▁kali	-3957
▁kêch	-3958
▁lơ̆i	-3959
▁lơ̆n	-3960
▁mơmŏ	-3961
▁name	-3962
▁nang	-3963
▁nhưa	-3964
▁preh	-3965
▁pung	-3966
▁thŭk	-3967
▁tiêt	-3968
▁tuch	-3969
▁tuôi	-3970
▁tĭng	-3971
▁wơ̆n	-3972
▁Êlia	-3973
▁đô̆k	-3974
ngoaih	-3975
ôhanan	-3976
▁Arnôn	-3977
▁Baruk	-3978
▁Phươc	-3979
▁adron	-3980
▁chhŭr	-3981
▁chiêu	-3982
▁chŭng	-3983
▁dơnŏ̆	-3984
▁hlôch	-3985
▁hmach	-3986
▁hơdro	-3987
▁hơtat	-3988
▁khơ̆u	-3989
▁kleng	-3990
▁klĕnh	-3991
▁kơsô̆	-3992
▁kơtol	-3993
▁mơkai	-3994
▁ngang	-3995
▁pơdŭk	-3996
▁pơhng	-3997
▁pơlai	-3998
▁pơnăh	-3999
▁thĕng	-4000
▁tơchă	-4001
▁tơnat	-4002
▁Chơmei	-4003
▁Isakar	-4004
▁Kiriat	-4005
▁Rôbôam	-4006
▁Sallum	-4007
▁Truyên	-4008
▁kơdrô̆	-4009
▁lơngoh	-4010
▁pơđơ̆k	-4011
▁rơhing	-4012
▁thoang	-4013
▁hơdruch	-4014
▁Phinêhas	-4015
LS	-4016
LT	-4017
lă	-4018
ŭp	-4019
Bal	-4020
Pơt	-4021
ail	-4022
ama	-4023
bap	-4024
des	-4025
ija	-4026
joi	-4027
năk	-4028
rop	-4029
rŭk	-4030
uan	-4031
uĕt	-4032
yol	-4033
ŏch	-4034
▁VN	-4035
▁ab	-4036
▁ga	-4037
▁rô	-4038
▁yŭ	-4039
"...	-4040
TTLT	-4041
bêka	-4042
bŭng	-4043
iơch	-4044
lơ̆m	-4045
nĭng	-4046
sêba	-4047
thar	-4048
êđôn	-4049
▁Cao	-4050
▁Hơg	-4051
▁Jar	-4052
▁Kur	-4053
▁Lai	-4054
▁Lâm	-4055
▁Nhi	-4056
▁Pha	-4057
▁Pre	-4058
▁Pơx	-4059
▁Rap	-4060
▁bjo	-4061
▁dơh	-4062
▁dơm	-4063
▁gưu	-4064
▁hay	-4065
▁hê̆	-4066
▁hăi	-4067
▁hăk	-4068
▁hơj	-4069
▁jĭl	-4070
▁lua	-4071
▁mưu	-4072
▁rah	-4073
▁sôr	-4074
▁sơg	-4075
▁tăk	-4076
▁tăm	-4077
▁văr	-4078
▁vưk	-4079
▁wơ̆	-4080
▁xây	-4081
▁Êph	-4082
▁đoh	-4083
▁ĕnh	-4084
▁ƀih	-4085
▁Ƀar	-4086
phrat	-4087
▁Dêch	-4088
▁Dŏng	-4089
▁Khĕi	-4090
▁Kong	-4091
▁Rêph	-4092
▁Sara	-4093
▁Silô	-4094
▁Sêra	-4095
▁TBLS	-4096
▁Thêm	-4097
▁Viên	-4098
▁adal	-4099
▁adrŏ	-4100
▁agĕi	-4101
▁anô̆	-4102
▁brei	-4103
▁bơla	-4104
▁bơlŏ	-4105
▁chiê	-4106
▁chôh	-4107
▁chơg	-4108
▁hlêh	-4109
▁hrâu	-4110
▁hông	-4111
▁iơ̆m	-4112
▁jơru	-4113
▁klăm	-4114
▁klăn	-4115
▁kuân	-4116
▁kơnĭ	-4117
▁nô̆i	-4118
▁phep	-4119
▁pơjĭ	-4120
▁suôn	-4121
▁thuơ	-4122
▁thơn	-4123
▁thư̆	-4124
▁tơpa	-4125
▁vang	-4126
▁đô̆i	-4127
▁Chinh	-4128
▁Hôrêp	-4129
▁Jôram	-4130
▁Kades	-4131
▁Pơlok	-4132
▁Pơlĕi	-4133
▁Tamar	-4134
▁Tơlei	-4135
▁Tơmoi	-4136
▁apăng	-4137
▁chhĕr	-4138
▁giang	-4139
▁hrŏng	-4140
▁hơmol	-4141
▁hơđăl	-4142
▁klĕch	-4143
▁kruôĭ	-4144
▁kơđum	-4145
▁mơlôh	-4146
▁nhanh	-4147
▁nhâÊt	-4148
▁phơng	-4149
▁prơih	-4150
▁pơchi	-4151
▁pơdơĭ	-4152
▁pơnil	-4153
▁rơbưn	-4154
▁rơgei	-4155
▁sơhng	-4156
▁thuê̆	-4157
▁traih	-4158
▁tuôch	-4159
▁tơpuh	-4160
▁tơtuh	-4161
▁Đamas	-4162
▁Hơdruh	-4163
▁Hơpiĕt	-4164
▁Saphan	-4165
▁Sêmaia	-4166
▁anguôn	-4167
▁hơchô̆	-4168
▁hơdrei	-4169
▁hơiơch	-4170
▁hơwang	-4171
▁pơchăh	-4172
▁pơthim	-4173
▁seikơl	-4174
▁tơklep	-4175
▁tơƀăng	-4176
▁Ơphrat	-4177
▁Bêrsêba	-4178
▁Jêhôram	-4179
▁Masêđôn	-4180
▁Pơhngol	-4181
▁dơdrơ̆u	-4182
▁khuyê̆n	-4183
▁pơhngol	-4184
▁rơvơ̆ng	-4185
▁rơwơ̆ng	-4186
▁Jêhôahas	-4187
Ba	-4188
Bo	-4189
CL	-4190
Ng	-4191
Yă	-4192
kg	-4193
li	-4194
oc	-4195
êa	-4196
Đi	-4197
ŏa	-4198
▁:	-4199
Bô̆	-4200
adr	-4201
băm	-4202
bưa	-4203
dôt	-4204
hŭn	-4205
kia	-4206
lak	-4207
măt	-4208
mŭi	-4209
năm	-4210
pơm	-4211
tas	-4212
êôr	-4213
đah	-4214
ơch	-4215
▁Ek	-4216
▁Jê	-4217
▁Li	-4218
▁Ne	-4219
▁TC	-4220
▁TP	-4221
▁Xư	-4222
▁bh	-4223
▁lĭ	-4224
▁âm	-4225
Nhĕm	-4226
iăng	-4227
ngeo	-4228
ngir	-4229
ngok	-4230
nhem	-4231
nŏng	-4232
puôn	-4233
ring	-4234
▁Aph	-4235
▁CTĐ	-4236
▁Hră	-4237
▁Hus	-4238
▁Hơĭ	-4239
▁Ier	-4240
▁Kêr	-4241
▁Kăl	-4242
▁Kơk	-4243
▁Kơn	-4244
▁Lui	-4245
▁Nun	-4246
▁Rôm	-4247
▁Rơn	-4248
▁Thŭ	-4249
▁Weh	-4250
▁Yăo	-4251
▁bih	-4252
▁bra	-4253
▁dŭk	-4254
▁goh	-4255
▁găt	-4256
▁gơs	-4257
▁iĕr	-4258
▁kem	-4259
▁kĭn	-4260
▁lak	-4261
▁măk	-4262
▁mŏm	-4263
▁mơg	-4264
▁mơh	-4265
▁rơd	-4266
▁sră	-4267
▁suy	-4268
▁var	-4269
▁vêr	-4270
▁vĭn	-4271
▁war	-4272
▁wĕi	-4273
▁yol	-4274
▁yêr	-4275
▁yêt	-4276
▁yư̆	-4277
▁ăng	-4278
▁đia	-4279
▁đuk	-4280
▁đêm	-4281
▁ƀâu	-4282
ersia	-4283
nhĕng	-4284
êthit	-4285
▁Arôe	-4286
▁GDNN	-4287
▁Grĕk	-4288
▁Kain	-4289
▁Kruô	-4290
▁Ksô̆	-4291
▁Kơnh	-4292
▁NVQS	-4293
▁Rông	-4294
▁Tuân	-4295
▁Tơbr	-4296
▁biê̆	-4297
▁biĕm	-4298
▁bơhl	-4299
▁bơlŭ	-4300
▁chai	-4301
▁hiêm	-4302
▁hmĕt	-4303
▁hong	-4304
▁hreh	-4305
▁hroh	-4306
▁hyôk	-4307
▁hơya	-4308
▁jreo	-4309
▁jơva	-4310
▁klŏk	-4311
▁kuôk	-4312
▁kuăr	-4313
▁kôih	-4314
▁mơ̆m	-4315
▁ngeh	-4316
▁ngoi	-4317
▁phăi	-4318
▁puih	-4319
▁pơdê	-4320
▁tơ̆l	-4321
▁vơng	-4322
▁yuih	-4323
▁đoăn	-4324
Tơjung	-4325
▁Asdôt	-4326
▁Atuch	-4327
▁Hadat	-4328
▁Hamôr	-4329
▁Mơsêh	-4330
▁Ngoai	-4331
▁Thŭng	-4332
▁Tôbia	-4333
▁brơ̆u	-4334
▁bơnat	-4335
▁chrăh	-4336
▁dreng	-4337
▁guăng	-4338
▁hmôch	-4339
▁huach	-4340
▁hơleh	-4341
▁hơnul	-4342
▁hơpôm	-4343
▁jrơ̆u	-4344
▁jơnei	-4345
▁kương	-4346
▁nhong	-4347
▁phâÊn	-4348
▁pơgơp	-4349
▁pơyua	-4350
▁sơdrô	-4351
▁thang	-4352
▁tơgăk	-4353
▁tơpen	-4354
▁tơthu	-4355
▁tơtok	-4356
▁Jêhôas	-4357
▁Simêôn	-4358
▁atuôch	-4359
▁hơgrop	-4360
▁hơngăh	-4361
▁hơtuch	-4362
▁hơwŏng	-4363
▁kơchôp	-4364
▁lơlang	-4365
▁pơtrŭt	-4366
▁rơhiĕo	-4367
▁thuô̆k	-4368
▁tơdrơi	-4369
▁tơhlăk	-4370
▁tơkĕch	-4371
▁Athalia	-4372
▁Jôhanan	-4373
▁pơdriêu	-4374
▁pơplŏng	-4375
▁sơhngeu	-4376
▁hơnguang	-4377
HĐ	-4378
Mi	-4379
NG	-4380
go	-4381
je	-4382
rĕ	-4383
BQH	-4384
BTC	-4385
Bai	-4386
Bŏn	-4387
CCB	-4388
Gah	-4389
Iŏk	-4390
Meh	-4391
Moi	-4392
Mra	-4393
air	-4394
ber	-4395
eri	-4396
mŏk	-4397
như	-4398
sem	-4399
sơ̆	-4400
thi	-4401
ômi	-4402
ôrơ	-4403
đen	-4404
▁Ag	-4405
▁Ai	-4406
▁Ao	-4407
▁Go	-4408
▁Gŏ	-4409
▁Gơ	-4410
▁IV	-4411
▁xr	-4412
Bong	-4413
NVQS	-4414
ahat	-4415
alôn	-4416
bông	-4417
erip	-4418
ikam	-4419
mael	-4420
phir	-4421
raih	-4422
thoi	-4423
ueng	-4424
êsur	-4425
ôhat	-4426
ơliơ	-4427
▁Ala	-4428
▁Ara	-4429
▁Ast	-4430
▁HTX	-4431
▁Hơm	-4432
▁Kis	-4433
▁Kus	-4434
▁Lak	-4435
▁Let	-4436
▁Mil	-4437
▁Mis	-4438
▁Muh	-4439
▁Nah	-4440
▁Nai	-4441
▁Nep	-4442
▁Nêr	-4443
▁Pêr	-4444
▁San	-4445
▁Sen	-4446
▁Sua	-4447
▁Suk	-4448
▁Sup	-4449
▁Tim	-4450
▁Tra	-4451
▁Tôm	-4452
▁Usa	-4453
▁can	-4454
▁dĕk	-4455
▁gam	-4456
▁get	-4457
▁giơ	-4458
▁hle	-4459
▁hrŏ	-4460
▁hui	-4461
▁hôn	-4462
▁hĕi	-4463
▁jal	-4464
▁jop	-4465
▁jŏk	-4466
▁kao	-4467
▁khe	-4468
▁khi	-4469
▁kŏk	-4470
▁lêk	-4471
▁mêm	-4472
▁mơn	-4473
▁nên	-4474
▁oĕi	-4475
▁pia	-4476
▁pĭt	-4477
▁ram	-4478
▁sap	-4479
▁sơđ	-4480
▁thô	-4481
▁tôl	-4482
▁tĭu	-4483
▁văk	-4484
▁xre	-4485
▁xĭn	-4486
▁yăo	-4487
▁Đơn	-4488
▁đâm	-4489
▁đên	-4490
▁đăi	-4491
▁đŏn	-4492
▁ƀăn	-4493
▁ươm	-4494
erses	-4495
sơnăm	-4496
▁Abia	-4497
▁Akăn	-4498
▁Amôt	-4499
▁Anao	-4500
▁Chĕp	-4501
▁GDTX	-4502
▁Gers	-4503
▁Hasa	-4504
▁Khŭl	-4505
▁Kư̆m	-4506
▁Sams	-4507
▁Sêir	-4508
▁Sôba	-4509
▁Sơ̆p	-4510
▁Tơme	-4511
▁Vong	-4512
▁Xăng	-4513
▁akău	-4514
▁chup	-4515
▁chĕl	-4516
▁dâng	-4517
▁gueo	-4518
▁gơ̆t	-4519
▁hleh	-4520
▁hrap	-4521
▁hyah	-4522
▁hơbĭ	-4523
▁hơkă	-4524
▁jơlu	-4525
▁kơep	-4526
▁kư̆u	-4527
▁miên	-4528
▁muôĭ	-4529
▁mơgr	-4530
▁ngâm	-4531
▁ngăn	-4532
▁phôi	-4533
▁plah	-4534
▁pleh	-4535
▁prit	-4536
▁puôl	-4537
▁pơda	-4538
▁pơgi	-4539
▁pơng	-4540
▁tĭch	-4541
▁tơsi	-4542
▁vê̆t	-4543
▁wơnh	-4544
▁xoai	-4545
▁ĐBQH	-4546
▁Đĭch	-4547
thamar	-4548
▁Apung	-4549
▁Artas	-4550
▁Atŭch	-4551
▁Ekrôn	-4552
▁Hoang	-4553
▁Hơdai	-4554
▁Jrăng	-4555
▁Kôhat	-4556
▁Liban	-4557
▁Naômi	-4558
▁Pơgŏp	-4559
▁Pơxat	-4560
▁Pơyan	-4561
▁Ramôt	-4562
▁Simri	-4563
▁Sêmes	-4564
▁Tuyên	-4565
▁Tơbre	-4566
▁chanh	-4567
▁chrêu	-4568
▁chuih	-4569
▁chĭng	-4570
▁dơnih	-4571
▁hơdôm	-4572
▁kơdĭp	-4573
▁lơliơ	-4574
▁nghĭp	-4575
▁ngoan	-4576
▁nhâ̆n	-4577
▁phiêu	-4578
▁pơchê	-4579
▁pơjei	-4580
▁pơtŏk	-4581
▁pơđăp	-4582
▁ruôih	-4583
▁rơdje	-4584
▁rơnŭk	-4585
▁sơmat	-4586
▁trư̆k	-4587
▁tơgêl	-4588
▁tơtoh	-4589
▁xuyên	-4590
▁yơ̆ng	-4591
▁Êliap	-4592
▁Êlias	-4593
acherip	-4594
▁Chuyên	-4595
▁HĐNVQS	-4596
▁Hơdral	-4597
▁Ismael	-4598
▁Mơyang	-4599
▁Phương	-4600
▁bơlang	-4601
▁chơkăl	-4602
▁gơdung	-4603
▁hơlenh	-4604
▁hơmrŭk	-4605
▁kơxêng	-4606
▁pơchoh	-4607
▁pơchĕp	-4608
▁pơdjoi	-4609
▁pơrĕng	-4610
▁sơngum	-4611
▁Drŏnglo	-4612
▁Ithamar	-4613
▁Kơdrăng	-4614
▁Kơtơ̆ng	-4615
▁Naptali	-4616
▁Phersia	-4617
▁bơhlơ̆r	-4618
▁sơgiêng	-4619
▁sơhmêch	-4620
▁sơđiêng	-4621
▁chơhlŭng	-4622
▁hơdrơ̆ng	-4623
▁sơhngơ̆m	-4624
▁tơnglơ̆i	-4625
▁Jêhôiakim	-4626
▁Artaserses	-4627
NV	-4628
PK	-4629
ST	-4630
Tr	-4631
gh	-4632
si	-4633
sơ	-4634
âk	-4635
ĭh	-4636
Bôh	-4637
HCN	-4638
Liơ	-4639
Năm	-4640
Pơl	-4641
bel	-4642
bôs	-4643
bơt	-4644
ese	-4645
ght	-4646
har	-4647
iôn	-4648
lot	-4649
mai	-4650
mra	-4651
mĭn	-4652
net	-4653
ona	-4654
rih	-4655
răm	-4656
san	-4657
ser	-4658
sit	-4659
tơp	-4660
uia	-4661
xeh	-4662
Êng	-4663
đia	-4664
ơla	-4665
▁Eg	-4666
▁Ri	-4667
▁mê	-4668
▁te	-4669
▁ya	-4670
▁ăr	-4671
Thoi	-4672
ahap	-4673
arôt	-4674
bich	-4675
blah	-4676
bênh	-4677
bê̆n	-4678
gail	-4679
isit	-4680
mơ̆u	-4681
ster	-4682
uăng	-4683
▁Blo	-4684
▁Giă	-4685
▁Gru	-4686
▁Gêr	-4687
▁Hok	-4688
▁Klĕ	-4689
▁Lip	-4690
▁Mal	-4691
▁Mam	-4692
▁NPK	-4693
▁Pơh	-4694
▁Sep	-4695
▁Sip	-4696
▁Sur	-4697
▁Sưt	-4698
▁Thĭ	-4699
▁Toa	-4700
▁Trŭ	-4701
▁Tơj	-4702
▁Wei	-4703
▁Xưm	-4704
▁bôh	-4705
▁bôk	-4706
▁bŏl	-4707
▁cuc	-4708
▁câp	-4709
▁cô̆	-4710
▁dje	-4711
▁gol	-4712
▁gŏk	-4713
▁hat	-4714
▁kep	-4715
▁khô	-4716
▁kit	-4717
▁klŭ	-4718
▁ksĕ	-4719
▁kô̆	-4720
▁kưt	-4721
▁lit	-4722
▁lêh	-4723
▁pol	-4724
▁pră	-4725
▁roh	-4726
▁rôi	-4727
▁sŭt	-4728
▁sưc	-4729
▁tal	-4730
▁van	-4731
▁veh	-4732
▁wăi	-4733
▁xit	-4734
▁xŏk	-4735
▁Đĭk	-4736
▁đah	-4737
▁đăo	-4738
▁đơđ	-4739
▁đơĭ	-4740
▁ƀum	-4741
Athei	-4742
BGDĐT	-4743
achin	-4744
bôset	-4745
orona	-4746
▁Ahim	-4747
▁Char	-4748
▁Chau	-4749
▁Chôt	-4750
▁Chô̆	-4751
▁Chăm	-4752
▁Gêba	-4753
▁Hơƀo	-4754
▁Hưng	-4755
▁Jair	-4756
▁Khei	-4757
▁Ning	-4758
▁PTDT	-4759
▁Phêr	-4760
▁Rama	-4761
▁Tăng	-4762
▁Tơpu	-4763
▁Usia	-4764
▁alah	-4765
▁amne	-4766
▁atăk	-4767
▁axeh	-4768
▁bô̆i	-4769
▁băng	-4770
▁cươm	-4771
▁dinh	-4772
▁diêu	-4773
▁glơi	-4774
▁hram	-4775
▁huan	-4776
▁krăi	-4777
▁krĕo	-4778
▁kuôc	-4779
▁kơnă	-4780
▁kơsĕ	-4781
▁leng	-4782
▁lênh	-4783
▁lươi	-4784
▁mung	-4785
▁mĭnh	-4786
▁nhan	-4787
▁phĕt	-4788
▁ploh	-4789
▁proi	-4790
▁prăh	-4791
▁soan	-4792
▁thay	-4793
▁thăi	-4794
▁ting	-4795
▁tĕnh	-4796
▁tŭ̆n	-4797
▁tơtŏ	-4798
▁vơ̆t	-4799
▁Êlim	-4800
▁Điên	-4801
▁Đuôĭ	-4802
▁đơ̆p	-4803
▁ƀĭch	-4804
inađap	-4805
▁Ahija	-4806
▁Asêra	-4807
▁Bơtho	-4808
▁Chđeh	-4809
▁Hasor	-4810
▁Hơtai	-4811
▁Jôbap	-4812
▁Kênit	-4813
▁Kơkuh	-4814
▁Kơtum	-4815
▁Lakis	-4816
▁Nađap	-4817
▁Nêbat	-4818
▁Pơkăp	-4819
▁Rahap	-4820
▁Sarai	-4821
▁Sukôt	-4822
▁Thong	-4823
▁asech	-4824
▁atŏng	-4825
▁broch	-4826
▁bơghê	-4827
▁chhar	-4828
▁chhơp	-4829
▁chơke	-4830
▁chơ̆n	-4831
▁grang	-4832
▁huyêt	-4833
▁huâÊn	-4834
▁huơ̆r	-4835
▁hơbăt	-4836
▁hơkăm	-4837
▁hơloh	-4838
▁hơrao	-4839
▁hơtai	-4840
▁hơtol	-4841
▁khô̆i	-4842
▁kơpôl	-4843
▁kơđôp	-4844
▁pơtoi	-4845
▁rơvĕt	-4846
▁thĭch	-4847
▁trưng	-4848
▁tơpei	-4849
▁tơter	-4850
▁Êliph	-4851
▁Abisai	-4852
▁Bơbŭng	-4853
▁Gersôn	-4854
▁Hilkia	-4855
▁Kuyê̆t	-4856
▁Nhương	-4857
▁Pơtơ̆p	-4858
▁Sêruia	-4859
▁chhông	-4860
▁chiê̆u	-4861
▁gơning	-4862
▁gơwang	-4863
▁hơdrao	-4864
▁hơjơ̆m	-4865
▁hơkŭng	-4866
▁hơlăng	-4867
▁hơđơ̆r	-4868
▁kơnơ̆m	-4869
▁kơtơih	-4870
▁master	-4871
▁mơlơ̆u	-4872
▁mơmơnh	-4873
▁pơdrŭt	-4874
▁pơhrôp	-4875
▁pơrŭng	-4876
▁rơmuăn	-4877
▁thươ̆k	-4878
▁Abigail	-4879
▁Pơklaih	-4880
▁Rêphaim	-4881
▁sơhmĕch	-4882
▁tơtraih	-4883
▁Abiathar	-4884
▁chơhlung	-4885
▁Jêhôiachin	-4886
▁Senacherip	-4887
AP	-4888
Bơ	-4889
GT	-4890
KH	-4891
ag	-4892
hŏ	-4893
km	-4894
ku	-4895
▁/	-4896
AÊn	-4897
BTV	-4898
Brê	-4899
Bôô	-4900
DTT	-4901
Dôm	-4902
GAP	-4903
Mêm	-4904
bôr	-4905
che	-4906
chi	-4907
dek	-4908
dih	-4909
drê	-4910
eba	-4911
era	-4912
gơl	-4913
hoy	-4914
iap	-4915
lôn	-4916
nap	-4917
nhŏ	-4918
nui	-4919
rat	-4920
teh	-4921
unê	-4922
yân	-4923
â̆m	-4924
êsô	-4925
êđi	-4926
ăch	-4927
ĐTB	-4928
▁Bl	-4929
▁CH	-4930
▁Cơ	-4931
▁Ik	-4932
▁KM	-4933
▁LĐ	-4934
▁nu	-4935
▁om	-4936
▁pi	-4937
▁ve	-4938
▁xă	-4939
▁êt	-4940
▁ăi	-4941
▁Đô	-4942
▁ơp	-4943
▁Ư̆	-4944
Bơ̆l	-4945
PCTT	-4946
amôt	-4947
atia	-4948
biêt	-4949
drak	-4950
dron	-4951
itup	-4952
nglă	-4953
nhĭp	-4954
nigo	-4955
săng	-4956
ulam	-4957
uô̆i	-4958
vơ̆l	-4959
êhat	-4960
ênai	-4961
ôthê	-4962
▁Biê	-4963
▁Dêh	-4964
▁Gôm	-4965
▁Gôs	-4966
▁Gơn	-4967
▁Haw	-4968
▁Hađ	-4969
▁Hês	-4970
▁Hơn	-4971
▁Hưu	-4972
▁III	-4973
▁Jas	-4974
▁Jep	-4975
▁Kŭn	-4976
▁Sŏk	-4977
▁Sưa	-4978
▁The	-4979
▁Tĭt	-4980
▁Tŭn	-4981
▁Ure	-4982
▁XIV	-4983
▁Yơĭ	-4984
▁ahr	-4985
▁ath	-4986
▁bet	-4987
▁bơu	-4988
▁bưn	-4989
▁dak	-4990
▁gra	-4991
▁ich	-4992
▁kâu	-4993
▁lal	-4994
▁lêm	-4995
▁lĭn	-4996
▁mau	-4997
▁nơĭ	-4998
▁pro	-4999
▁rui	-5000
▁rơp	-5001
▁sao	-5002
▁sân	-5003
▁toi	-5004
▁wai	-5005
▁yĕr	-5006
▁Đăk	-5007
▁đôm	-5008
▁ŏng	-5009
▁ƀoh	-5010
Lơliơ	-5011
asarơ	-5012
isêra	-5013
▁Abet	-5014
▁Adar	-5015
▁Atŭm	-5016
▁Duch	-5017
▁Gasa	-5018
▁Hanh	-5019
▁Hlôi	-5020
▁Jing	-5021
▁Jêph	-5022
▁Jôel	-5023
▁Klak	-5024
▁Kơ̆p	-5025
▁Ngăt	-5026
▁Nhân	-5027
▁Phap	-5028
▁Prăt	-5029
▁Puôn	-5030
▁Quan	-5031
▁Quân	-5032
▁TDTT	-5033
▁Thai	-5034
▁Thưk	-5035
▁Tĕch	-5036
▁anot	-5037
▁bach	-5038
▁biêt	-5039
▁buch	-5040
▁chêk	-5041
▁drŭt	-5042
▁dông	-5043
▁gong	-5044
▁grơ̆	-5045
▁hiăn	-5046
▁hmơm	-5047
▁hoch	-5048
▁hơie	-5049
▁hơ̆l	-5050
▁hơ̆u	-5051
▁kheŭ	-5052
▁khoi	-5053
▁khĕo	-5054
▁khơĭ	-5055
▁klok	-5056
▁kral	-5057
▁kret	-5058
▁ksơ̆	-5059
▁kuê̆	-5060
▁kuĕl	-5061
▁kôch	-5062
▁kĭnh	-5063
▁mana	-5064
▁ngŭr	-5065
▁nham	-5066
▁nhom	-5067
▁phut	-5068
▁plôi	-5069
▁pôih	-5070
▁ruô̆	-5071
▁rơmu	-5072
▁srôp	-5073
▁sŭng	-5074
▁thar	-5075
▁tome	-5076
▁trom	-5077
▁tơch	-5078
▁xơng	-5079
▁xơ̆k	-5080
▁Êđen	-5081
▁Điêm	-5082
▁đaih	-5083
▁đuơĭ	-5084
▁ƀlep	-5085
nhueng	-5086
▁Abihu	-5087
▁Araba	-5088
▁Bêsal	-5089
▁Drơ̆u	-5090
▁Geser	-5091
▁Grông	-5092
▁Gêsur	-5093
▁Hagar	-5094
▁Haran	-5095
▁Hrŏng	-5096
▁Hơbĕn	-5097
▁Hơlen	-5098
▁Jêsua	-5099
▁Lipna	-5100
▁Mispa	-5101
▁Mêsak	-5102
▁Nabal	-5103
▁Nêbus	-5104
▁Phươk	-5105
▁Plĕnh	-5106
▁Pơjâu	-5107
▁Simêi	-5108
▁Sirus	-5109
▁Thơng	-5110
▁Trang	-5111
▁Tơpơh	-5112
▁Tơtil	-5113
▁adrih	-5114
▁adĭng	-5115
▁anung	-5116
▁apong	-5117
▁atơ̆t	-5118
▁atơ̆u	-5119
▁chuôh	-5120
▁châÊt	-5121
▁gơnăp	-5122
▁hming	-5123
▁hmong	-5124
▁hngăm	-5125
▁hrăng	-5126
▁hơmơt	-5127
▁hơnat	-5128
▁hơtei	-5129
▁jơdră	-5130
▁khich	-5131
▁khuôĭ	-5132
▁kơchu	-5133
▁kơđei	-5134
▁mơgrĭ	-5135
▁nhơng	-5136
▁nhơ̆n	-5137
▁plŭng	-5138
▁praih	-5139
▁pring	-5140
▁puôil	-5141
▁pơgei	-5142
▁pơjăh	-5143
▁pơkau	-5144
▁quang	-5145
▁rơbua	-5146
▁rơdah	-5147
▁rơnua	-5148
▁tơjră	-5149
▁tơpăl	-5150
▁tơwir	-5151
▁yươ̆k	-5152
▁đuô̆i	-5153
▁ƀlang	-5154
▁Abihai	-5155
▁Adrêch	-5156
▁Anania	-5157
▁Dơning	-5158
▁Gômôrơ	-5159
▁Jeptha	-5160
▁Nghiên	-5161
▁Philip	-5162
▁Phơ̆ng	-5163
▁Sadrak	-5164
▁Samsơn	-5165
▁Sisêra	-5166
▁Tơpang	-5167
▁chơkhŏ	-5168
▁hơkong	-5169
▁hơpuăl	-5170
▁hơtăng	-5171
▁hơvơ̆l	-5172
▁hơwĕng	-5173
▁kơdrăt	-5174
▁kơdŭng	-5175
▁kơthao	-5176
▁kơđŏng	-5177
▁mơlung	-5178
▁pơchŭt	-5179
▁pơglăn	-5180
▁pơhloh	-5181
▁pơhĕch	-5182
▁pơkoih	-5183
▁pơnhơm	-5184
▁rơmaih	-5185
▁rơmơ̆n	-5186
▁tơdong	-5187
▁tơdŏng	-5188
▁tơpanh	-5189
▁Êphêsô	-5190
▁Astarôt	-5191
▁Jêphunê	-5192
▁Kơtrơ̆m	-5193
▁Neptali	-5194
▁Pơgling	-5195
▁Timôthê	-5196
▁hơdrơ̆n	-5197
▁jơdrơ̆u	-5198
▁kơdrâ̆m	-5199
▁sơnguĕt	-5200
▁tơdiong	-5201
▁tơhyung	-5202
▁tơjrư̆m	-5203
▁tơpling	-5204
▁xơđơ̆ng	-5205
▁Abetnigo	-5206
▁pơgiơ̆ng	-5207
";	-5208
Ch	-5209
Kh	-5210
Kơ	-5211
NS	-5212
Na	-5213
QL	-5214
VP	-5215
XD	-5216
aĭ	-5217
de	-5218
dư	-5219
gi	-5220
ow	-5221
pơ	-5222
yŭ	-5223
Đe	-5224
Ơĭ	-5225
ưl	-5226
BTT	-5227
Bê̆	-5228
Lăm	-5229
Mưh	-5230
Nao	-5231
Tăi	-5232
Tơg	-5233
Yŏk	-5234
awa	-5235
bir	-5236
bit	-5237
don	-5238
hla	-5239
hok	-5240
hut	-5241
iba	-5242
ica	-5243
ini	-5244
iêa	-5245
kho	-5246
ler	-5247
lĕp	-5248
man	-5249
meu	-5250
nat	-5251
nâm	-5252
onh	-5253
per	-5254
rai	-5255
res	-5256
rim	-5257
roi	-5258
ruh	-5259
sat	-5260
sĭn	-5261
uôh	-5262
êia	-5263
êđa	-5264
ôpi	-5265
ĂNG	-5266
▁Cu	-5267
▁De	-5268
▁Di	-5269
▁II	-5270
▁In	-5271
▁Ku	-5272
▁Ly	-5273
▁Lơ	-5274
▁MT	-5275
▁Pr	-5276
▁Rơ	-5277
▁dŏ	-5278
▁hh	-5279
▁me	-5280
▁nô	-5281
▁rĭ	-5282
▁sŏ	-5283
▁tŭ	-5284
▁ĐT	-5285
▁ƀŭ	-5286
▁‘'	-5287
BCTT	-5288
Bung	-5289
Bĕng	-5290
Minh	-5291
arês	-5292
drâu	-5293
ebul	-5294
elek	-5295
giđô	-5296
hiĕn	-5297
kana	-5298
khĕi	-5299
liwơ	-5300
lŭng	-5301
ngeh	-5302
ngoh	-5303
rŏng	-5304
site	-5305
thit	-5306
yâng	-5307
êman	-5308
êmek	-5309
êsit	-5310
Đông	-5311
▁Buk	-5312
▁Băo	-5313
▁CNH	-5314
▁Cuc	-5315
▁Dan	-5316
▁Gơh	-5317
▁Hal	-5318
▁Hua	-5319
▁Hôs	-5320
▁Hŏk	-5321
▁Jêđ	-5322
▁Jô̆	-5323
▁Khu	-5324
▁Ksô	-5325
▁Mâm	-5326
▁Pla	-5327
▁Pêl	-5328
▁Rup	-5329
▁Rês	-5330
▁Răt	-5331
▁Sad	-5332
▁Sak	-5333
▁Sus	-5334
▁Său	-5335
▁Sĭt	-5336
▁Tha	-5337
▁Tri	-5338
▁Trơ	-5339
▁Tôh	-5340
▁Tĭa	-5341
▁Web	-5342
▁Xem	-5343
▁Xâu	-5344
▁bac	-5345
▁blă	-5346
▁brê	-5347
▁băo	-5348
▁dât	-5349
▁dâu	-5350
▁gen	-5351
▁gŭm	-5352
▁hĭl	-5353
▁hĭn	-5354
▁jŭk	-5355
▁kop	-5356
▁krô	-5357
▁ksơ	-5358
▁ky̆	-5359
▁kŭt	-5360
▁lăh	-5361
▁mat	-5362
▁mok	-5363
▁mur	-5364
▁măm	-5365
▁nol	-5366
▁nĭm	-5367
▁pul	-5368
▁păi	-5369
▁păn	-5370
▁rut	-5371
▁rây	-5372
▁rôm	-5373
▁sum	-5374
▁sup	-5375
▁sôt	-5376
▁săi	-5377
▁sĭn	-5378
▁sơt	-5379
▁tui	-5380
▁têm	-5381
▁tŏt	-5382
▁urê	-5383
▁wêl	-5384
▁yuc	-5385
▁yôm	-5386
▁đăc	-5387
▁đăt	-5388
▁đĕo	-5389
▁ĭnh	-5390
▁ƀet	-5391
▁ơnh	-5392
▁ươk	-5393
Pơlĕi	-5394
Sơnăm	-5395
Tơdah	-5396
anaim	-5397
ariôt	-5398
bruih	-5399
brưch	-5400
glong	-5401
lorua	-5402
ngeng	-5403
onija	-5404
thani	-5405
tơpơh	-5406
tơsĭn	-5407
uô̆ch	-5408
ơgloh	-5409
▁Akis	-5410
▁Aseh	-5411
▁Barn	-5412
▁Chĭu	-5413
▁Clor	-5414
▁Ghok	-5415
▁Hiơt	-5416
▁Hơnh	-5417
▁Jese	-5418
▁Jica	-5419
▁Jêth	-5420
▁Jôsa	-5421
▁Khăi	-5422
▁Kiêm	-5423
▁Kiên	-5424
▁Loai	-5425
▁Loan	-5426
▁Malk	-5427
▁Nhŏm	-5428
▁Phai	-5429
▁Sinh	-5430
▁Tang	-5431
▁Thah	-5432
▁Trơ̆	-5433
▁VIII	-5434
▁abri	-5435
▁atak	-5436
▁atău	-5437
▁bhak	-5438
▁bong	-5439
▁bŏng	-5440
▁bơdư	-5441
▁bơ̆u	-5442
▁chau	-5443
▁chăy	-5444
▁chơh	-5445
▁dunh	-5446
▁dơhl	-5447
▁giap	-5448
▁gion	-5449
▁giâm	-5450
▁giêh	-5451
▁giăc	-5452
▁hiơ̆	-5453
▁hlot	-5454
▁hlôl	-5455
▁hrek	-5456
▁hrôh	-5457
▁hrŭl	-5458
▁hơpo	-5459
▁ioch	-5460
▁jrâu	-5461
▁kheo	-5462
▁khôn	-5463
▁khơi	-5464
▁kiêu	-5465
▁kiê̆	-5466
▁kiăk	-5467
▁kơnĕ	-5468
▁ngom	-5469
▁niên	-5470
▁phan	-5471
▁phuc	-5472
▁prei	-5473
▁pŭng	-5474
▁pơkh	-5475
▁pơku	-5476
▁pơti	-5477
▁pơuh	-5478
▁rêch	-5479
▁siêu	-5480
▁tamo	-5481
▁thưa	-5482
▁tuôn	-5483
▁tŏng	-5484
▁tŭng	-5485
▁tơdă	-5486
▁tưng	-5487
▁wăng	-5488
▁xrôk	-5489
▁xuơn	-5490
▁xĕch	-5491
▁yĕng	-5492
▁yơ̆l	-5493
▁yư̆m	-5494
▁Êhut	-5495
▁Êlis	-5496
▁Ênok	-5497
▁Êthi	-5498
▁Đina	-5499
▁đong	-5500
Adring	-5501
adrĭng	-5502
ebulun	-5503
isêdek	-5504
nglăih	-5505
▁Andrê	-5506
▁Eglôn	-5507
▁Gêđôr	-5508
▁Hasar	-5509
▁Hađat	-5510
▁Hơbăn	-5511
▁Jêrup	-5512
▁Krông	-5513
▁Kơsơ̆	-5514
▁Luâ̆t	-5515
▁Lêmek	-5516
▁Maaka	-5517
▁Makir	-5518
▁Mamrê	-5519
▁Nabôt	-5520
▁Nebus	-5521
▁Pơgop	-5522
▁Pơrăm	-5523
▁Rapba	-5524
▁Rêhôp	-5525
▁Simei	-5526
▁Tirsa	-5527
▁Tơdrô	-5528
▁Tơpen	-5529
▁Tơpul	-5530
▁Tơtam	-5531
▁akanh	-5532
▁apoih	-5533
▁asĕng	-5534
▁blang	-5535
▁blông	-5536
▁bơnơ̆	-5537
▁chroh	-5538
▁diong	-5539
▁drŏng	-5540
▁gruih	-5541
▁grĕnh	-5542
▁hơbăn	-5543
▁hơdrĭ	-5544
▁hơpăh	-5545
▁jĭÊng	-5546
▁khêng	-5547
▁krĕnh	-5548
▁kơmlo	-5549
▁kơnao	-5550
▁nguơn	-5551
▁nhơ̆t	-5552
▁phŏng	-5553
▁plach	-5554
▁polĕi	-5555
▁prung	-5556
▁pơkăl	-5557
▁pơloh	-5558
▁pơnal	-5559
▁pơwao	-5560
▁pơxư̆	-5561
▁srơ̆p	-5562
▁suâÊt	-5563
▁thinh	-5564
▁toaih	-5565
▁tuơ̆n	-5566
▁tơhli	-5567
▁tơkal	-5568
▁tơlak	-5569
▁tơluh	-5570
▁tơpal	-5571
▁xoang	-5572
▁Đêbir	-5573
▁đơđik	-5574
tơdrong	-5575
▁Ahikam	-5576
▁Ahitup	-5577
▁Corona	-5578
▁Hasael	-5579
▁Hơdrol	-5580
▁Lasarơ	-5581
▁Mêgiđô	-5582
▁Phadan	-5583
▁Phươ̆k	-5584
▁Xơnong	-5585
▁adrang	-5586
▁bơrơ̆m	-5587
▁chơđah	-5588
▁hơbong	-5589
▁hơbĕch	-5590
▁hơdong	-5591
▁hơmrah	-5592
▁hơmŏng	-5593
▁jơlơ̆m	-5594
▁jơmŏng	-5595
▁khoanh	-5596
▁kơniêh	-5597
▁kơpaih	-5598
▁kơtuăl	-5599
▁rơmuơn	-5600
▁sơleng	-5601
▁talâng	-5602
▁tơbrŏk	-5603
▁tơjruh	-5604
▁tơkêng	-5605
▁tơmông	-5606
▁tơpĕnh	-5607
▁tơpơng	-5608
▁Êlkana	-5609
▁ơnhơng	-5610
▁Adonija	-5611
▁Bethani	-5612
▁Bêrekia	-5613
▁Bêsalel	-5614
▁Gêđalia	-5615
▁Ikariôt	-5616
▁Isbôset	-5617
▁Sebulun	-5618
▁Tơhngam	-5619
▁adrê̆ch	-5620
▁chơngue	-5621
▁hơchăng	-5622
▁milimet	-5623
▁pơhnŏng	-5624
▁pơrơ̆ng	-5625
▁rơhiăng	-5626
▁tơkhiĕn	-5627
▁Êliasip	-5628
▁Êthiôpi	-5629
▁Cloramin	-5630
▁Kêrêthit	-5631
▁Sêphatia	-5632
▁tơhnglăih	-5633
%/	-5634
BC	-5635
Bu	-5636
CA	-5637
DT	-5638
NC	-5639
PT	-5640
ae	-5641
hơ	-5642
mơ	-5643
rô	-5644
tn	-5645
ya	-5646
yc	-5647
ăy	-5648
ŏh	-5649
Ưh	-5650
▁ê	-5651
▁ă	-5652
BNV	-5653
BYT	-5654
Bak	-5655
Bao	-5656
Dân	-5657
Khu	-5658
ale	-5659
ash	-5660
ati	-5661
bom	-5662
buk	-5663
băn	-5664
dak	-5665
gas	-5666
hăp	-5667
inô	-5668
kon	-5669
kua	-5670
kơp	-5671
kơt	-5672
lai	-5673
lơm	-5674
măk	-5675
mơn	-5676
nut	-5677
pơt	-5678
rin	-5679
uba	-5680
yuh	-5681
yôt	-5682
ôni	-5683
đan	-5684
ưih	-5685
▁Bo	-5686
▁Er	-5687
▁Kŏ	-5688
▁Lo	-5689
▁Pi	-5690
▁Ra	-5691
▁So	-5692
▁TƠ	-5693
▁Vĭ	-5694
▁WP	-5695
▁cm	-5696
▁go	-5697
▁jă	-5698
▁pư	-5699
▁tĭ	-5700
▁yô	-5701
▁đơ	-5702
Blŏk	-5703
Buih	-5704
Bê̆n	-5705
HĐND	-5706
LĐTB	-5707
QLCL	-5708
VPCP	-5709
ahia	-5710
aman	-5711
biêa	-5712
dian	-5713
hoch	-5714
inim	-5715
irôt	-5716
kơpô	-5717
monh	-5718
nhơĭ	-5719
nong	-5720
saka	-5721
thia	-5722
uach	-5723
urim	-5724
uyêt	-5725
uônh	-5726
xong	-5727
êber	-5728
êphi	-5729
êsar	-5730
êtus	-5731
đông	-5732
▁Aij	-5733
▁Ară	-5734
▁Asi	-5735
▁Bac	-5736
▁Bia	-5737
▁Big	-5738
▁Bôs	-5739
▁Bơ̆	-5740
▁Car	-5741
▁Câu	-5742
▁Gir	-5743
▁Găr	-5744
▁Hak	-5745
▁Hlŏ	-5746
▁Hop	-5747
▁Iđô	-5748
▁Jan	-5749
▁Khê	-5750
▁Khĭ	-5751
▁Kêt	-5752
▁Mơl	-5753
▁New	-5754
▁Nhă	-5755
▁Nil	-5756
▁Pôm	-5757
▁Păh	-5758
▁Răm	-5759
▁Sat	-5760
▁Sis	-5761
▁Sâu	-5762
▁Sôr	-5763
▁Tho	-5764
▁Tâp	-5765
▁Tŏk	-5766
▁Tơd	-5767
▁Vei	-5768
▁Vui	-5769
▁Xoi	-5770
▁Xơk	-5771
▁Yan	-5772
▁Yân	-5773
▁Yên	-5774
▁asu	-5775
▁ată	-5776
▁atŏ	-5777
▁bar	-5778
▁bru	-5779
▁bâu	-5780
▁căt	-5781
▁dep	-5782
▁det	-5783
▁dil	-5784
▁doh	-5785
▁dây	-5786
▁dơg	-5787
▁grê	-5788
▁gơg	-5789
▁gơm	-5790
▁hau	-5791
▁hâp	-5792
▁ioi	-5793
▁jor	-5794
▁jru	-5795
▁jăm	-5796
▁jơg	-5797
▁kam	-5798
▁ket	-5799
▁koa	-5800
▁kôn	-5801
▁kơw	-5802
▁lar	-5803
▁loa	-5804
▁lôm	-5805
▁mak	-5806
▁măi	-5807
▁mŏk	-5808
▁nat	-5809
▁nĕi	-5810
▁nơn	-5811
▁put	-5812
▁păl	-5813
▁rĕk	-5814
▁rơđ	-5815
▁sŭp	-5816
▁ter	-5817
▁tât	-5818
▁tơy	-5819
▁uch	-5820
▁vir	-5821
▁vê̆	-5822
▁xŭk	-5823
▁xơn	-5824
▁yuh	-5825
▁Đim	-5826
▁Đĭu	-5827
▁Đưk	-5828
▁đau	-5829
▁đeu	-5830
▁đơk	-5831
▁đưc	-5832
▁ƀôt	-5833
▁Ƀuh	-5834
BTTTT	-5835
Barna	-5836
Pơtih	-5837
ashur	-5838
inôam	-5839
iêser	-5840
kơdih	-5841
nguơ̆	-5842
ngôch	-5843
sơdrô	-5844
tniêl	-5845
trong	-5846
Đơ̆ng	-5847
ơnhôm	-5848
ơught	-5849
▁Abel	-5850
▁Adan	-5851
▁Arah	-5852
▁Bani	-5853
▁Bêla	-5854
▁Bêôr	-5855
▁Giai	-5856
▁Gêra	-5857
▁Huay	-5858
▁Hơkă	-5859
▁Hơ̆p	-5860
▁Iung	-5861
▁KHCN	-5862
▁Khŏa	-5863
▁King	-5864
▁Kê̆t	-5865
▁Kơne	-5866
▁Luân	-5867
▁Lĕch	-5868
▁Maas	-5869
▁Maih	-5870
▁Mêdi	-5871
▁Ngŏk	-5872
▁Ngŭn	-5873
▁Nêth	-5874
▁Nô̆i	-5875
▁Phuc	-5876
▁Phun	-5877
▁Phêl	-5878
▁Pêôr	-5879
▁Pông	-5880
▁Pơkă	-5881
▁Ruôt	-5882
▁Seba	-5883
▁Sêla	-5884
▁Thim	-5885
▁Thây	-5886
▁Thơĭ	-5887
▁Tong	-5888
▁Tôch	-5889
▁Tơ̆m	-5890
▁Yanh	-5891
▁adrơ	-5892
▁akap	-5893
▁amrĕ	-5894
▁apal	-5895
▁bơbê	-5896
▁bơdr	-5897
▁bơ̆i	-5898
▁cheh	-5899
▁chuă	-5900
▁châu	-5901
▁chêo	-5902
▁chŭk	-5903
▁cơng	-5904
▁diê̆	-5905
▁djrŭ	-5906
▁drum	-5907
▁drâu	-5908
▁gŏch	-5909
▁hlal	-5910
▁hrăt	-5911
▁hyơt	-5912
▁hĭnh	-5913
▁hơga	-5914
▁hơkô	-5915
▁hơla	-5916
▁hơră	-5917
▁iơch	-5918
▁jơ̆n	-5919
▁kheu	-5920
▁khăi	-5921
▁klui	-5922
▁klơĭ	-5923
▁koch	-5924
▁kron	-5925
▁kêng	-5926
▁kênh	-5927
▁kăch	-5928
▁kơxu	-5929
▁luai	-5930
▁lŏng	-5931
▁môch	-5932
▁mô̆i	-5933
▁mơ̆r	-5934
▁ngam	-5935
▁nger	-5936
▁nhơk	-5937
▁phim	-5938
▁pơkŭ	-5939
▁pưng	-5940
▁rach	-5941
▁reng	-5942
▁rơva	-5943
▁song	-5944
▁sơbŏ	-5945
▁sơmă	-5946
▁taih	-5947
▁test	-5948
▁theo	-5949
▁thŭ̆	-5950
▁trem	-5951
▁trăk	-5952
▁trĭn	-5953
▁trŭk	-5954
▁tơ̆t	-5955
▁vơ̆l	-5956
▁yaih	-5957
▁yuôn	-5958
▁yuĭt	-5959
▁yăng	-5960
▁yơ̆u	-5961
▁Êlah	-5962
▁Êlat	-5963
▁Êlna	-5964
▁Êlon	-5965
▁Ênos	-5966
▁Đơ̆i	-5967
▁đơ̆k	-5968
▁ƀlal	-5969
LĐTBXH	-5970
aradan	-5971
ôpêhat	-5972
▁Abija	-5973
▁Amnôn	-5974
▁Barak	-5975
▁Gêber	-5976
▁Gơnơm	-5977
▁Hagai	-5978
▁Hiong	-5979
▁Huram	-5980
▁Hêman	-5981
▁Hôrôn	-5982
▁Hơkap	-5983
▁Jabôk	-5984
▁Jahas	-5985
▁Jôsua	-5986
▁Klơ̆m	-5987
▁Kêbar	-5988
▁Kêila	-5989
▁Kênan	-5990
▁Kơdră	-5991
▁Kơtăp	-5992
▁Kương	-5993
▁Mahal	-5994
▁Matan	-5995
▁Mălei	-5996
▁Mơnat	-5997
▁Nganh	-5998
▁Pơkra	-5999
▁Pơmai	-6000
▁Ruôih	-6001
▁Sadok	-6002
▁Sađôk	-6003
▁Sađŏk	-6004
▁Sikri	-6005
▁Thêra	-6006
▁Tơgum	-6007
▁Tơjul	-6008
▁Xơnăm	-6009
▁ahrei	-6010
▁alăng	-6011
▁aninh	-6012
▁bơbôl	-6013
▁chăng	-6014
▁drơ̆m	-6015
▁dơnơm	-6016
▁grong	-6017
▁grĕng	-6018
▁hiê̆u	-6019
▁hnang	-6020
▁hnglo	-6021
▁hnong	-6022
▁hrơ̆t	-6023
▁hơgơn	-6024
▁hơiuh	-6025
▁hơnam	-6026
▁jrĕng	-6027
▁khanh	-6028
▁kơdah	-6029
▁kơlot	-6030
▁kơmah	-6031
▁kơnơl	-6032
▁kơpen	-6033
▁kơpul	-6034
▁kơtŭm	-6035
▁kơxăi	-6036
▁lơnhư	-6037
▁lươ̆k	-6038
▁mơkan	-6039
▁potho	-6040
▁prơng	-6041
▁pơlŭk	-6042
▁pơret	-6043
▁pơsư̆	-6044
▁riêng	-6045
▁ruô̆k	-6046
▁rơnok	-6047
▁rơnôp	-6048
▁rơđah	-6049
▁thuôi	-6050
▁thơ̆u	-6051
▁tơbôl	-6052
▁tơhiu	-6053
▁tơkuh	-6054
▁tơkul	-6055
▁tơkơi	-6056
▁tơmĭl	-6057
▁tơpăk	-6058
▁tơtil	-6059
▁viêng	-6060
▁Barnêa	-6061
▁Hanani	-6062
▁Hatawa	-6063
▁Hơgơ̆r	-6064
▁Hơnhăm	-6065
▁Jêhiêl	-6066
▁Khoang	-6067
▁Kơpưng	-6068
▁Madian	-6069
▁Mikaia	-6070
▁Mêrari	-6071
▁Mêriba	-6072
▁Naaman	-6073
▁Pơlôch	-6074
▁Riblah	-6075
▁Salmôn	-6076
▁Sêraia	-6077
▁Tơring	-6078
▁bơgloh	-6079
▁chruih	-6080
▁chơkep	-6081
▁clorua	-6082
▁dơmônh	-6083
▁gơdron	-6084
▁gơnơ̆m	-6085
▁hơdang	-6086
▁hơdroi	-6087
▁jơgơ̆l	-6088
▁khô̆ng	-6089
▁kơdơ̆r	-6090
▁kơtuen	-6091
▁nhơ̆ng	-6092
▁nơnung	-6093
▁pơcheh	-6094
▁pơdong	-6095
▁pơgơ̆t	-6096
▁pơhoch	-6097
▁pơlơ̆m	-6098
▁pơnhen	-6099
▁pơnhoh	-6100
▁sơtơ̆p	-6101
▁tơkưng	-6102
▁tơnang	-6103
▁tơpơih	-6104
▁tơpơ̆k	-6105
▁xơnong	-6106
▁Aijalôn	-6107
▁Chơnang	-6108
▁Drơught	-6109
▁Hanania	-6110
▁Hơdrong	-6111
▁Mêsulam	-6112
▁Nêbusar	-6113
▁Rapsaka	-6114
▁ViêtGAP	-6115
▁Website	-6116
▁bơgrong	-6117
▁bơyơ̆ng	-6118
▁chơpuih	-6119
▁chơđong	-6120
▁dơhlông	-6121
▁kilogam	-6122
▁pơngơ̆t	-6123
▁tơmơ̆ng	-6124
▁Êliphêl	-6125
▁Ahimelek	-6126
▁Mahanaim	-6127
▁hơnguăng	-6128
▁Êlnathan	-6129
▁Sêlôpêhat	-6130
▁Nebusaradan	-6131
AC	-6132
An	-6133
BB	-6134
Be	-6135
DR	-6136
Ku	-6137
TB	-6138
TY	-6139
Wh	-6140
Yu	-6141
dê	-6142
dơ	-6143
ea	-6144
ey	-6145
ga	-6146
gn	-6147
gô	-6148
iv	-6149
le	-6150
ro	-6151
sư	-6152
tô	-6153
xa	-6154
âo	-6155
ŏ̆	-6156
ưi	-6157
BTP	-6158
BXD	-6159
Bui	-6160
DRO	-6161
HXH	-6162
ICA	-6163
Lei	-6164
Mai	-6165
NCS	-6166
Ngu	-6167
Pôk	-6168
Rin	-6169
SGT	-6170
STC	-6171
STP	-6172
Yem	-6173
acb	-6174
ame	-6175
arw	-6176
ate	-6177
bim	-6178
bơ̆	-6179
doi	-6180
ele	-6181
gar	-6182
her	-6183
ial	-6184
ics	-6185
iii	-6186
iôt	-6187
iơ̆	-6188
jam	-6189
kôl	-6190
lôp	-6191
lơ̆	-6192
mel	-6193
mri	-6194
mut	-6195
opt	-6196
oss	-6197
pơk	-6198
ral	-6199
ret	-6200
răi	-6201
sap	-6202
sil	-6203
sua	-6204
thơ	-6205
tuy	-6206
ual	-6207
una	-6208
uri	-6209
uth	-6210
uât	-6211
uơ̆	-6212
wia	-6213
yco	-6214
êel	-6215
êhu	-6216
êlk	-6217
êna	-6218
ê̆u	-6219
ôba	-6220
ôme	-6221
ôra	-6222
Đei	-6223
ŏnh	-6224
ŭnh	-6225
ơnŏ	-6226
ư̆t	-6227
▁AP	-6228
▁AÊ	-6229
▁Gê	-6230
▁Ip	-6231
▁It	-6232
▁Ky	-6233
▁Kư	-6234
▁Me	-6235
▁MĂ	-6236
▁Pa	-6237
▁QĐ	-6238
▁Ră	-6239
▁UV	-6240
▁Yư	-6241
▁ađ	-6242
▁ep	-6243
▁hg	-6244
▁pô	-6245
▁vĕ	-6246
▁âp	-6247
▁ƀl	-6248
Bơ̆n	-6249
Lang	-6250
Nhot	-6251
TCCB	-6252
Tinh	-6253
ahel	-6254
arim	-6255
aseh	-6256
ađak	-6257
blal	-6258
brôt	-6259
brơu	-6260
brơ̆	-6261
brư̆	-6262
bunh	-6263
buôi	-6264
bôra	-6265
bơ̆m	-6266
dang	-6267
dunh	-6268
dĕch	-6269
ebel	-6270
erôt	-6271
grai	-6272
hrot	-6273
idae	-6274
ikri	-6275
inêr	-6276
jael	-6277
khan	-6278
khoa	-6279
khŏa	-6280
kong	-6281
kơ̆l	-6282
miel	-6283
nhĕk	-6284
ning	-6285
nĕng	-6286
nŭng	-6287
pơ̆k	-6288
tien	-6289
umim	-6290
êbia	-6291
êkôa	-6292
êkôn	-6293
ômer	-6294
ômit	-6295
ôtip	-6296
đơla	-6297
▁Aân	-6298
▁Bak	-6299
▁Bel	-6300
▁Boh	-6301
▁Bus	-6302
▁Bâm	-6303
▁Bê̆	-6304
▁Bôi	-6305
▁Băc	-6306
▁Che	-6307
▁Cop	-6308
▁Cưa	-6309
▁Cưu	-6310
▁Dui	-6311
▁Dân	-6312
▁Dăm	-6313
▁Gia	-6314
▁Gêm	-6315
▁Gưi	-6316
▁Hah	-6317
▁Hri	-6318
▁HĐH	-6319
▁Jao	-6320
▁Jap	-6321
▁Jra	-6322
▁Jră	-6323
▁Jul	-6324
▁Jôi	-6325
▁KCL	-6326
▁Kam	-6327
▁Kat	-6328
▁Kuă	-6329
▁Kêl	-6330
▁Kêm	-6331
▁Kăp	-6332
▁Lep	-6333
▁Loi	-6334
▁Lâp	-6335
▁Lưk	-6336
▁MTV	-6337
▁Muc	-6338
▁Muk	-6339
▁Ner	-6340
▁Nêh	-6341
▁Phe	-6342
▁Phŭ	-6343
▁Pui	-6344
▁Pơd	-6345
▁Rac	-6346
▁Reh	-6347
▁Ria	-6348
▁Rut	-6349
▁Set	-6350
▁Suc	-6351
▁Sên	-6352
▁Sêp	-6353
▁Sôp	-6354
▁Tan	-6355
▁Tat	-6356
▁Tep	-6357
▁Trư	-6358
▁Tâm	-6359
▁Têm	-6360
▁Tơh	-6361
▁Tơk	-6362
▁Uôn	-6363
▁Vĕi	-6364
▁Xet	-6365
▁Xom	-6366
▁Xư̆	-6367
▁Yin	-6368
▁akĕ	-6369
▁arĕ	-6370
▁beh	-6371
▁bip	-6372
▁bơh	-6373
▁cha	-6374
▁chô	-6375
▁con	-6376
▁côt	-6377
▁căn	-6378
▁cŭm	-6379
▁dat	-6380
▁doa	-6381
▁dĕi	-6382
▁dơl	-6383
▁eng	-6384
▁gal	-6385
▁gih	-6386
▁gio	-6387
▁gôp	-6388
▁gĕi	-6389
▁gŏp	-6390
▁gơp	-6391
▁hah	-6392
▁hor	-6393
▁hro	-6394
▁hôp	-6395
▁hăl	-6396
▁hơx	-6397
▁hơ̆	-6398
▁jak	-6399
▁jil	-6400
▁jok	-6401
▁jua	-6402
▁kWh	-6403
▁krê	-6404
▁kôp	-6405
▁kăk	-6406
▁kĕi	-6407
▁kŭi	-6408
▁kơy	-6409
▁kơƀ	-6410
▁lem	-6411
▁lĭm	-6412
▁lĭu	-6413
▁mao	-6414
▁măc	-6415
▁mưc	-6416
▁neo	-6417
▁nêp	-6418
▁nơr	-6419
▁och	-6420
▁ong	-6421
▁pao	-6422
▁pok	-6423
▁pôi	-6424
▁pơv	-6425
▁reo	-6426
▁rôn	-6427
▁rơi	-6428
▁rơĭ	-6429
▁srĕ	-6430
▁suk	-6431
▁sơr	-6432
▁tek	-6433
▁tre	-6434
▁tăh	-6435
▁tăt	-6436
▁tŭl	-6437
▁tưk	-6438
▁tưu	-6439
▁uôi	-6440
▁vưc	-6441
▁wek	-6442
▁wơl	-6443
▁xar	-6444
▁xir	-6445
▁yơi	-6446
▁yơl	-6447
▁Êng	-6448
▁âÊn	-6449
▁ông	-6450
▁Đêl	-6451
▁Đên	-6452
▁Đŏk	-6453
▁đâk	-6454
▁đâp	-6455
▁đôn	-6456
▁đĭa	-6457
▁ƀăk	-6458
▁ƀăt	-6459
▁ơng	-6460
Kjung	-6461
Tơgum	-6462
acbin	-6463
arêsa	-6464
athit	-6465
athôt	-6466
chơhl	-6467
gasit	-6468
hania	-6469
herpa	-6470
itrat	-6471
nguôn	-6472
okhan	-6473
ossed	-6474
pơtêp	-6475
saret	-6476
uô̆ih	-6477
uô̆ng	-6478
ôliat	-6479
▁Adah	-6480
▁Agak	-6481
▁Asar	-6482
▁Axeh	-6483
▁Ađôn	-6484
▁Bach	-6485
▁BigC	-6486
▁Bila	-6487
▁CSGT	-6488
▁Chiu	-6489
▁Chê̆	-6490
▁Dinh	-6491
▁Eber	-6492
▁Gaal	-6493
▁Grow	-6494
▁Hana	-6495
▁Hiôk	-6496
▁Hoan	-6497
▁Hoay	-6498
▁Hêna	-6499
▁Hưch	-6500
▁JICA	-6501
▁Khĭn	-6502
▁Ksơ̆	-6503
▁Kuân	-6504
▁Kŏch	-6505
▁Kơdŭ	-6506
▁Kơng	-6507
▁Liêm	-6508
▁Lôch	-6509
▁Maki	-6510
▁Milô	-6511
▁Mêlk	-6512
▁Mêsa	-6513
▁Mơ̆t	-6514
▁Ngai	-6515
▁Nguy	-6516
▁Nêbô	-6517
▁Nưih	-6518
▁Phak	-6519
▁Piêu	-6520
▁Prôm	-6521
▁Pêka	-6522
▁Pơch	-6523
▁Pơih	-6524
▁Pơla	-6525
▁Pơđĭ	-6526
▁Rêbu	-6527
▁Siêu	-6528
▁Supe	-6529
▁Susa	-6530
▁TNCS	-6531
▁Thao	-6532
▁Thôm	-6533
▁Toan	-6534
▁VNPT	-6535
▁Xung	-6536
▁Xuât	-6537
▁Yuăn	-6538
▁atau	-6539
▁atâo	-6540
▁bich	-6541
▁boăl	-6542
▁bram	-6543
▁bĕng	-6544
▁cheu	-6545
▁chua	-6546
▁chư̆	-6547
▁djăl	-6548
▁dươc	-6549
▁giây	-6550
▁giơi	-6551
▁gram	-6552
▁gron	-6553
▁gơ̆p	-6554
▁gưng	-6555
▁hrai	-6556
▁hruh	-6557
▁huen	-6558
▁huên	-6559
▁hyăh	-6560
▁hơgl	-6561
▁juôi	-6562
▁juô̆	-6563
▁khêp	-6564
▁khơl	-6565
▁klôm	-6566
▁klơi	-6567
▁krĕi	-6568
▁krŭl	-6569
▁kuek	-6570
▁kuyê	-6571
▁kơhô	-6572
▁kơph	-6573
▁kơpl	-6574
▁kơ̆i	-6575
▁liah	-6576
▁loat	-6577
▁lê̆i	-6578
▁mơhi	-6579
▁nach	-6580
▁ngei	-6581
▁ngơ̆	-6582
▁nơ̆k	-6583
▁ping	-6584
▁plih	-6585
▁plăt	-6586
▁plŏk	-6587
▁plơh	-6588
▁pơdŭ	-6589
▁pơja	-6590
▁pơkr	-6591
▁pơxu	-6592
▁pơŏm	-6593
▁raih	-6594
▁rơ̆m	-6595
▁rơ̆u	-6596
▁sreh	-6597
▁srôh	-6598
▁sơ̆k	-6599
▁thô̆	-6600
▁tral	-6601
▁tron	-6602
▁truc	-6603
▁trăi	-6604
▁tuôĭ	-6605
▁tơkư	-6606
▁tơxi	-6607
▁tơyơ	-6608
▁tư̆u	-6609
▁viêm	-6610
▁wĕch	-6611
▁xach	-6612
▁xanh	-6613
▁xele	-6614
▁xoch	-6615
▁yich	-6616
▁yê̆u	-6617
▁Êbêt	-6618
▁Êlam	-6619
▁Êlih	-6620
▁ĐRin	-6621
▁Đing	-6622
▁Đrin	-6623
▁điah	-6624
▁đuôt	-6625
▁đô̆m	-6626
Nguaih	-6627
Pơnhôm	-6628
athiel	-6629
bơngai	-6630
istics	-6631
optera	-6632
pơgloh	-6633
tơdrâu	-6634
êsalôn	-6635
ôbabel	-6636
▁APĂNG	-6637
▁Akbôr	-6638
▁Amasa	-6639
▁Aphat	-6640
▁Aphek	-6641
▁Axong	-6642
▁Bikri	-6643
▁Chanh	-6644
▁Chiên	-6645
▁Chông	-6646
▁Chŏng	-6647
▁Dơ̆ng	-6648
▁Gêrar	-6649
▁Gôsen	-6650
▁Hơres	-6651
▁Ishar	-6652
▁Jakin	-6653
▁Jaret	-6654
▁Jaser	-6655
▁Jêiêl	-6656
▁Khenh	-6657
▁Không	-6658
▁Kinêr	-6659
▁Kơthơ	-6660
▁Manôa	-6661
▁Mathê	-6662
▁Mikal	-6663
▁Mêtus	-6664
▁Mơjĭt	-6665
▁Nahôr	-6666
▁Nghia	-6667
▁Nhong	-6668
▁Nêria	-6669
▁Plŭng	-6670
▁Purim	-6671
▁Pêlek	-6672
▁Pêres	-6673
▁Pơkao	-6674
▁Pơtêp	-6675
▁Pơtơm	-6676
▁Rêsin	-6677
▁Samla	-6678
▁Silas	-6679
▁Silpa	-6680
▁Sinar	-6681
▁Super	-6682
▁Sêruk	-6683
▁Thuôk	-6684
▁Triên	-6685
▁Têkôa	-6686
▁TƠDRO	-6687
▁UVBTV	-6688
▁Usiêl	-6689
▁Yoanh	-6690
▁atheo	-6691
▁atêng	-6692
▁brŏng	-6693
▁brơ̆t	-6694
▁bơdô̆	-6695
▁chich	-6696
▁chiêm	-6697
▁chuơĭ	-6698
▁diêng	-6699
▁driêu	-6700
▁drôih	-6701
▁dơnơ̆	-6702
▁giŏng	-6703
▁hadoi	-6704
▁hiêng	-6705
▁hlơ̆p	-6706
▁hmiêt	-6707
▁hnhuk	-6708
▁hraih	-6709
▁hrĕnh	-6710
▁hômer	-6711
▁hơlai	-6712
▁hơlam	-6713
▁hơlih	-6714
▁hơnar	-6715
▁hơnik	-6716
▁hơnuh	-6717
▁hơnôk	-6718
▁hơreh	-6719
▁hơtăl	-6720
▁hơwen	-6721
▁hơxeh	-6722
▁khuôn	-6723
▁khĕnh	-6724
▁khơ̆r	-6725
▁krang	-6726
▁krĕng	-6727
▁kuang	-6728
▁kơdra	-6729
▁kơdăh	-6730
▁kơlăm	-6731
▁kơnâm	-6732
▁kơsep	-6733
▁kơtăk	-6734
▁kơxŏk	-6735
▁kơđĕl	-6736
▁ngơnh	-6737
▁prăng	-6738
▁pơdô̆	-6739
▁pơgoh	-6740
▁pơjĭp	-6741
▁pơkuă	-6742
▁pơnăt	-6743
▁pơpơn	-6744
▁pơsĕi	-6745
▁pơxĭt	-6746
▁siêng	-6747
▁sriê̆	-6748
▁suĕng	-6749
▁sương	-6750
▁thich	-6751
▁tơgưm	-6752
▁tơiŏk	-6753
▁tơjra	-6754
▁tơmăk	-6755
▁tơmŏm	-6756
▁tơnui	-6757
▁tơnôn	-6758
▁tơrô̆	-6759
▁tơtey	-6760
▁virus	-6761
▁xuâ̆t	-6762
▁Êsiôn	-6763
▁Êskôl	-6764
▁Êtham	-6765
▁Êtien	-6766
▁Abijam	-6767
▁Abiram	-6768
▁Asahel	-6769
▁Asêrim	-6770
▁Charan	-6771
▁Chiê̆n	-6772
▁Copper	-6773
▁Gôliat	-6774
▁Hawila	-6775
▁Hêsrôn	-6776
▁Hơlŭng	-6777
▁Hơmơ̆l	-6778
▁Jêthrô	-6779
▁Karmel	-6780
▁Kibrôt	-6781
▁Kơjung	-6782
▁Kơting	-6783
▁LHTNVN	-6784
▁Mahyco	-6785
▁Marêsa	-6786
▁Mađơla	-6787
▁Mikael	-6788
▁Pơnhơm	-6789
▁Rimmôn	-6790
▁Salêka	-6791
▁Sherpa	-6792
▁Siklak	-6793
▁Thimna	-6794
▁Thêman	-6795
▁Tơngăm	-6796
▁adrong	-6797
▁bơdong	-6798
▁cacbin	-6799
▁chiê̆n	-6800
▁chơnŭp	-6801
▁chơđeh	-6802
▁chư̆ng	-6803
▁gglong	-6804
▁gơlong	-6805
▁hơbơ̆u	-6806
▁hơnenh	-6807
▁khuyêt	-6808
▁kơchap	-6809
▁kơchăm	-6810
▁kơjing	-6811
▁kơkach	-6812
▁kơkŏng	-6813
▁kơtong	-6814
▁kơtăng	-6815
▁lơhông	-6816
▁lơngưp	-6817
▁mơlĕch	-6818
▁pơchek	-6819
▁pơglăi	-6820
▁pơgreh	-6821
▁pơkhôi	-6822
▁pơklai	-6823
▁pơkuê̆	-6824
▁pơlenh	-6825
▁pơlêch	-6826
▁pơlênh	-6827
▁pơtĕnh	-6828
▁pơtơ̆m	-6829
▁rơđăng	-6830
▁sơnĕnh	-6831
▁thuyêt	-6832
▁tơbŭch	-6833
▁tơjŭng	-6834
▁tơkach	-6835
▁tơlech	-6836
▁tơmăng	-6837
▁tơnanh	-6838
▁tơplŏk	-6839
▁tơprah	-6840
▁tơtang	-6841
▁tơwing	-6842
▁tơxinh	-6843
▁wengăn	-6844
▁Êngêđi	-6845
▁Đathan	-6846
▁Đêbôra	-6847
▁ơdrơ̆u	-6848
chơhlŭng	-6849
▁Adrê̆ch	-6850
▁Anathôt	-6851
▁Biossed	-6852
▁Haserôt	-6853
▁Jêsebel	-6854
▁Kơchăng	-6855
▁Matania	-6856
▁Nasaret	-6857
▁Sareser	-6858
▁Sêlômit	-6859
▁chơkanh	-6860
▁chơnĕng	-6861
▁kơdrơ̆m	-6862
▁pơgrŏng	-6863
▁sruô̆ih	-6864
▁sơhmach	-6865
▁sơruôih	-6866
▁tơdơ̆ng	-6867
▁tơjrang	-6868
▁tơnơ̆ng	-6869
▁Êliakim	-6870
▁Êliêser	-6871
▁Aminađap	-6872
▁Girgasit	-6873
▁Jahasiêl	-6874
▁Mahalale	-6875
▁Mêtusêla	-6876
▁Nathanel	-6877
▁Phêrêsit	-6878
▁chohjang	-6879
▁pơdrơ̆ng	-6880
▁Jêhôsađak	-6881
▁Sôrôbabel	-6882
▁pơthokhan	-6883
▁Mêlkisêdek	-6884
Bi	-6885
Br	-6886
Bŭ	-6887
DL	-6888
Di	-6889
Hơ	-6890
Jư	-6891
KL	-6892
MT	-6893
PM	-6894
VT	-6895
ck	-6896
ke	-6897
kr	-6898
kê	-6899
kŏ	-6900
nô	-6901
ou	-6902
uo	-6903
we	-6904
yt	-6905
ôg	-6906
ŏu	-6907
ŭc	-6908
▁%	-6909
AND	-6910
Bec	-6911
Hok	-6912
Hơp	-6913
Lăp	-6914
Ngŏ	-6915
Phu	-6916
Pơm	-6917
Rim	-6918
Trŏ	-6919
ahm	-6920
and	-6921
ani	-6922
arh	-6923
ars	-6924
ară	-6925
ben	-6926
blă	-6927
bê̆	-6928
bôa	-6929
băi	-6930
bĕt	-6931
bĭk	-6932
bưu	-6933
cul	-6934
dia	-6935
dơi	-6936
eia	-6937
erơ	-6938
geo	-6939
hul	-6940
jin	-6941
joh	-6942
kal	-6943
kap	-6944
klo	-6945
lek	-6946
lop	-6947
lôk	-6948
lơp	-6949
mas	-6950
mer	-6951
min	-6952
mĕt	-6953
năp	-6954
nău	-6955
nĕk	-6956
nŏk	-6957
nơl	-6958
nưm	-6959
oph	-6960
pat	-6961
phe	-6962
phê	-6963
phŭ	-6964
pit	-6965
rit	-6966
rok	-6967
sak	-6968
sam	-6969
sôn	-6970
trŏ	-6971
tơg	-6972
tơk	-6973
tơm	-6974
uah	-6975
uey	-6976
ura	-6977
yua	-6978
yăo	-6979
yăp	-6980
â̆p	-6981
êkô	-6982
ê̆p	-6983
ôla	-6984
ôre	-6985
ămg	-6986
Đên	-6987
đes	-6988
đăk	-6989
ư̆u	-6990
▁Aw	-6991
▁Bă	-6992
▁Cy	-6993
▁Hy	-6994
▁HƠ	-6995
▁Je	-6996
▁Kŭ	-6997
▁Lô	-6998
▁Lĕ	-6999
▁Mŏ	-7000
▁Ok	-7001
▁Pk	-7002
▁Pê	-7003
▁Pŭ	-7004
▁Re	-7005
▁SO	-7006
▁Su	-7007
▁Să	-7008
▁TW	-7009
▁bŏ	-7010
▁da	-7011
▁jj	-7012
▁jŏ	-7013
▁kt	-7014
▁lŏ	-7015
▁ne	-7016
▁no	-7017
▁ot	-7018
▁pa	-7019
▁ri	-7020
▁tâ	-7021
▁y̆	-7022
▁Êm	-7023
▁Êt	-7024
▁ăl	-7025
▁đă	-7026
▁ƀŏ	-7027
▁Ơi	-7028
▁ơt	-7029
...;	-7030
GDTX	-7031
KHCN	-7032
KTNS	-7033
Maih	-7034
Nhăk	-7035
Nơ̆r	-7036
Nơ̆u	-7037
Phap	-7038
Thôn	-7039
Tuôi	-7040
UBTV	-7041
ahem	-7042
amex	-7043
anhư	-7044
aran	-7045
arip	-7046
athi	-7047
atir	-7048
bloh	-7049
chai	-7050
drei	-7051
druh	-7052
duôh	-7053
dŏng	-7054
dơ̆u	-7055
emat	-7056
gloh	-7057
hioh	-7058
hêra	-7059
hôli	-7060
ihôn	-7061
ikôl	-7062
intô	-7063
inôm	-7064
isga	-7065
itit	-7066
itrơ	-7067
jăng	-7068
kial	-7069
kung	-7070
kêđa	-7071
late	-7072
lơng	-7073
mreh	-7074
muna	-7075
mŏng	-7076
ngus	-7077
ngăh	-7078
nhat	-7079
nhau	-7080
orma	-7081
plĕi	-7082
pran	-7083
thai	-7084
thiơ	-7085
thôl	-7086
tiôs	-7087
tơmo	-7088
uing	-7089
uuôĭ	-7090
êmia	-7091
ôbôt	-7092
ôgel	-7093
ôham	-7094
ôpha	-7095
ôđia	-7096
đơng	-7097
▁Ain	-7098
▁Ami	-7099
▁Bin	-7100
▁Blu	-7101
▁Băp	-7102
▁Bĕt	-7103
▁Chh	-7104
▁Dei	-7105
▁Duh	-7106
▁Ewơ	-7107
▁Gao	-7108
▁Gas	-7109
▁Giđ	-7110
▁Gên	-7111
▁Gôl	-7112
▁Hon	-7113
▁Hŏp	-7114
▁Jut	-7115
▁Jôa	-7116
▁Jôk	-7117
▁Jăl	-7118
▁Jơm	-7119
▁Kla	-7120
▁Koh	-7121
▁Kĭa	-7122
▁Kơi	-7123
▁Kơs	-7124
▁Kư̆	-7125
▁Lôk	-7126
▁Lŭk	-7127
▁Lơp	-7128
▁MHC	-7129
▁Mit	-7130
▁Mum	-7131
▁Mên	-7132
▁Nak	-7133
▁Nga	-7134
▁Nim	-7135
▁Nêt	-7136
▁Pat	-7137
▁Pên	-7138
▁Red	-7139
▁Rei	-7140
▁Rây	-7141
▁Rêk	-7142
▁Rêm	-7143
▁Rơm	-7144
▁Sek	-7145
▁Sra	-7146
▁Sês	-7147
▁Tao	-7148
▁Tia	-7149
▁Toh	-7150
▁Top	-7151
▁Tui	-7152
▁Tum	-7153
▁Tât	-7154
▁Têl	-7155
▁Tô̆	-7156
▁Tăp	-7157
▁Yok	-7158
▁Yêu	-7159
▁Yăh	-7160
▁brĕ	-7161
▁bui	-7162
▁bêk	-7163
▁băi	-7164
▁bưk	-7165
▁bưu	-7166
▁cho	-7167
▁doc	-7168
▁dru	-7169
▁dŭt	-7170
▁gao	-7171
▁ghe	-7172
▁ghê	-7173
▁gĭl	-7174
▁gơk	-7175
▁hep	-7176
▁hiă	-7177
▁hlơ	-7178
▁hmŏ	-7179
▁hol	-7180
▁hơƀ	-7181
▁jam	-7182
▁jat	-7183
▁jră	-7184
▁jĕl	-7185
▁kal	-7186
▁kan	-7187
▁kha	-7188
▁kup	-7189
▁kêo	-7190
▁laĭ	-7191
▁lip	-7192
▁log	-7193
▁luk	-7194
▁lăi	-7195
▁moh	-7196
▁moi	-7197
▁mot	-7198
▁mut	-7199
▁mĕi	-7200
▁mĭr	-7201
▁nak	-7202
▁nao	-7203
▁ngơ	-7204
▁nhu	-7205
▁nuh	-7206
▁nêu	-7207
▁nôĭ	-7208
▁nơi	-7209
▁pan	-7210
▁pôn	-7211
▁pơb	-7212
▁rak	-7213
▁rê̆	-7214
▁rơl	-7215
▁rơ̆	-7216
▁sôi	-7217
▁săk	-7218
▁săn	-7219
▁tem	-7220
▁tha	-7221
▁thơ	-7222
▁toa	-7223
▁tôc	-7224
▁tĕi	-7225
▁tĕk	-7226
▁tŭm	-7227
▁uôh	-7228
▁ver	-7229
▁vĭt	-7230
▁wăt	-7231
▁wĕk	-7232
▁xal	-7233
▁xam	-7234
▁xôn	-7235
▁xăl	-7236
▁yip	-7237
▁yôp	-7238
▁yưm	-7239
▁Êst	-7240
▁Đôr	-7241
▁đeo	-7242
▁đih	-7243
▁đua	-7244
▁đây	-7245
▁đêh	-7246
▁đăh	-7247
▁đăp	-7248
▁đĭu	-7249
▁đơu	-7250
▁ư̆m	-7251
Barra	-7252
Brơ̆m	-7253
Hơpơi	-7254
Mơ̆ng	-7255
Nhŭng	-7256
Pơtao	-7257
asĕch	-7258
barim	-7259
brông	-7260
brŭng	-7261
chiêu	-7262
dơ̆ng	-7263
erơsơ	-7264
iniwe	-7265
iphia	-7266
kalon	-7267
kuĕch	-7268
phong	-7269
pơkau	-7270
pơtho	-7271
ratha	-7272
silai	-7273
thach	-7274
uthun	-7275
yoanh	-7276
êpher	-7277
▁Alê̆	-7278
▁Apơi	-7279
▁Arâp	-7280
▁Aten	-7281
▁Atma	-7282
▁Biog	-7283
▁Biĕm	-7284
▁Blah	-7285
▁Brai	-7286
▁Brŏk	-7287
▁Bêth	-7288
▁Bơng	-7289
▁CHQS	-7290
▁Chih	-7291
▁Chơt	-7292
▁Dach	-7293
▁Danh	-7294
▁Drou	-7295
▁Drơh	-7296
▁Dônh	-7297
▁Gơ̆r	-7298
▁Hara	-7299
▁Hiên	-7300
▁Hiêu	-7301
▁Hlak	-7302
▁Huch	-7303
▁Hăng	-7304
▁Hơnă	-7305
▁Itai	-7306
▁Japh	-7307
▁Jrai	-7308
▁Kanh	-7309
▁Khin	-7310
▁Khăn	-7311
▁Klăn	-7312
▁Kuôc	-7313
▁Kuôk	-7314
▁Kêna	-7315
▁Kêtr	-7316
▁Kôra	-7317
▁Kơna	-7318
▁Lais	-7319
▁Lung	-7320
▁Lơng	-7321
▁Masa	-7322
▁Mati	-7323
▁Milê	-7324
▁Misa	-7325
▁Miên	-7326
▁Mêra	-7327
▁Mêun	-7328
▁Môre	-7329
▁Mơng	-7330
▁Nghê	-7331
▁Nuih	-7332
▁Năng	-7333
▁Pơyô	-7334
▁Qŭ̆t	-7335
▁Raph	-7336
▁Rơih	-7337
▁Saph	-7338
▁Satu	-7339
▁Sisa	-7340
▁Soar	-7341
▁Sual	-7342
▁Suar	-7343
▁Sêma	-7344
▁Sơng	-7345
▁Tanh	-7346
▁Thân	-7347
▁Thôi	-7348
▁Thơi	-7349
▁Tiêm	-7350
▁Tiêp	-7351
▁Urea	-7352
▁Yiên	-7353
▁aduh	-7354
▁adơi	-7355
▁agăl	-7356
▁ajin	-7357
▁anai	-7358
▁anhô	-7359
▁apôm	-7360
▁awah	-7361
▁axit	-7362
▁bham	-7363
▁biơh	-7364
▁blôk	-7365
▁blưk	-7366
▁breh	-7367
▁buơ̆	-7368
▁chek	-7369
▁chia	-7370
▁chik	-7371
▁choc	-7372
▁chôi	-7373
▁chŭc	-7374
▁chơm	-7375
▁cư̆u	-7376
▁drô̆	-7377
▁epha	-7378
▁gach	-7379
▁gioi	-7380
▁giĕn	-7381
▁glip	-7382
▁glĭp	-7383
▁grŏl	-7384
▁grŏn	-7385
▁gơgŭ	-7386
▁hing	-7387
▁hmot	-7388
▁hnuh	-7389
▁hrak	-7390
▁hral	-7391
▁hrei	-7392
▁hril	-7393
▁hyot	-7394
▁hơwo	-7395
▁jiao	-7396
▁jich	-7397
▁jrot	-7398
▁jâng	-7399
▁jơ̆l	-7400
▁kaih	-7401
▁khiê	-7402
▁khân	-7403
▁kiek	-7404
▁kloh	-7405
▁krôp	-7406
▁kuer	-7407
▁kŏch	-7408
▁kŭng	-7409
▁kơhr	-7410
▁kơđe	-7411
▁liĕm	-7412
▁loih	-7413
▁lêng	-7414
▁lĭnh	-7415
▁lươc	-7416
▁mư̆t	-7417
▁ngay	-7418
▁nhăn	-7419
▁nhŏm	-7420
▁nung	-7421
▁nơng	-7422
▁nơ̆u	-7423
▁nươk	-7424
▁paih	-7425
▁pgơl	-7426
▁phok	-7427
▁piêt	-7428
▁pluk	-7429
▁plăk	-7430
▁prai	-7431
▁pram	-7432
▁prot	-7433
▁pruh	-7434
▁puăl	-7435
▁pơdô	-7436
▁pơnŭ	-7437
▁pơră	-7438
▁quyê	-7439
▁rrih	-7440
▁sêng	-7441
▁sông	-7442
▁teng	-7443
▁tenh	-7444
▁thuê	-7445
▁thâp	-7446
▁thâu	-7447
▁trĭu	-7448
▁tăch	-7449
▁tơhr	-7450
▁uơ̆i	-7451
▁vanh	-7452
▁vŏng	-7453
▁wêng	-7454
▁wơih	-7455
▁xê̆p	-7456
▁yông	-7457
▁Êman	-7458
▁Đô̆i	-7459
▁điêl	-7460
▁ƀang	-7461
▁ƀiơ̆	-7462
▁ƀlĭk	-7463
▁ƀônh	-7464
▁ơkâu	-7465
▁Ƀuih	-7466
Pơtơ̆p	-7467
UBTVQH	-7468
ahmêel	-7469
arwaim	-7470
hôliap	-7471
itamin	-7472
jơnang	-7473
phương	-7474
satsar	-7475
thanel	-7476
êsaret	-7477
ôlaôme	-7478
▁Alphê	-7479
▁Angus	-7480
▁Aring	-7481
▁Asong	-7482
▁Atung	-7483
▁Ađaia	-7484
▁BGDĐT	-7485
▁Baala	-7486
▁Bamôt	-7487
▁Bêria	-7488
▁Bêsai	-7489
▁Bêsek	-7490
▁Bơnôh	-7491
▁Bơ̆ng	-7492
▁Ching	-7493
▁Chrah	-7494
▁Chĭng	-7495
▁Dơbưk	-7496
▁Dơnâu	-7497
▁Gitit	-7498
▁Gôsan	-7499
▁Gơ̆ng	-7500
▁Hanun	-7501
▁Harim	-7502
▁Hinôm	-7503
▁Hmăng	-7504
▁Horma	-7505
▁Husai	-7506
▁Husam	-7507
▁Husim	-7508
▁Hêlôn	-7509
▁Hôsêa	-7510
▁Hơlam	-7511
▁Ipsan	-7512
▁Jabin	-7513
▁Jahat	-7514
▁Jêrim	-7515
▁Karea	-7516
▁Khach	-7517
▁Khanh	-7518
▁Khuân	-7519
▁Kisôn	-7520
▁Klang	-7521
▁Kriêm	-7522
▁Kêmôs	-7523
▁Lanhư	-7524
▁Litrơ	-7525
▁Lêwia	-7526
▁Mahla	-7527
▁Mơlŏk	-7528
▁Naara	-7529
▁Nahas	-7530
▁Nhơ̆p	-7531
▁Nêgeo	-7532
▁Phung	-7533
▁Phô̆i	-7534
▁Pisga	-7535
▁Pôtip	-7536
▁Pơgar	-7537
▁Pơlai	-7538
▁Rimôn	-7539
▁Rêhum	-7540
▁Rôgel	-7541
▁Rơneh	-7542
▁Sakur	-7543
▁Sađok	-7544
▁Sepna	-7545
▁Sipôr	-7546
▁Sisăk	-7547
▁Sêlah	-7548
▁Sêlôt	-7549
▁Sêret	-7550
▁Thăng	-7551
▁TuâÊn	-7552
▁Tơbăt	-7553
▁Tơgar	-7554
▁Tơpôl	-7555
▁Tơroi	-7556
▁Wathi	-7557
▁amông	-7558
▁anong	-7559
▁areng	-7560
▁biê̆k	-7561
▁biê̆n	-7562
▁blŏch	-7563
▁brang	-7564
▁brich	-7565
▁bơlưk	-7566
▁bơneh	-7567
▁chiêŭ	-7568
▁châÊn	-7569
▁chĭch	-7570
▁cương	-7571
▁djrăi	-7572
▁drung	-7573
▁drơng	-7574
▁dyong	-7575
▁dơhnă	-7576
▁dơnưp	-7577
▁giăng	-7578
▁glơ̆k	-7579
▁glơ̆m	-7580
▁greng	-7581
▁gơnur	-7582
▁gơsŏk	-7583
▁gư̆ng	-7584
▁hiach	-7585
▁hlăch	-7586
▁hlơ̆k	-7587
▁hngôm	-7588
▁hnhŭk	-7589
▁hniê̆	-7590
▁hring	-7591
▁hrĕch	-7592
▁hrơ̆p	-7593
▁hơkar	-7594
▁hơkăp	-7595
▁hơnhŏ	-7596
▁hơnot	-7597
▁hơpăl	-7598
▁hơrăp	-7599
▁hơtâu	-7600
▁hơtăr	-7601
▁jơdah	-7602
▁jơnoi	-7603
▁jơnăm	-7604
▁khing	-7605
▁khong	-7606
▁khăng	-7607
▁khŏnh	-7608
▁khơ̆h	-7609
▁klŭng	-7610
▁krênh	-7611
▁kyĭng	-7612
▁kơchơ	-7613
▁kơdĭm	-7614
▁kơmăt	-7615
▁kơnăr	-7616
▁kơpla	-7617
▁kơsoh	-7618
▁kơsŭk	-7619
▁kơtoh	-7620
▁kơtĕi	-7621
▁kơƀah	-7622
▁lanhư	-7623
▁leech	-7624
▁loang	-7625
▁muông	-7626
▁ngoăi	-7627
▁ngơ̆n	-7628
▁nhang	-7629
▁nhuân	-7630
▁nhănh	-7631
▁piêng	-7632
▁plaih	-7633
▁pơdal	-7634
▁pơiel	-7635
▁pơkai	-7636
▁pơlao	-7637
▁pơlôh	-7638
▁pơlăk	-7639
▁pơlơh	-7640
▁pơnai	-7641
▁pơnhă	-7642
▁pơpơm	-7643
▁pơrok	-7644
▁pơsau	-7645
▁rơgah	-7646
▁rơgăh	-7647
▁rơpŭk	-7648
▁rơvơn	-7649
▁rơyuh	-7650
▁rơđăh	-7651
▁sriêp	-7652
▁sơlah	-7653
▁thach	-7654
▁theng	-7655
▁thoai	-7656
▁thung	-7657
▁thuôl	-7658
▁tiêng	-7659
▁tơbla	-7660
▁tơgăl	-7661
▁tơhek	-7662
▁tơhnă	-7663
▁tơhum	-7664
▁tơhĭl	-7665
▁tơjê̆	-7666
▁tơlah	-7667
▁tơlê̆	-7668
▁tơnam	-7669
▁tơpih	-7670
▁tơteh	-7671
▁tơƀôh	-7672
▁yuyêt	-7673
▁Êdrei	-7674
▁Êlihu	-7675
▁Êthan	-7676
▁Đibôn	-7677
▁Đô̆ng	-7678
▁đơbưk	-7679
Barthôl	-7680
Becamex	-7681
▁Abarim	-7682
▁Ahiser	-7683
▁Ammiel	-7684
▁Antiôs	-7685
▁Asêria	-7686
▁Asơnat	-7687
▁Binnui	-7688
▁Carben	-7689
▁Gilbôa	-7690
▁Gơnang	-7691
▁Hagrit	-7692
▁Hêpher	-7693
▁Hơkŭng	-7694
▁Hơpuăl	-7695
▁Jêarim	-7696
▁Jêđaia	-7697
▁Jôtham	-7698
▁Kơtĕch	-7699
▁Mathiơ	-7700
▁Mikmas	-7701
▁Nahsôn	-7702
▁Nergal	-7703
▁Niniwe	-7704
▁Nitrat	-7705
▁Pharan	-7706
▁Pơtruh	-7707
▁Pơyơ̆r	-7708
▁Simsai	-7709
▁Sêpher	-7710
▁Sêphôn	-7711
▁Sêthar	-7712
▁Tơlang	-7713
▁Tơlĕch	-7714
▁bơbơ̆t	-7715
▁bơdưng	-7716
▁bơlơ̆k	-7717
▁chơdah	-7718
▁chơgăm	-7719
▁chơgơu	-7720
▁chơkơi	-7721
▁chơpĕt	-7722
▁chơđŏk	-7723
▁dơbŏng	-7724
▁dơnăng	-7725
▁gơhnŏk	-7726
▁gơmơ̆k	-7727
▁gơđông	-7728
▁hngach	-7729
▁hơbông	-7730
▁hơbăng	-7731
▁hơgơ̆m	-7732
▁hơngan	-7733
▁hơpĕch	-7734
▁hơrăng	-7735
▁hơtơng	-7736
▁hơđang	-7737
▁jơdrap	-7738
▁khiê̆u	-7739
▁kodơ̆u	-7740
▁kraoke	-7741
▁kyơ̆ng	-7742
▁kơchon	-7743
▁kơchôt	-7744
▁kơdang	-7745
▁kơdrot	-7746
▁kơhioh	-7747
▁kơmơ̆t	-7748
▁kơpang	-7749
▁kơplăh	-7750
▁kơtech	-7751
▁kơtêch	-7752
▁kơwơng	-7753
▁lơngom	-7754
▁plư̆ng	-7755
▁pơchơt	-7756
▁pơgong	-7757
▁pơjinh	-7758
▁pơkrra	-7759
▁pơlơ̆k	-7760
▁pơnang	-7761
▁pơnhŭl	-7762
▁pơpông	-7763
▁pơrang	-7764
▁pơtuah	-7765
▁pơđang	-7766
▁rơngăt	-7767
▁sơlung	-7768
▁triêng	-7769
▁triê̆u	-7770
▁tơblơ̆	-7771
▁tơdrog	-7772
▁tơgong	-7773
▁tơhiap	-7774
▁tơjrot	-7775
▁tơkong	-7776
▁tơlăng	-7777
▁tơngăm	-7778
▁tơngơ̆	-7779
▁tơnhơĭ	-7780
▁tơpalh	-7781
▁tơpleh	-7782
▁tơtĭnh	-7783
▁tơwang	-7784
▁tơyông	-7785
▁xơkơ̆t	-7786
▁Êphrôn	-7787
▁Đêlaia	-7788
êsalônik	-7789
▁Abinôam	-7790
▁Askalon	-7791
▁Basemat	-7792
▁Benlate	-7793
▁Bêthuel	-7794
▁Bôsênai	-7795
▁Bơgrong	-7796
▁Drănglo	-7797
▁Gêmaria	-7798
▁Hahirôt	-7799
▁Hasabia	-7800
▁Hathach	-7801
▁Hênadat	-7802
▁Hơdrơ̆n	-7803
▁Jêsamôt	-7804
▁Jôiarip	-7805
▁Jôsabat	-7806
▁Kênania	-7807
▁Kôrintô	-7808
▁Maaseia	-7809
▁Makkêđa	-7810
▁Malkija	-7811
▁Mênahem	-7812
▁Phashur	-7813
▁Pherơsơ	-7814
▁Pêrisit	-7815
▁Pơhnŏng	-7816
▁Rêmalia	-7817
▁Salmuna	-7818
▁Sêrahia	-7819
▁Sêrêbia	-7820
▁Tatênai	-7821
▁TƠDRONG	-7822
▁achuing	-7823
▁angiêng	-7824
▁bơkuĕch	-7825
▁chơdŏng	-7826
▁chơgaih	-7827
▁getchai	-7828
▁hmuô̆ch	-7829
▁hơngiap	-7830
▁pơguăng	-7831
▁pơhuach	-7832
▁rơnguơ̆	-7833
▁tơhlông	-7834
▁tơjrông	-7835
▁tơngiêt	-7836
▁tơngơ̆l	-7837
▁Êliasap	-7838
▁Êliphas	-7839
▁Êlisama	-7840
▁Êmanuel	-7841
▁Abinađap	-7842
▁Ađônikam	-7843
▁Barsilai	-7844
▁Jêđuthun	-7845
▁Matithia	-7846
▁Nêthinim	-7847
▁Phêrisit	-7848
▁Sephania	-7849
▁chơhleng	-7850
▁chơnglah	-7851
▁chơnglak	-7852
▁chơnglôk	-7853
▁hơngiăng	-7854
▁tơ̆kpơ̆k	-7855
▁Êlimêlek	-7856
▁Êphratha	-7857
Barthôlêmi	-7858
▁Belsatsar	-7859
▁Gênêsaret	-7860
▁Jêrahmêel	-7861
▁Lêwiathan	-7862
▁Salathiel	-7863
▁Têsalônik	-7864
▁logistics	-7865
▁Êliphêlet	-7866
▁Kêtrôlaôme	-7867
▁Sêpharwaim	-7868
BK	-7869
BQ	-7870
HD	-7871
ca	-7872
BQP	-7873
Bau	-7874
Bôi	-7875
EII	-7876
HYT	-7877
HĐH	-7878
KTN	-7879
Kon	-7880
LVT	-7881
NTT	-7882
Nhi	-7883
Nău	-7884
Phŭ	-7885
Tơr	-7886
UBK	-7887
Yok	-7888
aba	-7889
bip	-7890
blê	-7891
bêđ	-7892
bơĭ	-7893
bưp	-7894
cor	-7895
das	-7896
eda	-7897
eed	-7898
ern	-7899
wl	-7900
ŏi	-7901
beh	-7902
dơĭ	-7903
gup	-7904
gŭl	-7905
hat	-7906
him	-7907
his	-7908
hêl	-7909
idi	-7910
jăp	-7911
kơd	-7912
las	-7913
maw	-7914
mik	-7915
pha	-7916
râu	-7917
rôs	-7918
rôt	-7919
rŭh	-7920
sim	-7921
sip	-7922
sĭk	-7923
tac	-7924
tum	-7925
uma	-7926
wer	-7927
yun	-7928
yŏl	-7929
âÊm	-7930
âÊy	-7931
êik	-7932
ôkô	-7933
đĕn	-7934
ĕin	-7935
ư̆a	-7936
▁El	-7937
▁En	-7938
▁HL	-7939
▁HN	-7940
▁Pe	-7941
▁QC	-7942
▁Qu	-7943
▁WB	-7944
▁WG	-7945
▁Xi	-7946
▁xy	-7947
▁ôi	-7948
▁ĕt	-7949
▁ĭn	-7950
▁Ơk	-7951
▁Ơ̆	-7952
....	-7953
Agar	-7954
Blep	-7955
Chăl	-7956
Dơnŏ	-7957
Gate	-7958
Huch	-7959
Hơdr	-7960
Khan	-7961
Kơdr	-7962
Ngam	-7963
Nhôn	-7964
Rong	-7965
TGAP	-7966
TNMT	-7967
Trân	-7968
VHXH	-7969
agôn	-7970
aiôt	-7971
alti	-7972
alôt	-7973
asin	-7974
asên	-7975
asôn	-7976
bama	-7977
blêt	-7978
blăn	-7979
boim	-7980
breo	-7981
brĕn	-7982
brưm	-7983
bung	-7984
bêra	-7985
bêđê	-7986
bơ̆i	-7987
chô̆	-7988
core	-7989
emôa	-7990
emôt	-7991
ensa	-7992
erit	-7993
gôđa	-7994
iađa	-7995
idim	-7996
ilan	-7997
ilut	-7998
itma	-7999
AM	-8000
nđ	-8001
se	-8002
Biê	-8003
Băk	-8004
Tôp	-8005
aat	-8006
ahu	-8007
gai	-8008
măl	-8009
nni	-8010
nôi	-8011
ohh	-8012
ram	-8013
tih	-8014
đai	-8015
ơpă	-8016
▁Ac	-8017
▁Mn	-8018
▁TH	-8019
▁Tă	-8020
▁gă	-8021
▁ok	-8022
▁tg	-8023
▁va	-8024
▁ôt	-8025
Băng	-8026
Tơpă	-8027
bong	-8028
brơt	-8029
iêch	-8030
jran	-8031
khul	-8032
krao	-8033
lơmo	-8034
muôi	-8035
ngai	-8036
ngăp	-8037
ngơn	-8038
nhip	-8039
nuôl	-8040
nêia	-8041
năng	-8042
ogla	-8043
oing	-8044
oret	-8045
osêr	-8046
phêl	-8047
riok	-8048
rnan	-8049
ruih	-8050
sang	-8051
taco	-8052
tbat	-8053
thim	-8054
trer	-8055
truh	-8056
upha	-8057
vani	-8058
ytop	-8059
yơ̆k	-8060
ôlek	-8061
ôlis	-8062
ôpas	-8063
điel	-8064
ŏ̆ng	-8065
ơnam	-8066
▁'''	-8067
▁...	-8068
▁Aba	-8069
▁Act	-8070
▁Ako	-8071
▁Ana	-8072
▁Arg	-8073
▁Asp	-8074
▁AÊi	-8075
▁BBB	-8076
▁Bis	-8077
▁Bla	-8078
▁Bor	-8079
▁Bêk	-8080
▁Bŏk	-8081
▁Bưu	-8082
▁CNV	-8083
▁Chŭ	-8084
▁Coc	-8085
▁Ghi	-8086
▁Gur	-8087
▁Gut	-8088
▁Hap	-8089
▁Hid	-8090
▁Hre	-8091
▁Hrê	-8092
▁Hrŭ	-8093
▁Hơd	-8094
▁Hơr	-8095
▁IPM	-8096
▁Jađ	-8097
▁Jes	-8098
▁Jot	-8099
IE	-8100
Li	-8101
TH	-8102
do	-8103
jĭ	-8104
mư	-8105
pl	-8106
ww	-8107
wê	-8108
▁;	-8109
CTP	-8110
Hăp	-8111
eoi	-8112
mưĭ	-8113
▁HD	-8114
▁Xơ	-8115
▁sy	-8116
Lăng	-8117
ahôt	-8118
bana	-8119
irim	-8120
isai	-8121
kuôk	-8122
▁Bưa	-8123
▁Gĭt	-8124
▁Jêk	-8125
▁Jĭl	-8126
▁KHư	-8127
▁Kas	-8128
▁Kil	-8129
▁Kiơ	-8130
▁Kuc	-8131
▁Kâp	-8132
▁Kăm	-8133
▁Kŭt	-8134
▁Log	-8135
▁Mip	-8136
▁Mêđ	-8137
▁Mĭr	-8138
▁Mơm	-8139
▁Mưc	-8140
▁Ngư	-8141
▁Nhe	-8142
▁Nôa	-8143
▁Nŭi	-8144
▁Pag	-8145
▁Pjo	-8146
▁Pŭk	-8147
▁Pơs	-8148
▁Riu	-8149
▁Rơp	-8150
▁Sit	-8151
▁Soa	-8152
▁Sră	-8153
▁Sêd	-8154
▁TBR	-8155
▁Til	-8156
▁Tis	-8157
▁Tôc	-8158
▁Tôi	-8159
▁Tôt	-8160
▁UNH	-8161
▁Urê	-8162
▁Usi	-8163
▁Uss	-8164
▁VAC	-8165
▁VIE	-8166
▁Wih	-8167
▁XIX	-8168
▁Xal	-8169
▁Xum	-8170
▁Xŭk	-8171
▁Xơ̆	-8172
▁arư	-8173
▁axi	-8174
▁ađr	-8175
▁bla	-8176
▁bom	-8177
▁bor	-8178
▁bâk	-8179
▁bâp	-8180
▁bău	-8181
▁bŭl	-8182
▁geh	-8183
▁goc	-8184
▁gok	-8185
▁gop	-8186
▁gôđ	-8187
▁găl	-8188
▁gĕr	-8189
▁gŏl	-8190
▁gơi	-8191
▁gưp	-8192
▁heh	-8193
▁hiê	-8194
▁hnư	-8195
▁huê	-8196
▁hĭu	-8197
▁jjn	-8198
▁jjo	-8199
,'	-8200
Gô	-8201
Hu	-8202
Nă	-8203
PL	-8204
Sư	-8205
lĕ	-8206
tŏ	-8207
uơ	-8208
vơ	-8209
Đê	-8210
▁)	-8211
Măn	-8212
Roi	-8213
Sơ̆	-8214
lơn	-8215
oat	-8216
tan	-8217
Êân	-8218
âÊu	-8219
▁Ir	-8220
▁Jj	-8221
▁SP	-8222
▁YÊ	-8223
▁Êk	-8224
plei	-8225
▁Bêb	-8226
▁Bơu	-8227
▁Jah	-8228
▁Kir	-8229
▁Lau	-8230
▁Mĭn	-8231
▁Tôn	-8232
▁Yŏk	-8233
▁aah	-8234
▁ană	-8235
▁gei	-8236
▁jot	-8237
▁jâp	-8238
▁jăp	-8239
▁jưv	-8240
▁kaĭ	-8241
▁kdơ	-8242
▁klĭ	-8243
▁knă	-8244
▁kot	-8245
▁kêl	-8246
▁kăc	-8247
▁lek	-8248
▁lon	-8249
▁luh	-8250
▁lây	-8251
▁lêl	-8252
▁meu	-8253
▁mĭu	-8254
▁ngi	-8255
▁nhŭ	-8256
▁noi	-8257
▁năn	-8258
▁nĕt	-8259
▁nŏn	-8260
▁pek	-8261
▁plu	-8262
▁pum	-8263
▁pôt	-8264
▁pĕh	-8265
▁quă	-8266
▁quĭ	-8267
▁ran	-8268
▁rek	-8269
▁ron	-8270
▁sip	-8271
▁sun	-8272
▁sưh	-8273
▁ten	-8274
▁tic	-8275
▁tim	-8276
▁tok	-8277
▁tău	-8278
▁tơv	-8279
▁ure	-8280
▁ven	-8281
▁vng	-8282
▁vui	-8283
▁wêk	-8284
▁wôi	-8285
▁xră	-8286
▁xŭc	-8287
▁xơm	-8288
▁yĭn	-8289
▁Êth	-8290
▁ănh	-8291
▁Đeh	-8292
▁Đôe	-8293
▁đoc	-8294
▁đoo	-8295
▁đê̆	-8296
▁đăy	-8297
▁Ơ̆i	-8298
▁ơdr	-8299
AT	-8300
EI	-8301
PS	-8302
jơ	-8303
lơ	-8304
rŏ	-8305
sô	-8306
êg	-8307
ĕh	-8308
''.	-8309
GPS	-8310
Yĕr	-8311
bei	-8312
bră	-8313
hro	-8314
ima	-8315
kôm	-8316
mua	-8317
yan	-8318
yem	-8319
ôen	-8320
đim	-8321
▁Ei	-8322
▁Hư	-8323
▁Ke	-8324
▁TR	-8325
▁xŏ	-8326
Chro	-8327
amal	-8328
atit	-8329
beng	-8330
brel	-8331
▁Gar	-8332
▁Sei	-8333
▁dư̆	-8334
▁kim	-8335
▁ngă	-8336
▁pur	-8337
▁tiĕ	-8338
▁trâ	-8339
▁xăh	-8340
▁yui	-8341
▁yŭn	-8342
▁Đin	-8343
▁Đôn	-8344
▁đơg	-8345
▁ơpi	-8346
▁ơ̆l	-8347
▁ơ̆m	-8348
▁Ƀum	-8349
Adrol	-8350
HCHXH	-8351
Kơdih	-8352
Opuôn	-8353
Phong	-8354
Pơnam	-8355
SGDĐT	-8356
Thiêu	-8357
Trong	-8358
Tơgŭm	-8359
UBKTT	-8360
adruh	-8361
aksat	-8362
aland	-8363
apern	-8364
araim	-8365
arsis	-8366
badia	-8367
bakuk	-8368
balat	-8369
beria	-8370
biĕng	-8371
blenh	-8372
blêam	-8373
blăng	-8374
brơ̆k	-8375
ccine	-8376
chđeh	-8377
deôni	-8378
droch	-8379
drogn	-8380
ehiel	-8381
eliôt	-8382
ethan	-8383
grông	-8384
gôtha	-8385
hêlôt	-8386
iGate	-8387
ildat	-8388
iriam	-8389
istep	-8390
ithit	-8391
iê̆ng	-8392
krong	-8393
kơjăp	-8394
kơtam	-8395
lasma	-8396
lower	-8397
mawet	-8398
mơthê	-8399
AI	-8400
CV	-8401
nc	-8402
vn	-8403
wă	-8404
Hŏk	-8405
Phi	-8406
rĕi	-8407
woh	-8408
êhi	-8409
▁CP	-8410
▁Hŭ	-8411
▁Sr	-8412
▁oi	-8413
▁pe	-8414
▁wi	-8415
▁xô	-8416
Nông	-8417
acng	-8418
akăl	-8419
hang	-8420
kran	-8421
orai	-8422
phau	-8423
yong	-8424
▁Jơl	-8425
▁Keo	-8426
▁Pok	-8427
▁Sum	-8428
▁Tôp	-8429
▁ade	-8430
▁blŭ	-8431
▁cah	-8432
▁kŭy	-8433
▁mal	-8434
▁wăl	-8435
▁wăr	-8436
▁yăm	-8437
▁Đat	-8438
▁đôh	-8439
ailer	-8440
nguah	-8441
nhuăl	-8442
peran	-8443
rabim	-8444
resol	-8445
sabat	-8446
sương	-8447
tbata	-8448
tơgŭm	-8449
tơkôt	-8450
uchia	-8451
uyê̆t	-8452
êhata	-8453
êikơl	-8454
êkôđa	-8455
êniel	-8456
êsarê	-8457
êđaia	-8458
ôenai	-8459
ơhnar	-8460
ơplah	-8461
▁Adôn	-8462
▁Agri	-8463
▁Ahiô	-8464
▁Aiya	-8465
▁Akan	-8466
▁Akup	-8467
▁Akôr	-8468
▁Aleh	-8469
▁Alêm	-8470
▁Anat	-8471
▁Apôl	-8472
▁Arba	-8473
▁Asan	-8474
▁Asur	-8475
▁Ater	-8476
▁Athu	-8477
▁Aton	-8478
▁Awen	-8479
▁Awit	-8480
▁Ayun	-8481
▁Ađar	-8482
▁BHYT	-8483
▁Bong	-8484
▁Buki	-8485
▁Buăl	-8486
▁Bêrê	-8487
▁Bơgh	-8488
▁CNTT	-8489
▁CNVC	-8490
▁Chŭn	-8491
▁Chơđ	-8492
▁Cocv	-8493
▁Diên	-8494
▁Dual	-8495
▁Dunh	-8496
▁Erih	-8497
▁Gaas	-8498
▁Grơ̆	-8499
Yư	-8500
hl	-8501
Oei	-8502
aôl	-8503
bua	-8504
iơl	-8505
ria	-8506
Ênh	-8507
ĭtơ	-8508
▁ML	-8509
▁MX	-8510
▁Ni	-8511
▁ăt	-8512
▁ĭt	-8513
Kinh	-8514
Kŭ̆t	-8515
agưm	-8516
apua	-8517
biêh	-8518
drôn	-8519
isôp	-8520
liêm	-8521
▁Bơr	-8522
▁Duy	-8523
▁Hŭt	-8524
▁Kăi	-8525
▁Lok	-8526
▁Mua	-8527
▁Nên	-8528
▁Pơn	-8529
▁cem	-8530
▁hlŭ	-8531
▁lĕm	-8532
▁lŏk	-8533
▁tŭr	-8534
▁xĭt	-8535
▁đep	-8536
elila	-8537
quyêt	-8538
thanh	-8539
thông	-8540
▁Anak	-8541
▁Gơ̆n	-8542
▁HDND	-8543
▁Hamm	-8544
▁Hađa	-8545
▁Hlăm	-8546
▁Huri	-8547
▁Hôsa	-8548
▁Hơkô	-8549
▁Jaar	-8550
▁Jaas	-8551
▁Japa	-8552
▁Japn	-8553
▁Jađô	-8554
▁Jjuô	-8555
▁Juăt	-8556
▁Kali	-8557
▁Katm	-8558
▁Khao	-8559
▁Khuy	-8560
▁Khơr	-8561
▁Khơĭ	-8562
▁Klot	-8563
▁Kôih	-8564
▁Kămp	-8565
▁LLVT	-8566
▁LĐTB	-8567
▁Lơ̆p	-8568
▁Makb	-8569
▁Mara	-8570
▁Maôn	-8571
▁Mikd	-8572
▁Muih	-8573
▁Mêhu	-8574
▁Mêđi	-8575
▁Mămg	-8576
▁Neng	-8577
▁Ngoc	-8578
▁Ngăc	-8579
▁Nhin	-8580
▁Nhun	-8581
▁Niên	-8582
▁Nêph	-8583
▁Pang	-8584
▁Prah	-8585
▁Prăh	-8586
▁Puăl	-8587
▁Pêth	-8588
▁PĂNG	-8589
▁Pơga	-8590
▁Pơle	-8591
▁QCVN	-8592
▁Quyê	-8593
▁QĐND	-8594
▁REII	-8595
▁Risa	-8596
▁Saal	-8597
▁Sabê	-8598
▁Silơ	-8599
yi	-8600
Ăn	-8601
Lê̆	-8602
bĭn	-8603
jên	-8604
lut	-8605
rep	-8606
wal	-8607
▁VH	-8608
emia	-8609
nhôi	-8610
reng	-8611
ukan	-8612
wơ̆i	-8613
xŏng	-8614
▁Căn	-8615
▁Ism	-8616
▁Joh	-8617
▁Jơ̆	-8618
▁Kôl	-8619
▁Per	-8620
▁Phĭ	-8621
▁Răk	-8622
▁Ser	-8623
▁Sưu	-8624
▁Vih	-8625
▁ale	-8626
▁bay	-8627
▁bôm	-8628
▁bơr	-8629
▁huơ	-8630
▁jar	-8631
▁kuô	-8632
▁kăh	-8633
▁mân	-8634
▁nhơ	-8635
▁sal	-8636
▁tên	-8637
▁weo	-8638
▁yŏk	-8639
Tơroi	-8640
atuch	-8641
dêbar	-8642
enlut	-8643
▁Bênê	-8644
▁Băng	-8645
▁Chum	-8646
▁Dech	-8647
▁Jung	-8648
▁Ranh	-8649
▁Siôr	-8650
▁Sêan	-8651
▁Sôkô	-8652
▁Sôra	-8653
▁TAND	-8654
▁Thay	-8655
▁Thâm	-8656
▁Thê̆	-8657
▁Thôn	-8658
▁Thôt	-8659
▁Tral	-8660
▁Trưk	-8661
▁Têma	-8662
▁Tơdă	-8663
▁Unni	-8664
▁Urim	-8665
▁Vang	-8666
▁Vươn	-8667
▁Xuan	-8668
▁Xŏng	-8669
▁YôlI	-8670
▁Yơ̆r	-8671
▁abĕn	-8672
▁adon	-8673
▁agar	-8674
▁akuk	-8675
▁amih	-8676
▁amin	-8677
▁amnĕ	-8678
▁apăl	-8679
▁arah	-8680
▁arĕn	-8681
▁asai	-8682
▁asiu	-8683
▁asău	-8684
▁bieu	-8685
▁bloh	-8686
▁blâm	-8687
▁blŏk	-8688
▁brom	-8689
▁buôl	-8690
▁bông	-8691
▁bŭch	-8692
▁bơdŏ	-8693
▁bơuh	-8694
▁bư̆a	-8695
▁cher	-8696
▁chhŏ	-8697
▁choi	-8698
▁chok	-8699
yĕ	-8700
,''	-8701
bôk	-8702
iĕl	-8703
mŭm	-8704
pơl	-8705
rau	-8706
êha	-8707
ĐTN	-8708
Đôi	-8709
▁că	-8710
▁ui	-8711
▁wa	-8712
▁ăo	-8713
▁ŭk	-8714
Lơ̆p	-8715
Viên	-8716
bôch	-8717
miêu	-8718
thôn	-8719
êtur	-8720
▁Bit	-8721
▁Cho	-8722
▁Căt	-8723
▁Nho	-8724
▁Sêk	-8725
▁Sôh	-8726
▁bat	-8727
▁côi	-8728
▁het	-8729
▁jen	-8730
▁kiĕ	-8731
▁paĭ	-8732
▁Đôk	-8733
▁đĭn	-8734
apung	-8735
ophil	-8736
pơlei	-8737
▁Arat	-8738
▁Biên	-8739
▁Hinh	-8740
▁Inha	-8741
▁Jơva	-8742
▁Jơ̆p	-8743
▁Klah	-8744
▁Moih	-8745
▁Plah	-8746
▁Têra	-8747
▁Tơdr	-8748
▁Tơ̆n	-8749
▁blăn	-8750
▁bruh	-8751
▁brơu	-8752
▁bơlă	-8753
▁chap	-8754
▁chor	-8755
▁chru	-8756
▁chră	-8757
▁chuô	-8758
▁châm	-8759
▁chăm	-8760
▁chăn	-8761
▁chŭp	-8762
▁chŭr	-8763
▁diêl	-8764
▁djăh	-8765
▁drŏk	-8766
▁drơu	-8767
▁dơnu	-8768
▁game	-8769
▁giaĭ	-8770
▁giư̆	-8771
▁glah	-8772
▁grêh	-8773
▁grôi	-8774
▁grôl	-8775
▁grăm	-8776
▁grăn	-8777
▁găng	-8778
▁gơgŏ	-8779
▁heta	-8780
▁hhei	-8781
▁hhĕi	-8782
▁hiup	-8783
▁hiêp	-8784
▁hiê̆	-8785
▁hiĕm	-8786
▁hiĕt	-8787
▁hlom	-8788
▁hlŭt	-8789
▁hnưr	-8790
▁hrĕk	-8791
▁hrĕp	-8792
▁huôt	-8793
▁hyôi	-8794
▁hŏch	-8795
▁hơbu	-8796
▁jiat	-8797
▁jinh	-8798
▁jrơi	-8799
ud	-8800
vi	-8801
Blă	-8802
bât	-8803
bôl	-8804
dap	-8805
▁bŭ	-8806
brăm	-8807
êsia	-8808
Đoan	-8809
▁Hel	-8810
▁Kum	-8811
▁Kŭk	-8812
▁Lus	-8813
▁Tah	-8814
▁Vai	-8815
▁bul	-8816
▁bur	-8817
▁bât	-8818
▁bô̆	-8819
▁bĭa	-8820
▁kdư	-8821
▁kul	-8822
▁lưa	-8823
▁nô̆	-8824
▁oăi	-8825
▁rô̆	-8826
▁tua	-8827
▁vês	-8828
▁vêt	-8829
▁wen	-8830
▁yap	-8831
▁yoa	-8832
▁đac	-8833
▁đek	-8834
bôlêt	-8835
ngang	-8836
▁Adin	-8837
▁Cach	-8838
▁Kach	-8839
▁Phuk	-8840
▁Sang	-8841
▁Sưng	-8842
▁brăm	-8843
▁chal	-8844
▁chăc	-8845
▁gioh	-8846
▁giăm	-8847
▁hiot	-8848
▁hoăn	-8849
▁hyơl	-8850
▁jroh	-8851
▁jăgn	-8852
▁jơhh	-8853
▁jơng	-8854
▁jơrô	-8855
▁kenh	-8856
▁khen	-8857
▁khoe	-8858
▁khuă	-8859
▁khuĕ	-8860
▁khêo	-8861
▁khơh	-8862
▁khơr	-8863
▁king	-8864
▁kiêl	-8865
▁kkon	-8866
▁klen	-8867
▁klik	-8868
▁klon	-8869
▁klăh	-8870
▁kreo	-8871
▁krăk	-8872
▁kuet	-8873
▁kuôl	-8874
▁kô̆t	-8875
▁kơbĭ	-8876
▁kơdu	-8877
▁kơka	-8878
▁kơkl	-8879
▁kơma	-8880
▁kơsu	-8881
▁kơsŏ	-8882
▁kơte	-8883
▁kơwă	-8884
▁lăch	-8885
▁lŭch	-8886
▁lơmŏ	-8887
▁lưoi	-8888
▁meng	-8889
▁mina	-8890
▁mơch	-8891
▁mơhl	-8892
▁ngal	-8893
▁nghe	-8894
▁nguy	-8895
▁ngôh	-8896
▁ngŏi	-8897
▁ngơr	-8898
▁nhat	-8899
CN	-8900
Bet	-8901
Ren	-8902
ena	-8903
gan	-8904
itơ	-8905
ơgn	-8906
▁Gn	-8907
▁Vê	-8908
▁sŭ	-8909
biao	-8910
dung	-8911
lung	-8912
êmôt	-8913
ôlit	-8914
▁Băk	-8915
▁Chơ	-8916
▁Kôs	-8917
▁Lơĭ	-8918
▁Mơu	-8919
▁Phă	-8920
▁Păk	-8921
▁Rai	-8922
▁cov	-8923
▁dia	-8924
▁kut	-8925
▁mơi	-8926
▁sôk	-8927
▁top	-8928
▁têk	-8929
▁đưk	-8930
asong	-8931
dasur	-8932
êhasi	-8933
▁Aksa	-8934
▁Chua	-8935
▁Chŭk	-8936
▁Irat	-8937
▁Juei	-8938
▁Kbăl	-8939
▁Khêl	-8940
▁Ngay	-8941
▁Phal	-8942
▁Rơng	-8943
▁Sier	-8944
▁Tran	-8945
▁Vĭnh	-8946
▁bơdê	-8947
▁chen	-8948
▁chân	-8949
▁chĭh	-8950
▁dĕng	-8951
▁dŭng	-8952
▁dơ̆u	-8953
▁hlăk	-8954
▁hrul	-8955
▁hŭ̆t	-8956
▁hơda	-8957
▁hơtă	-8958
▁jênm	-8959
▁luĕl	-8960
▁mơdr	-8961
▁nhek	-8962
▁nhip	-8963
▁nhĕt	-8964
▁noio	-8965
▁nong	-8966
▁nuôĭ	-8967
▁nô̆p	-8968
▁nơ̆m	-8969
▁okơu	-8970
▁panô	-8971
▁phau	-8972
▁phen	-8973
▁phĭn	-8974
▁phơĭ	-8975
▁phưc	-8976
▁pieu	-8977
▁ploi	-8978
▁plŭk	-8979
▁plơk	-8980
▁ponh	-8981
▁prau	-8982
▁prĭt	-8983
▁puôt	-8984
▁pơgl	-8985
▁pơlă	-8986
▁pơăn	-8987
▁pươm	-8988
▁quat	-8989
▁rTôp	-8990
▁riê̆	-8991
▁roch	-8992
▁ruôh	-8993
▁râng	-8994
▁rênh	-8995
▁rĕng	-8996
▁rơch	-8997
▁rơga	-8998
▁rơhi	-8999
Bin	-9000
nưt	-9001
yơĭ	-9002
▁eh	-9003
dinh	-9004
▁bau	-9005
▁găi	-9006
▁klu	-9007
▁nêt	-9008
▁ria	-9009
▁rin	-9010
▁sin	-9011
▁sêp	-9012
▁alăh	-9013
▁bĕnh	-9014
▁hech	-9015
▁krêl	-9016
▁rơvo	-9017
▁rơ̆n	-9018
▁siêm	-9019
▁soch	-9020
▁srah	-9021
▁suek	-9022
▁supe	-9023
▁sĭch	-9024
▁sơke	-9025
▁sơnă	-9026
▁sơ̆i	-9027
▁sư̆t	-9028
▁tach	-9029
▁tgum	-9030
▁thep	-9031
▁thio	-9032
▁thuk	-9033
▁thăp	-9034
▁thơu	-9035
▁trih	-9036
▁truk	-9037
▁trâp	-9038
▁trôi	-9039
▁trơi	-9040
▁trơĭ	-9041
▁tâ̆p	-9042
▁tơbŏ	-9043
▁tơra	-9044
▁tơsu	-9045
▁tươĭ	-9046
▁uBND	-9047
▁uyên	-9048
▁văng	-9049
▁vĕch	-9050
▁vơ̆r	-9051
▁wing	-9052
▁wŏng	-9053
▁wơ̆r	-9054
▁xich	-9055
▁xŭng	-9056
▁xơdư	-9057
▁xưng	-9058
▁yălo	-9059
▁yưal	-9060
▁Êbal	-9061
▁Êbet	-9062
▁Êmim	-9063
▁Ênan	-9064
▁Êtam	-9065
▁đach	-9066
▁đanh	-9067
▁điêp	-9068
▁đuôn	-9069
▁đuăn	-9070
▁ƀlŏk	-9071
▁ƀuih	-9072
▁ơtol	-9073
▁ơĭtơ	-9074
Adrĕch	-9075
Adrĭng	-9076
Hơdrol	-9077
Kơplah	-9078
Pơgloh	-9079
Thương	-9080
UBKTTW	-9081
arađan	-9082
ealand	-9083
edatha	-9084
ehieli	-9085
iathim	-9086
ikôlat	-9087
iramôt	-9088
isadai	-9089
khoang	-9090
kơting	-9091
luô̆ch	-9092
nhơnăm	-9093
osêrôt	-9094
thania	-9095
uricul	-9096
êkônia	-9097
êlêmia	-9098
êsurun	-9099
▁Adruh	-9100
▁Agate	-9101
▁Akanh	-9102
▁Aksip	-9103
▁Amram	-9104
▁Amăng	-9105
▁Apôlê	-9106
▁Argôp	-9107
▁Ariok	-9108
▁Arpat	-9109
▁Asaia	-9110
▁Asiêl	-9111
▁Asmôn	-9112
▁Asuba	-9113
▁Atroi	-9114
▁Biang	-9115
▁Bioga	-9116
▁Breed	-9117
▁Bêbai	-9118
▁Bêker	-9119
▁Bêrôt	-9120
▁Bêser	-9121
▁Bôhan	-9122
▁Bôsra	-9123
▁Bơghe	-9124
▁Bơnăr	-9125
▁Bơwei	-9126
▁Chhôk	-9127
▁Chong	-9128
▁Chruh	-9129
▁Chrŭh	-9130
▁Chơng	-9131
▁Cương	-9132
▁Dagôn	-9133
▁Dơnol	-9134
▁Galal	-9135
▁Gamal	-9136
▁Gases	-9137
▁Giang	-9138
▁Gihôn	-9139
▁Giđêl	-9140
▁Halak	-9141
▁Hasum	-9142
▁Hawôt	-9143
▁Hiŏng	-9144
▁Hogla	-9145
▁Hopni	-9146
▁Hrôih	-9147
▁Hêber	-9148
▁Hêres	-9149
▁Hơdah	-9150
▁Hơdra	-9151
▁Hơdôm	-9152
▁Hơmet	-9153
▁Hơpah	-9154
▁Hơpăh	-9155
▁Hơvơn	-9156
▁Hơyuh	-9157
▁Jabal	-9158
▁Jakan	-9159
▁Jarôa	-9160
▁Jatir	-9161
▁Jađua	-9162
▁Jiađa	-9163
▁Jorai	-9164
▁Jêtur	-9165
▁Kalah	-9166
▁Keila	-9167
▁Khung	-9168
▁Khuôĭ	-9169
▁Khŭ̆n	-9170
▁Klơ̆p	-9171
▁Kring	-9172
▁Kueng	-9173
▁Kơdâu	-9174
▁Kơdơi	-9175
▁Kơpen	-9176
▁Lepid	-9177
▁Lơliơ	-9178
▁Methu	-9179
▁Mikel	-9180
▁Milka	-9181
▁Mnông	-9182
▁Mêlek	-9183
▁Mêphi	-9184
▁Mêrôm	-9185
▁Mơlek	-9186
▁Naama	-9187
▁Ngohh	-9188
▁Ngươc	-9189
▁Nhiêt	-9190
▁NhâÊt	-9191
▁Nhơ̆n	-9192
▁Ohôli	-9193
▁Padan	-9194
▁Paran	-9195
▁Phiêu	-9196
▁Phura	-9197
▁Pêlêt	-9198
▁Pơang	-9199
▁Pơdăr	-9200
▁Pơgĕi	-9201
▁Pơhlŭ	-9202
▁Pơlơk	-9203
▁Pơtŏl	-9204
▁Raham	-9205
▁Rapha	-9206
▁Ribla	-9207
▁Rimon	-9208
▁Ritma	-9209
▁Rêkap	-9210
▁Rêphi	-9211
▁Rơvơn	-9212
▁Sakai	-9213
▁Salem	-9214
▁Samri	-9215
▁Sanôa	-9216
▁Sapđi	-9217
▁Sarôn	-9218
▁Score	-9219
▁Sidim	-9220
▁Simêa	-9221
▁Sitim	-9222
▁Srơ̆p	-9223
▁Sêgup	-9224
▁Sênir	-9225
▁Sêpha	-9226
▁Sêsai	-9227
▁Sôbap	-9228
▁Sôhak	-9229
▁Tabôr	-9230
▁Tahat	-9231
▁Tanak	-9232
▁Thađê	-9233
▁Thiêu	-9234
▁Thêma	-9235
▁Thươn	-9236
▁Tisĭk	-9237
▁Trach	-9238
▁Triph	-9239
▁Triêu	-9240
▁Tơduă	-9241
▁Tơgơ̆	-9242
▁Tơlok	-9243
▁Tơmưt	-9244
▁Tơpai	-9245
▁Ussia	-9246
▁Vương	-9247
▁Xơkat	-9248
▁abrĕn	-9249
▁ading	-9250
▁adrăn	-9251
▁aluôh	-9252
▁amuô̆	-9253
▁anhul	-9254
▁apach	-9255
▁aping	-9256
▁apŭng	-9257
▁arĕnh	-9258
▁athoi	-9259
▁biŏng	-9260
▁bling	-9261
▁blong	-9262
▁bodơĭ	-9263
▁boong	-9264
▁brêng	-9265
▁brông	-9266
▁bđơng	-9267
▁bơdal	-9268
▁bơlah	-9269
▁bơlai	-9270
▁bơlau	-9271
▁bơnăt	-9272
▁chere	-9273
▁chhut	-9274
▁choph	-9275
▁chĕng	-9276
▁chơla	-9277
▁chưak	-9278
▁chươg	-9279
▁cô̆ng	-9280
▁drang	-9281
▁drech	-9282
▁dring	-9283
▁drêch	-9284
▁dơbuk	-9285
▁dơgal	-9286
▁dơgơ̆	-9287
▁dơnê̆	-9288
▁gieng	-9289
▁gkong	-9290
▁glarh	-9291
▁gling	-9292
▁goang	-9293
▁grŏng	-9294
▁grŏnh	-9295
▁grơng	-9296
▁gơdah	-9297
▁gơdăp	-9298
▁gơlaĭ	-9299
▁gơsoh	-9300
▁gơsum	-9301
▁hađĕn	-9302
▁hlung	-9303
▁hluôt	-9304
▁hlĕng	-9305
▁hlơ̆l	-9306
▁hmenh	-9307
▁hnamd	-9308
▁hnhoi	-9309
▁hnhăi	-9310
▁hoang	-9311
▁hoăch	-9312
▁hrong	-9313
▁hrông	-9314
▁hrĭng	-9315
▁huĭnh	-9316
▁huơ̆t	-9317
▁hơbal	-9318
▁hơhei	-9319
▁hơhĕi	-9320
▁hơjăl	-9321
▁hơlak	-9322
▁hơlêm	-9323
▁hơlôk	-9324
▁hơmôl	-9325
▁hơnĭl	-9326
▁hơpok	-9327
▁hơrăk	-9328
▁hơtŭk	-9329
▁hơtŭm	-9330
▁hơxei	-9331
▁hơyak	-9332
▁hơđuh	-9333
▁hơƀăp	-9334
▁jokot	-9335
▁jrang	-9336
▁jrĕnh	-9337
▁jrŭng	-9338
▁jơmul	-9339
▁jơnuh	-9340
▁jương	-9341
▁jươ̆k	-9342
▁khhul	-9343
▁khiêu	-9344
▁khonh	-9345
▁kiơng	-9346
▁klăng	-9347
▁koang	-9348
▁kopwl	-9349
▁kraih	-9350
▁kring	-9351
▁krung	-9352
▁krô̆i	-9353
▁krŏng	-9354
▁krŭng	-9355
▁kuĕnh	-9356
▁kô̆ng	-9357
▁kơchŏ	-9358
▁kơdĭh	-9359
▁kơkan	-9360
▁kơlah	-9361
▁kơlăp	-9362
▁kơlŭk	-9363
▁kơlŭt	-9364
▁kơmar	-9365
▁kơmon	-9366
▁kơmot	-9367
▁kơmăp	-9368
▁kơmưt	-9369
▁kơnhă	-9370
▁kơnia	-9371
▁kơnôm	-9372
▁kơtah	-9373
▁kơtam	-9374
▁kơtrŏ	-9375
▁kơyal	-9376
▁kơyuô	-9377
▁kơđih	-9378
▁kơđŏh	-9379
▁luơ̆t	-9380
▁lơlơl	-9381
▁lơmek	-9382
▁lơnga	-9383
▁malai	-9384
▁maowi	-9385
▁mơkoh	-9386
▁mơmaĭ	-9387
▁mơsơ̆	-9388
▁nghêp	-9389
▁nghĭm	-9390
▁ngiêp	-9391
▁nhưng	-9392
▁nơ̆ng	-9393
▁phaan	-9394
▁phich	-9395
▁pjran	-9396
▁plech	-9397
▁plôih	-9398
▁plŏng	-9399
▁prann	-9400
▁preng	-9401
▁pruih	-9402
▁pơbăh	-9403
▁pơdoh	-9404
▁pơdro	-9405
▁pơdôr	-9406
▁pơgit	-9407
▁pơgol	-9408
▁pơguo	-9409
▁pơgưl	-9410
▁pơhôp	-9411
▁pơlah	-9412
▁pơluk	-9413
▁pơlôm	-9414
▁pơlăp	-9415
▁pơmâu	-9416
▁pơnah	-9417
▁pơnih	-9418
▁pơsum	-9419
▁pơteo	-9420
▁pơtâu	-9421
▁pơvih	-9422
▁pơxuh	-9423
▁pơxĕl	-9424
▁rơbot	-9425
▁rơhau	-9426
▁rơmoi	-9427
▁rơ̆ng	-9428
▁silic	-9429
▁sođah	-9430
▁sring	-9431
▁super	-9432
▁suplơ	-9433
▁tahei	-9434
▁takơl	-9435
▁taluy	-9436
▁thacc	-9437
▁thâÊm	-9438
▁treng	-9439
▁trăng	-9440
▁trŏng	-9441
▁tuâ̆n	-9442
▁tuôih	-9443
▁tơbưk	-9444
▁tơdap	-9445
▁tơdui	-9446
▁tơgel	-9447
▁tơgop	-9448
▁tơhna	-9449
▁tơjil	-9450
▁tơjot	-9451
▁tơkai	-9452
▁tơkăp	-9453
▁tơkơn	-9454
▁tơkơĭ	-9455
▁tơkưu	-9456
▁tơlir	-9457
▁tơlôp	-9458
▁tơmal	-9459
▁tơman	-9460
▁tơmar	-9461
▁tơmuh	-9462
▁tơnai	-9463
▁tơnen	-9464
▁tơnhư	-9465
▁tơnpa	-9466
▁tơnăi	-9467
▁tơnăn	-9468
▁tơnơl	-9469
▁tơpau	-9470
▁tơpol	-9471
▁tơpăi	-9472
▁tơpăr	-9473
▁tơrih	-9474
▁tơsĕr	-9475
▁tơtôn	-9476
▁tơyăn	-9477
▁xuâÊt	-9478
▁xơmăt	-9479
▁xơnêp	-9480
▁xương	-9481
▁yiê̆n	-9482
▁yoing	-9483
▁Êliel	-9484
▁Đêkap	-9485
▁Đêuel	-9486
▁điê̆p	-9487
▁đư̆ng	-9488
▁ƀlŏng	-9489
BLĐTBXH	-9490
Kơdrăng	-9491
SLĐTBXH	-9492
apernum	-9493
▁Abidan	-9494
▁Abisua	-9495
▁Abrôna	-9496
▁Achăng	-9497
▁Actara	-9498
▁Adrech	-9499
▁Adrơ̆u	-9500
▁Adôram	-9501
▁Agripa	-9502
▁Ahilut	-9503
▁Ahiman	-9504
▁Alêmet	-9505
▁Amaria	-9506
▁Anahôt	-9507
▁Anakim	-9508
▁Antaco	-9509
▁Apđiel	-9510
▁Asalia	-9511
▁Asarel	-9512
▁Asasên	-9513
▁Atonic	-9514
▁Ađulam	-9515
▁Ađumim	-9516
▁Bakbuk	-9517
▁Bildat	-9518
▁Brơ̆ng	-9519
▁Bêtsan	-9520
▁Cocvid	-9521
▁Gabrel	-9522
▁Galaat	-9523
▁Galati	-9524
▁Geliôt	-9525
▁Gêhasi	-9526
▁Gêđêra	-9527
▁Gơwang	-9528
▁Harada	-9529
▁Hôsaia	-9530
▁Hơdrei	-9531
▁Hơmrŭk	-9532
▁Hơnong	-9533
▁Hươ̆ng	-9534
▁Iblêam	-9535
▁Japhet	-9536
▁Jarmut	-9537
▁Jeboim	-9538
▁Jêhuđi	-9539
▁Jêrija	-9540
▁Jêsaia	-9541
▁Jêther	-9542
▁Jơlơ̆m	-9543
▁Kenlut	-9544
▁Khuyên	-9545
▁Kidrôn	-9546
▁Kiliôn	-9547
▁Kontum	-9548
▁Kêtura	-9549
▁Kôrnei	-9550
▁Kơidơi	-9551
▁Kơkŏng	-9552
▁Mahlơn	-9553
▁Masêia	-9554
▁Mikdôl	-9555
▁Milkôm	-9556
▁Mipsam	-9557
▁Miriam	-9558
▁Misael	-9559
▁Mêsael	-9560
▁Mêunit	-9561
▁Mêđêba	-9562
▁Mơmơ̆u	-9563
▁NHCHXH	-9564
▁Naphis	-9565
▁Nguyen	-9566
▁Nêhêmi	-9567
▁Nêkôđa	-9568
▁Pagiel	-9569
▁Pashur	-9570
▁Patrôs	-9571
▁Phytop	-9572
▁Phêlik	-9573
▁Pơgang	-9574
▁Pơkong	-9575
▁Pơlgơl	-9576
▁Pơlong	-9577
▁Ramese	-9578
▁Rơpiĕt	-9579
▁Samgar	-9580
▁Sammai	-9581
▁Sammua	-9582
▁Saphôn	-9583
▁Simiôn	-9584
▁Siriôn	-9585
▁Sistep	-9586
▁Sêbêđê	-9587
▁Sêpham	-9588
▁Sêsarê	-9589
▁Sôphar	-9590
▁TRương	-9591
▁Tabêra	-9592
▁Tarsis	-9593
▁Thiê̆t	-9594
▁Thô̆ng	-9595
▁Timnat	-9596
▁Tisbit	-9597
▁Tơblah	-9598
▁Tơdron	-9599
▁Tơdrâu	-9600
▁Tơkang	-9601
▁Xơdrai	-9602
▁Xơkung	-9603
▁adrŭng	-9604
▁adrơ̆i	-9605
▁adrơ̆m	-9606
▁atheoi	-9607
▁ađring	-9608
▁brơ̆ng	-9609
▁bơdung	-9610
▁bơhnar	-9611
▁bơjăng	-9612
▁bơmreh	-9613
▁chiÊnh	-9614
▁chraih	-9615
▁chrang	-9616
▁chruôh	-9617
▁chơkrơ	-9618
▁chơkul	-9619
▁chơkăt	-9620
▁chơmuk	-9621
▁chơpik	-9622
▁corona	-9623
▁drê̆ch	-9624
▁dơngưl	-9625
▁giư̆ch	-9626
▁gơlŭng	-9627
▁gơlơng	-9628
▁gơmơ̆t	-9629
▁gơnung	-9630
▁gơnơ̆k	-9631
▁hhuyên	-9632
▁hmuôch	-9633
▁hrơ̆ng	-9634
▁hơdrom	-9635
▁hơdrôt	-9636
▁hơdrăi	-9637
▁hơdrŭm	-9638
▁hơglăk	-9639
▁hơglŭk	-9640
▁hơhôch	-9641
▁hơkenh	-9642
▁hơmiĕt	-9643
▁hơrong	-9644
▁hơtŭch	-9645
▁hơtơ̆m	-9646
▁hơtơ̆p	-9647
▁kljung	-9648
▁klơ̆ng	-9649
▁kruuôĭ	-9650
▁kơchai	-9651
▁kơchar	-9652
▁kơchik	-9653
▁kơdrăn	-9654
▁kơdung	-9655
▁kơdơ̆k	-9656
▁kơlăng	-9657
▁kơnơ̆l	-9658
▁kơphô̆	-9659
▁kơpung	-9660
▁kơtiêl	-9661
▁kơtuei	-9662
▁kơtơ̆h	-9663
▁kơđang	-9664
▁kơđĭnh	-9665
▁longue	-9666
▁lơhach	-9667
▁lươ̆ng	-9668
▁mahưch	-9669
▁makuey	-9670
▁muô̆ng	-9671
▁mơchan	-9672
▁mơngat	-9673
▁mơngưt	-9674
▁nhương	-9675
▁nohhăp	-9676
▁oresol	-9677
▁pơchuă	-9678
▁pơdrăn	-9679
▁pơdrĕo	-9680
▁pơdwal	-9681
▁pơdŏng	-9682
▁pơdŭng	-9683
▁pơgenh	-9684
▁pơgiơl	-9685
▁pơgleh	-9686
▁pơhiơ̆	-9687
▁pơhlum	-9688
▁pơhrei	-9689
▁pơhroh	-9690
▁pơhrăn	-9691
▁pơhuch	-9692
▁pơjrâu	-9693
▁pơjuô̆	-9694
▁pơjuăt	-9695
▁pơkloh	-9696
▁pơklop	-9697
▁pơlang	-9698
▁pơleio	-9699
▁pơlgơl	-9700
▁pơliêu	-9701
▁pơlĕio	-9702
▁pơlŏng	-9703
▁pơngơt	-9704
▁pơnhro	-9705
▁pơnhên	-9706
▁pơnuôt	-9707
▁pơpơih	-9708
▁pơtăng	-9709
▁pơđêch	-9710
▁pơđêng	-9711
▁pơđông	-9712
▁rongka	-9713
▁rơgong	-9714
▁rơheng	-9715
▁rơlach	-9716
▁rơpang	-9717
▁rơđong	-9718
▁saphir	-9719
▁sêikơl	-9720
▁thuâ̆t	-9721
▁thuông	-9722
▁tracng	-9723
▁trươgn	-9724
▁tơbăng	-9725
▁tơdjoh	-9726
▁tơdrau	-9727
▁tơgloh	-9728
▁tơhleh	-9729
▁tơhlôh	-9730
▁tơhuăi	-9731
▁tơkloh	-9732
▁tơkrau	-9733
▁tơliê̆	-9734
▁tơlŏng	-9735
▁tơmôch	-9736
▁tơngla	-9737
▁tơniêu	-9738
▁tơploh	-9739
▁tơraih	-9740
▁tơsĕnh	-9741
▁tơwĕch	-9742
▁tơyung	-9743
▁tơƀlŏk	-9744
▁vêsinh	-9745
▁wengdư	-9746
▁xơkung	-9747
▁yuyê̆t	-9748
▁yươ̆ng	-9749
▁Êliađa	-9750
▁Êlimas	-9751
▁Êphrat	-9752
▁Êstaôl	-9753
▁Đelila	-9754
▁đaoong	-9755
▁ơdroch	-9756
▁Abierit	-9757
▁Ahinôam	-9758
▁Akrabim	-9759
▁Apaksat	-9760
▁Armơthê	-9761
▁Asmawet	-9762
▁Astoret	-9763
▁Balađan	-9764
▁Cyperan	-9765
▁Drought	-9766
▁Gideôni	-9767
▁Gutgôđa	-9768
▁Habakuk	-9769
▁Hamensa	-9770
▁Hananêl	-9771
▁Hasasôn	-9772
▁Hêrôđia	-9773
▁Jehieli	-9774
▁Jesreel	-9775
▁Jêhôsua	-9776
▁Jêkônia	-9777
▁Jêrôham	-9778
▁Jêsisai	-9779
▁Jêsurun	-9780
▁Jônadap	-9781
▁Jôsađăk	-9782
▁Jôtbata	-9783
▁Kinêret	-9784
▁Kinêrot	-9785
▁Kênisit	-9786
▁Lôdêbar	-9787
▁Maasêia	-9788
▁Makatit	-9789
▁Makbêla	-9790
▁Mastrer	-9791
▁Miknêia	-9792
▁Mosêrôt	-9793
▁Mêraiôt	-9794
▁Mêrayôt	-9795
▁Nikôlat	-9796
▁Nêtôpha	-9797
▁Phêniel	-9798
▁Pêdasur	-9799
▁Rêhôbôt	-9800
▁Rêphaia	-9801
▁Rơdrong	-9802
▁Salmôna	-9803
▁Sravani	-9804
▁Sêbađia	-9805
▁Sêkania	-9806
▁Sêlemia	-9807
▁Tiberia	-9808
▁Trailer	-9809
▁Tơdrogn	-9810
▁Tơngong	-9811
▁Tơnguĕt	-9812
▁VIETGAP	-9813
▁Vitamin	-9814
▁achuang	-9815
▁bơdrăng	-9816
▁chơhlot	-9817
▁chơnĕch	-9818
▁dơblenh	-9819
▁dơmuônh	-9820
▁dơnuônh	-9821
▁dơnơ̆ng	-9822
▁hơnhuih	-9823
▁hơxuang	-9824
▁jơliêng	-9825
▁kơchiê̆	-9826
▁kơdiong	-9827
▁kơdiêng	-9828
▁kơdrưng	-9829
▁kơnhiêm	-9830
▁kơtiêng	-9831
▁kơtuang	-9832
▁lơnguô̆	-9833
▁mơhiach	-9834
▁mơhiưch	-9835
▁mơnglei	-9836
▁mơtơ̆ng	-9837
▁nghiêng	-9838
▁protĕin	-9839
▁pơmơ̆ng	-9840
▁pơxuơ̆k	-9841
▁pơxuơ̆l	-9842
▁rơchong	-9843
▁sơhmech	-9844
▁sơhmuôn	-9845
▁sơnagưm	-9846
▁sơnhuăl	-9847
▁todrong	-9848
▁tơchơ̆t	-9849
▁tơdrăng	-9850
▁tơdrơ̆u	-9851
▁tơglơ̆m	-9852
▁tơjungn	-9853
▁tơnghêt	-9854
▁tơtoanh	-9855
▁văccine	-9856
▁Êlsabat	-9857
▁Êthemôa	-9858
▁đeadruh	-9859
▁đơgiêng	-9860
▁Amisadai	-9861
▁Aphatsak	-9862
▁Carbendo	-9863
▁Gamaliel	-9864
▁Gibêthôn	-9865
▁Gôlgôtha	-9866
▁Jêhôseba	-9867
▁Kapernum	-9868
▁Kasiphia	-9869
▁Kêlêhata	-9870
▁Makathit	-9871
▁Makhêlôt	-9872
▁Mêhujael	-9873
▁Nethanel	-9874
▁Pêlithit	-9875
▁Rêphiđim	-9876
▁Sabêthai	-9877
▁Sanbalat	-9878
▁Theophil	-9879
▁Tơnglơ̆p	-9880
▁bơdrơ̆ng	-9881
▁chơhning	-9882
▁chơhnong	-9883
▁chơđiêng	-9884
▁kơdiơ̆ng	-9885
▁kơhriêng	-9886
▁lơnguach	-9887
▁pơnhrohj	-9888
▁rtơdrong	-9889
▁sơngiĕng	-9890
▁tơnglaih	-9891
▁Êliôenai	-9892
▁Êtơdrong	-9893
▁đơngrong	-9894
uricularia	-9895
▁Hamedatha	-9896
▁Jêhôhanan	-9897
▁Kiriathim	-9898
▁Kămpuchia	-9899
▁Methujael	-9900
▁Mêsêlêmia	-9901
▁Nghiquyêt	-9902
▁Ohôlibama	-9903
▁Pangtơkôt	-9904
▁Phêlêthit	-9905
▁Pôtiphêra	-9906
▁Sêmiramôt	-9907
▁Truhatuch	-9908
▁kơpưngmăt	-9909
▁pơjingnôi	-9910
▁tơdrongan	-9911
▁Đêkapôlis	-9912
▁ơĭtơdrong	-9913
▁Adônisêdek	-9914
▁Mêphibôset	-9915
▁adrĭngkhul	-9916
▁dơnuhkơjăp	-9917
▁sơngưmpran	-9918
▁tơdrongbăt	-9919
▁Êliphêlêhu	-9920
▁Lepidoptera	-9921
▁Nêbusarađan	-9922
▁Phytoplasma	-9923
▁tơdrongkhan	-9924
▁tơdrongphong	-9925
ACH	-9926
AID	-9927
BAT	-9928
BGT	-9929
CAS	-9930
HDL	-9931
HTW	-9932
Nge	-9933
Phô	-9934
Phŏ	-9935
SKH	-9936
SNV	-9937
SXD	-9938
TCL	-9939
Thu	-9940
TrH	-9941
agê	-9942
bưl	-9943
bươ	-9944
cle	-9945
eae	-9946
eck	-9947
măy	-9948
mĭl	-9949
ogn	-9950
pơx	-9951
rŏl	-9952
siô	-9953
tiv	-9954
tle	-9955
trô	-9956
tôa	-9957
uơs	-9958
www	-9959
â̆u	-9960
êja	-9961
ĐTW	-9962
đôd	-9963
,'''	-9964
AIDS	-9965
Biĕm	-9966
Brŏk	-9967
CASP	-9968
CCTP	-9969
CTPH	-9970
CTTN	-9971
Chơt	-9972
Dibl	-9973
HDLN	-9974
KTXD	-9975
Kôrơ	-9976
NHNN	-9977
Ngok	-9978
Nêth	-9979
PHTW	-9980
PTNN	-9981
Pơma	-9982
TCLN	-9983
TTDL	-9984
Tron	-9985
Truh	-9986
TĐTN	-9987
Tơnŏ	-9988
abia	-9989
andê	-9990
asêa	-9991
bait	-9992
brŏu	-9993
bula	-9994
bơău	-9995
ceae	-9996
chĭk	-9997
culi	-9998
dium	-9999
BCT	-10000
bưn	-10001
gut	-10002
sêb	-10003
ôbê	-10004
Rơmo	-10005
bêôn	-10006
dêôn	-10007
grôn	-10008
harw	-10009
hôni	-10010
ibas	-10011
icid	-10012
ihtô	-10013
imax	-10014
isic	-10015
ispa	-10016
iêse	-10017
klep	-10018
kmas	-10019
kêam	-10020
kơdŭ	-10021
laud	-10022
logo	-10023
lôwê	-10024
manu	-10025
ncol	-10026
nerq	-10027
nheu	-10028
nđô̆	-10029
paal	-10030
patb	-10031
phay	-10032
phea	-10033
phot	-10034
plĭh	-10035
pơch	-10036
rais	-10037
rêka	-10038
rưch	-10039
sena	-10040
suan	-10041
suar	-10042
tơgu	-10043
udin	-10044
ycit	-10045
ytri	-10046
êgon	-10047
êpti	-10048
êras	-10049
êsêa	-10050
êtsô	-10051
ôbit	-10052
ưnơm	-10053
▁ANS	-10054
▁Bŏn	-10055
▁CHI	-10056
▁CTr	-10057
▁Gad	-10058
▁Gŏl	-10059
▁Gưu	-10060
▁Huŭ	-10061
▁HƠG	-10062
▁HƠK	-10063
▁Iwa	-10064
▁Jow	-10065
▁Jru	-10066
▁Kue	-10067
▁Kut	-10068
▁Kyê	-10069
▁Kêd	-10070
▁Lĭm	-10071
▁Mag	-10072
▁Neg	-10073
▁OEI	-10074
▁PAC	-10075
▁Quĭ	-10076
▁RAT	-10077
▁Rêa	-10078
▁Rêg	-10079
▁Srĕ	-10080
▁Suw	-10081
▁Toc	-10082
▁Tou	-10083
▁Unô	-10084
▁VEI	-10085
▁Vic	-10086
▁bŏn	-10087
▁cay	-10088
▁dow	-10089
▁gĕh	-10090
▁iŏh	-10091
▁mŏt	-10092
▁oiw	-10093
▁pĭm	-10094
▁pĭu	-10095
▁pưđ	-10096
▁str	-10097
▁tlĕ	-10098
▁tâl	-10099
'',	-10100
duơ	-10101
buôm	-10102
disê	-10103
duth	-10104
irsa	-10105
itdu	-10106
lmon	-10107
meth	-10108
phel	-10109
phim	-10110
phin	-10111
đêia	-10112
▁Iph	-10113
▁Ndu	-10114
▁Nut	-10115
▁tay	-10116
▁tĭh	-10117
▁tĭk	-10118
▁tĭr	-10119
▁tŭi	-10120
▁xŏa	-10121
▁Ênt	-10122
▁ĕim	-10123
▁ơŏi	-10124
Akhan	-10125
Almon	-10126
BATGT	-10127
BNNPT	-10128
BTTMT	-10129
Balak	-10130
Brưch	-10131
Bơsŭn	-10132
Chông	-10133
GDTrH	-10134
HTTDL	-10135
HĐĐTW	-10136
Ngêng	-10137
Pơlei	-10138
TWĐTN	-10139
Thông	-10140
ahair	-10141
ahrĕi	-10142
almai	-10143
amlek	-10144
arhel	-10145
arwai	-10146
arđôn	-10147
asiôt	-10148
athus	-10149
attan	-10150
basar	-10151
bađia	-10152
blŏch	-10153
brư̆m	-10154
bucle	-10155
cidae	-10156
dyong	-10157
eksan	-10158
esame	-10159
ethit	-10160
ettih	-10161
gadan	-10162
harsa	-10163
hatsa	-10164
himon	-10165
hơkăn	-10166
ibasu	-10167
idian	-10168
iland	-10169
iniam	-10170
ipsan	-10171
isics	-10172
iskia	-10173
itdut	-10174
jĭÊng	-10175
kabôt	-10176
kơdoh	-10177
kơtau	-10178
logan	-10179
manna	-10180
meral	-10181
merin	-10182
mălei	-10183
nidae	-10184
ovral	-10185
phagê	-10186
pơang	-10187
pơxrŭ	-10188
risil	-10189
rêdat	-10190
sadai	-10191
srŏng	-10192
tasan	-10193
thias	-10194
thini	-10195
treng	-10196
trung	-10197
tơmăn	-10198
uhama	-10199
lŭp	-10200
pni	-10201
sêđ	-10202
êwơ	-10203
KBNN	-10204
Nhăt	-10205
hlêr	-10206
ibia	-10207
quel	-10208
sêđô	-10209
tiel	-10210
ubôt	-10211
êđat	-10212
ơgơr	-10213
▁Kêđ	-10214
▁Lôc	-10215
▁Nơr	-10216
▁Tig	-10217
▁adê	-10218
▁web	-10219
Yôhan	-10220
iamin	-10221
inêwơ	-10222
nglŭp	-10223
sêđôc	-10224
tiver	-10225
trŏng	-10226
umani	-10227
ôbêba	-10228
ôbôti	-10229
ôpkah	-10230
ôthai	-10231
ôênai	-10232
ĐCCTP	-10233
đêmôt	-10234
ơdung	-10235
ơhlôm	-10236
▁''''	-10237
▁Agat	-10238
▁Alit	-10239
▁Alus	-10240
▁Alôn	-10241
▁Atkê	-10242
▁Ađin	-10243
▁Basl	-10244
▁Beta	-10245
▁Blan	-10246
▁Bleu	-10247
▁Blĕk	-10248
▁Brix	-10249
▁Buni	-10250
▁Bêri	-10251
▁Bêtk	-10252
▁Bơbe	-10253
▁Bơhê	-10254
▁CHAM	-10255
▁CHIÊ	-10256
▁Cent	-10257
▁Chop	-10258
▁Chro	-10259
▁Dibơ	-10260
▁Dieu	-10261
▁Egla	-10262
▁Gađi	-10263
▁Gera	-10264
▁Guơs	-10265
▁Hala	-10266
▁Hawp	-10267
▁Hiĕk	-10268
▁Hiơ̆	-10269
▁Hram	-10270
▁Hrat	-10271
▁Hroi	-10272
▁Hrol	-10273
▁Hrŭk	-10274
▁Huan	-10275
▁Huar	-10276
▁Hêla	-10277
▁Hôsi	-10278
▁HƠGĂ	-10279
▁Hơpo	-10280
▁Hơtŏ	-10281
▁Ispa	-10282
▁Jaal	-10283
▁Jaan	-10284
▁Jasu	-10285
▁Jula	-10286
▁Juta	-10287
▁Jutu	-10288
▁Jêđi	-10289
▁Jơla	-10290
▁Khêo	-10291
▁Kiĕk	-10292
▁Klăh	-10293
▁Klơm	-10294
▁Kret	-10295
▁Krĭm	-10296
▁Kuan	-10297
▁Kumi	-10298
▁Kuăn	-10299
ANN	-10300
ICM	-10301
Usa	-10302
bêk	-10303
daw	-10304
uni	-10305
êda	-10306
êke	-10307
▁êk	-10308
Hoai	-10309
Yoch	-10310
abel	-10311
agam	-10312
boch	-10313
iprơ	-10314
môna	-10315
môni	-10316
rơih	-10317
unng	-10318
êbet	-10319
êkim	-10320
ôdaw	-10321
ĐANN	-10322
▁KHƠ	-10323
▁Kun	-10324
▁LVN	-10325
▁Mêk	-10326
▁Pêk	-10327
▁ada	-10328
▁hĕo	-10329
▁sêk	-10330
▁xrơ	-10331
▁êkơ	-10332
▁ơha	-10333
istan	-10334
sêkim	-10335
ôrđăn	-10336
▁Guni	-10337
▁Kuăr	-10338
▁Kêđa	-10339
▁Kôlh	-10340
▁Kơtă	-10341
▁Liđa	-10342
▁Lêbơ	-10343
▁Maar	-10344
▁Maim	-10345
▁Maka	-10346
▁Malô	-10347
▁Mars	-10348
▁Mikl	-10349
▁Mikđ	-10350
▁Miph	-10351
▁Misi	-10352
▁Mêrô	-10353
▁Mêôn	-10354
▁Nain	-10355
▁Nakô	-10356
▁Niph	-10357
▁Oidi	-10358
▁Penu	-10359
▁Phoă	-10360
▁Plus	-10361
▁Puăn	-10362
▁Pênu	-10363
▁Pơhr	-10364
▁Rêka	-10365
▁Rêya	-10366
▁SACH	-10367
▁Seir	-10368
▁Seph	-10369
▁Siba	-10370
▁Siha	-10371
▁Sihô	-10372
▁Sila	-10373
▁Sime	-10374
▁Sint	-10375
▁Sirơ	-10376
▁Soph	-10377
▁Suba	-10378
▁Sumi	-10379
▁Suri	-10380
▁Susi	-10381
▁Sêar	-10382
▁Sêbô	-10383
▁Sêep	-10384
▁Sêwa	-10385
▁Sôar	-10386
▁Sơro	-10387
▁Tahp	-10388
▁Tanư	-10389
▁Tatb	-10390
▁Thêb	-10391
▁Thŭy	-10392
▁Thŭ̆	-10393
▁Tiba	-10394
▁Tira	-10395
▁Tirh	-10396
▁Tŭ̆n	-10397
▁Tơtă	-10398
▁UBMT	-10399
TCB	-10400
gov	-10401
hĭp	-10402
Siri	-10403
bêha	-10404
iêka	-10405
ogel	-10406
plăi	-10407
tari	-10408
uô̆n	-10409
yral	-10410
▁Ahl	-10411
▁Jĕl	-10412
▁Sêi	-10413
▁gov	-10414
▁hău	-10415
▁iêk	-10416
▁vĭk	-10417
▁vĭl	-10418
Duang	-10419
usari	-10420
▁Ahum	-10421
▁Ahus	-10422
▁Belg	-10423
▁Bêtr	-10424
▁Hagô	-10425
▁KTCB	-10426
▁Kari	-10427
▁Nine	-10428
▁Sêth	-10429
▁Tơpo	-10430
▁Uria	-10431
▁Visa	-10432
▁Vê̆t	-10433
▁Webs	-10434
▁Yuơn	-10435
▁Yê̆n	-10436
▁ablo	-10437
▁abŭt	-10438
▁abơ̆	-10439
▁ahli	-10440
▁ahrr	-10441
▁arĭh	-10442
▁beka	-10443
▁bhat	-10444
▁băch	-10445
▁bơda	-10446
▁bơdô	-10447
▁bơse	-10448
▁bơsu	-10449
▁chĕo	-10450
▁cuơk	-10451
▁cơsi	-10452
▁djơ̆	-10453
▁dơgl	-10454
▁ghĭp	-10455
▁grax	-10456
▁gunh	-10457
▁gơdi	-10458
▁gơli	-10459
▁gơsĕ	-10460
▁hgan	-10461
▁hgei	-10462
▁hgăm	-10463
▁hgĕi	-10464
▁hinb	-10465
▁hnua	-10466
▁hrĭl	-10467
▁hyok	-10468
▁hyŏh	-10469
▁hơiĕ	-10470
▁hơyô	-10471
▁iêch	-10472
▁jrăh	-10473
▁jơro	-10474
▁kodu	-10475
▁ktêp	-10476
▁kâÊy	-10477
▁kôrơ	-10478
▁kăiI	-10479
▁kơxi	-10480
▁lien	-10481
▁liet	-10482
▁liêh	-10483
▁liĕl	-10484
▁luŏn	-10485
▁lơhu	-10486
▁lơlĕ	-10487
▁lơlĭ	-10488
▁makk	-10489
▁milô	-10490
▁mŏch	-10491
▁panơ	-10492
▁phay	-10493
▁plâk	-10494
▁prêu	-10495
▁păiI	-10496
▁pămg	-10497
▁pơhư	-10498
▁pưnh	-10499
Mŭi	-10500
SDL	-10501
bây	-10502
deo	-10503
jây	-10504
ôsa	-10505
ôse	-10506
▁OD	-10507
▁ex	-10508
▁ây	-10509
TAND	-10510
dreo	-10511
hana	-10512
nguă	-10513
uran	-10514
êkia	-10515
ôsêt	-10516
▁Bơs	-10517
▁Lĭn	-10518
▁ODA	-10519
▁Ong	-10520
▁Tid	-10521
▁Wôs	-10522
▁ext	-10523
▁kĕo	-10524
▁mây	-10525
▁pĭn	-10526
▁srê	-10527
▁uma	-10528
▁đưn	-10529
arêka	-10530
brach	-10531
▁Arma	-10532
▁Hakk	-10533
▁Khĕo	-10534
▁Môsa	-10535
▁Pôih	-10536
▁Rôih	-10537
▁Wôsi	-10538
▁ahan	-10539
▁biêa	-10540
▁hiưp	-10541
▁hleo	-10542
▁kiĕn	-10543
▁kuaĭ	-10544
▁mano	-10545
▁ngeo	-10546
▁nhĭn	-10547
▁rŏnh	-10548
▁rơuơ	-10549
▁rơwă	-10550
▁rơĭh	-10551
▁sruh	-10552
▁sual	-10553
▁sâÊu	-10554
▁sơle	-10555
▁tiêa	-10556
▁tơơr	-10557
▁tư̆ư	-10558
▁voch	-10559
▁wơch	-10560
▁xier	-10561
▁xoăy	-10562
▁xrôh	-10563
▁yâ̆u	-10564
▁yê̆t	-10565
▁yŏch	-10566
▁Êbia	-10567
▁Êket	-10568
▁Êmưh	-10569
▁Êpha	-10570
▁Êsêk	-10571
▁Đoat	-10572
▁Đêan	-10573
▁Đêha	-10574
▁đâÊu	-10575
▁ŏnga	-10576
▁Ơkom	-10577
▁ơdăm	-10578
▁ơtŭm	-10579
Betsai	-10580
Bơhnar	-10581
Diblat	-10582
HĐPHTW	-10583
Jôrđăn	-10584
Lasarơ	-10585
SOpuôn	-10586
adatha	-10587
adring	-10588
adrêch	-10589
almanu	-10590
arađôd	-10591
ardium	-10592
ariahu	-10593
ariêka	-10594
arêsia	-10595
arêsis	-10596
arđôni	-10597
batana	-10598
bêkasa	-10599
bơk	-10600
hơk	-10601
iss	-10602
mis	-10603
mơk	-10604
orm	-10605
ơka	-10606
▁Eo	-10607
▁Ƀŏ	-10608
▁ɃƠ	-10609
Chih	-10610
Nhơn	-10611
hơkă	-10612
pera	-10613
êmis	-10614
ơgơu	-10615
ơkep	-10616
▁CHA	-10617
▁Kwi	-10618
▁dâp	-10619
▁hbo	-10620
▁mor	-10621
▁vơk	-10622
▁xuc	-10623
▁yưa	-10624
▁yưă	-10625
▁Ƀâu	-10626
▁Ƀơm	-10627
Glung	-10628
hanan	-10629
issor	-10630
mălĕi	-10631
mơkai	-10632
ormal	-10633
▁Akap	-10634
▁Akar	-10635
▁Akat	-10636
▁Amit	-10637
▁Amra	-10638
▁CHAR	-10639
▁Mêhi	-10640
▁Rơka	-10641
▁TTNT	-10642
▁TâÊn	-10643
▁grơu	-10644
▁hơna	-10645
▁hơno	-10646
▁khor	-10647
▁klop	-10648
▁kơlĕ	-10649
▁lơlu	-10650
▁lươk	-10651
▁nâng	-10652
▁plui	-10653
▁quĕt	-10654
▁roưm	-10655
▁trău	-10656
▁xuon	-10657
▁xuăr	-10658
▁ônik	-10659
aspera	-10660
chêmis	-10661
clorua	-10662
emukan	-10663
gơdung	-10664
ilemôt	-10665
istant	-10666
isôlit	-10667
jơrông	-10668
kơchĭk	-10669
kơjung	-10670
ogelim	-10671
onidae	-10672
phireb	-10673
pơnhôm	-10674
rŏnglo	-10675
saphan	-10676
tơguam	-10677
tơplih	-10678
tơpơ̆h	-10679
ycitis	-10680
êlabip	-10681
ênhail	-10682
ênêser	-10683
êphira	-10684
êrubim	-10685
êsabel	-10686
ôleket	-10687
▁Abana	-10688
▁Ahach	-10689
▁Ahban	-10690
▁Ahlap	-10691
▁Albit	-10692
▁Almon	-10693
▁Almôn	-10694
▁Anhăk	-10695
▁Apôli	-10696
▁Apđôn	-10697
▁Ariêl	-10698
▁Aruma	-10699
Nau	-10700
oup	-10701
rĕk	-10702
▁OM	-10703
...,	-10704
anna	-10705
upim	-10706
êmes	-10707
ôhes	-10708
ơđoh	-10709
▁App	-10710
▁Kĕk	-10711
▁Kơx	-10712
▁Kơđ	-10713
▁Mes	-10714
▁Res	-10715
▁Wai	-10716
▁Wĕi	-10717
▁Wơh	-10718
▁Wơ̆	-10719
▁gưh	-10720
▁wau	-10721
▁yup	-10722
Pơlŏk	-10723
kơđoh	-10724
mănng	-10725
▁Amăn	-10726
▁Apah	-10727
▁Apel	-10728
▁Busi	-10729
▁Sêmi	-10730
▁Sơnư	-10731
▁drau	-10732
▁hlup	-10733
▁hơka	-10734
▁hơtô	-10735
▁klau	-10736
▁pơ̆l	-10737
▁săch	-10738
▁vien	-10739
▁yupư	-10740
▁yuêt	-10741
▁Êlôn	-10742
êmalek	-10743
▁Apelơ	-10744
▁Asima	-10745
▁Aspen	-10746
▁Asuri	-10747
▁Asêka	-10748
▁Atheo	-10749
▁Athoi	-10750
▁Atrôt	-10751
▁Ađina	-10752
▁Baana	-10753
▁Baara	-10754
▁Barnê	-10755
▁Beera	-10756
▁Belge	-10757
▁Benop	-10758
▁Birsa	-10759
▁Blanc	-10760
▁Borde	-10761
▁Boưng	-10762
▁Brĕch	-10763
▁Brŏng	-10764
▁Bêrit	-10765
▁Bêđat	-10766
▁Bơnơ̆	-10767
▁Bơsat	-10768
▁Carbo	-10769
▁Danit	-10770
▁Droug	-10771
▁Eight	-10772
▁Ephot	-10773
▁Gahar	-10774
▁Galim	-10775
▁Garet	-10776
▁Gasam	-10777
▁Gatdi	-10778
▁Girsi	-10779
▁Group	-10780
▁Gêbil	-10781
▁Gêuel	-10782
▁Gôlan	-10783
▁Gơdai	-10784
▁Gơsơ̆	-10785
▁Habôr	-10786
▁Hagan	-10787
▁Hagit	-10788
▁Hahur	-10789
▁Hanam	-10790
▁Hanat	-10791
▁Haram	-10792
▁Hares	-10793
▁Harum	-10794
▁Harôt	-10795
▁Hasup	-10796
▁Hatip	-10797
▁Helba	-10798
▁Hilel	-10799
Hoa	-10800
jrŭ	-10801
môt	-10802
ôta	-10803
đôt	-10804
ebon	-10805
imac	-10806
iđôt	-10807
loơk	-10808
ôten	-10809
▁Ark	-10810
▁Ase	-10811
▁Ass	-10812
▁Gŭt	-10813
▁Hơw	-10814
▁Hơx	-10815
▁Lôt	-10816
▁Nơĭ	-10817
▁Sŭt	-10818
▁cŏp	-10819
▁jŭt	-10820
▁ktu	-10821
▁moa	-10822
▁rŭt	-10823
bling	-10824
nhuih	-10825
êhôta	-10826
ơpuih	-10827
▁Anac	-10828
▁Arih	-10829
▁Arit	-10830
▁Arol	-10831
▁Arêt	-10832
▁Asin	-10833
▁Djrŭ	-10834
▁Jôsê	-10835
▁Phac	-10836
▁Pơtr	-10837
▁atac	-10838
▁buơĭ	-10839
▁gioa	-10840
▁hlut	-10841
▁jô̆c	-10842
▁kuyt	-10843
▁mơ̆k	-10844
▁phui	-10845
▁phuj	-10846
▁ruih	-10847
▁thoa	-10848
▁tuih	-10849
▁Êser	-10850
▁đuôi	-10851
apiđôt	-10852
atôpha	-10853
pơchăh	-10854
êmimac	-10855
▁Arkit	-10856
▁Assir	-10857
▁Basit	-10858
▁Hring	-10859
▁Huiên	-10860
▁Hupim	-10861
▁Huơ̆r	-10862
▁Hêgai	-10863
▁Hêmes	-10864
▁Hêset	-10865
▁Hêsrô	-10866
▁Hôham	-10867
▁Hôrit	-10868
▁Hôđes	-10869
▁Hôđia	-10870
▁HƠGĂT	-10871
▁Hơbŭt	-10872
▁Hơgar	-10873
▁Hơgĕi	-10874
▁Hơgơp	-10875
▁Hơkar	-10876
▁Hơmrĕ	-10877
▁Hơrum	-10878
▁Hơtat	-10879
▁Hơtei	-10880
▁Hơtol	-10881
▁Hơtŏk	-10882
▁Hơtŭt	-10883
▁Hơxei	-10884
▁Ikôni	-10885
▁Ismêr	-10886
▁Jaala	-10887
▁Jamin	-10888
▁Janai	-10889
▁Janim	-10890
▁Japnê	-10891
▁Jarip	-10892
▁Jasup	-10893
▁Jrơ̆u	-10894
▁Jêhuk	-10895
▁Jêkam	-10896
▁Jêras	-10897
▁Jêsar	-10898
▁Jêsim	-10899
Chi	-10900
IPM	-10901
bơi	-10902
sur	-10903
yĕn	-10904
Bĭch	-10905
ambi	-10906
icha	-10907
ngơk	-10908
nhŭl	-10909
▁Dơi	-10910
▁Giŏ	-10911
▁Kŭl	-10912
▁Lôr	-10913
▁Lơi	-10914
▁dơi	-10915
▁iôr	-10916
▁vun	-10917
▁wơi	-10918
▁Đŏn	-10919
asban	-10920
banai	-10921
nahas	-10922
▁Anem	-10923
▁Anăp	-10924
▁Blep	-10925
▁Giap	-10926
▁Kĭch	-10927
▁Lêba	-10928
▁Nhăk	-10929
▁Nhĕm	-10930
▁Xreh	-10931
▁Yơ̆i	-10932
▁anŭl	-10933
▁apơi	-10934
▁ayuh	-10935
▁blak	-10936
▁bơpl	-10937
▁chơi	-10938
▁hnăk	-10939
▁thhi	-10940
▁toch	-10941
▁Êsri	-10942
▁ơpôl	-10943
▁Ƀônh	-10944
erambi	-10945
ichael	-10946
▁Babel	-10947
▁Chrih	-10948
▁Chuơh	-10949
▁Gibar	-10950
▁Jêuel	-10951
▁Jôkim	-10952
▁Jơhng	-10953
▁Jơmul	-10954
▁Jơmŭl	-10955
▁Kamôn	-10956
▁Kanna	-10957
▁Karka	-10958
▁Karmi	-10959
▁Kađes	-10960
▁Khuen	-10961
▁Kirôt	-10962
▁Kisle	-10963
▁Kiđes	-10964
▁Klôwê	-10965
▁Kraih	-10966
▁Kumul	-10967
▁Kusan	-10968
▁Kêdêh	-10969
▁Kêlit	-10970
▁Kêlup	-10971
▁Kêrit	-10972
▁Kêros	-10973
▁Kêsia	-10974
▁Kơtơh	-10975
▁Kơđoh	-10976
▁LCASP	-10977
▁Lahat	-10978
▁Lipni	-10979
▁Lơmjơ	-10980
▁Madon	-10981
▁Magor	-10982
▁Mahan	-10983
▁Mahli	-10984
▁Makas	-10985
▁Makbi	-10986
▁Medan	-10987
▁Mesôp	-10988
▁Mikma	-10989
▁Misma	-10990
▁Mitil	-10991
▁Mêrap	-10992
▁Mêret	-10993
▁Mêsĕk	-10994
▁Môlit	-10995
▁Nahbi	-10996
▁Nakôn	-10997
▁Negai	-10998
▁Negep	-10999
reg	-11000
ukô	-11001
usê	-11002
wĕt	-11003
yuk	-11004
đuk	-11005
Biê̆	-11006
Xoai	-11007
akus	-11008
ambo	-11009
brak	-11010
nguk	-11011
nhŏm	-11012
usês	-11013
▁Hơđ	-11014
▁Xok	-11015
▁Xô̆	-11016
▁Xưt	-11017
▁cop	-11018
▁guk	-11019
▁iê̆	-11020
▁jla	-11021
▁kêp	-11022
▁kĕt	-11023
▁kŏm	-11024
▁puk	-11025
▁Ơla	-11026
hnŏng	-11027
ngiêt	-11028
regim	-11029
thran	-11030
▁Hukô	-11031
▁Khŏm	-11032
▁Luka	-11033
▁Mana	-11034
▁Phĕt	-11035
▁Saul	-11036
▁Saus	-11037
▁Tiêt	-11038
▁Upha	-11039
▁arăk	-11040
▁brưa	-11041
▁doch	-11042
▁hrip	-11043
▁iê̆l	-11044
▁khuk	-11045
▁klip	-11046
▁kuĕt	-11047
▁puơn	-11048
▁pơdŏ	-11049
▁pơro	-11050
▁quyđ	-11051
▁tơku	-11052
▁ơpôm	-11053
tơpơhê	-11054
usêsim	-11055
êkônđa	-11056
▁Bơsei	-11057
▁Cambo	-11058
▁Hôram	-11059
▁Jêret	-11060
▁Khơng	-11061
▁Kơpla	-11062
▁Nhơng	-11063
▁Nhơ̆t	-11064
▁Nimra	-11065
▁Nimsi	-11066
▁Nêhel	-11067
▁Nêsia	-11068
▁Nôđap	-11069
▁Oncol	-11070
▁Pahat	-11071
▁Palti	-11072
▁Pgloh	-11073
▁Phalê	-11074
▁Phuah	-11075
▁Phuơk	-11076
▁Pyral	-11077
▁Pêrês	-11078
▁Pêsêa	-11079
▁Pơchi	-11080
▁Pơgrê	-11081
▁Pơhôp	-11082
▁Pơnăh	-11083
▁Pơrok	-11084
▁Pơsĭt	-11085
▁Pơtŏk	-11086
▁Pơxrŭ	-11087
▁Pơyom	-11088
▁Pơđăp	-11089
▁Ramat	-11090
▁Ramse	-11091
▁Raphu	-11092
▁Rađai	-11093
▁Resen	-11094
▁Rihtô	-11095
▁Rêaja	-11096
▁Rêkem	-11097
▁Rêsep	-11098
▁Rêuel	-11099
Has	-11100
der	-11101
erb	-11102
ker	-11103
klŭ	-11104
oto	-11105
rot	-11106
spa	-11107
yer	-11108
đer	-11109
▁..	-11110
▁Ơê	-11111
cher	-11112
erel	-11113
eren	-11114
hiĕk	-11115
ihut	-11116
pơnh	-11117
ôbap	-11118
▁Jud	-11119
▁Jur	-11120
▁Nik	-11121
▁Not	-11122
▁Pơư	-11123
▁Xak	-11124
▁Xar	-11125
▁Xơn	-11126
▁dêl	-11127
▁rĕn	-11128
▁tĕp	-11129
▁ƀĕp	-11130
▁Ơêi	-11131
Hasba	-11132
blang	-11133
erelô	-11134
gngam	-11135
klang	-11136
langi	-11137
êhina	-11138
▁Brư̆	-11139
▁Hrai	-11140
▁asơl	-11141
▁bơnŏ	-11142
▁huăy	-11143
▁klĕp	-11144
▁krăl	-11145
▁mrot	-11146
▁sơđa	-11147
▁tê̆t	-11148
▁tĭ̆t	-11149
▁Êder	-11150
Hasbas	-11151
ibôlêt	-11152
pơnhan	-11153
▁Arơ̆p	-11154
▁Gađer	-11155
▁Gispa	-11156
▁Gruih	-11157
▁Gêbal	-11158
▁Jasen	-11159
▁Judit	-11160
▁Keren	-11161
▁Kêpha	-11162
▁Kơpôl	-11163
▁Rơbua	-11164
▁Rơgei	-11165
▁Rơjây	-11166
▁Rơnôp	-11167
▁SGDĐT	-11168
▁Sadôk	-11169
▁Saham	-11170
▁Salai	-11171
▁Salma	-11172
▁Salôm	-11173
▁Sarap	-11174
▁Satur	-11175
▁Sausa	-11176
▁Seirơ	-11177
▁Senak	-11178
▁Sibia	-11179
▁Sihli	-11180
▁Sihri	-11181
▁Sikêr	-11182
▁Silôa	-11183
▁Silôm	-11184
▁Sinap	-11185
▁Siram	-11186
▁Sisak	-11187
▁Subăl	-11188
▁Sunam	-11189
▁Suwan	-11190
▁Sêber	-11191
▁Sêbul	-11192
▁Sêdur	-11193
▁Sêira	-11194
▁Sêlum	-11195
▁Sêmak	-11196
▁Sêmeb	-11197
▁Sêmer	-11198
▁Sênan	-11199
ES	-11200
BGD	-11201
ESC	-11202
bac	-11203
bau	-11204
baŏ	-11205
bri	-11206
bâk	-11207
ein	-11208
eke	-11209
ill	-11210
rek	-11211
đâu	-11212
ESCO	-11213
PBGD	-11214
Tiên	-11215
eral	-11216
iaba	-11217
ilit	-11218
lêch	-11219
omil	-11220
omit	-11221
▁Hek	-11222
▁Huĭ	-11223
▁Kom	-11224
▁Ngô	-11225
▁Pro	-11226
▁Pôi	-11227
▁Rid	-11228
▁Rơh	-11229
▁Sri	-11230
▁Xre	-11231
▁Yem	-11232
▁Yom	-11233
▁aom	-11234
▁dom	-11235
▁iâu	-11236
▁jưh	-11237
▁krŏ	-11238
▁rom	-11239
▁tĭm	-11240
▁xok	-11241
NESCO	-11242
dư̆ng	-11243
illul	-11244
omite	-11245
êmuel	-11246
▁Isri	-11247
▁Ngok	-11248
▁Ngôn	-11249
▁Phij	-11250
▁amơt	-11251
▁cươc	-11252
▁grôp	-11253
▁grưm	-11254
▁huôi	-11255
▁jrưm	-11256
▁jơ̆k	-11257
▁krŏt	-11258
▁romo	-11259
▁uiêl	-11260
▁Êrek	-11261
PBGDPL	-11262
eralit	-11263
êđabia	-11264
▁Itali	-11265
▁Jirim	-11266
▁Karen	-11267
▁Phiji	-11268
▁Sêpbô	-11269
▁Sêđar	-11270
▁Sôbal	-11271
▁Sôpat	-11272
▁Tanưg	-11273
▁Tidal	-11274
▁Tiê̆n	-11275
▁Topas	-11276
▁Trơvơ	-11277
▁Têbet	-11278
▁Têmen	-11279
▁Tơchă	-11280
▁Tơdrp	-11281
▁Tơdui	-11282
▁Tơgăk	-11283
▁Tơhĭl	-11284
▁Tơjur	-11285
▁Tơkan	-11286
▁Tơlĕi	-11287
▁Tơmoa	-11288
▁Tơmĭl	-11289
▁Tơnei	-11290
▁Tơnăr	-11291
▁Tơnơl	-11292
▁Tơrih	-11293
▁Tơtoh	-11294
▁Tơđah	-11295
▁UBMTQ	-11296
▁Usiên	-11297
▁Wimax	-11298
▁Yilah	-11299
IV	-11300
Dră	-11301
Tin	-11302
Tơm	-11303
bay	-11304
deh	-11305
dŏk	-11306
mok	-11307
rŭn	-11308
rơh	-11309
sŏk	-11310
tak	-11311
tră	-11312
ơhr	-11313
▁Ie	-11314
▁Iy	-11315
▁vô	-11316
▁ĐE	-11317
Drăk	-11318
HCSN	-11319
Puôn	-11320
chĕp	-11321
dơnŏ	-11322
emmơ	-11323
mrơh	-11324
mơ̆m	-11325
rath	-11326
trăp	-11327
▁Bơy	-11328
▁Col	-11329
▁Gan	-11330
▁HIV	-11331
▁Hôg	-11332
▁Hươ	-11333
▁Iyê	-11334
▁Sơm	-11335
▁cươ	-11336
▁dĭl	-11337
▁hŭr	-11338
▁nhĭ	-11339
▁đră	-11340
▁ưuh	-11341
artak	-11342
nhơ̆p	-11343
▁Bêra	-11344
▁Cole	-11345
▁Kơhr	-11346
▁Lêhi	-11347
▁Thap	-11348
▁brao	-11349
▁brio	-11350
▁kơxĭ	-11351
▁mĕưh	-11352
▁phoi	-11353
▁pơre	-11354
▁thơm	-11355
▁tuai	-11356
▁tô̆i	-11357
▁xơih	-11358
▁Đakc	-11359
Drăkan	-11360
isabet	-11361
ngiêng	-11362
rathon	-11363
▁Bơyar	-11364
▁Chhơ̆	-11365
▁Ganim	-11366
▁Hemmơ	-11367
▁Hôgla	-11368
▁Hơnik	-11369
▁Thiên	-11370
▁Têman	-11371
▁achô̆	-11372
▁achơ̆	-11373
▁adrơu	-11374
▁aguăt	-11375
▁ammăk	-11376
▁anhuk	-11377
▁anhĭn	-11378
▁anhŭk	-11379
▁anhơl	-11380
▁apuih	-11381
▁athŭm	-11382
▁atrep	-11383
▁axogn	-11384
▁ayăte	-11385
▁blô̆k	-11386
▁blơ̆r	-11387
▁boith	-11388
▁buơĭl	-11389
▁bôtri	-11390
▁bơbah	-11391
▁bơbul	-11392
▁bơdơi	-11393
▁bơdơĭ	-11394
▁bơgah	-11395
▁bơgal	-11396
▁bơhle	-11397
▁bơluk	-11398
▁bơmơn	-11399
To	-11400
̆p	-11401
BDT	-11402
aok	-11403
lôi	-11404
yao	-11405
êah	-11406
▁St	-11407
▁SƠ	-11408
▁iơ	-11409
▁ĐH	-11410
▁ưi	-11411
Hlôi	-11412
Lơ̆m	-11413
Nhao	-11414
barb	-11415
ingj	-11416
yeng	-11417
êahb	-11418
ênes	-11419
▁Bav	-11420
▁Egl	-11421
▁Phô	-11422
▁Sah	-11423
▁Sao	-11424
▁jlo	-11425
▁jon	-11426
▁jơj	-11427
▁lơg	-11428
▁nâm	-11429
▁sol	-11430
STNMT	-11431
▁HNAM	-11432
▁Hang	-11433
▁Hơ̆u	-11434
▁Maok	-11435
▁Paar	-11436
▁Sung	-11437
▁Sôbi	-11438
▁anam	-11439
▁blôh	-11440
▁dehh	-11441
▁ding	-11442
▁hiĕn	-11443
▁jrŭb	-11444
▁juăr	-11445
▁kuôt	-11446
▁mach	-11447
▁rimr	-11448
▁seng	-11449
▁trah	-11450
▁trăn	-11451
▁tĭ̆p	-11452
▁vâ̆n	-11453
▁xrah	-11454
▁đung	-11455
Jơnang	-11456
VHTTDL	-11457
anêahb	-11458
ingjia	-11459
▁adran	-11460
▁bơlơh	-11461
▁bơnơm	-11462
▁chhưk	-11463
▁choro	-11464
▁chrui	-11465
▁chrâu	-11466
▁chô̆t	-11467
▁chơgi	-11468
▁chơtŭ	-11469
▁chơđa	-11470
▁cuô̆n	-11471
▁drăkn	-11472
▁dăngt	-11473
▁dơbeh	-11474
▁dơbuh	-11475
▁dơdăm	-11476
▁dơhlu	-11477
▁dơlăm	-11478
▁dơyĕn	-11479
▁dơđah	-11480
▁graih	-11481
▁grech	-11482
▁grung	-11483
▁gxŏng	-11484
▁gơdĭm	-11485
▁gơnap	-11486
▁gơnŭk	-11487
▁gơret	-11488
▁gơseh	-11489
▁gơsô̆	-11490
▁hanhK	-11491
▁hanhk	-11492
▁hlack	-11493
▁hloch	-11494
▁hlơpa	-11495
▁hngam	-11496
▁hning	-11497
▁hnŏng	-11498
▁hnơ̆k	-11499
tb	-11500
tp	-11501
Hơn	-11502
Oĕi	-11503
amm	-11504
bĕi	-11505
dtb	-11506
dơn	-11507
gĕi	-11508
nôm	-11509
sum	-11510
tim	-11511
ttp	-11512
vao	-11513
▁Dd	-11514
▁SK	-11515
▁TƯ	-11516
▁kn	-11517
Chĕp	-11518
achi	-11519
blŏ̆	-11520
dtbx	-11521
edon	-11522
nhoi	-11523
nhon	-11524
âtih	-11525
êhem	-11526
ơ̆nh	-11527
▁Hôl	-11528
▁NAI	-11529
▁gor	-11530
▁khj	-11531
▁knĭ	-11532
▁lăl	-11533
▁mưr	-11534
▁ngĕ	-11535
▁pim	-11536
▁rŭk	-11537
▁sĕi	-11538
▁yon	-11539
▁đơi	-11540
blŏ̆k	-11541
dtbxh	-11542
gedon	-11543
pơđam	-11544
▁Ddôk	-11545
▁NHơn	-11546
▁Phŭk	-11547
▁adri	-11548
▁chuo	-11549
▁hlah	-11550
▁hlik	-11551
▁http	-11552
▁hơpu	-11553
▁khay	-11554
▁kơ̆r	-11555
▁pơhl	-11556
▁pơlô	-11557
▁rinh	-11558
▁thap	-11559
▁thĕi	-11560
▁triê	-11561
▁tuôt	-11562
▁tơlă	-11563
▁tơnh	-11564
▁tơth	-11565
▁âtih	-11566
▁đĭng	-11567
▁ơdon	-11568
ldtbxh	-11569
sathit	-11570
urculi	-11571
êmukan	-11572
▁Abiel	-11573
▁Geras	-11574
▁Hôlôn	-11575
▁Lêhem	-11576
▁chaih	-11577
▁dơhla	-11578
▁dơsum	-11579
▁hrưng	-11580
▁huyen	-11581
▁huynh	-11582
▁huâ̆n	-11583
▁hyong	-11584
▁hơbut	-11585
▁hơgăl	-11586
▁hơjăm	-11587
▁hơkam	-11588
▁hơken	-11589
▁hơker	-11590
▁hơkoh	-11591
▁hơkok	-11592
▁hơkuk	-11593
▁hơkŭm	-11594
▁hơleo	-11595
▁hơmra	-11596
▁hơmrĕ	-11597
▁hơmôi	-11598
▁hơmưl	-11599
Bơn	-11600
Kơm	-11601
bam	-11602
oin	-11603
ơgŭ	-11604
▁KD	-11605
▁YO	-11606
Bơnê	-11607
anah	-11608
ihah	-11609
ngil	-11610
nhek	-11611
ƀăng	-11612
ơlăi	-11613
▁Hng	-11614
▁Tuk	-11615
▁YOC	-11616
▁bơw	-11617
▁dao	-11618
▁gŭl	-11619
▁kŏa	-11620
▁sưb	-11621
▁sưu	-11622
▁xak	-11623
▁Đap	-11624
▁đơt	-11625
atoin	-11626
thuôk	-11627
tơlăi	-11628
▁Bita	-11629
▁Hêrơ	-11630
▁Kơgŭ	-11631
▁Mêre	-11632
▁Phôi	-11633
▁Ruma	-11634
▁Tôph	-11635
▁YOCH	-11636
▁gơng	-11637
▁hrăh	-11638
▁hăpo	-11639
▁hưng	-11640
▁klam	-11641
▁lơmm	-11642
▁rơno	-11643
▁sâÊy	-11644
▁trôp	-11645
▁tơan	-11646
Kơmăng	-11647
tơring	-11648
▁Ađôni	-11649
▁Bitad	-11650
▁Dôdaw	-11651
▁Harsa	-11652
▁Hngăt	-11653
▁Jôêla	-11654
▁Khich	-11655
▁Mitka	-11656
▁Pêgam	-11657
▁Sôten	-11658
▁grưng	-11659
▁hiông	-11660
▁hơchu	-11661
▁hơnao	-11662
▁hơnăn	-11663
▁hơnăp	-11664
▁hơnăt	-11665
▁hơpak	-11666
▁hơpăn	-11667
▁hơron	-11668
▁hơrum	-11669
▁hơwơ̆	-11670
▁hơyok	-11671
▁joanh	-11672
▁jrênh	-11673
▁jrŏng	-11674
▁jơjơ̆	-11675
▁jơluk	-11676
▁jơlâm	-11677
▁jơlăk	-11678
▁jơmir	-11679
▁jơmuk	-11680
▁jưvei	-11681
▁jưvĕi	-11682
▁khôch	-11683
▁khăch	-11684
▁khŭ̆t	-11685
▁khơng	-11686
▁khơ̆k	-11687
▁khơ̆p	-11688
▁kiê̆m	-11689
▁klepe	-11690
▁klênh	-11691
▁ktung	-11692
▁kơdei	-11693
▁kơdrô	-11694
▁kơdrơ	-11695
▁kơdŏu	-11696
▁kơkot	-11697
▁kơkôi	-11698
▁kơlok	-11699
KĐ	-11700
Ti	-11701
His	-11702
Hăm	-11703
cih	-11704
men	-11705
nai	-11706
vil	-11707
yai	-11708
ăih	-11709
ămk	-11710
Đao	-11711
▁Ij	-11712
▁Pĕ	-11713
▁TN	-11714
▁Tŏ	-11715
▁r̆	-11716
▁wê	-11717
Kiơ̆	-11718
Tang	-11719
Yang	-11720
alat	-11721
chih	-11722
choh	-11723
drăm	-11724
lĕng	-11725
mông	-11726
phra	-11727
uơng	-11728
ơpuh	-11729
▁Cân	-11730
▁Dât	-11731
▁Glă	-11732
▁Gra	-11733
▁Iĕr	-11734
▁Mih	-11735
▁bop	-11736
▁bot	-11737
▁dam	-11738
▁dưa	-11739
▁iêt	-11740
▁lôk	-11741
▁viê	-11742
▁xơr	-11743
▁ămk	-11744
BGTVT	-11745
hanna	-11746
▁Ijôn	-11747
▁Kaln	-11748
▁Kĕng	-11749
▁Lêbô	-11750
▁Song	-11751
▁Yuan	-11752
▁jiêt	-11753
▁kơih	-11754
▁lcih	-11755
▁ngon	-11756
▁ngui	-11757
▁prum	-11758
▁r̆ap	-11759
▁tran	-11760
▁tơtu	-11761
▁Êlôh	-11762
▁đuih	-11763
▁ƀăng	-11764
▁Anvil	-11765
▁Pơpuh	-11766
▁Tiê̆p	-11767
▁Tơlơi	-11768
▁angŏi	-11769
▁hlŭng	-11770
▁hơlem	-11771
▁hơmăt	-11772
▁hơrui	-11773
▁kơlĕl	-11774
▁kơmng	-11775
▁kơmuh	-11776
▁kơmăn	-11777
▁kơmăr	-11778
▁kơnho	-11779
▁kơnur	-11780
▁kơret	-11781
▁kơrăi	-11782
▁kơsum	-11783
▁kơsơk	-11784
▁kơsơĭ	-11785
▁kơtau	-11786
▁kơtot	-11787
▁kươ̆n	-11788
▁lLong	-11789
▁laiyơ	-11790
▁luât̆	-11791
▁luâ̆n	-11792
▁luôih	-11793
▁lămưh	-11794
▁lĕcha	-11795
▁lơngŭ	-11796
▁lơpng	-11797
▁lơ̆mt	-11798
▁lơ̆ng	-11799
La	-11800
Lŏ	-11801
Yi	-11802
gŭ	-11803
ĕu	-11804
..,	-11805
Yam	-11806
cid	-11807
lle	-11808
ngư	-11809
onb	-11810
pŏk	-11811
sep	-11812
văn	-11813
▁Vi	-11814
▁je	-11815
▁mŭ	-11816
▁nê	-11817
▁rm	-11818
,...	-11819
ccid	-11820
eang	-11821
kư̆m	-11822
luôn	-11823
tinh	-11824
uung	-11825
ơnŭn	-11826
̆inh	-11827
▁Chĭ	-11828
▁Hăk	-11829
▁Tôu	-11830
▁Xoh	-11831
▁bơi	-11832
▁bơj	-11833
▁iok	-11834
▁mui	-11835
▁trê	-11836
▁xop	-11837
▁xăr	-11838
▁đĕu	-11839
gasus	-11840
nginh	-11841
nhăng	-11842
êtsep	-11843
▁Clle	-11844
▁Hơkr	-11845
▁ayun	-11846
▁bing	-11847
▁bonh	-11848
▁hlĕh	-11849
▁jean	-11850
▁jơne	-11851
▁kơgŭ	-11852
▁luôi	-11853
▁thei	-11854
▁thươ	-11855
▁trêl	-11856
▁trêo	-11857
▁yơ̆m	-11858
duthun	-11859
pơting	-11860
▁Abdia	-11861
▁Samir	-11862
▁Sêban	-11863
▁Thêkô	-11864
▁akoih	-11865
▁atăng	-11866
▁brong	-11867
▁bơjan	-11868
▁bơluh	-11869
▁hơbôn	-11870
▁kơmăi	-11871
▁lơnŭn	-11872
▁maiha	-11873
▁maihb	-11874
▁maket	-11875
▁mơmăn	-11876
▁mơmĭl	-11877
▁mơmŏk	-11878
▁mưlei	-11879
▁mưlĕi	-11880
▁ngenh	-11881
▁nghê̆	-11882
▁ngơch	-11883
▁ngươc	-11884
▁nhâ̆p	-11885
▁nhơ̆i	-11886
▁occid	-11887
▁oeang	-11888
▁oxong	-11889
▁padan	-11890
▁phiơl	-11891
▁photo	-11892
▁phư̆k	-11893
▁pluak	-11894
▁podơi	-11895
▁puôih	-11896
▁pănng	-11897
▁pơbăr	-11898
▁pơchh	-11899
Ha	-11900
PC	-11901
Pl	-11902
dă	-11903
jŭ	-11904
ox	-11905
̆l	-11906
Văn	-11907
Yah	-11908
ađa	-11909
det	-11910
drŏ	-11911
iôk	-11912
kla	-11913
yăl	-11914
ănd	-11915
ĭ̆l	-11916
▁dn	-11917
▁or	-11918
▁tt	-11919
đŏng	-11920
ơmat	-11921
▁HPC	-11922
▁Hơu	-11923
▁Meo	-11924
▁Mol	-11925
▁Tru	-11926
▁dnŏ	-11927
▁gŭt	-11928
▁kdă	-11929
▁kên	-11930
▁uhư	-11931
▁vŏk	-11932
▁wah	-11933
▁Êla	-11934
▁ĭ̆l	-11935
Plĕnh	-11936
ôphat	-11937
▁Aher	-11938
▁amĭl	-11939
▁howê	-11940
▁kơŭl	-11941
▁phăo	-11942
▁pơtă	-11943
▁thăm	-11944
▁trô̆	-11945
▁Đôđô	-11946
▁ơmat	-11947
▁Asbuk	-11948
▁Boong	-11949
▁Iphar	-11950
▁Jêpti	-11951
▁Kênas	-11952
▁Kêrup	-11953
▁Mlaih	-11954
▁Pađôn	-11955
▁Pơnăr	-11956
▁Sabai	-11957
▁Sipra	-11958
▁Sôrek	-11959
▁Uriel	-11960
▁achăm	-11961
▁adruk	-11962
▁bơlih	-11963
▁bơlơi	-11964
▁chư̆c	-11965
▁dơlô̆	-11966
▁gơdơl	-11967
▁hlach	-11968
▁hơnan	-11969
▁jư̆ng	-11970
▁kơbăt	-11971
▁pơdor	-11972
▁pơduk	-11973
▁pơdôh	-11974
▁pơdăm	-11975
▁pơdĕi	-11976
▁pơdĭp	-11977
▁pơdŏk	-11978
▁pơgô̆	-11979
▁pơgơi	-11980
▁pơgơm	-11981
▁pơgơĭ	-11982
▁pơhum	-11983
▁pơjĭl	-11984
▁pơkhô	-11985
▁pơklă	-11986
▁pơkuĕ	-11987
▁pơnar	-11988
▁pơnĭl	-11989
▁pơnưp	-11990
▁pơpol	-11991
▁pơpŭk	-11992
▁pơran	-11993
▁pơsei	-11994
▁pơsel	-11995
▁pơsoh	-11996
▁pơsôr	-11997
▁pơsô̆	-11998
▁pơtrŏ	-11999
Oh	-12000
Pă	-12001
hô	-12002
ko	-12003
đĭ	-12004
ƠK	-12005
hoi	-12006
rêh	-12007
tơx	-12008
xâm	-12009
ĭah	-12010
ƠKĂ	-12011
▁Mg	-12012
▁TI	-12013
▁tj	-12014
▁yĭ	-12015
▁Đo	-12016
hŏng	-12017
kăng	-12018
ngăl	-12019
nhak	-12020
onik	-12021
ƠKĂP	-12022
ơkăn	-12023
▁Ens	-12024
▁Rôh	-12025
▁Săi	-12026
▁TIH	-12027
▁Tyê	-12028
▁gon	-12029
▁kôt	-12030
▁kĭt	-12031
▁leo	-12032
▁xăi	-12033
dring	-12034
mhŏng	-12035
ôngko	-12036
ôphĭm	-12037
▁Blei	-12038
▁Chăt	-12039
▁Ensp	-12040
▁Itrê	-12041
▁Nhơm	-12042
▁Prit	-12043
▁Xoai	-12044
▁blôl	-12045
▁grê̆	-12046
▁hlai	-12047
▁mô̆k	-12048
▁ngăt	-12049
▁pĭng	-12050
▁riêh	-12051
▁sota	-12052
▁thêt	-12053
▁wông	-12054
▁ying	-12055
tơxĭnh	-12056
▁Akila	-12057
▁Bơnal	-12058
▁PƠKĂP	-12059
▁Pơgăn	-12060
▁Tahas	-12061
▁Tamôn	-12062
▁Tuôch	-12063
▁Vicap	-12064
▁ariha	-12065
▁chơbĭ	-12066
▁gonăl	-12067
▁hlĭah	-12068
▁hơpoh	-12069
▁hơtô̆	-12070
▁khjĕi	-12071
▁klơ̆r	-12072
▁kơnĭt	-12073
▁liê̆u	-12074
▁pơkiu	-12075
▁pơtĭl	-12076
▁pơvĕl	-12077
▁pơxăn	-12078
▁pơđeo	-12079
▁pơđom	-12080
▁pưdăm	-12081
▁pưđep	-12082
▁quyet	-12083
▁roưmo	-12084
▁rơdơh	-12085
▁rơhoi	-12086
▁rơkăh	-12087
▁rơmok	-12088
▁rơngu	-12089
▁rơret	-12090
▁rơwak	-12091
▁rơyuk	-12092
▁rơyŭk	-12093
▁rơđeh	-12094
▁sraih	-12095
▁stres	-12096
▁sơbăn	-12097
▁sơkok	-12098
▁sơrăt	-12099
RĂ	-12100
Sŏ	-12101
hĕ	-12102
jư	-12103
kô	-12104
ta	-12105
ĕc	-12106
▁ĕ	-12107
Gap	-12108
RĂM	-12109
SCT	-12110
dra	-12111
inc	-12112
ksô	-12113
tni	-12114
ĕcl	-12115
ơră	-12116
ưpu	-12117
▁DV	-12118
▁EU	-12119
▁Ro	-12120
▁SM	-12121
▁Sy	-12122
▁dĕ	-12123
▁đâ	-12124
Jơră	-12125
gent	-12126
ongŏ	-12127
umta	-12128
yông	-12129
ôken	-12130
▁Dec	-12131
▁Sâm	-12132
▁Yŭc	-12133
▁hĭm	-12134
▁kei	-12135
▁kuĕ	-12136
▁min	-12137
▁xên	-12138
...):	-12139
hơdra	-12140
samak	-12141
tương	-12142
ơtơ̆p	-12143
▁Chăp	-12144
▁DRĂM	-12145
▁Khen	-12146
▁Kusi	-12147
▁Mơ̆r	-12148
▁Nêba	-12149
▁Sêmê	-12150
▁arăi	-12151
▁blat	-12152
▁hĕcl	-12153
▁khiÊ	-12154
▁mich	-12155
▁mơlâ	-12156
▁tơhm	-12157
▁vưng	-12158
▁ưoei	-12159
▁Barkô	-12160
▁Chung	-12161
▁Decis	-12162
▁Humta	-12163
▁Kơmar	-12164
▁Pơtăl	-12165
▁Tiưpu	-12166
▁Tôken	-12167
▁extra	-12168
▁kơdŭt	-12169
▁kơnôt	-12170
▁phŭng	-12171
▁pơgia	-12172
▁pơlŏn	-12173
▁rơlay	-12174
▁sơtêt	-12175
▁sơđah	-12176
▁thuck	-12177
▁thơ̆p	-12178
▁thươÊ	-12179
▁thư̆̆	-12180
▁truyu	-12181
▁trâ̆n	-12182
▁trŏch	-12183
▁trơvơ	-12184
▁ttach	-12185
▁tuanh	-12186
▁tuĕnh	-12187
▁tuơch	-12188
▁tŏdon	-12189
▁tŏpŏk	-12190
▁tơbôk	-12191
▁tơdro	-12192
▁tơdêl	-12193
▁tơdŭl	-12194
▁tơgĕl	-12195
▁tơhri	-12196
▁tơleh	-12197
▁tơlôr	-12198
▁tơmuk	-12199
Ma	-12200
Sơ	-12201
TP	-12202
gat	-12203
iot	-12204
đĕi	-12205
▁hw	-12206
Lĕch	-12207
dong	-12208
plơk	-12209
trôm	-12210
ôtia	-12211
ơmet	-12212
ơ̆rŭ	-12213
▁Bio	-12214
▁Dăr	-12215
▁Ish	-12216
▁Tiê	-12217
▁bum	-12218
▁chp	-12219
▁klŏ	-12220
▁sor	-12221
▁uô̆	-12222
▁wêr	-12223
▁xơl	-12224
BTNMT	-12225
Hơmet	-12226
hoenh	-12227
▁Anam	-12228
▁AÊnh	-12229
▁Igal	-12230
▁Krưp	-12231
▁Phêô	-12232
▁Sard	-12233
▁aong	-12234
▁awal	-12235
▁hwar	-12236
▁khĭt	-12237
▁nguă	-12238
▁ngô̆	-12239
▁nhah	-12240
▁nitơ	-12241
▁prol	-12242
▁pơlư	-12243
▁sađi	-12244
▁trơ̆	-12245
▁uô̆n	-12246
▁vung	-12247
▁Đana	-12248
▁đănh	-12249
insuan	-12250
▁Hisôp	-12251
▁Hnong	-12252
▁Isbak	-12253
▁Ishôt	-12254
▁Klong	-12255
▁Pharp	-12256
▁Rêson	-12257
▁Tiênh	-12258
▁bơgơm	-12259
▁bơlơĭ	-12260
▁chroa	-12261
▁chrĕk	-12262
▁chô̆̆	-12263
▁drĕng	-12264
▁duônh	-12265
▁kơmĭl	-12266
▁pơtău	-12267
▁pơyat	-12268
▁sađiô	-12269
▁tơkot	-12270
▁tơmĕt	-12271
▁tơneh	-12272
▁tơngl	-12273
▁tơnŭh	-12274
▁tơpai	-12275
▁tơphĕ	-12276
▁tơpoh	-12277
▁tơpra	-12278
▁tơrak	-12279
▁tơrĕk	-12280
▁tơtra	-12281
▁tơvih	-12282
▁tơwơh	-12283
▁tơđuk	-12284
▁vaÊân	-12285
▁video	-12286
▁virut	-12287
▁xanga	-12288
▁xuơ̆k	-12289
▁xuơ̆l	-12290
▁xơgơr	-12291
▁xơlam	-12292
▁xơngu	-12293
▁xơnua	-12294
▁xơrêm	-12295
▁Êlêal	-12296
▁Êlôhe	-12297
▁Ênaim	-12298
▁Ênmis	-12299
âc	-12300
ŭ̆	-12301
▁?	-12302
Răm	-12303
Yak	-12304
bur	-12305
gơh	-12306
ham	-12307
pih	-12308
ơtu	-12309
▁KƠ	-12310
▁dŭ	-12311
▁jŭ	-12312
▁kj	-12313
enua	-12314
▁Gai	-12315
▁Jin	-12316
▁Lan	-12317
▁Qŭ̆	-12318
▁bâc	-12319
▁giê	-12320
▁pru	-12321
▁six	-12322
▁tŏm	-12323
▁yôr	-12324
▁điê	-12325
Thĕng	-12326
Tơ̆ng	-12327
mương	-12328
nhươi	-12329
▁Awim	-12330
▁Bham	-12331
▁Gôim	-12332
▁Hơlă	-12333
▁Jôra	-12334
▁Sech	-12335
▁Sông	-12336
▁bơôr	-12337
▁chim	-12338
▁duyê	-12339
▁glơh	-12340
▁hyai	-12341
▁kbră	-12342
▁kjar	-12343
▁lơtu	-12344
▁măch	-12345
▁ngur	-12346
▁phơ̆	-12347
▁pĕch	-12348
▁tehd	-12349
▁thĭt	-12350
▁trơn	-12351
▁Balat	-12352
▁Gaham	-12353
▁Glaih	-12354
▁Harip	-12355
▁Kiđôn	-12356
▁Mêtsô	-12357
▁adroi	-12358
▁atŭng	-12359
▁hreng	-12360
▁hơlăn	-12361
▁kiêng	-12362
▁mươih	-12363
▁pluơk	-12364
▁plông	-12365
▁sơaih	-12366
▁sơbur	-12367
▁sơgol	-12368
▁thuơk	-12369
▁tring	-12370
▁Êstôn	-12371
▁êphaa	-12372
▁Đinit	-12373
▁Đêker	-12374
▁điinh	-12375
▁điong	-12376
▁điêch	-12377
▁điê̆n	-12378
▁đơđao	-12379
▁đ̆inh	-12380
▁ƀlĕch	-12381
▁ƀruih	-12382
▁Ơkơ̆u	-12383
▁ơbơău	-12384
▁ơdruh	-12385
▁ơdrơu	-12386
▁Ƀruih	-12387
BCĐCCTP	-12388
Drŏnglo	-12389
SVHTTDL	-12390
Sibôlêt	-12391
Vitamin	-12392
ahairoi	-12393
ammelek	-12394
anhalat	-12395
bênêser	-12396
elharsa	-12397
elêthit	-12398
etôphat	-12399
:/	-12400
BĐ	-12401
IU	-12402
SD	-12403
cp	-12404
pH	-12405
xi	-12406
://	-12407
BĐG	-12408
IUU	-12409
aip	-12410
gôh	-12411
keh	-12412
măm	-12413
năl	-12414
rŏk	-12415
▁PE	-12416
▁pH	-12417
Deic	-12418
anăn	-12419
▁Kŏk	-12420
▁Par	-12421
▁Thơ	-12422
▁USD	-12423
▁buh	-12424
▁gai	-12425
▁gôm	-12426
▁hia	-12427
▁men	-12428
▁oxi	-12429
▁tat	-12430
▁ton	-12431
▁tơe	-12432
▁yŏl	-12433
▁Đum	-12434
SKHĐT	-12435
wôđia	-12436
ôtôme	-12437
▁Anot	-12438
▁Isbi	-12439
▁Môch	-12440
▁Nhơk	-12441
▁Phôk	-12442
▁blăh	-12443
▁buôc	-12444
▁chĭp	-12445
▁deng	-12446
▁ghep	-12447
▁giay	-12448
▁hlŏk	-12449
▁kuôi	-12450
▁kơso	-12451
▁loăi	-12452
▁pĕnh	-12453
▁renh	-12454
▁tihb	-12455
▁tơăn	-12456
▁vuôn	-12457
▁Aphik	-12458
▁Chơ̆p	-12459
▁Hatil	-12460
▁Lơ̆mt	-12461
▁Parua	-12462
▁Prơih	-12463
▁Rispa	-12464
▁Sakia	-12465
▁Siren	-12466
▁anihi	-12467
▁chơ̆u	-12468
▁hmông	-12469
▁kơpak	-12470
▁kơtap	-12471
▁kơtua	-12472
▁pơhơi	-12473
▁thơ̆m	-12474
▁tiê̆u	-12475
▁vô̆ng	-12476
▁yuiêt	-12477
harwaim	-12478
himonus	-12479
issorun	-12480
maneser	-12481
nhŏngoh	-12482
ormalin	-12483
sldtbxh	-12484
usarium	-12485
ôpassiô	-12486
ơngiăng	-12487
▁Abadon	-12488
▁Abisak	-12489
▁Abisal	-12490
▁Abiêse	-12491
▁Adriel	-12492
▁Ahihut	-12493
▁Ahumai	-12494
▁Ahusam	-12495
▁Ahôbit	-12496
▁Alamôt	-12497
▁Aliaba	-12498
▁Amitai	-12499
,,	-12500
Vo	-12501
wm	-12502
ÊR	-12503
ŏr	-12504
ƀă	-12505
BBB	-12506
Kơk	-12507
cha	-12508
hir	-12509
kai	-12510
loi	-12511
wng	-12512
đei	-12513
̆ng	-12514
▁Im	-12515
▁do	-12516
▁jĕ	-12517
▁pk	-12518
▁pq	-12519
Mơ̆t	-12520
Tơmo	-12521
abăl	-12522
sung	-12523
êhot	-12524
ơ̆na	-12525
▁Bih	-12526
▁Jôh	-12527
▁Jơk	-12528
▁Mât	-12529
▁Puh	-12530
▁VÊR	-12531
▁băk	-12532
▁côn	-12533
▁dŏk	-12534
▁ger	-12535
▁juh	-12536
▁kiê	-12537
▁ret	-12538
▁têi	-12539
▁vơl	-12540
▁Đau	-12541
Kơkuh	-12542
issua	-12543
không	-12544
ơgang	-12545
▁Asôs	-12546
▁Diê̆	-12547
▁Jôha	-12548
▁Kĭnh	-12549
▁Nawm	-12550
▁Ngăn	-12551
▁Rĭng	-12552
▁beng	-12553
▁blut	-12554
▁bơĭh	-12555
▁djoi	-12556
▁jrai	-12557
▁kiĕo	-12558
▁klôp	-12559
▁ngŏn	-12560
▁nhâ̆	-12561
▁pơme	-12562
▁ronh	-12563
Tiê̆ng	-12564
bơgang	-12565
icidin	-12566
▁Bêtôn	-12567
▁Cabăl	-12568
▁Halep	-12569
▁Immer	-12570
▁Păkkê	-12571
▁Pơmat	-12572
▁dơnan	-12573
▁hơlăk	-12574
▁lơkai	-12575
▁nhăng	-12576
▁pqưng	-12577
▁pơsir	-12578
▁rơwơn	-12579
▁sekơl	-12580
▁trĕng	-12581
▁tơbơl	-12582
▁tơdam	-12583
▁tơjăt	-12584
▁ôphir	-12585
▁Đêdan	-12586
ytricha	-12587
▁Amnăng	-12588
▁Arauna	-12589
▁Aritak	-12590
▁Arubôt	-12591
▁Arêtah	-12592
▁Asasia	-12593
▁Aspanh	-12594
▁Asêrôt	-12595
▁Atarôt	-12596
▁Athach	-12597
▁Ađring	-12598
▁Baanah	-12599
CĐ	-12600
Weh	-12601
alu	-12602
ark	-12603
chơ	-12604
dơt	-12605
quy	-12606
ren	-12607
xên	-12608
Êch	-12609
▁Nk	-12610
▁ac	-12611
▁bư	-12612
▁sp	-12613
▁ơ̆	-12614
ngei	-12615
êsem	-12616
ơang	-12617
ơkat	-12618
ưong	-12619
▁Aya	-12620
▁Bom	-12621
▁Jăm	-12622
▁Sia	-12623
▁tur	-12624
▁tôk	-12625
▁xoe	-12626
▁Đăt	-12627
▁ƀôm	-12628
arkôn	-12629
êalôt	-12630
ơnĕng	-12631
▁Gơal	-12632
▁Mĕbă	-12633
▁Palu	-12634
▁Plôi	-12635
▁chuy	-12636
▁chơl	-12637
▁grĕi	-12638
▁hrŭm	-12639
▁jơma	-12640
▁klal	-12641
▁kơdơ	-12642
▁kơkă	-12643
▁luih	-12644
▁phăt	-12645
▁pơĕi	-12646
▁rimm	-12647
▁rơmô	-12648
▁than	-12649
▁trep	-12650
▁tơxĕ	-12651
▁urea	-12652
▁yiêu	-12653
sêbaim	-12654
uthiêl	-12655
▁Gêsem	-12656
▁Hiê̆n	-12657
▁Hơnul	-12658
▁Yanga	-12659
▁brăng	-12660
▁bơnoh	-12661
▁chơle	-12662
▁hơđoh	-12663
▁juơ̆t	-12664
▁khaih	-12665
▁kơtăh	-12666
▁mơnôh	-12667
▁phơ̆t	-12668
▁pơsuh	-12669
▁tiÊch	-12670
▁trâÊn	-12671
▁Bakbak	-12672
▁Baslit	-12673
▁Biogas	-12674
▁Bithia	-12675
▁Bitrôn	-12676
▁Bukkia	-12677
▁Bêalôt	-12678
▁Bêraia	-12679
▁Bêraka	-12680
▁Bêtkar	-12681
▁Bôngko	-12682
▁Bơgang	-12683
▁Bơngao	-12684
▁Bơngau	-12685
▁Bơsŭna	-12686
▁CHIÊNH	-12687
▁CTUBND	-12688
▁Chiprơ	-12689
▁Chơchă	-12690
▁Chơkep	-12691
▁Chơđah	-12692
▁Comite	-12693
▁Darkôn	-12694
▁Drơ̆ng	-12695
▁Dôpkah	-12696
▁Eglaim	-12697
▁Emeral	-12698
▁Enasin	-12699
Pơ	-12700
VX	-12701
Ben	-12702
Pơj	-12703
Rôp	-12704
Sĭt	-12705
duh	-12706
nik	-12707
qua	-12708
sĭt	-12709
tân	-12710
̆nh	-12711
▁Ko	-12712
▁MU	-12713
▁NK	-12714
▁co	-12715
Yêsu	-12716
akin	-12717
anih	-12718
brôm	-12719
nhưĭ	-12720
tuih	-12721
▁Gre	-12722
▁Lăn	-12723
▁Meh	-12724
▁Siu	-12725
▁dên	-12726
▁dê̆	-12727
▁lin	-12728
▁loh	-12729
▁nê̆	-12730
▁oie	-12731
▁wăk	-12732
▁đem	-12733
▁đŭr	-12734
▁ƀla	-12735
▁ƀĭh	-12736
nganh	-12737
nglob	-12738
▁Akŏu	-12739
▁Bôas	-12740
▁Bŏng	-12741
▁Hira	-12742
▁Ming	-12743
▁Mơ̆m	-12744
▁Ninh	-12745
▁Nơng	-12746
▁Thăi	-12747
▁Tŭ̆t	-12748
▁adar	-12749
▁chăh	-12750
▁hăng	-12751
▁krăm	-12752
▁kĕnh	-12753
▁luôn	-12754
▁manh	-12755
▁phê̆	-12756
▁plim	-12757
▁prok	-12758
▁pơei	-12759
▁tơpe	-12760
Pơjing	-12761
▁Abrni	-12762
▁Dihôn	-12763
▁Giơng	-12764
▁Jubal	-12765
▁Khŏnh	-12766
▁Pikôl	-12767
▁Plenh	-12768
▁Salum	-12769
▁Sihôr	-12770
▁Siphi	-12771
▁hlong	-12772
▁hyĭng	-12773
▁plĕng	-12774
▁pơkep	-12775
▁rơnei	-12776
▁thĭ̆t	-12777
▁tơxăl	-12778
▁Enspra	-12779
▁Gadiel	-12780
▁Gersôm	-12781
▁Growth	-12782
▁Gêdêôn	-12783
▁Gêmali	-12784
▁Hagaba	-12785
▁Hagôim	-12786
▁Hakila	-12787
▁Hakkôs	-12788
▁Halhul	-12789
▁Hapuch	-12790
▁Hatlai	-12791
▁Hađasa	-12792
▁Hideke	-12793
▁Hidêke	-12794
▁Hôsama	-12795
▁Hơchô̆	-12796
▁Hơgrop	-12797
▁Hơguăt	-12798
▁Hơgơ̆m	-12799
Bat	-12800
arê	-12801
bưt	-12802
pli	-12803
tar	-12804
uat	-12805
wĕi	-12806
▁Bt	-12807
▁Uh	-12808
▁ĐV	-12809
Anih	-12810
Bŏng	-12811
Yŏng	-12812
arih	-12813
bâÊt	-12814
dơ̆r	-12815
kapô	-12816
ngŭk	-12817
▁Akô	-12818
▁Bră	-12819
▁Dia	-12820
▁Dra	-12821
▁Kân	-12822
▁Lar	-12823
▁Lân	-12824
▁Pit	-12825
▁Sân	-12826
▁Tor	-12827
▁bơk	-12828
▁hân	-12829
▁lên	-12830
▁meh	-12831
▁plă	-12832
▁rŏl	-12833
▁Đeo	-12834
apbai	-12835
aphan	-12836
chung	-12837
pliat	-12838
▁Drap	-12839
▁Lŏng	-12840
▁Trôk	-12841
▁Têba	-12842
▁bêng	-12843
▁bơ̆r	-12844
▁chho	-12845
▁chui	-12846
▁inhb	-12847
▁jŏng	-12848
▁kapơ	-12849
▁mŏng	-12850
▁ngir	-12851
▁nhŭn	-12852
▁pơge	-12853
▁pơnă	-12854
▁thua	-12855
▁trên	-12856
▁yuăn	-12857
▁ơlei	-12858
CTUBND	-12859
kruuôĭ	-12860
▁Asêch	-12861
▁Broch	-12862
▁Bênôt	-12863
▁Kêđes	-12864
▁Maher	-12865
▁Pơjah	-12866
▁Silsa	-12867
▁Tharê	-12868
▁adech	-12869
▁chhom	-12870
▁hlĕnh	-12871
▁kơdăp	-12872
▁kơnam	-12873
▁lơ̆ma	-12874
▁mơgap	-12875
▁ngơ̆r	-12876
▁rơnon	-12877
▁sơĭng	-12878
▁tơlôm	-12879
▁tơlăi	-12880
▁tơsen	-12881
BNNPTNN	-12882
▁Gapbai	-12883
▁Helđai	-12884
▁Hơkrô̆	-12885
▁Hơlĕch	-12886
▁Hơlơ̆k	-12887
▁Hơnĕnh	-12888
▁Hơrăng	-12889
▁Hơtaih	-12890
▁Hơweng	-12891
▁Hơđong	-12892
▁HươÊng	-12893
▁Ikabôt	-12894
▁Ipđêia	-12895
▁Ismaia	-12896
▁Ithran	-12897
▁Itrêam	-12898
▁Jamlek	-12899
gm	-12900
Kŭm	-12901
QLN	-12902
Sen	-12903
aux	-12904
dŭn	-12905
iru	-12906
đet	-12907
▁JĂ	-12908
)...	-12909
Huăt	-12910
akal	-12911
alal	-12912
hơ̆u	-12913
êlit	-12914
▁Băl	-12915
▁Dăh	-12916
▁Ihd	-12917
▁Jei	-12918
▁JĂN	-12919
▁Kha	-12920
▁Mra	-12921
▁Pra	-12922
▁Van	-12923
▁Var	-12924
▁Veh	-12925
▁Viê	-12926
▁bơt	-12927
▁bơĭ	-12928
▁cng	-12929
▁cưc	-12930
▁jơu	-12931
▁ler	-12932
▁răr	-12933
▁say	-12934
▁Êse	-12935
Brơ̆u	-12936
Kơdŭn	-12937
Salal	-12938
▁Anup	-12939
▁Bruh	-12940
▁Bơ̆r	-12941
▁Dơng	-12942
▁Kơ̆u	-12943
▁Mong	-12944
▁Mơ̆u	-12945
▁Piru	-12946
▁Sơri	-12947
▁Tĭnh	-12948
▁Vung	-12949
▁anap	-12950
▁hiam	-12951
▁hioh	-12952
▁jĭng	-12953
▁khôm	-12954
▁khĭk	-12955
▁kălb	-12956
▁nanh	-12957
▁ngot	-12958
▁nhok	-12959
▁nămc	-12960
▁nĭng	-12961
▁phôm	-12962
▁prao	-12963
▁pual	-12964
▁tơgl	-12965
▁xôch	-12966
▁đakb	-12967
▁ơnăm	-12968
▁Ahawa	-12969
▁Mương	-12970
▁Rakal	-12971
▁Sêrua	-12972
▁bơang	-12973
▁bơtŏl	-12974
▁hoanh	-12975
▁juang	-12976
▁nghep	-12977
▁nguan	-12978
▁nhông	-12979
▁pơdei	-12980
▁pơjôk	-12981
▁Đương	-12982
methrin	-12983
▁Hơleng	-12984
▁Japhia	-12985
▁Japnêl	-12986
▁Jasubi	-12987
▁Jearim	-12988
▁Jêsiel	-12989
▁Jôbêha	-12990
▁Jôksan	-12991
▁Jôktan	-12992
▁Jơmŏng	-12993
▁Jơ̆nge	-12994
▁Kabula	-12995
▁Kaiphe	-12996
▁Kalneh	-12997
▁Kariat	-12998
▁Karuba	-12999
nư	-13000
Dêh	-13001
Hơt	-13002
ela	-13003
▁DC	-13004
▁Hă	-13005
Nhik	-13006
nơ̆p	-13007
▁Bơl	-13008
▁Măr	-13009
▁Păr	-13010
▁SơR	-13011
▁Tơx	-13012
▁drô	-13013
▁gôa	-13014
▁hlă	-13015
▁hru	-13016
▁nau	-13017
▁rap	-13018
▁tăr	-13019
▁vŭx	-13020
▁xah	-13021
▁xŭn	-13022
▁yôh	-13023
▁Đĭr	-13024
▁đĭê	-13025
Hơtai	-13026
ilong	-13027
▁Chep	-13028
▁Diêm	-13029
▁Gilô	-13030
▁Hlôh	-13031
▁Kơpu	-13032
▁Nerê	-13033
▁Rơmă	-13034
▁Sana	-13035
▁Tơ̆p	-13036
▁Yơ̆p	-13037
▁akal	-13038
▁akơn	-13039
▁arum	-13040
▁buah	-13041
▁bư̆k	-13042
▁chul	-13043
▁chêh	-13044
▁drơh	-13045
▁gohư	-13046
▁grai	-13047
▁hman	-13048
▁hrŭh	-13049
▁kiăn	-13050
▁kiăp	-13051
▁lơmă	-13052
▁lơ̆h	-13053
▁nhui	-13054
▁phăr	-13055
▁srok	-13056
▁teha	-13057
▁thơt	-13058
▁xrêm	-13059
uradan	-13060
▁Aksap	-13061
▁Hơkan	-13062
▁Lađan	-13063
▁Môlek	-13064
▁Philô	-13065
▁Salim	-13066
▁Tapua	-13067
▁Tơxŭl	-13068
▁bluch	-13069
▁blơng	-13070
▁chuêt	-13071
▁hrơ̆b	-13072
▁kơpơm	-13073
▁tiêch	-13074
▁trĕch	-13075
▁tơgah	-13076
▁tơmon	-13077
▁vŭxưm	-13078
▁Hơtơ̆p	-13079
▁Klôpas	-13080
▁Kusaia	-13081
▁Kuyêt̆	-13082
▁Kênani	-13083
▁Kêriôt	-13084
▁Kêtama	-13085
▁Kôlaia	-13086
▁Kơdeng	-13087
▁Kơmlat	-13088
▁Kơpăng	-13089
▁Kơtonh	-13090
▁Kơtŏng	-13091
▁Kơxêng	-13092
▁Kơđông	-13093
▁Luô̆ng	-13094
▁Lêbaôt	-13095
▁Maarat	-13096
▁Malitơ	-13097
▁Malkam	-13098
▁Marêka	-13099
sr	-13100
wh	-13101
bêA	-13102
gra	-13103
hrt	-13104
lem	-13105
▁nơ	-13106
Klah	-13107
khei	-13108
môch	-13109
ngưk	-13110
yô̆k	-13111
ôkim	-13112
▁Bra	-13113
▁Giơ	-13114
▁Ira	-13115
▁Kra	-13116
▁Luâ	-13117
▁Map	-13118
▁Môk	-13119
▁Yư̆	-13120
▁aru	-13121
▁cat	-13122
▁coi	-13123
▁gel	-13124
▁hit	-13125
▁hiu	-13126
▁iam	-13127
▁juô	-13128
▁krŭ	-13129
▁lư̆	-13130
▁mra	-13131
▁pap	-13132
▁pet	-13133
▁său	-13134
▁tie	-13135
▁yôk	-13136
▁yŏh	-13137
▁ăch	-13138
Barsa	-13139
apinh	-13140
▁Akel	-13141
▁Gađa	-13142
▁Ggra	-13143
▁Thư̆	-13144
▁hơmŏ	-13145
▁hơ̆r	-13146
▁jjơl	-13147
▁jơ̆t	-13148
▁khưm	-13149
▁klao	-13150
▁krên	-13151
▁krơ̆	-13152
▁lư̆c	-13153
▁moih	-13154
▁ngăh	-13155
▁rĕch	-13156
▁rơhu	-13157
▁rơhŏ	-13158
▁suăn	-13159
▁sôch	-13160
▁toih	-13161
chuyên	-13162
sriêng	-13163
▁Akelđ	-13164
▁Atara	-13165
▁Brŭng	-13166
▁Bôkim	-13167
▁Hiăng	-13168
▁Hôsai	-13169
▁Kuyên	-13170
▁Nepsa	-13171
▁Quach	-13172
▁Thư̆k	-13173
▁arônh	-13174
▁hiang	-13175
▁jangd	-13176
▁kranh	-13177
▁minab	-13178
▁phôch	-13179
▁pơơ̆t	-13180
▁srung	-13181
▁tơnŏk	-13182
▁Êkrôn	-13183
▁đoang	-13184
▁đơđơu	-13185
▁Kanaim	-13186
▁Kêlita	-13187
▁Kêmuel	-13188
▁Mattan	-13189
▁Midian	-13190
▁Miklôt	-13191
▁Mikđal	-13192
▁Molađa	-13193
▁Mêhiđa	-13194
▁Mêhôta	-13195
▁Mêkôna	-13196
▁Mêunim	-13197
▁Mĭkmas	-13198
▁Naaran	-13199
yo	-13200
Găh	-13201
bor	-13202
doh	-13203
dum	-13204
dêl	-13205
ire	-13206
jul	-13207
lom	-13208
ngŏ	-13209
tŏ̆	-13210
ô̆m	-13211
đum	-13212
Epha	-13213
Hưng	-13214
buôn	-13215
jưng	-13216
mire	-13217
nhur	-13218
phai	-13219
đêch	-13220
ơrai	-13221
▁Bul	-13222
▁Bum	-13223
▁Gop	-13224
▁Kem	-13225
▁Pul	-13226
▁bel	-13227
▁del	-13228
▁gip	-13229
▁giô	-13230
▁hoc	-13231
▁iem	-13232
▁koi	-13233
▁kor	-13234
▁kưk	-13235
▁lươ	-13236
▁mul	-13237
▁xuk	-13238
▁yul	-13239
▁đêi	-13240
liêng	-13241
tơmoi	-13242
▁Bluh	-13243
▁Chưk	-13244
▁Gơng	-13245
▁Hơbo	-13246
▁Jêus	-13247
▁Koan	-13248
▁Kuơk	-13249
▁Lêch	-13250
▁Mưng	-13251
▁Soan	-13252
▁aklo	-13253
▁chăk	-13254
▁hlum	-13255
▁hrum	-13256
▁kơnê	-13257
▁oĕng	-13258
▁thiê	-13259
▁tơrĭ	-13260
▁waih	-13261
▁Đô̆m	-13262
dơnang	-13263
▁Jơrai	-13264
▁Kkơpô	-13265
▁Samma	-13266
▁bgloh	-13267
▁bơ̆na	-13268
▁chănh	-13269
▁giaih	-13270
▁hiưng	-13271
▁jrơ̆k	-13272
▁kơdô̆	-13273
▁kơnăt	-13274
▁lươ̆t	-13275
▁măngt	-13276
▁pơgrê	-13277
▁trêch	-13278
▁tơrơn	-13279
▁Abitup	-13280
▁Admire	-13281
▁Chơgơu	-13282
▁Naphot	-13283
▁Neptôa	-13284
▁Nimrôt	-13285
▁Ninewơ	-13286
▁Ninêwơ	-13287
▁Niphas	-13288
▁Nipsan	-13289
▁Nêaria	-13290
▁Nêmuel	-13291
▁Nêphek	-13292
▁Nêtaim	-13293
▁Oidium	-13294
▁POpuôn	-13295
▁Paarai	-13296
▁Parwai	-13297
▁Pattrô	-13298
▁Penuel	-13299
Bê	-13300
TL	-13301
▁CV	-13302
▁Um	-13303
▁Ur	-13304
▁cŭ	-13305
▁ƀo	-13306
▁ƀu	-13307
▁ƀĭ	-13308
Iung	-13309
Pêng	-13310
bach	-13311
blip	-13312
blir	-13313
bŏch	-13314
jơ̆u	-13315
kach	-13316
nhŭk	-13317
niêm	-13318
êrip	-13319
▁Gak	-13320
▁Găn	-13321
▁Gơ̆	-13322
▁Hâm	-13323
▁Isi	-13324
▁Isl	-13325
▁Khô	-13326
▁Sut	-13327
▁Sơp	-13328
▁Tŭk	-13329
▁kăm	-13330
▁lol	-13331
▁lât	-13332
▁qŭn	-13333
▁ruk	-13334
▁sŭk	-13335
▁sưk	-13336
▁wât	-13337
▁đât	-13338
▁ƀăr	-13339
ngêng	-13340
▁Chuh	-13341
▁Husa	-13342
▁Pơtă	-13343
▁Trâu	-13344
▁giôi	-13345
▁giô̆	-13346
▁khŭk	-13347
▁khưk	-13348
▁lơmĕ	-13349
▁lươt	-13350
▁miêm	-13351
▁thât	-13352
▁xơ̆p	-13353
▁Êlun	-13354
▁ƀong	-13355
▁ƀuăh	-13356
lơ̆ngb	-13357
ubabel	-13358
▁Bison	-13359
▁Chăng	-13360
▁Chơ̆n	-13361
▁Islia	-13362
▁aguôt	-13363
▁anhơi	-13364
▁drĭng	-13365
▁gơhuh	-13366
▁hơgăm	-13367
▁hơhoh	-13368
▁kotum	-13369
▁kơdŏn	-13370
▁kơdŭk	-13371
▁lơmơt	-13372
▁phach	-13373
▁phlak	-13374
▁pơtôh	-13375
▁rơhal	-13376
▁Hammat	-13377
▁Hơlŏng	-13378
▁Kôsêba	-13379
▁Persia	-13380
▁Phahat	-13381
▁Phasêa	-13382
▁Phihah	-13383
▁Phinôm	-13384
▁Phiram	-13385
▁Phongh	-13386
▁Phêtus	-13387
▁Phôkar	-13388
▁Phơang	-13389
▁Plêgon	-13390
▁Prisil	-13391
▁Pêlaia	-13392
▁Pênina	-13393
▁Pênuel	-13394
▁Pênuêl	-13395
▁Pêthôr	-13396
▁Pêđaia	-13397
▁Pơchăh	-13398
▁Pơchŭt	-13399
Tô	-13400
iet	-13401
nuk	-13402
▁ăk	-13403
Khĕi	-13404
bêng	-13405
bĭnh	-13406
▁Dak	-13407
▁Don	-13408
▁Tưk	-13409
▁Vêt	-13410
▁cưk	-13411
▁hen	-13412
▁kuc	-13413
▁kưa	-13414
▁mit	-13415
▁mêp	-13416
▁năk	-13417
▁rêt	-13418
▁sit	-13419
▁tơă	-13420
▁văh	-13421
▁yôl	-13422
Blŭng	-13423
giĕng	-13424
▁Chơ̆	-13425
▁Deng	-13426
▁Djoi	-13427
▁Dăng	-13428
▁Hoat	-13429
▁Lach	-13430
▁Ngơk	-13431
▁Phâm	-13432
▁Rang	-13433
▁Sôdi	-13434
▁Trôm	-13435
▁Tuôi	-13436
▁apăk	-13437
▁buăh	-13438
▁bơbŏ	-13439
▁chet	-13440
▁duôh	-13441
▁hlăi	-13442
▁hnuk	-13443
▁hoăk	-13444
▁junh	-13445
▁kluh	-13446
▁kuăn	-13447
▁kyăl	-13448
▁nĕng	-13449
▁plak	-13450
▁plok	-13451
▁puôi	-13452
▁tiha	-13453
▁trôl	-13454
▁xrĕp	-13455
▁ƀôhm	-13456
▁ƀŭng	-13457
entale	-13458
luô̆ng	-13459
▁Apăng	-13460
▁Hơlăh	-13461
▁Kalnô	-13462
▁Kiê̆n	-13463
▁Mirma	-13464
▁Phŏng	-13465
▁Pơdŭk	-13466
▁Susin	-13467
▁Sôgan	-13468
▁Tranh	-13469
▁Triêm	-13470
▁aliet	-13471
▁juaih	-13472
▁khơ̆t	-13473
▁kơdăk	-13474
▁lơgah	-13475
▁plưng	-13476
▁thiê̆	-13477
▁truha	-13478
▁trăch	-13479
▁tơmăm	-13480
▁Abisur	-13481
▁Diưnơm	-13482
▁Jairut	-13483
▁Phôtip	-13484
▁Pơdjoi	-13485
▁Pơdreo	-13486
▁Pơgơ̆r	-13487
▁Pơhlôm	-13488
▁Pơhrôp	-13489
▁Pơhrăm	-13490
▁Pơlung	-13491
▁Pơnhan	-13492
▁Pơnhoh	-13493
▁Pơtrơp	-13494
▁Pơxĕnh	-13495
▁Pơyơ̆l	-13496
▁Pơđêng	-13497
▁Pơđông	-13498
▁Rahape	-13499
Uy	-13500
Kŭn	-13501
Vân	-13502
hin	-13503
huo	-13504
bĭ̆n	-13505
cham	-13506
inon	-13507
mral	-13508
tơkư	-13509
unon	-13510
Đưng	-13511
▁Din	-13512
▁Gôa	-13513
▁Hôt	-13514
▁HƠB	-13515
▁Pah	-13516
▁Tin	-13517
▁băh	-13518
▁dĭh	-13519
▁hô̆	-13520
▁hŭm	-13521
▁lum	-13522
▁oen	-13523
▁pưm	-13524
▁râm	-13525
▁sen	-13526
▁sâm	-13527
▁tôp	-13528
▁xeh	-13529
▁xep	-13530
▁xôp	-13531
▁xưt	-13532
▁Đuh	-13533
Biinh	-13534
hlĕch	-13535
nhông	-13536
▁Amrĕ	-13537
▁Bŭch	-13538
▁Hôba	-13539
▁Kŏng	-13540
▁Lael	-13541
▁Lĭnh	-13542
▁apin	-13543
▁atŭn	-13544
▁glăn	-13545
▁grŭp	-13546
▁hlêk	-13547
▁khup	-13548
▁plêl	-13549
▁poai	-13550
▁prôi	-13551
▁prăn	-13552
▁thêm	-13553
▁wĕnh	-13554
▁yăla	-13555
▁Ênam	-13556
yươ̆ng	-13557
▁Ahira	-13558
▁Akhan	-13559
▁Harep	-13560
▁Khô̆i	-13561
▁Punon	-13562
▁Trĭnh	-13563
▁chuah	-13564
▁hơbâu	-13565
▁hơgăi	-13566
▁klĭnh	-13567
▁kơpat	-13568
▁kơtăi	-13569
▁pơgăi	-13570
▁pơtir	-13571
▁pơyon	-13572
▁sơlih	-13573
▁sơmăt	-13574
▁trich	-13575
▁tơhăt	-13576
▁tơhŭm	-13577
▁tơnăm	-13578
▁tơtei	-13579
▁Aphêka	-13580
▁Bongai	-13581
▁Hasaia	-13582
▁Hêsmôn	-13583
▁Lêbana	-13584
▁Masêja	-13585
▁Migrôn	-13586
▁Ratoin	-13587
▁Regent	-13588
▁Rovral	-13589
▁Rumani	-13590
▁Rêphăl	-13591
▁Rêtsep	-13592
▁Rơmaih	-13593
▁Rơngao	-13594
▁SOpuôn	-13595
▁Salbim	-13596
▁Salisa	-13597
▁Salmai	-13598
▁Salômê	-13599
▁atruh	-13600
▁sơreh	-13601
▁Samina	-13602
▁Sapham	-13603
▁Saphat	-13604
▁Saraim	-13605
▁Sardis	-13606
▁Satana	-13607
▁Sađusê	-13608
▁Seikơl	-13609
▁Semaia	-13610
▁Semini	-13611
▁Sethan	-13612
▁Sibêôn	-13613
▁Silhim	-13614
▁Simrat	-13615
▁Simrôn	-13616
▁Sintĭk	-13617
▁Sipmôt	-13618
▁Sisera	-13619
▁Stiêng	-13620
▁Subael	-13621
▁Sunami	-13622
▁Suppit	-13623
▁Suriêl	-13624
▁Sêbôim	-13625
▁Sêmara	-13626
▁Sêmira	-13627
▁Sêpôra	-13628
▁Sêraja	-13629
▁Sêraya	-13630
▁Sêrêda	-13631
▁Sêrêđa	-13632
▁Sêtham	-13633
▁Sêthur	-13634
▁Sôpatê	-13635
▁Sơmĕch	-13636
▁Sơtơ̆p	-13637
▁Tahtim	-13638
▁Tanmai	-13639
▁Tartak	-13640
▁Thamar	-13641
▁Thapua	-13642
▁Thumim	-13643
▁Thêbes	-13644
▁Tiglat	-13645
▁Tiê̆ng	-13646
▁Trebon	-13647
▁Triphô	-13648
▁Trunng	-13649
▁Têhina	-13650
▁Têmeni	-13651
▁Tôphêt	-13652
▁TƠDRON	-13653
▁Tơbral	-13654
▁Tơdrơi	-13655
▁Tơhiap	-13656
▁Tơhrĕk	-13657
▁Tơjroh	-13658
▁Tơklah	-13659
▁Tơmtih	-13660
▁Tơngla	-13661
▁Tơpơ̆h	-13662
▁Tơƀăng	-13663
▁UNESCO	-13664
▁Vdring	-13665
▁Vibasu	-13666
▁Xơkơ̆t	-13667
▁Xơnơng	-13668
▁abloch	-13669
▁adrach	-13670
▁adreck	-13671
▁adrinh	-13672
▁adruch	-13673
▁adruhh	-13674
▁adrĕnh	-13675
▁adê̆ch	-13676
▁agrưch	-13677
▁ahrrei	-13678
▁ahrrĕi	-13679
▁amandê	-13680
▁anhang	-13681
▁anhông	-13682
▁apreng	-13683
▁apuung	-13684
▁ađrĭng	-13685
▁berelô	-13686
▁boiquy	-13687
▁bơdiêu	-13688
▁bơhnơr	-13689
▁bơlung	-13690
▁bơmrok	-13691
▁bơnang	-13692
▁bơngao	-13693
▁bơngoi	-13694
▁bơngol	-13695
▁bơnhŭl	-13696
▁bơsuăt	-13697
▁bơwĕnh	-13698
▁chdruh	-13699
▁chhdeh	-13700
▁chuang	-13701
▁chô̆ng	-13702
▁chơgâu	-13703
▁chơkeh	-13704
▁chơkot	-13705
▁chơkŭp	-13706
▁chơkơ̆	-13707
▁chơmai	-13708
▁chơneh	-13709
▁chơnen	-13710
▁chơnok	-13711
▁chơnăt	-13712
▁chơuôt	-13713
▁ditdut	-13714
▁djrang	-13715
▁djrông	-13716
▁driêng	-13717
▁dơdruh	-13718
▁dơglưm	-13719
▁glưong	-13720
▁graxia	-13721
▁gôphea	-13722
▁gôđêch	-13723
▁gôđĕch	-13724
▁gơdơ̆u	-13725
▁gơhlâu	-13726
▁gơhret	-13727
▁gơling	-13728
▁gơnhĕk	-13729
▁gơnĭng	-13730
▁gơwĕch	-13731
▁hiasin	-13732
▁hmnăng	-13733
▁hmuôih	-13734
▁hngiêl	-13735
▁homerb	-13736
▁hruôch	-13737
▁huaÊân	-13738
▁huơ̆ng	-13739
▁hyơ̆ng	-13740
▁hômerb	-13741
▁hơbang	-13742
▁hơbuăt	-13743
▁hơdahb	-13744
▁hơdrum	-13745
▁hơdĭng	-13746
▁hơgeia	-13747
▁hơgeic	-13748
▁hơgrih	-13749
▁hơguăt	-13750
▁hơgĕii	-13751
▁hơhiĕk	-13752
▁hơiuch	-13753
▁hơkơch	-13754
▁hơkơ̆t	-13755
▁hơlênh	-13756
▁hơlơ̆m	-13757
▁hơmơng	-13758
▁hơneng	-13759
▁hơngeo	-13760
▁hơngăm	-13761
▁hơnhuh	-13762
▁hơnhău	-13763
▁hơniê̆	-13764
▁hơnung	-13765
▁hơnăng	-13766
▁hơnŭng	-13767
▁hơnơ̆l	-13768
▁hơpaih	-13769
▁hơpuih	-13770
▁hơpơ̆r	-13771
▁hơwing	-13772
▁hơƀơ̆l	-13773
▁kjungn	-13774
▁korong	-13775
▁krisôp	-13776
▁kutăng	-13777
▁kơbơ̆n	-13778
▁kơcheh	-13779
▁kơchêr	-13780
▁kơchăt	-13781
▁kơchĭa	-13782
▁kơchĭk	-13783
▁kơdroh	-13784
▁kơdŏng	-13785
▁kơdơ̆l	-13786
▁kơdơ̆t	-13787
▁kơhret	-13788
▁kơhĭnh	-13789
▁kơklăk	-13790
▁kơkŏch	-13791
▁kơlang	-13792
▁kơlenh	-13793
▁kơlênh	-13794
▁kơmuôl	-13795
▁kơnhăm	-13796
▁kơnăng	-13797
▁kơphăi	-13798
▁kơphŏk	-13799
▁kơplơt	-13800
▁kơpơng	-13801
▁kơpơ̆t	-13802
▁kơthau	-13803
▁kơtolt	-13804
▁kơtuah	-13805
▁kơtuĕn	-13806
▁kơtơ̆n	-13807
▁kơxơ̆r	-13808
▁kơđong	-13809
▁kơƀang	-13810
▁lillul	-13811
▁lơhing	-13812
▁lơlial	-13813
▁lơmơ̆n	-13814
▁lơngŭa	-13815
▁mơdrâp	-13816
▁mơdrăp	-13817
▁mơgrĕk	-13818
▁mơgrŏk	-13819
▁mơhlak	-13820
▁mơhlik	-13821
▁mơkuôi	-13822
▁nghanh	-13823
▁nghiep	-13824
▁nguang	-13825
▁ngương	-13826
▁nilong	-13827
▁nitrat	-13828
▁phiê̆n	-13829
▁phiơ̆k	-13830
▁phuơ̆t	-13831
▁phơ̆ka	-13832
▁plĕnha	-13833
▁polôch	-13834
▁pơchok	-13835
▁pơchră	-13836
▁pơdiêu	-13837
▁pơdriu	-13838
▁pơdơ̆n	-13839
▁pơdưng	-13840
▁pơglôn	-13841
▁pơglơh	-13842
▁pơgrŭn	-13843
▁pơhach	-13844
▁pơhang	-13845
▁pơhiĕk	-13846
▁pơhlom	-13847
▁pơhlôh	-13848
▁pơhlôm	-13849
▁pơhrơp	-13850
▁pơhrơ̆	-13851
▁pơhơ̆p	-13852
▁pơjaoa	-13853
▁pơkhoy	-13854
▁pơkuĕl	-13855
▁pơloih	-13856
▁pơlĕch	-13857
▁pơlŏau	-13858
▁pơngêh	-13859
▁pơnhom	-13860
▁pơnhôn	-13861
▁pơnuôl	-13862
▁pơnơng	-13863
▁pơnưng	-13864
▁pơpơ̆t	-13865
▁pơrơih	-13866
▁pơsiêm	-13867
▁pơthgo	-13868
▁pơthod	-13869
▁pơthop	-13870
▁pơthâu	-13871
▁pơthơr	-13872
▁pơtêng	-13873
▁pơtĕng	-13874
▁pơtơnh	-13875
▁pơtơ̆l	-13876
▁pơvinh	-13877
▁pơxrăm	-13878
▁pơyoch	-13879
▁pơyĕng	-13880
▁pơđŏng	-13881
▁pơđơng	-13882
▁pưnhôm	-13883
▁rimrôm	-13884
▁rơbơ̆r	-13885
▁rơgohc	-13886
▁rơhiao	-13887
▁rơhium	-13888
▁rơkĕch	-13889
▁rơmơ̆t	-13890
▁rơpiĕt	-13891
▁rơvŏng	-13892
▁rơwănh	-13893
▁sesame	-13894
▁stress	-13895
▁sêkơla	-13896
▁sơdơ̆r	-13897
▁sơgônh	-13898
▁sơkơ̆t	-13899
▁sơmanh	-13900
▁sơmren	-13901
▁sơmôch	-13902
▁sơmĕch	-13903
▁	-13904
n	-13905
ơ	-13906
h	-13907
i	-13908
g	-13909
a	-13910
t	-13911
m	-13912
k	-13913
r	-13914
o	-13915
l	-13916
ă	-13917
p	-13918
u	-13919
e	-13920
̆	-13921
d	-13922
b	-13923
ô	-13924
đ	-13925
,	-13926
ư	-13927
s	-13928
ê	-13929
'	-13930
c	-13931
j	-13932
ĕ	-13933
y	-13934
ĭ	-13935
ŏ	-13936
w	-13937
ŭ	-13938
K	-13939
â	-13940
.	-13941
-	-13942
T	-13943
B	-13944
Y	-13945
S	-13946
N	-13947
Đ	-13948
I	-13949
H	-13950
x	-13951
1	-13952
v	-13953
D	-13954
P	-13955
L	-13956
2	-13957
0	-13958
M	-13959
A	-13960
;	-13961
V	-13962
J	-13963
:	-13964
C	-13965
9	-13966
3	-13967
5	-13968
‘	-13969
/	-13970
4	-13971
U	-13972
G	-13973
ƀ	-13974
6	-13975
q	-13976
R	-13977
7	-13978
8	-13979
Ê	-13980
(	-13981
)	-13982
–	-13983
Q	-13984
“	-13985
Ơ	-13986
"	-13987
X	-13988
%	-13989
?	-13990
W	-13991
E	-13992
Ư	-13993
Ă	-13994
Ƀ	-13995
O	-13996
