<unk>	0
<s>	0
</s>	0
ng	-0
▁t	-1
▁c	-2
▁đ	-3
nh	-4
▁v	-5
▁h	-6
▁th	-7
▁l	-8
▁ch	-9
▁tr	-10
▁b	-11
▁k	-12
▁s	-13
▁ng	-14
▁n	-15
▁m	-16
▁d	-17
▁g	-18
ác	-19
▁nh	-20
ph	-21
▁ph	-22
ời	-23
▁kh	-24
ông	-25
▁và	-26
▁T	-27
▁C	-28
ên	-29
uy	-30
▁gi	-31
iệ	-32
▁x	-33
▁các	-34
▁N	-35
ân	-36
▁q	-37
ười	-38
▁là	-39
ủa	-40
▁của	-41
▁r	-42
▁Đ	-43
▁người	-44
▁qu	-45
ong	-46
an	-47
ượ	-48
ới	-49
iế	-50
▁V	-51
▁cho	-52
ình	-53
ại	-54
▁Ch	-55
ất	-56
on	-57
ai	-58
ươ	-59
ôi	-60
ức	-61
ướ	-62
▁Ng	-63
▁H	-64
▁trong	-65
ội	-66
▁đã	-67
àn	-68
▁có	-69
inh	-70
▁ngh	-71
ây	-72
ài	-73
▁con	-74
iề	-75
▁Th	-76
▁không	-77
anh	-78
ch	-79
ược	-80
▁dân	-81
ực	-82
ành	-83
iể	-84
▁được	-85
ày	-86
ống	-87
▁B	-88
ước	-89
ết	-90
ồng	-91
▁G	-92
▁với	-93
uyệ	-94
iện	-95
ao	-96
iên	-97
ột	-98
▁họ	-99
ến	-100
ải	-101
ương	-102
uyện	-103
iều	-104
em	-105
át	-106
▁Tr	-107
ăn	-108
ay	-109
ững	-110
ăm	-111
▁đị	-112
ôn	-113
ua	-114
▁làm	-115
▁Gi	-116
úng	-117
ườ	-118
úa	-119
▁ho	-120
▁S	-121
▁đến	-122
▁như	-123
▁một	-124
ần	-125
eo	-126
ấy	-127
▁K	-128
ối	-129
ường	-130
▁công	-131
ền	-132
▁Ngài	-133
▁tôi	-134
▁trên	-135
ộng	-136
▁để	-137
ầu	-138
ận	-139
ật	-140
▁L	-141
▁những	-142
ản	-143
ính	-144
▁M	-145
ùng	-146
▁sẽ	-147
ộc	-148
òng	-149
▁Nh	-150
▁Chúa	-151
▁về	-152
ục	-153
ào	-154
▁huyện	-155
ập	-156
ắn	-157
▁năm	-158
ạo	-159
HÚ	-160
HÚA	-161
▁hiện	-162
▁P	-163
▁em	-164
▁đồng	-165
▁CHÚA	-166
▁thực	-167
ung	-168
iển	-169
▁phải	-170
▁nó	-171
▁chúng	-172
▁ra	-173
▁đó	-174
▁ở	-175
▁theo	-176
ĩnh	-177
▁ngày	-178
▁dự	-179
▁xã	-180
án	-181
▁từ	-182
ang	-183
iê	-184
oàn	-185
▁A	-186
▁Ph	-187
▁thành	-188
ạnh	-189
▁quy	-190
▁động	-191
▁thu	-192
▁anh	-193
▁chị	-194
iệc	-195
▁Vĩnh	-196
am	-197
▁vua	-198
ảo	-199
▁đi	-200
ạt	-201
au	-202
ái	-203
▁hội	-204
iến	-205
ách	-206
▁Đức	-207
▁chính	-208
ỉnh	-209
àng	-210
▁tế	-211
ằng	-212
▁triển	-213
áng	-214
▁cả	-215
áo	-216
▁việc	-217
ăng	-218
iết	-219
▁xu	-220
▁số	-221
▁nước	-222
▁lại	-223
ánh	-224
▁tổ	-225
▁nhà	-226
ặt	-227
ũng	-228
▁gia	-229
▁điều	-230
▁địa	-231
▁định	-232
▁vào	-233
▁bị	-234
ơn	-235
in	-236
ươi	-237
áp	-238
▁khi	-239
ừng	-240
▁chức	-241
▁tại	-242
ưa	-243
▁tỉnh	-244
▁sự	-245
▁dựng	-246
▁sản	-247
▁Trời	-248
ra	-249
ảng	-250
âu	-251
ấp	-252
ịch	-253
ổi	-254
▁Y	-255
▁xây	-256
▁phát	-257
ốt	-258
▁bảo	-259
ốc	-260
▁sinh	-261
òn	-262
▁cũng	-263
▁cơ	-264
▁nông	-265
▁vì	-266
▁mình	-267
▁hắn	-268
▁ta	-269
ốn	-270
▁vụ	-271
▁đầu	-272
▁đất	-273
ắt	-274
▁trình	-275
uyên	-276
▁ông	-277
âng	-278
▁viên	-279
ồi	-280
▁này	-281
▁nhân	-282
▁Ta	-283
▁cây	-284
âm	-285
▁Q	-286
▁nghiệ	-287
uyền	-288
▁đề	-289
ượng	-290
▁quan	-291
ích	-292
▁thể	-293
ạch	-294
▁tác	-295
▁học	-296
▁Kh	-297
▁lên	-298
ầy	-299
▁bàn	-300
ấn	-301
▁mà	-302
▁sống	-303
ợp	-304
▁tư	-305
ậy	-306
iêu	-307
ơi	-308
▁cùng	-309
▁hợp	-310
▁kinh	-311
▁lễ	-312
ạn	-313
▁chỉ	-314
iệu	-315
▁hành	-316
▁kẻ	-317
▁còn	-318
▁nghiệp	-319
▁lời	-320
ởng	-321
▁ban	-322
▁D	-323
óa	-324
▁cao	-325
▁toàn	-326
▁qua	-327
ia	-328
▁xuất	-329
▁tộc	-330
úc	-331
ụng	-332
▁bộ	-333
▁đạo	-334
ỏi	-335
▁thị	-336
▁giữ	-337
ứng	-338
iệt	-339
▁nói	-340
▁quả	-341
▁thì	-342
▁X	-343
ếu	-344
▁Như	-345
ỗi	-346
▁biết	-347
iệm	-348
▁ngươi	-349
▁y	-350
sơ	-351
▁bằng	-352
▁nhiều	-353
▁truyền	-354
▁lu	-355
▁cấp	-356
▁Giê	-357
▁trước	-358
ọi	-359
▁Hội	-360
▁tiế	-361
▁thời	-362
ãy	-363
▁ăn	-364
ND	-365
▁sách	-366
▁Thạnh	-367
▁“	-368
▁(	-369
▁hai	-370
ồn	-371
ảm	-372
▁an	-373
iểu	-374
▁ấy	-375
▁mặt	-376
ặc	-377
▁thôn	-378
ủy	-379
▁phương	-380
iểm	-381
▁-	-382
ạm	-383
▁phòng	-384
▁hình	-385
▁tập	-386
▁làng	-387
▁khai	-388
UB	-389
ưởng	-390
▁tay	-391
ám	-392
UBND	-393
▁kết	-394
▁vật	-395
▁mới	-396
èo	-397
▁hộ	-398
▁nhiệm	-399
ẫn	-400
ít	-401
▁tội	-402
ấu	-403
ệnh	-404
▁nào	-405
▁lo	-406
ạy	-407
ướng	-408
ửa	-409
▁nghèo	-410
▁tạo	-411
▁dụng	-412
▁hóa	-413
▁ngo	-414
ắc	-415
▁sở	-416
▁Nhưng	-417
▁lớ	-418
▁gian	-419
▁thấy	-420
▁trai	-421
▁UBND	-422
▁cứ	-423
▁Người	-424
▁lý	-425
iền	-426
▁nhận	-427
▁đường	-428
▁phần	-429
▁phí	-430
▁tiêu	-431
uôi	-432
▁nơi	-433
▁giao	-434
êu	-435
▁đời	-436
▁chủ	-437
▁trợ	-438
▁lòng	-439
▁trồng	-440
ạc	-441
▁chu	-442
▁tất	-443
▁chi	-444
▁trường	-445
▁nữ	-446
▁hoạch	-447
uổi	-448
▁nhưng	-449
ét	-450
▁Vì	-451
▁nghe	-452
áu	-453
ảy	-454
▁đều	-455
▁khác	-456
▁bà	-457
▁pháp	-458
▁hoạt	-459
▁đối	-460
▁thứ	-461
▁R	-462
▁bò	-463
▁nuôi	-464
ợi	-465
▁mọi	-466
ịnh	-467
▁Con	-468
▁Các	-469
▁lượng	-470
▁văn	-471
▁nên	-472
▁gì	-473
▁sau	-474
▁tự	-475
▁do	-476
▁thông	-477
▁dịch	-478
▁cầu	-479
▁hỗ	-480
▁rừng	-481
▁nay	-482
▁khỏi	-483
▁tốt	-484
▁đoàn	-485
▁đình	-486
▁tiếp	-487
▁đem	-488
▁kho	-489
▁Đảng	-490
▁thế	-491
▁thờ	-492
ẩm	-493
▁tham	-494
▁ai	-495
▁cu	-496
úi	-497
▁vùng	-498
ển	-499
uồn	-500
sa	-501
▁trị	-502
▁mạnh	-503
▁Sở	-504
▁Khi	-505
▁giải	-506
▁quân	-507
uyển	-508
▁huy	-509
ưới	-510
▁phục	-511
óc	-512
▁tâm	-513
▁hiệu	-514
▁cái	-515
▁chết	-516
ầm	-517
▁lực	-518
▁tháng	-519
ép	-520
▁Ban	-521
▁thức	-522
▁chống	-523
ọn	-524
▁hãy	-525
▁quyền	-526
▁năng	-527
▁tích	-528
▁đàn	-529
▁ngành	-530
▁án	-531
▁thần	-532
▁giống	-533
▁cách	-534
▁lã	-535
▁đền	-536
ạng	-537
▁gh	-538
ẩn	-539
▁su	-540
▁hướng	-541
▁vị	-542
▁vệ	-543
▁lớn	-544
▁đạt	-545
▁bệnh	-546
▁Giô	-547
▁quyết	-548
ọng	-549
▁Định	-550
▁hơn	-551
▁luật	-552
▁chưa	-553
▁hàng	-554
▁nâng	-555
▁phạm	-556
▁Trong	-557
ắp	-558
▁tin	-559
im	-560
▁lấy	-561
▁Quy	-562
ắng	-563
▁tình	-564
▁tra	-565
▁thường	-566
▁"	-567
▁đang	-568
▁rồi	-569
▁Bình	-570
▁trẻ	-571
▁vận	-572
▁chất	-573
▁trở	-574
▁phân	-575
▁Ê	-576
▁xuống	-577
▁lúa	-578
▁tục	-579
su	-580
▁thi	-581
▁thống	-582
ưu	-583
ọc	-584
▁hay	-585
▁nhất	-586
▁dâng	-587
▁dục	-588
▁phong	-589
..	-590
en	-591
▁Nếu	-592
▁ác	-593
TT	-594
▁Đa	-595
▁thuộc	-596
úp	-597
▁cha	-598
▁bỏ	-599
▁giờ	-600
▁tăng	-601
ẳng	-602
▁núi	-603
êm	-604
▁Và	-605
▁trung	-606
óp	-607
▁chí	-608
▁ba	-609
▁chân	-610
▁u	-611
▁ủy	-612
▁Chủ	-613
▁đảm	-614
▁giáo	-615
▁phán	-616
▁đại	-617
▁quản	-618
ẫy	-619
▁Sau	-620
▁phụ	-621
ằm	-622
▁yêu	-623
▁nguồn	-624
▁trưởng	-625
▁thương	-626
▁liên	-627
▁sáng	-628
▁lập	-629
ừa	-630
se	-631
▁mẹ	-632
iêng	-633
▁cá	-634
▁giữa	-635
▁ý	-636
▁lệ	-637
▁đánh	-638
▁Tôi	-639
ẩy	-640
▁vậy	-641
▁Hắn	-642
▁Ô	-643
▁phối	-644
▁cần	-645
ấm	-646
▁giảm	-647
▁rằng	-648
iếm	-649
vít	-650
▁tuyên	-651
▁lãnh	-652
▁giúp	-653
đa	-654
▁kế	-655
▁Vua	-656
▁nhau	-657
▁kiểm	-658
▁mu	-659
▁vợ	-660
▁mươi	-661
▁xứ	-662
▁Văn	-663
▁quốc	-664
▁vu	-665
ru	-666
▁kỳ	-667
▁gái	-668
▁dẫn	-669
▁Sa	-670
▁xử	-671
▁Ai	-672
▁Qu	-673
▁giá	-674
ôm	-675
▁dưới	-676
▁đây	-677
▁phẩm	-678
▁chịu	-679
▁bắt	-680
▁sử	-681
▁Môi	-682
▁lợi	-683
▁đổi	-684
▁mô	-685
na	-686
▁xin	-687
▁Nông	-688
▁trời	-689
iếu	-690
▁già	-691
▁đo	-692
▁góp	-693
▁trọng	-694
▁sức	-695
▁tiên	-696
▁báo	-697
▁chế	-698
▁dạy	-699
▁chuyển	-700
▁Ba	-701
ứa	-702
▁cứu	-703
▁Công	-704
▁tiến	-705
▁dùng	-706
▁đưa	-707
▁vững	-708
▁bào	-709
▁bên	-710
▁sạch	-711
ắm	-712
▁tì	-713
ượu	-714
▁tịch	-715
▁trách	-716
▁khu	-717
▁nghề	-718
▁đầy	-719
▁vốn	-720
▁danh	-721
ặng	-722
▁Tổ	-723
ri	-724
oát	-725
▁chương	-726
▁hạ	-727
▁Nhà	-728
▁sao	-729
▁vui	-730
▁kiến	-731
▁mắt	-732
▁kiện	-733
▁sát	-734
li	-735
▁nghị	-736
▁ngoài	-737
ịp	-738
▁tỷ	-739
▁hết	-740
▁phía	-741
▁đúng	-742
▁mỗi	-743
▁tìm	-744
▁hoặc	-745
▁thầy	-746
▁trào	-747
▁cháu	-748
▁Chính	-749
▁nữa	-750
▁thiết	-751
▁Giu	-752
▁Vậy	-753
▁Quyết	-754
ãi	-755
▁thân	-756
▁đủ	-757
▁Ông	-758
▁điểm	-759
▁mười	-760
▁cuộc	-761
▁đông	-762
▁Họ	-763
▁mù	-764
▁độ	-765
▁diện	-766
▁vàng	-767
▁chiến	-768
▁tiếng	-769
▁Có	-770
▁Những	-771
▁khó	-772
▁cổ	-773
▁lần	-774
▁nếu	-775
▁nội	-776
▁tai	-777
▁bình	-778
▁trâu	-779
th	-780
▁vi	-781
▁mục	-782
▁tượng	-783
▁ứng	-784
▁cư	-785
▁xét	-786
▁loại	-787
▁nhỏ	-788
▁tổng	-789
▁Ngh	-790
▁sâu	-791
▁rượu	-792
▁Nam	-793
▁Điều	-794
ễn	-795
▁sai	-796
iêm	-797
▁Á	-798
▁sợ	-799
▁biến	-800
▁chăn	-801
▁chung	-802
▁hoàn	-803
▁từng	-804
▁Chúng	-805
òa	-806
▁thanh	-807
▁hệ	-808
▁môi	-809
▁biểu	-810
▁mạng	-811
▁thuật	-812
ậu	-813
▁đảng	-814
▁giết	-815
▁đốc	-816
▁sông	-817
▁Lê	-818
▁lỗi	-819
▁đặt	-820
▁mang	-821
▁muốn	-822
▁trấn	-823
▁Việt	-824
▁triệu	-825
▁Bộ	-826
▁thịt	-827
▁phố	-828
▁đơn	-829
▁tuổi	-830
▁đứng	-831
▁thánh	-832
út	-833
ỡi	-834
▁cực	-835
▁nghĩ	-836
vi	-837
▁Phát	-838
▁Trung	-839
▁thiểu	-840
iệng	-841
▁đẩy	-842
▁Hãy	-843
▁to	-844
ìn	-845
ót	-846
lem	-847
▁rẫy	-848
▁tên	-849
▁rất	-850
▁gần	-851
▁đáp	-852
▁dung	-853
▁trại	-854
▁xa	-855
▁bản	-856
gia	-857
▁biển	-858
▁tinh	-859
éo	-860
ín	-861
▁bố	-862
▁Gia	-863
▁bảy	-864
▁cán	-865
▁lao	-866
▁đá	-867
▁bước	-868
ẹp	-869
▁phủ	-870
▁vực	-871
▁luôn	-872
▁Thế	-873
▁Đại	-874
môn	-875
▁bao	-876
▁Phó	-877
▁tri	-878
▁binh	-879
▁Giám	-880
▁biệt	-881
▁chứng	-882
▁bó	-883
▁tớ	-884
▁vẫn	-885
▁ước	-886
▁mùa	-887
▁trái	-888
▁bốn	-889
▁lâm	-890
▁rộng	-891
ặp	-892
▁Chỉ	-893
▁khăn	-894
▁tiền	-895
▁uống	-896
▁Kẻ	-897
▁gọi	-898
▁đực	-899
ấng	-900
▁cụ	-901
uyến	-902
▁đặc	-903
▁Không	-904
▁Ủ	-905
▁Anh	-906
▁quá	-907
▁hỏi	-908
▁nhằm	-909
▁nguyện	-910
▁Ủy	-911
▁khôn	-912
▁cường	-913
áy	-914
▁ca	-915
▁cáo	-916
▁gây	-917
▁hoa	-918
▁thủ	-919
▁chẳng	-920
cập	-921
▁thủy	-922
ởi	-923
▁Một	-924
▁hiểu	-925
▁doanh	-926
▁tài	-927
▁áo	-928
▁đoạn	-929
▁chuyện	-930
lô	-931
▁môn	-932
▁cầm	-933
▁chọn	-934
▁ngay	-935
▁chuẩn	-936
oi	-937
▁Ma	-938
▁Si	-939
▁Từ	-940
▁ký	-941
▁tu	-942
▁Qua	-943
▁cung	-944
▁trực	-945
▁chuyên	-946
▁hu	-947
▁trả	-948
▁tới	-949
▁giới	-950
▁Đấng	-951
ưng	-952
▁Để	-953
▁hưởng	-954
▁hại	-955
▁lệnh	-956
▁miền	-957
▁chiên	-958
▁lúc	-959
▁Ngày	-960
▁dòng	-961
▁chồng	-962
▁cửa	-963
▁Sơn	-964
▁đào	-965
▁Nghị	-966
▁thay	-967
▁ngoan	-968
ma	-969
ầng	-970
▁Lu	-971
▁họp	-972
▁lớp	-973
▁loài	-974
▁miệng	-975
rôn	-976
▁Kế	-977
▁Thu	-978
▁chiếm	-979
▁thiên	-980
▁tối	-981
▁vay	-982
▁lành	-983
▁kỹ	-984
▁xác	-985
▁Huyện	-986
II	-987
èn	-988
▁mở	-989
▁chăm	-990
▁đừng	-991
▁Chương	-992
▁cải	-993
▁trao	-994
rê	-995
▁kia	-996
▁mua	-997
ườn	-998
▁gặp	-999
▁lối	-1000
▁tín	-1001
▁đêm	-1002
▁đói	-1003
ữa	-1004
▁bổ	-1005
▁cộng	-1006
▁thư	-1007
▁nhìn	-1008
▁hương	-1009
▁trang	-1010
▁phá	-1011
▁thù	-1012
▁tức	-1013
▁xuyên	-1014
▁lửa	-1015
...	-1016
▁dài	-1017
▁hạn	-1018
▁đẹp	-1019
▁đội	-1020
▁buổi	-1021
▁lịch	-1022
▁tầng	-1023
ùi	-1024
▁kể	-1025
▁Đến	-1026
▁đức	-1027
▁diệt	-1028
▁gà	-1029
uyệt	-1030
▁Bên	-1031
▁trì	-1032
▁cỏ	-1033
▁heo	-1034
▁trí	-1035
▁xem	-1036
▁Luật	-1037
▁Xin	-1038
▁chỗ	-1039
▁đấu	-1040
▁ô	-1041
▁kịp	-1042
ếp	-1043
▁bạc	-1044
▁phạt	-1045
▁nghĩa	-1046
▁Cứ	-1047
▁sứ	-1048
▁đổ	-1049
▁vấn	-1050
▁giận	-1051
▁quanh	-1052
▁thiếu	-1053
iễn	-1054
▁vô	-1055
▁Theo	-1056
▁cạnh	-1057
▁thăm	-1058
▁vườn	-1059
õi	-1060
▁nhập	-1061
▁niên	-1062
▁tưởng	-1063
▁cố	-1064
la	-1065
àm	-1066
▁chạy	-1067
▁võ	-1068
▁thác	-1069
▁thêm	-1070
▁đóng	-1071
ba	-1072
ạp	-1073
▁vừa	-1074
▁vinh	-1075
ặn	-1076
iếc	-1077
▁tử	-1078
▁Cứu	-1079
▁càng	-1080
▁ru	-1081
▁mưu	-1082
▁ổ	-1083
ượt	-1084
▁bán	-1085
▁suất	-1086
▁thiêu	-1087
▁mưa	-1088
▁trăm	-1089
▁tuyển	-1090
▁Gh	-1091
▁ninh	-1092
▁vòng	-1093
▁nguyên	-1094
▁Sê	-1095
▁khô	-1096
▁mặc	-1097
▁giai	-1098
▁soát	-1099
▁gắn	-1100
▁huấn	-1101
▁hoàng	-1102
ọt	-1103
▁”	-1104
▁Hồ	-1105
▁đua	-1106
▁đáng	-1107
▁chiều	-1108
▁chuộc	-1109
▁ngoại	-1110
ựa	-1111
ỏe	-1112
ồm	-1113
▁rõ	-1114
▁cành	-1115
▁xong	-1116
▁sóc	-1117
▁khỏe	-1118
▁mừng	-1119
▁ngân	-1120
▁thuốc	-1121
TN	-1122
▁bất	-1123
▁lạc	-1124
▁canh	-1125
▁thiện	-1126
ốp	-1127
▁lá	-1128
▁Áp	-1129
▁Về	-1130
▁nạn	-1131
▁thật	-1132
▁nổi	-1133
▁Đồng	-1134
óm	-1135
▁đồ	-1136
▁dậy	-1137
▁Ha	-1138
▁hồ	-1139
▁hôm	-1140
▁kính	-1141
▁thú	-1142
▁chặt	-1143
▁suốt	-1144
▁dư	-1145
▁Căn	-1146
▁lưu	-1147
▁cảnh	-1148
▁kiếm	-1149
▁cô	-1150
▁sĩ	-1151
▁nam	-1152
▁phù	-1153
▁đuổi	-1154
▁thoát	-1155
▁thích	-1156
èm	-1157
▁lai	-1158
▁Giáo	-1159
▁Thực	-1160
▁suối	-1161
▁Tại	-1162
▁cận	-1163
▁hủy	-1164
▁tiết	-1165
▁ha	-1166
▁tà	-1167
▁giàu	-1168
▁khoảng	-1169
▁hứa	-1170
▁mạc	-1171
▁phó	-1172
▁sắc	-1173
▁chia	-1174
▁liền	-1175
▁phép	-1176
▁dù	-1177
▁Cha	-1178
rơ	-1179
▁Bấy	-1180
▁hoan	-1181
ôl	-1182
▁tỏ	-1183
▁Tội	-1184
▁hạt	-1185
▁đâu	-1186
▁tranh	-1187
ớm	-1188
▁gồm	-1189
▁Đây	-1190
▁chú	-1191
▁cất	-1192
▁yếu	-1193
▁chim	-1194
▁điện	-1195
ói	-1196
▁cắt	-1197
▁súc	-1198
▁Kinh	-1199
▁Thông	-1200
▁thuận	-1201
ủng	-1202
▁Yôl	-1203
▁ghi	-1204
▁mất	-1205
▁giám	-1206
▁khắp	-1207
▁linh	-1208
▁sung	-1209
▁nhiên	-1210
oài	-1211
▁đỡ	-1212
▁rau	-1213
▁tấn	-1214
▁xanh	-1215
▁Đề	-1216
▁xảy	-1217
▁thao	-1218
▁áp	-1219
▁nghệ	-1220
ém	-1221
TNT	-1222
▁bền	-1223
▁non	-1224
ẩu	-1225
▁dê	-1226
▁dõi	-1227
▁Thuận	-1228
▁Thánh	-1229
▁‘	-1230
cốp	-1231
▁Ca	-1232
▁Do	-1233
uân	-1234
▁Phi	-1235
▁Tài	-1236
▁hồn	-1237
▁kêu	-1238
▁tránh	-1239
ỡng	-1240
▁dầu	-1241
▁nhờ	-1242
▁Thời	-1243
▁Việc	-1244
ủi	-1245
▁đệ	-1246
▁nhớ	-1247
▁Đào	-1248
▁Nhơn	-1249
▁cổng	-1250
▁huyết	-1251
",	-1252
òi	-1253
▁Làng	-1254
▁bánh	-1255
▁ngàn	-1256
▁tặng	-1257
▁Chuyện	-1258
QĐ	-1259
ão	-1260
▁ổn	-1261
▁Hòa	-1262
▁Thủ	-1263
▁tận	-1264
▁riêng	-1265
iềm	-1266
uộc	-1267
▁dại	-1268
▁tấm	-1269
▁vâng	-1270
▁nộ	-1271
▁sa	-1272
▁uế	-1273
▁quý	-1274
▁phước	-1275
▁đau	-1276
▁đốt	-1277
).	-1278
iếng	-1279
▁Kim	-1280
▁Liên	-1281
▁Ngân	-1282
▁ngợi	-1283
▁so	-1284
▁tù	-1285
▁biện	-1286
▁lĩnh	-1287
▁Ga	-1288
▁cử	-1289
▁hậu	-1290
▁mức	-1291
▁Đinh	-1292
▁gương	-1293
ìa	-1294
ram	-1295
▁Còn	-1296
▁cấu	-1297
▁nằm	-1298
▁trụ	-1299
▁ngồi	-1300
▁ương	-1301
▁duyệt	-1302
▁Thị	-1303
▁dấu	-1304
▁Phòng	-1305
ơm	-1306
▁Lời	-1307
▁bầu	-1308
▁nho	-1309
▁xấu	-1310
▁ngôi	-1311
▁nặng	-1312
lơ	-1313
▁kéo	-1314
▁mãi	-1315
▁xóa	-1316
▁chữa	-1317
▁cuối	-1318
▁diễn	-1319
▁thưa	-1320
▁khiến	-1321
▁tạ	-1322
▁sáu	-1323
▁nhanh	-1324
▁Thường	-1325
▁Pha	-1326
▁bầy	-1327
▁nhu	-1328
▁tây	-1329
▁Tỉnh	-1330
▁quang	-1331
▁Bí	-1332
▁lũ	-1333
▁lạ	-1334
▁bón	-1335
▁khí	-1336
▁cánh	-1337
ảnh	-1338
▁Dân	-1339
▁Nhờ	-1340
▁khổ	-1341
▁tôn	-1342
bi	-1343
ứt	-1344
ữu	-1345
▁–	-1346
▁bờ	-1347
▁đa	-1348
▁Chí	-1349
▁gìn	-1350
▁nhi	-1351
▁trú	-1352
▁tính	-1353
ca	-1354
▁Nó	-1355
▁Với	-1356
▁thẩm	-1357
ha	-1358
iệp	-1359
▁gỗ	-1360
▁Năm	-1361
▁cháy	-1362
▁sang	-1363
▁trận	-1364
▁thắng	-1365
▁khuyến	-1366
▁trương	-1367
TTQ	-1368
▁đỏ	-1369
▁Lạy	-1370
▁Xây	-1371
▁dây	-1372
▁ngang	-1373
▁Nguyện	-1374
si	-1375
▁ít	-1376
▁Thể	-1377
▁gốc	-1378
▁hòa	-1379
▁răn	-1380
▁ngăn	-1381
▁nghiệm	-1382
ụi	-1383
▁Đừng	-1384
▁trông	-1385
▁Trưởng	-1386
un	-1387
ệt	-1388
▁kê	-1389
▁Bác	-1390
▁Phải	-1391
▁Sáng	-1392
▁nàng	-1393
▁trật	-1394
suê	-1395
sép	-1396
▁An	-1397
▁Chi	-1398
▁Hỡi	-1399
▁cai	-1400
▁lắm	-1401
▁Minh	-1402
▁Trường	-1403
lê	-1404
éc	-1405
▁cơn	-1406
▁màu	-1407
▁ngu	-1408
▁sửa	-1409
▁thề	-1410
▁chấp	-1411
Ng	-1412
▁Hê	-1413
▁ơn	-1414
▁Phê	-1415
▁bạn	-1416
▁hữu	-1417
▁lâu	-1418
▁mắc	-1419
▁ngủ	-1420
▁sớm	-1421
▁đai	-1422
▁Phối	-1423
▁Quân	-1424
ưỡi	-1425
▁tàu	-1426
▁khoa	-1427
▁kiên	-1428
ợt	-1429
▁che	-1430
▁liệu	-1431
▁tướng	-1432
hô	-1433
ửi	-1434
iếp	-1435
ĐND	-1436
▁Xuân	-1437
▁quần	-1438
▁vọng	-1439
hi	-1440
lôn	-1441
▁Co	-1442
▁Tuy	-1443
▁coi	-1444
▁trắng	-1445
mi	-1446
TTS	-1447
ươn	-1448
▁Bê	-1449
▁Mô	-1450
▁du	-1451
▁Rồi	-1452
▁máu	-1453
▁ngũ	-1454
▁Đền	-1455
▁DTTS	-1456
▁MTTQ	-1457
▁cúng	-1458
▁phấn	-1459
▁tiêm	-1460
▁ruộng	-1461
đê	-1462
ộn	-1463
▁Làm	-1464
▁Tham	-1465
▁chép	-1466
▁quay	-1467
▁trạng	-1468
HP	-1469
bô	-1470
▁mời	-1471
▁trừ	-1472
▁Đối	-1473
▁Quốc	-1474
▁chín	-1475
▁dưỡng	-1476
▁khích	-1477
▁nghịch	-1478
bu	-1479
ẵn	-1480
▁xe	-1481
▁ân	-1482
▁Vào	-1483
▁bày	-1484
▁bồi	-1485
▁sắp	-1486
▁Lễ	-1487
▁đô	-1488
▁Tất	-1489
▁độc	-1490
▁HĐND	-1491
▁Tổng	-1492
▁Được	-1493
▁tồn	-1494
▁nghỉ	-1495
▁thẳng	-1496
xa	-1497
ươm	-1498
▁bức	-1499
▁cảm	-1500
▁ghè	-1501
▁gió	-1502
▁nắm	-1503
▁rời	-1504
▁khóc	-1505
▁khắc	-1506
▁minh	-1507
▁thôi	-1508
▁vương	-1509
sê	-1510
▁bụi	-1511
▁ché	-1512
▁vươn	-1513
▁tường	-1514
),	-1515
ni	-1516
▁ưu	-1517
▁cạn	-1518
▁giả	-1519
▁thổ	-1520
▁thụ	-1521
▁chúc	-1522
▁chắc	-1523
▁luận	-1524
▁Bà	-1525
▁Hu	-1526
▁bệ	-1527
▁khả	-1528
▁mây	-1529
▁ngã	-1530
▁vết	-1531
▁Toàn	-1532
▁cưới	-1533
▁chiếc	-1534
ỉa	-1535
▁Na	-1536
uyễn	-1537
▁Cây	-1538
▁phổ	-1539
▁ánh	-1540
▁đứa	-1541
▁PTNT	-1542
▁giảng	-1543
▁chiêng	-1544
▁lò	-1545
▁nô	-1546
▁sơ	-1547
▁nầy	-1548
▁khẩu	-1549
▁lưng	-1550
▁tiện	-1551
▁đăng	-1552
▁hoang	-1553
▁luyện	-1554
▁Thương	-1555
ẫu	-1556
ợn	-1557
▁U	-1558
vid	-1559
▁dữ	-1560
▁bẫy	-1561
▁quà	-1562
▁sẵn	-1563
▁đồi	-1564
▁Nguyễn	-1565
▁lừa	-1566
▁trò	-1567
▁Đầu	-1568
▁đeo	-1569
▁thước	-1570
▁nghiêm	-1571
xê	-1572
ham	-1573
▁Sự	-1574
▁phê	-1575
▁Linh	-1576
▁buồn	-1577
▁ghét	-1578
▁gieo	-1579
▁Covid	-1580
ón	-1581
▁Nội	-1582
▁dối	-1583
▁họa	-1584
▁đập	-1585
▁chảy	-1586
uối	-1587
▁Nê	-1588
▁đê	-1589
đanh	-1590
▁Mỗi	-1591
▁dám	-1592
▁ngự	-1593
▁sân	-1594
▁đen	-1595
▁đãi	-1596
▁Cũng	-1597
▁khẩn	-1598
▁ngọn	-1599
▁phúc	-1600
▁Trước	-1601
▁triều	-1602
NN	-1603
▁Mê	-1604
▁câu	-1605
▁hầu	-1606
▁Trâu	-1607
▁tưới	-1608
▁thượng	-1609
ãnh	-1610
ướp	-1611
▁thúc	-1612
▁chuột	-1613
▁chàng	-1614
▁rương	-1615
%;	-1616
by	-1617
ậm	-1618
Hãy	-1619
▁vẻ	-1620
▁hồi	-1621
▁vai	-1622
▁đám	-1623
▁Nước	-1624
▁Quản	-1625
▁niềm	-1626
▁viết	-1627
ộm	-1628
tin	-1629
▁Ho	-1630
▁Mẹ	-1631
▁Hảo	-1632
▁mầm	-1633
▁rửa	-1634
▁đón	-1635
▁Hiện	-1636
▁hiến	-1637
▁nhục	-1638
▁thịnh	-1639
▁tuyến	-1640
▁Kê	-1641
▁kg	-1642
▁Bài	-1643
▁Bảo	-1644
▁Bết	-1645
▁cơm	-1646
▁dịp	-1647
▁gùi	-1648
▁ngụ	-1649
▁tha	-1650
▁đèn	-1651
▁dành	-1652
▁giỏi	-1653
ũi	-1654
▁bắp	-1655
▁cậy	-1656
▁mẫu	-1657
▁Giao	-1658
▁quán	-1659
▁vượt	-1660
▁Ngoài	-1661
ựu	-1662
▁rủa	-1663
▁ích	-1664
▁đợt	-1665
▁Cùng	-1666
▁gươm	-1667
▁phản	-1668
▁than	-1669
XH	-1670
▁Là	-1671
▁Thì	-1672
▁bão	-1673
▁mọc	-1674
▁quê	-1675
▁suy	-1676
▁tàn	-1677
▁tán	-1678
▁I	-1679
▁bé	-1680
▁lẫn	-1681
▁mật	-1682
▁nộp	-1683
▁sốt	-1684
▁đậu	-1685
▁Nhân	-1686
▁Thầy	-1687
▁trốn	-1688
▁khách	-1689
▁tương	-1690
III	-1691
▁cột	-1692
▁dọc	-1693
▁lan	-1694
▁tan	-1695
▁vầy	-1696
▁nhắc	-1697
%,	-1698
mê	-1699
mô	-1700
rô	-1701
íp	-1702
Con	-1703
▁Cơ	-1704
▁Lúc	-1705
▁gửi	-1706
▁kèm	-1707
▁màn	-1708
▁tùy	-1709
▁dạng	-1710
▁hằng	-1711
▁khám	-1712
▁lắng	-1713
▁màng	-1714
▁sàng	-1715
▁chỉnh	-1716
▁chuồng	-1717
▁Xã	-1718
▁da	-1719
▁hư	-1720
▁săn	-1721
▁tám	-1722
▁đảo	-1723
▁Kiểm	-1724
▁bụng	-1725
▁thuê	-1726
▁thèm	-1727
léc	-1728
▁Dự	-1729
▁mổ	-1730
▁Gát	-1731
▁bác	-1732
▁rút	-1733
▁xóm	-1734
▁Đất	-1735
▁bóng	-1736
▁chặn	-1737
▁cướp	-1738
▁giấu	-1739
▁toán	-1740
tha	-1741
▁sư	-1742
▁Cho	-1743
▁Hai	-1744
▁lão	-1745
▁tỉa	-1746
▁ảnh	-1747
▁chạm	-1748
▁lưỡi	-1749
▁Thanh	-1750
GD	-1751
▁o	-1752
cha	-1753
▁mì	-1754
▁chớ	-1755
▁lợn	-1756
▁nền	-1757
▁nỗi	-1758
▁xót	-1759
▁Thái	-1760
▁Trên	-1761
▁lồng	-1762
▁thận	-1763
▁Thịnh	-1764
uôn	-1765
đôm	-1766
ỏng	-1767
▁Du	-1768
▁nát	-1769
▁thử	-1770
▁đôi	-1771
▁đạp	-1772
▁chứa	-1773
▁khen	-1774
▁rông	-1775
Ch	-1776
bát	-1777
▁hy	-1778
▁hổ	-1779
▁kỷ	-1780
▁bạo	-1781
▁củi	-1782
▁gạo	-1783
▁hoá	-1784
▁xưa	-1785
▁kiệm	-1786
▁thải	-1787
▁Đoàn	-1788
▁lương	-1789
ớt	-1790
▁bài	-1791
▁chó	-1792
▁duy	-1793
▁xúc	-1794
▁mong	-1795
▁nhóm	-1796
▁Thành	-1797
bê	-1798
▁dỗ	-1799
▁nợ	-1800
than	-1801
▁Ghê	-1802
▁Mặt	-1803
▁bởi	-1804
▁chê	-1805
▁buộc	-1806
▁hạnh	-1807
▁ngọc	-1808
▁quên	-1809
▁thổi	-1810
▁tuần	-1811
▁đích	-1812
ẹn	-1813
ốm	-1814
pha	-1815
ượn	-1816
▁tơ	-1817
▁đẻ	-1818
▁ẩn	-1819
▁hát	-1820
▁khởi	-1821
▁lang	-1822
▁phun	-1823
ùa	-1824
▁Rê	-1825
▁Sử	-1826
▁di	-1827
▁Kho	-1828
▁Lao	-1829
▁mấy	-1830
▁nửa	-1831
▁rỗi	-1832
▁Bằng	-1833
▁nắng	-1834
▁trộm	-1835
▁khiêng	-1836
BGD	-1837
min	-1838
▁bí	-1839
▁uy	-1840
▁ấn	-1841
▁Kết	-1842
▁bay	-1843
▁bãi	-1844
▁hải	-1845
▁nêu	-1846
▁tái	-1847
▁Quang	-1848
▁giáng	-1849
▁phượng	-1850
om	-1851
đô	-1852
ỏa	-1853
bên	-1854
▁Dù	-1855
▁bê	-1856
▁ma	-1857
▁bây	-1858
▁cân	-1859
▁dọn	-1860
▁kém	-1861
▁Thật	-1862
▁giấy	-1863
▁khốn	-1864
▁niệm	-1865
▁khinh	-1866
CP	-1867
ùm	-1868
BNN	-1869
▁dặn	-1870
▁máy	-1871
▁vải	-1872
▁Hiệp	-1873
▁củng	-1874
▁trạm	-1875
ẫm	-1876
uốt	-1877
▁Xa	-1878
▁dễ	-1879
▁nỗ	-1880
▁rà	-1881
▁âm	-1882
chia	-1883
▁dao	-1884
▁mai	-1885
▁mối	-1886
▁rác	-1887
▁tho	-1888
▁Canh	-1889
▁nguy	-1890
▁ranh	-1891
▁tuân	-1892
▁tươi	-1893
▁phóng	-1894
hu	-1895
ta	-1896
ụt	-1897
▁Am	-1898
▁Ghi	-1899
▁Hôm	-1900
▁Mắt	-1901
▁khéo	-1902
▁ngựa	-1903
▁nóng	-1904
▁thấp	-1905
▁xung	-1906
▁thung	-1907
ẹt	-1908
ếm	-1909
▁p	-1910
rít	-1911
▁hái	-1912
▁hút	-1913
▁Ánh	-1914
▁đòi	-1915
▁Hô	-1916
▁bá	-1917
▁lộ	-1918
▁tố	-1919
▁vĩ	-1920
▁ấm	-1921
▁bột	-1922
▁chẽ	-1923
▁chờ	-1924
▁sợi	-1925
▁thả	-1926
▁thợ	-1927
▁Chân	-1928
▁Năng	-1929
▁kênh	-1930
▁nhiễ	-1931
▁thai	-1932
▁thái	-1933
▁tiểu	-1934
▁trọt	-1935
▁trúng	-1936
sác	-1937
▁Ku	-1938
▁Ra	-1939
uyết	-1940
▁Tay	-1941
▁Tây	-1942
▁Tạm	-1943
▁lạy	-1944
▁quỷ	-1945
▁xức	-1946
▁Lòng	-1947
▁chơi	-1948
▁cười	-1949
▁phận	-1950
▁thảo	-1951
CT	-1952
NĐ	-1953
đi	-1954
ởm	-1955
HPN	-1956
năm	-1957
▁Di	-1958
▁hề	-1959
▁Mục	-1960
▁cam	-1961
▁góc	-1962
▁hơi	-1963
▁tắt	-1964
▁vây	-1965
▁vội	-1966
▁Danh	-1967
▁LHPN	-1968
▁biên	-1969
▁chào	-1970
▁khối	-1971
▁liệt	-1972
▁lưới	-1973
▁tràn	-1974
▁đẳng	-1975
▁Nhiều	-1976
▁khoán	-1977
▁thang	-1978
HC	-1979
PL	-1980
▁bì	-1981
▁mồ	-1982
▁vũ	-1983
▁bắc	-1984
▁chợ	-1985
▁cậu	-1986
▁dắt	-1987
▁ghê	-1988
▁lăm	-1989
▁mũi	-1990
▁ngô	-1991
▁xếp	-1992
▁ghép	-1993
▁khóa	-1994
▁thui	-1995
▁Chánh	-1996
Th	-1997
ừu	-1998
TTg	-1999
bim	-2000
ỳnh	-2001
▁Hà	-2002
▁Ru	-2003
Ngày	-2004
▁Nơi	-2005
▁cấm	-2006
▁cừu	-2007
▁khá	-2008
▁túc	-2009
▁tởm	-2010
BGDPL	-2011
▁Cuộc	-2012
▁ngọt	-2013
▁thừa	-2014
▁nhiễm	-2015
▁triệt	-2016
▁khuyên	-2017
);	-2018
Ta	-2019
ớc	-2020
▁hố	-2021
▁la	-2022
▁mẽ	-2023
▁Đó	-2024
▁Chu	-2025
▁Kon	-2026
▁Phụ	-2027
▁Tết	-2028
▁gai	-2029
▁mến	-2030
▁rơi	-2031
▁rắn	-2032
▁tạp	-2033
▁tẩy	-2034
▁đày	-2035
▁Thân	-2036
▁Thần	-2037
▁Tăng	-2038
▁chôn	-2039
▁chúa	-2040
▁khát	-2041
▁kích	-2042
▁lũng	-2043
▁lượt	-2044
▁sừng	-2045
▁trôi	-2046
▁Miệng	-2047
▁trống	-2048
▁PBGDPL	-2049
▁phường	-2050
cô	-2051
nê	-2052
▁lẽ	-2053
▁no	-2054
▁Trẻ	-2055
▁bại	-2056
▁bắn	-2057
▁lân	-2058
▁ngữ	-2059
▁tăm	-2060
▁tạm	-2061
▁yên	-2062
▁Đặc	-2063
▁đâm	-2064
▁Nhằm	-2065
▁hoạn	-2066
▁kiều	-2067
▁vang	-2068
▁điên	-2069
▁Phước	-2070
▁ngừng	-2071
mu	-2072
ằn	-2073
▁Võ	-2074
Toàn	-2075
▁cẩn	-2076
▁hãi	-2077
▁ngõ	-2078
▁ong	-2079
▁rét	-2080
▁chắn	-2081
▁cuốn	-2082
▁hiểm	-2083
▁lặng	-2084
▁thâm	-2085
▁trọn	-2086
▁dương	-2087
▁nhiêu	-2088
▁nhiệt	-2089
xơ	-2090
ều	-2091
HPT	-2092
▁Xê	-2093
▁cớ	-2094
▁mã	-2095
▁mỡ	-2096
▁sẻ	-2097
▁tụ	-2098
▁cốt	-2099
▁gậy	-2100
▁nấm	-2101
▁sàn	-2102
▁đấy	-2103
▁Nghe	-2104
▁Phúc	-2105
▁cứng	-2106
▁nghi	-2107
▁ngắn	-2108
▁quen	-2109
▁Huỳnh	-2110
▁chiếu	-2111
▁trùng	-2112
▁nghiên	-2113
én	-2114
Các	-2115
HCS	-2116
háp	-2117
xia	-2118
▁La	-2119
▁bọc	-2120
▁cày	-2121
▁cắm	-2122
▁gan	-2123
▁lam	-2124
▁mái	-2125
▁ném	-2126
▁Bana	-2127
▁Kiến	-2128
▁Rượu	-2129
▁Trạm	-2130
▁thơm	-2131
▁thảy	-2132
▁tụng	-2133
▁nương	-2134
▁nguyền	-2135
▁thuyền	-2136
ía	-2137
▁ê	-2138
▁Tư	-2139
▁ẩm	-2140
▁Của	-2141
▁căn	-2142
▁hối	-2143
▁lựa	-2144
▁ngư	-2145
▁nấu	-2146
▁ven	-2147
▁đợi	-2148
▁Ngay	-2149
▁đuối	-2150
▁Nguồn	-2151
▁Thiên	-2152
%.	-2153
kg	-2154
xe	-2155
▁rễ	-2156
▁tô	-2157
▁xo	-2158
▁ốm	-2159
phát	-2160
▁Mọi	-2161
▁Tập	-2162
▁bếp	-2163
▁hôn	-2164
▁nối	-2165
▁say	-2166
▁sót	-2167
▁tầm	-2168
▁đòn	-2169
▁bảng	-2170
▁kiêu	-2171
▁Mi	-2172
▁bồ	-2173
▁cũ	-2174
▁lẻ	-2175
▁Thú	-2176
▁dệt	-2177
▁gom	-2178
▁sữa	-2179
▁thọ	-2180
▁tre	-2181
▁xâm	-2182
▁Đội	-2183
▁đục	-2184
▁Hoài	-2185
▁giác	-2186
▁hoại	-2187
▁ngôn	-2188
▁Truyền	-2189
▁thưởng	-2190
CB	-2191
ga	-2192
ấc	-2193
óng	-2194
▁Nên	-2195
▁bọn	-2196
▁cát	-2197
▁cãi	-2198
▁cối	-2199
▁lục	-2200
▁móc	-2201
▁quở	-2202
▁trữ	-2203
▁tâu	-2204
▁Nàng	-2205
▁Trại	-2206
▁buôn	-2207
▁bông	-2208
▁giáp	-2209
▁hùng	-2210
▁loạn	-2211
▁ngai	-2212
▁đụng	-2213
▁Chiều	-2214
▁Giăng	-2215
▁Phong	-2216
▁mương	-2217
▁Nguyên	-2218
mốt	-2219
rốt	-2220
ựng	-2221
▁Mà	-2222
▁bề	-2223
▁tệ	-2224
▁Chị	-2225
▁Chớ	-2226
▁Vạn	-2227
▁cào	-2228
▁cõi	-2229
▁dâm	-2230
▁dứt	-2231
▁lót	-2232
▁nai	-2233
▁tật	-2234
▁tắc	-2235
▁Đàn	-2236
▁Cháu	-2237
▁Phần	-2238
▁dũng	-2239
▁láng	-2240
▁nhạo	-2241
▁thập	-2242
▁đựng	-2243
▁miếng	-2244
er	-2245
ớn	-2246
kia	-2247
sau	-2248
ềng	-2249
▁Nô	-2250
▁cm	-2251
▁lở	-2252
▁mị	-2253
▁Chú	-2254
▁Cát	-2255
▁Lấy	-2256
▁lụt	-2257
▁quỹ	-2258
▁Đẩu	-2259
▁đan	-2260
▁chối	-2261
▁nhảy	-2262
▁tháo	-2263
▁treo	-2264
▁Đông	-2265
▁Hướng	-2266
▁Rương	-2267
▁Tháng	-2268
▁giềng	-2269
▁thiệt	-2270
úm	-2271
ậc	-2272
▁,	-2273
bết	-2274
ườm	-2275
▁Tờ	-2276
▁bẻ	-2277
▁há	-2278
▁lỗ	-2279
▁ty	-2280
▁Đi	-2281
▁Già	-2282
▁Hết	-2283
▁bậc	-2284
▁cục	-2285
▁dần	-2286
▁góa	-2287
▁hài	-2288
▁kèn	-2289
▁mầu	-2290
▁run	-2291
▁túi	-2292
▁đứt	-2293
▁ủng	-2294
▁Thấy	-2295
▁dừng	-2296
▁lông	-2297
▁lạnh	-2298
▁mượn	-2299
▁quét	-2300
▁tảng	-2301
▁đoán	-2302
▁tuyệt	-2303
Ph	-2304
xi	-2305
san	-2306
▁Hỗ	-2307
▁Su	-2308
▁na	-2309
chem	-2310
▁bội	-2311
▁dập	-2312
▁lầm	-2313
▁nài	-2314
▁đọc	-2315
▁Hàng	-2316
▁Phân	-2317
▁Tiếp	-2318
▁băng	-2319
▁trần	-2320
▁tông	-2321
▁đằng	-2322
▁Tiếng	-2323
▁Trồng	-2324
▁vướng	-2325
./	-2326
ban	-2327
bia	-2328
nan	-2329
▁vạ	-2330
▁vả	-2331
CHÚA	-2332
▁Cao	-2333
▁Sâu	-2334
▁gặt	-2335
▁lây	-2336
▁lìa	-2337
▁thở	-2338
▁đốn	-2339
▁THCS	-2340
▁Vượt	-2341
▁chén	-2342
▁muối	-2343
▁ngực	-2344
▁truy	-2345
▁xứng	-2346
▁chuỗi	-2347
▁nghìn	-2348
▁quảng	-2349
▁xương	-2350
Tôi	-2351
chê	-2352
sít	-2353
ỗng	-2354
▁Bố	-2355
▁KT	-2356
▁Sô	-2357
▁cọ	-2358
▁kè	-2359
▁nở	-2360
▁rẽ	-2361
▁xá	-2362
▁Báo	-2363
▁Bây	-2364
▁Xác	-2365
▁cắp	-2366
▁héo	-2367
▁lều	-2368
▁nhẹ	-2369
▁phi	-2370
▁tóc	-2371
▁voi	-2372
▁đầm	-2373
▁Gióp	-2374
▁Thưa	-2375
▁hiệp	-2376
▁khảo	-2377
▁mộng	-2378
▁răng	-2379
▁đắng	-2380
▁địch	-2381
▁chuối	-2382
▁chừng	-2383
▁kháng	-2384
ac	-2385
xã	-2386
ím	-2387
./.	-2388
TTr	-2389
nia	-2390
rết	-2391
tít	-2392
▁Cả	-2393
▁Tà	-2394
▁bè	-2395
▁Cựu	-2396
▁Hạt	-2397
▁chở	-2398
▁cập	-2399
▁khỉ	-2400
▁men	-2401
▁sắt	-2402
▁vac	-2403
▁vác	-2404
▁Đẩy	-2405
▁THPT	-2406
▁chồi	-2407
▁gánh	-2408
▁vung	-2409
▁vắng	-2410
▁khoản	-2411
ĩa	-2412
cin	-2413
man	-2414
nai	-2415
▁xé	-2416
▁Kôn	-2417
▁Rời	-2418
▁Thờ	-2419
▁bèn	-2420
▁chữ	-2421
▁kín	-2422
▁mồi	-2423
▁nạp	-2424
Người	-2425
▁Biên	-2426
▁Phao	-2427
▁XIII	-2428
▁chấm	-2429
▁cườm	-2430
▁hung	-2431
▁khơi	-2432
▁lính	-2433
▁ngập	-2434
▁phức	-2435
▁rụng	-2436
▁khiếp	-2437
▁khung	-2438
▁vaccin	-2439
".	-2440
HH	-2441
cm	-2442
gi	-2443
tê	-2444
ùn	-2445
▁Ki	-2446
▁Mỹ	-2447
▁Rô	-2448
▁ao	-2449
▁bọ	-2450
▁hè	-2451
▁mả	-2452
▁mộ	-2453
▁uỷ	-2454
▁vỡ	-2455
▁Đã	-2456
rong	-2457
▁Khu	-2458
▁cúi	-2459
▁hào	-2460
▁kìa	-2461
▁lấp	-2462
▁nhã	-2463
▁nếp	-2464
▁nồi	-2465
▁rối	-2466
▁xui	-2467
▁đùi	-2468
▁đột	-2469
▁chốt	-2470
▁cồng	-2471
▁dinh	-2472
▁hỏng	-2473
▁măng	-2474
▁nuốt	-2475
▁thỏa	-2476
▁tiệc	-2477
▁xống	-2478
▁đoạt	-2479
▁Chuẩn	-2480
▁khoen	-2481
▁trứng	-2482
▁Chiêng	-2483
▁vaccine	-2484
KT	-2485
lo	-2486
▁Mu	-2487
▁Sy	-2488
▁Số	-2489
▁Vợ	-2490
▁ơi	-2491
phót	-2492
▁Hếp	-2493
▁Tai	-2494
▁Xét	-2495
▁dày	-2496
▁gấp	-2497
▁múi	-2498
▁mỏi	-2499
▁rào	-2500
▁ván	-2501
▁Lãnh	-2502
▁báng	-2503
▁cuộn	-2504
▁cống	-2505
▁giấc	-2506
▁khải	-2507
▁ngon	-2508
▁nhẫn	-2509
▁phàm	-2510
▁rãnh	-2511
▁sủng	-2512
▁thóc	-2513
▁thất	-2514
▁vách	-2515
▁đinh	-2516
▁Triển	-2517
▁kiêng	-2518
re	-2519
ĐT	-2520
sai	-2521
▁dạ	-2522
▁im	-2523
▁tú	-2524
▁đà	-2525
▁Bất	-2526
▁Phù	-2527
▁giã	-2528
▁gạt	-2529
▁hân	-2530
▁lãi	-2531
▁lấn	-2532
▁mịn	-2533
▁mốc	-2534
▁nhé	-2535
▁nấy	-2536
▁pha	-2537
▁sét	-2538
▁vịt	-2539
▁đếm	-2540
▁Phạm	-2541
▁Thủy	-2542
▁Vòng	-2543
▁căng	-2544
▁hồng	-2545
▁lười	-2546
▁ngón	-2547
▁tùng	-2548
▁đỉnh	-2549
▁đống	-2550
▁quăng	-2551
▁trăng	-2552
gh	-2553
ki	-2554
ịa	-2555
ria	-2556
Đây	-2557
đan	-2558
▁Cô	-2559
▁Ký	-2560
▁Tu	-2561
PTNT	-2562
thái	-2563
▁Mức	-2564
▁côi	-2565
▁gớm	-2566
▁reo	-2567
▁rèn	-2568
▁sấm	-2569
▁tro	-2570
▁tím	-2571
▁Muốn	-2572
▁Trần	-2573
▁Tính	-2574
▁chay	-2575
▁chém	-2576
▁chút	-2577
▁miễn	-2578
▁mắng	-2579
▁ngạc	-2580
▁ngại	-2581
▁nhặt	-2582
▁phái	-2583
▁ròng	-2584
▁thói	-2585
▁trải	-2586
▁nướng	-2587
▁phiếu	-2588
▁thiệu	-2589
▁Phương	-2590
ti	-2591
ãm	-2592
ọa	-2593
lát	-2594
rin	-2595
▁Bi	-2596
▁gỡ	-2597
▁sổ	-2598
▁Bởi	-2599
▁Dịp	-2600
▁Huy	-2601
▁Lúa	-2602
▁Mạc	-2603
▁Nay	-2604
▁Nói	-2605
▁XII	-2606
▁chứ	-2607
▁cản	-2608
▁gác	-2609
▁gởi	-2610
▁hạc	-2611
▁hầm	-2612
▁lũy	-2613
▁mát	-2614
▁món	-2615
▁sấp	-2616
▁Đài	-2617
▁ưng	-2618
▁Rừng	-2619
▁chùm	-2620
▁chậm	-2621
▁tàng	-2622
▁xuân	-2623
▁Đang	-2624
▁điển	-2625
▁Nhiệm	-2626
▁ghiếc	-2627
▁khoai	-2628
▁nhánh	-2629
▁trừng	-2630
▁giường	-2631
▁thoáng	-2632
ok	-2633
ụp	-2634
cát	-2635
ướt	-2636
▁Hy	-2637
▁XI	-2638
▁bô	-2639
▁bể	-2640
▁mê	-2641
▁nề	-2642
▁sỉ	-2643
▁tả	-2644
▁xà	-2645
▁CCB	-2646
▁Hát	-2647
▁Lâm	-2648
▁bám	-2649
▁bừa	-2650
▁chà	-2651
▁dàn	-2652
▁dưa	-2653
▁lui	-2654
▁may	-2655
▁mòn	-2656
▁mệt	-2657
▁năn	-2658
▁vấp	-2659
▁Địa	-2660
▁Đời	-2661
▁cảng	-2662
▁hang	-2663
▁khâu	-2664
▁lăng	-2665
▁tang	-2666
▁vĩnh	-2667
▁Chiến	-2668
▁thừng	-2669
Nh	-2670
lu	-2671
ne	-2672
te	-2673
ìu	-2674
ẻo	-2675
Nếu	-2676
đát	-2677
▁Bò	-2678
▁Gô	-2679
▁Ên	-2680
▁đế	-2681
▁cốc	-2682
▁cựu	-2683
▁dạn	-2684
▁dời	-2685
▁gãy	-2686
▁hàm	-2687
▁khố	-2688
▁phú	-2689
▁rệt	-2690
▁tỏa	-2691
▁Đan	-2692
▁Hoặc	-2693
▁Hằng	-2694
▁Nhất	-2695
▁Tiên	-2696
▁Yang	-2697
▁hông	-2698
▁muỗi	-2699
▁ngạo	-2700
▁sanh	-2701
▁trưa	-2702
▁xông	-2703
▁Khiến	-2704
▁chăng	-2705
▁khuẩn	-2706
▁phụng	-2707
ei	-2708
ặm	-2709
ềm	-2710
▁a	-2711
Anh	-2712
hát	-2713
một	-2714
sôn	-2715
đôn	-2716
▁Cụ	-2717
▁KH	-2718
▁bu	-2719
▁dị	-2720
▁nọ	-2721
▁ủi	-2722
▁Bón	-2723
▁Cập	-2724
▁Kìa	-2725
▁Sao	-2726
▁Tạo	-2727
▁Vận	-2728
▁báu	-2729
▁cay	-2730
▁dẹp	-2731
▁lóc	-2732
▁mùi	-2733
▁mại	-2734
▁mềm	-2735
▁nảy	-2736
▁quỳ	-2737
▁sập	-2738
▁sắm	-2739
▁trá	-2740
▁tắm	-2741
▁đán	-2742
▁đắp	-2743
▁đồn	-2744
▁Bệnh	-2745
▁Khai	-2746
▁Quan	-2747
▁chòi	-2748
▁chớp	-2749
▁cuốc	-2750
▁ghen	-2751
▁giẫm	-2752
▁khấn	-2753
▁lanh	-2754
▁lược	-2755
▁ngừa	-2756
▁nhựa	-2757
▁trục	-2758
▁xưng	-2759
▁Tuyên	-2760
▁luống	-2761
▁phung	-2762
▁sương	-2763
NQ	-2764
TD	-2765
Vì	-2766
tu	-2767
ui	-2768
▁ạ	-2769
▁ủ	-2770
CTT	-2771
Dân	-2772
Tại	-2773
liu	-2774
nết	-2775
thi	-2776
thê	-2777
ếng	-2778
▁Hè	-2779
▁Vụ	-2780
▁XV	-2781
▁sả	-2782
▁ép	-2783
nước	-2784
▁Giờ	-2785
▁Này	-2786
▁PTD	-2787
▁Vừa	-2788
▁bật	-2789
▁bồn	-2790
▁cạo	-2791
▁cọp	-2792
▁cụm	-2793
▁hãm	-2794
▁hảo	-2795
▁lắp	-2796
▁mộc	-2797
▁nhì	-2798
▁rảy	-2799
▁rựa	-2800
▁tôm	-2801
▁Đêm	-2802
người	-2803
▁chọc	-2804
▁chục	-2805
▁giàn	-2806
▁giặt	-2807
▁nhọc	-2808
▁quấn	-2809
▁thẹn	-2810
▁thốn	-2811
▁trộn	-2812
▁viện	-2813
▁biếng	-2814
▁giếng	-2815
▁thách	-2816
▁trinh	-2817
):	-2818
YT	-2819
ran	-2820
rim	-2821
ượm	-2822
▁bỉ	-2823
▁sạ	-2824
▁sờ	-2825
▁vỏ	-2826
▁Bùi	-2827
▁Cái	-2828
▁Lót	-2829
▁Mai	-2830
▁can	-2831
▁cắn	-2832
▁cặp	-2833
▁gẫy	-2834
▁hấp	-2835
▁khe	-2836
▁lùi	-2837
▁nhĩ	-2838
▁nhổ	-2839
▁nâu	-2840
▁oán	-2841
▁rao	-2842
▁thí	-2843
▁tim	-2844
▁tải	-2845
▁xảo	-2846
▁Ách	-2847
▁Chấp	-2848
▁Dùng	-2849
▁Giải	-2850
▁Lưỡi	-2851
▁Tiêu	-2852
▁bạch	-2853
▁chầu	-2854
▁gang	-2855
▁giam	-2856
▁hiển	-2857
▁muôn	-2858
▁móng	-2859
▁ngài	-2860
▁nhạc	-2861
▁ràng	-2862
▁song	-2863
▁thắt	-2864
▁Giống	-2865
▁Hoàng	-2866
▁khiên	-2867
▁phiền	-2868
▁vượng	-2869
,”	-2870
TV	-2871
ìm	-2872
hôn	-2873
kim	-2874
phê	-2875
tan	-2876
õng	-2877
▁Ty	-2878
▁bư	-2879
▁gả	-2880
▁hô	-2881
▁lỡ	-2882
▁ni	-2883
▁tỉ	-2884
▁Át	-2885
▁ớt	-2886
luân	-2887
▁Gít	-2888
▁Tức	-2889
▁cúm	-2890
▁cọc	-2891
▁dẫy	-2892
▁gối	-2893
▁khử	-2894
▁lay	-2895
▁lôi	-2896
▁lột	-2897
▁mét	-2898
▁múa	-2899
▁qui	-2900
▁sôi	-2901
▁tòa	-2902
▁vẹn	-2903
▁Chăm	-2904
▁Suốt	-2905
▁Thăm	-2906
▁bỗng	-2907
▁chua	-2908
▁ganh	-2909
▁mồng	-2910
▁ngục	-2911
▁rình	-2912
▁tháp	-2913
▁tiễn	-2914
▁xích	-2915
▁Quyền	-2916
▁XVIII	-2917
▁thủng	-2918
▁Khuyến	-2919
TU	-2920
cơ	-2921
cây	-2922
lon	-2923
lác	-2924
mát	-2925
đáp	-2926
đốc	-2927
▁AN	-2928
▁CS	-2929
▁Kr	-2930
▁Sẽ	-2931
▁TN	-2932
▁TT	-2933
▁Tỷ	-2934
▁hò	-2935
▁mạ	-2936
▁pơ	-2937
▁tá	-2938
▁Hải	-2939
▁Mùa	-2940
▁dốc	-2941
▁dội	-2942
▁hom	-2943
▁mau	-2944
▁nhở	-2945
▁tết	-2946
▁tựa	-2947
▁xen	-2948
Chúng	-2949
▁Biển	-2950
▁Giai	-2951
▁Hiệu	-2952
▁KHKT	-2953
▁Mích	-2954
▁Tiểu	-2955
▁châm	-2956
▁diệu	-2957
▁hiếu	-2958
▁mạch	-2959
▁nhật	-2960
▁nhịp	-2961
▁niêm	-2962
▁rách	-2963
▁thạo	-2964
▁thắp	-2965
▁tiềm	-2966
▁vuông	-2967
be	-2968
km	-2969
ẳn	-2970
Xin	-2971
bôn	-2972
lép	-2973
nôn	-2974
oại	-2975
rát	-2976
sua	-2977
sáp	-2978
▁Hi	-2979
▁Tô	-2980
▁Xô	-2981
▁xi	-2982
▁ám	-2983
▁Đê	-2984
▁đe	-2985
▁ầm	-2986
ruch	-2987
▁Bắp	-2988
▁Cơm	-2989
▁Hơn	-2990
▁Phủ	-2991
▁Tha	-2992
▁Thư	-2993
▁bìa	-2994
▁bóc	-2995
▁bấy	-2996
▁bến	-2997
▁dựa	-2998
▁hôi	-2999
▁hỏa	-3000
▁hỗn	-3001
▁leo	-3002
▁lát	-3003
▁roi	-3004
▁rậm	-3005
▁rực	-3006
▁xói	-3007
▁yết	-3008
▁Bước	-3009
▁Chăn	-3010
▁Dịch	-3011
▁Khoa	-3012
▁Nuôi	-3013
▁Nâng	-3014
▁Sông	-3015
▁Tiến	-3016
▁Tích	-3017
▁bưởi	-3018
▁chai	-3019
▁cong	-3020
▁dàng	-3021
▁dược	-3022
▁khói	-3023
▁phơi	-3024
▁rước	-3025
▁soạn	-3026
▁thuế	-3027
▁thấu	-3028
▁tiếc	-3029
▁điếu	-3030
▁đuôn	-3031
▁Trình	-3032
▁chóng	-3033
▁ngước	-3034
▁nhúng	-3035
▁Đruch	-3036
▁thuyết	-3037
Có	-3038
TC	-3039
Tr	-3040
ro	-3041
ẳm	-3042
ebu	-3043
oan	-3044
tên	-3045
▁II	-3046
▁Kỹ	-3047
▁hỉ	-3048
▁km	-3049
▁nổ	-3050
▁si	-3051
▁đẽ	-3052
▁Bao	-3053
▁Cần	-3054
▁Lão	-3055
▁Lửa	-3056
▁Vốn	-3057
▁dọa	-3058
▁giỏ	-3059
▁gáy	-3060
▁gặm	-3061
▁huệ	-3062
▁hẹp	-3063
▁mài	-3064
▁rãi	-3065
▁rải	-3066
▁sụp	-3067
▁tổn	-3068
▁vài	-3069
▁Đặt	-3070
▁đôn	-3071
▁đúc	-3072
▁CSXH	-3073
▁Cuối	-3074
▁Khóa	-3075
▁Nhìn	-3076
▁Sinh	-3077
▁Tình	-3078
▁bênh	-3079
▁châu	-3080
▁chửi	-3081
▁hăng	-3082
▁kiểu	-3083
▁liều	-3084
▁rung	-3085
▁ruột	-3086
▁siêu	-3087
▁thẳm	-3088
▁thối	-3089
▁tách	-3090
▁Điêu	-3091
▁Đánh	-3092
▁Ngươi	-3093
▁khiển	-3094
▁nilon	-3095
▁thằng	-3096
▁đương	-3097
BNNPTNT	-3098
▁PTDTNT	-3099
CN	-3100
Gi	-3101
GĐ	-3102
ID	-3103
Kh	-3104
▁ư	-3105
lôm	-3106
nhà	-3107
oạn	-3108
rai	-3109
ríp	-3110
rúc	-3111
uốc	-3112
ổng	-3113
▁BV	-3114
▁Tự	-3115
▁dò	-3116
▁ly	-3117
▁mờ	-3118
▁tứ	-3119
▁vú	-3120
HHGĐ	-3121
phan	-3122
▁Cầu	-3123
▁Ghè	-3124
▁Góp	-3125
▁Hay	-3126
▁Hẹt	-3127
▁Hợp	-3128
▁Lỗi	-3129
▁Rẫy	-3130
▁Tam	-3131
▁Thi	-3132
▁Vân	-3133
▁bớt	-3134
▁cấy	-3135
▁hẳn	-3136
▁keo	-3137
▁lia	-3138
▁meo	-3139
▁mão	-3140
▁mèo	-3141
▁mía	-3142
▁ngà	-3143
▁noi	-3144
▁nét	-3145
▁rìu	-3146
▁rơm	-3147
▁soi	-3148
▁tuy	-3149
▁túy	-3150
▁tản	-3151
▁tặc	-3152
▁Đít	-3153
▁Đạo	-3154
▁đao	-3155
▁đĩa	-3156
▁Chim	-3157
▁Chọn	-3158
▁Dưới	-3159
▁TTYT	-3160
▁Trai	-3161
▁chừa	-3162
▁cõng	-3163
▁gắng	-3164
▁hạng	-3165
▁khoe	-3166
▁long	-3167
▁lượm	-3168
▁miếu	-3169
▁mảnh	-3170
▁ngơi	-3171
▁thêu	-3172
▁trầm	-3173
▁Đrin	-3174
▁Chiên	-3175
▁Khoản	-3176
▁cương	-3177
▁khuôn	-3178
▁thuẫn	-3179
▁trũng	-3180
▁trưng	-3181
▁viếng	-3182
Ai	-3183
LM	-3184
kh	-3185
st	-3186
va	-3187
ớp	-3188
▁à	-3189
CTr	-3190
Hỡi	-3191
Phụ	-3192
TTP	-3193
VID	-3194
chi	-3195
hem	-3196
hna	-3197
iệk	-3198
lei	-3199
nếu	-3200
tim	-3201
▁GD	-3202
▁Tý	-3203
▁Vi	-3204
▁ka	-3205
▁mơ	-3206
▁rủ	-3207
▁vò	-3208
ganh	-3209
hnar	-3210
▁Cơn	-3211
▁Cắt	-3212
▁Gần	-3213
▁Min	-3214
▁Nép	-3215
▁Phổ	-3216
▁Thê	-3217
▁Tên	-3218
▁Yêu	-3219
▁béo	-3220
▁bùn	-3221
▁bốc	-3222
▁bực	-3223
▁giơ	-3224
▁hán	-3225
▁hỡi	-3226
▁lén	-3227
▁lặn	-3228
▁lựu	-3229
▁mốt	-3230
▁ngó	-3231
▁nắp	-3232
▁râu	-3233
▁rầu	-3234
▁rủi	-3235
▁tựu	-3236
▁xua	-3237
▁đậy	-3238
▁ướt	-3239
▁Thịt	-3240
▁Tuần	-3241
▁chóc	-3242
▁chắt	-3243
▁chốn	-3244
▁cưỡi	-3245
▁diều	-3246
▁dính	-3247
▁giật	-3248
▁hiên	-3249
▁lánh	-3250
▁lịnh	-3251
▁tròn	-3252
▁tuôn	-3253
▁vượn	-3254
▁xoay	-3255
▁Điệk	-3256
▁điếc	-3257
▁đuôi	-3258
▁đàng	-3259
▁Chẳng	-3260
▁Ghinh	-3261
▁Khách	-3262
▁dường	-3263
▁giành	-3264
▁nguôi	-3265
▁phẳng	-3266
▁phừng	-3267
▁thiếp	-3268
▁Đường	-3269
▁Bahnar	-3270
▁nghiêng	-3271
tư	-3272
Khi	-3273
Lạy	-3274
Xây	-3275
cam	-3276
lia	-3277
ướm	-3278
▁Ne	-3279
▁Vũ	-3280
▁củ	-3281
▁hở	-3282
▁lơ	-3283
▁tị	-3284
▁vẽ	-3285
▁ôm	-3286
▁út	-3287
Thưa	-3288
chên	-3289
▁Ché	-3290
▁Chế	-3291
▁Câu	-3292
▁Cột	-3293
▁Học	-3294
▁Lạp	-3295
▁Lớn	-3296
▁Quỹ	-3297
▁Tấn	-3298
▁Tối	-3299
▁bát	-3300
▁bơi	-3301
▁bối	-3302
▁chẻ	-3303
▁dát	-3304
▁dâu	-3305
▁kẻo	-3306
▁nén	-3307
▁nứt	-3308
▁pơk	-3309
▁rẩy	-3310
▁sáo	-3311
▁đáo	-3312
▁đớn	-3313
▁ANTT	-3314
▁ATTP	-3315
▁Dòng	-3316
▁Dũng	-3317
▁Liệt	-3318
▁Long	-3319
▁Nhóm	-3320
▁Phan	-3321
▁Phía	-3322
▁TNHH	-3323
▁Thúy	-3324
▁chày	-3325
▁hiếp	-3326
▁khuy	-3327
▁nhạt	-3328
▁nong	-3329
▁quấy	-3330
▁rạng	-3331
▁trói	-3332
▁trăn	-3333
▁tung	-3334
▁vừng	-3335
▁xiêm	-3336
▁yang	-3337
▁Đằng	-3338
▁Địch	-3339
▁điêu	-3340
▁chông	-3341
▁duyên	-3342
▁khước	-3343
▁ngưng	-3344
▁khoang	-3345
▁khuyết	-3346
▁nhường	-3347
LT	-3348
UV	-3349
ii	-3350
me	-3351
ùy	-3352
ẹo	-3353
ễu	-3354
ờn	-3355
ụa	-3356
HTN	-3357
Này	-3358
SNN	-3359
lum	-3360
phơ	-3361
▁BC	-3362
▁Gò	-3363
▁Kỳ	-3364
▁TK	-3365
▁UB	-3366
▁XX	-3367
▁Xu	-3368
▁bù	-3369
▁hà	-3370
▁kệ	-3371
▁lõ	-3372
▁tờ	-3373
▁ví	-3374
▁ái	-3375
▁đè	-3376
"...	-3377
banh	-3378
▁Bọn	-3379
▁Lào	-3380
▁TUV	-3381
▁bôi	-3382
▁bữa	-3383
▁cưa	-3384
▁cẩm	-3385
▁dào	-3386
▁dồi	-3387
▁gẫm	-3388
▁héc	-3389
▁mực	-3390
▁ngờ	-3391
▁não	-3392
▁nín	-3393
▁oan	-3394
▁thơ	-3395
▁thẻ	-3396
▁tru	-3397
▁trơ	-3398
▁tốc	-3399
▁van	-3400
▁váy	-3401
▁vứt	-3402
▁Đảm	-3403
▁đẽo	-3404
▁ống	-3405
▁Chưa	-3406
▁Cộng	-3407
▁Hoàn	-3408
▁Hoạt	-3409
▁Hồng	-3410
▁Kính	-3411
▁LHTN	-3412
▁Phấn	-3413
▁Viện	-3414
▁khúc	-3415
▁kiệt	-3416
▁loan	-3417
▁lỏng	-3418
▁ngào	-3419
▁nhậm	-3420
▁nhắm	-3421
▁thám	-3422
▁trán	-3423
▁xuôi	-3424
▁Điểm	-3425
▁Đặng	-3426
▁điền	-3427
▁điệp	-3428
▁đoái	-3429
▁Lượng	-3430
▁chủng	-3431
▁huyền	-3432
▁huống	-3433
▁khang	-3434
▁khiêm	-3435
▁khuya	-3436
▁phiến	-3437
▁trích	-3438
▁tuyết	-3439
▁chuyền	-3440
▁nghiền	-3441
▁thoảng	-3442
TM	-3443
cỏ	-3444
ed	-3445
kê	-3446
nô	-3447
đơ	-3448
con	-3449
lam	-3450
per	-3451
rếp	-3452
tem	-3453
ếch	-3454
▁Bo	-3455
▁Bô	-3456
▁Cá	-3457
▁Cổ	-3458
▁Hơ	-3459
▁Lẽ	-3460
▁Mở	-3461
▁Ni	-3462
▁Ti	-3463
▁Tê	-3464
▁Tế	-3465
▁bú	-3466
▁bớ	-3467
▁co	-3468
▁mò	-3469
▁nỏ	-3470
▁rô	-3471
▁rể	-3472
▁rỡ	-3473
▁vã	-3474
▁xô	-3475
THPT	-3476
phia	-3477
▁Gió	-3478
▁Hồn	-3479
▁III	-3480
▁Lập	-3481
▁Máu	-3482
▁Mũi	-3483
▁Mặc	-3484
▁NTM	-3485
▁Sam	-3486
▁Thà	-3487
▁Vui	-3488
▁báp	-3489
▁bơm	-3490
▁bậy	-3491
▁cám	-3492
▁cởi	-3493
▁ghế	-3494
▁gọn	-3495
▁hốc	-3496
▁loa	-3497
▁lọc	-3498
▁mày	-3499
▁mùn	-3500
▁mập	-3501
▁ngả	-3502
▁ngộ	-3503
▁nắn	-3504
▁nếm	-3505
▁rắc	-3506
▁vun	-3507
▁vôi	-3508
▁vất	-3509
▁vắc	-3510
▁đốm	-3511
KHHGĐ	-3512
huyện	-3513
▁Châu	-3514
▁Chất	-3515
▁Cách	-3516
▁Giấy	-3517
▁Hùng	-3518
▁Mười	-3519
▁Ngôi	-3520
▁Tùng	-3521
▁Uống	-3522
▁chập	-3523
▁chợt	-3524
▁luân	-3525
▁phút	-3526
▁rưỡi	-3527
▁thâu	-3528
▁thấm	-3529
▁viền	-3530
▁xuẩn	-3531
▁Đàng	-3532
▁Đúng	-3533
▁điệu	-3534
▁Chiếc	-3535
▁Lương	-3536
▁chiêm	-3537
▁chước	-3538
▁cưỡng	-3539
▁giăng	-3540
▁khiếu	-3541
▁ngược	-3542
▁nhàng	-3543
▁phiên	-3544
▁quyên	-3545
▁quyển	-3546
▁quyệt	-3547
▁Chuyên	-3548
▁choàng	-3549
▁ngưỡng	-3550
LB	-3551
VN	-3552
gô	-3553
so	-3554
ịt	-3555
▁e	-3556
MLM	-3557
báp	-3558
bốt	-3559
cốt	-3560
lim	-3561
làm	-3562
lúa	-3563
mết	-3564
nót	-3565
ênh	-3566
đốt	-3567
▁Uỷ	-3568
▁cờ	-3569
▁dã	-3570
▁dụ	-3571
▁sô	-3572
▁tê	-3573
▁xả	-3574
▁Áo	-3575
▁ào	-3576
▁ôn	-3577
▁ấp	-3578
MTTQ	-3579
TTLT	-3580
iềng	-3581
mách	-3582
thôn	-3583
▁Bán	-3584
▁CLB	-3585
▁Cục	-3586
▁Heo	-3587
▁Lần	-3588
▁Lều	-3589
▁Lợn	-3590
▁Lủi	-3591
▁Mấy	-3592
▁Ráp	-3593
▁San	-3594
▁Sim	-3595
▁Trú	-3596
▁Tân	-3597
▁Tìm	-3598
▁Váy	-3599
▁bén	-3600
▁bút	-3601
▁gói	-3602
▁gũi	-3603
▁hót	-3604
▁kim	-3605
▁lau	-3606
▁mồm	-3607
▁nia	-3608
▁sầu	-3609
▁sắn	-3610
▁trổ	-3611
▁tát	-3612
▁xoá	-3613
▁Đưa	-3614
▁đáy	-3615
▁ươm	-3616
Chính	-3617
trong	-3618
▁Buổi	-3619
▁Diễn	-3620
▁Giữa	-3621
▁LMLM	-3622
▁Ngắt	-3623
▁Nhận	-3624
▁TKCN	-3625
▁chán	-3626
▁chậu	-3627
▁chổi	-3628
▁giòn	-3629
▁giản	-3630
▁khôi	-3631
▁loạt	-3632
▁mỏng	-3633
▁ngứa	-3634
▁nhai	-3635
▁nhọn	-3636
▁nồng	-3637
▁súng	-3638
▁then	-3639
▁thua	-3640
▁thuỷ	-3641
▁thảm	-3642
▁trỉa	-3643
▁vong	-3644
▁vành	-3645
▁Đoạn	-3646
▁điếm	-3647
▁Chuộc	-3648
▁Hưởng	-3649
▁Nghĩa	-3650
▁Ngoại	-3651
▁Riêng	-3652
▁Thiếu	-3653
▁buông	-3654
▁buồng	-3655
▁khuất	-3656
▁luồng	-3657
▁quyến	-3658
▁thình	-3659
▁thùng	-3660
▁thạch	-3661
▁UBMTTQ	-3662
▁nhoáng	-3663
QL	-3664
hê	-3665
hố	-3666
sô	-3667
tr	-3668
▁.	-3669
kin	-3670
phu	-3671
sết	-3672
đam	-3673
đia	-3674
▁Bọ	-3675
▁Bổ	-3676
▁CH	-3677
▁Cỏ	-3678
▁DS	-3679
▁Gà	-3680
▁IV	-3681
▁Lá	-3682
▁QL	-3683
▁TC	-3684
▁Yă	-3685
▁cà	-3686
▁dỡ	-3687
▁hễ	-3688
▁kí	-3689
▁lư	-3690
▁mũ	-3691
▁mỏ	-3692
▁mỹ	-3693
▁nê	-3694
▁nụ	-3695
▁vở	-3696
▁âu	-3697
▁đố	-3698
long	-3699
▁...	-3700
▁Bok	-3701
▁Bàn	-3702
▁Bắc	-3703
▁Bếp	-3704
▁Bồi	-3705
▁Cấp	-3706
▁Dây	-3707
▁Dấu	-3708
▁Dọc	-3709
▁Giá	-3710
▁Gùi	-3711
▁Lét	-3712
▁Mua	-3713
▁Mời	-3714
▁Nun	-3715
▁Nắp	-3716
▁Tin	-3717
▁Tùy	-3718
▁Tục	-3719
▁bói	-3720
▁bận	-3721
▁dịu	-3722
▁gào	-3723
▁hao	-3724
▁hèn	-3725
▁hấu	-3726
▁hẹn	-3727
▁lõm	-3728
▁mãn	-3729
▁nhơ	-3730
▁nại	-3731
▁phe	-3732
▁pho	-3733
▁phế	-3734
▁quí	-3735
▁ráo	-3736
▁rên	-3737
▁sào	-3738
▁sỏi	-3739
▁thô	-3740
▁vùi	-3741
▁vạn	-3742
▁vọt	-3743
▁vụt	-3744
▁xúi	-3745
▁xẻo	-3746
▁ách	-3747
▁đài	-3748
▁đạm	-3749
▁đạn	-3750
▁đệm	-3751
BGDĐT	-3752
Không	-3753
Ngươi	-3754
Trong	-3755
▁Chốt	-3756
▁Cảnh	-3757
▁Dâng	-3758
▁Khác	-3759
▁Krua	-3760
▁Ngựa	-3761
▁Sống	-3762
▁Thêm	-3763
▁Trộm	-3764
▁Vinh	-3765
▁Vùng	-3766
▁Xiếc	-3767
▁bướm	-3768
▁chửa	-3769
▁giặc	-3770
▁hiền	-3771
▁hứng	-3772
▁kali	-3773
▁kiềm	-3774
▁liềm	-3775
▁lãng	-3776
▁lình	-3777
▁muộn	-3778
▁ngói	-3779
▁nhấn	-3780
▁rạch	-3781
▁rỗng	-3782
▁thét	-3783
▁toan	-3784
▁trắc	-3785
▁tuốt	-3786
▁viễn	-3787
▁xiết	-3788
▁xoài	-3789
▁Đình	-3790
▁Chồng	-3791
▁Thống	-3792
▁Trách	-3793
▁chinh	-3794
▁chích	-3795
▁hoảng	-3796
▁khiết	-3797
▁khoét	-3798
▁khùng	-3799
▁khẳng	-3800
▁khủng	-3801
▁lường	-3802
▁siêng	-3803
▁thuần	-3804
▁xiềng	-3805
▁Trương	-3806
";	-3807
%/	-3808
CA	-3809
NG	-3810
NH	-3811
co	-3812
da	-3813
eb	-3814
et	-3815
oa	-3816
đu	-3817
Bây	-3818
CCB	-3819
Hôm	-3820
Học	-3821
ghi	-3822
ght	-3823
học	-3824
lần	-3825
lết	-3826
rou	-3827
tay	-3828
tra	-3829
trô	-3830
êng	-3831
Đền	-3832
ửng	-3833
▁Bế	-3834
▁Li	-3835
▁Lò	-3836
▁Lý	-3837
▁Sư	-3838
▁Xử	-3839
▁dể	-3840
▁hả	-3841
▁hủ	-3842
▁mè	-3843
▁rá	-3844
▁rũ	-3845
▁sỹ	-3846
▁tỳ	-3847
▁xỏ	-3848
▁ưa	-3849
chim	-3850
ngày	-3851
rách	-3852
Đừng	-3853
▁BCH	-3854
▁Cửa	-3855
▁Kẻo	-3856
▁Mới	-3857
▁NCT	-3858
▁Phu	-3859
▁Thứ	-3860
▁Tâm	-3861
▁beo	-3862
▁bẩn	-3863
▁bịt	-3864
▁chư	-3865
▁côn	-3866
▁cằn	-3867
▁gấu	-3868
▁gầy	-3869
▁ham	-3870
▁hâu	-3871
▁hòn	-3872
▁hận	-3873
▁lác	-3874
▁lít	-3875
▁lộc	-3876
▁lộn	-3877
▁lợp	-3878
▁múc	-3879
▁mặn	-3880
▁mịt	-3881
▁mụt	-3882
▁núp	-3883
▁nải	-3884
▁oằn	-3885
▁què	-3886
▁quạ	-3887
▁quế	-3888
▁rập	-3889
▁sói	-3890
▁sạt	-3891
▁sậy	-3892
▁trê	-3893
▁trĩ	-3894
▁tày	-3895
▁tẩm	-3896
▁vân	-3897
▁vót	-3898
▁vẹt	-3899
▁xới	-3900
▁Đem	-3901
▁Đơn	-3902
▁Đợt	-3903
▁Đứa	-3904
Những	-3905
▁Bụng	-3906
▁Chịu	-3907
▁Diêu	-3908
▁Drin	-3909
▁Dung	-3910
▁Ghẹt	-3911
▁Hình	-3912
▁Hưng	-3913
▁Loài	-3914
▁Sanh	-3915
▁Suối	-3916
▁Tháp	-3917
▁biếu	-3918
▁chói	-3919
▁dáng	-3920
▁giầu	-3921
▁giọt	-3922
▁giục	-3923
▁hoai	-3924
▁hãnh	-3925
▁khao	-3926
▁khoẻ	-3927
▁kịch	-3928
▁lung	-3929
▁mãnh	-3930
▁mông	-3931
▁nhọt	-3932
▁nhốt	-3933
▁nhộn	-3934
▁rồng	-3935
▁sành	-3936
▁sóng	-3937
▁sườn	-3938
▁thầm	-3939
▁thốt	-3940
▁tước	-3941
▁xách	-3942
▁đuốc	-3943
▁đấng	-3944
▁Boong	-3945
▁Chung	-3946
▁Huống	-3947
▁Quảng	-3948
▁Thỉnh	-3949
▁chanh	-3950
▁chuôi	-3951
▁gianh	-3952
▁giêng	-3953
▁huynh	-3954
▁khánh	-3955
▁phỏng	-3956
▁thiêng	-3957
▁truồng	-3958
AP	-3959
CC	-3960
NV	-3961
PK	-3962
TP	-3963
có	-3964
gà	-3965
tô	-3966
òe	-3967
BTC	-3968
Ban	-3969
GAP	-3970
Một	-3971
Sao	-3972
Vậy	-3973
côn	-3974
mắt	-3975
nít	-3976
ona	-3977
phi	-3978
qua	-3979
rắc	-3980
sen	-3981
tam	-3982
tia	-3983
tức	-3984
xét	-3985
Ông	-3986
ơng	-3987
ướn	-3988
▁Bu	-3989
▁Bị	-3990
▁Hệ	-3991
▁Rà	-3992
▁SK	-3993
▁Vị	-3994
▁bl	-3995
▁bã	-3996
▁cò	-3997
▁cú	-3998
▁cự	-3999
▁lô	-4000
▁nể	-4001
▁ro	-4002
▁vỗ	-4003
▁xí	-4004
▁ẩu	-4005
▁ập	-4006
....	-4007
PCTT	-4008
Thật	-4009
ghép	-4010
rona	-4011
ster	-4012
đoan	-4013
▁Blo	-4014
▁Bản	-4015
▁Bẫy	-4016
▁Dám	-4017
▁Hóa	-4018
▁Hầu	-4019
▁Hỏi	-4020
▁Hữu	-4021
▁Lâu	-4022
▁Líp	-4023
▁Lối	-4024
▁Mưa	-4025
▁NPK	-4026
▁Nhì	-4027
▁Nại	-4028
▁Phú	-4029
▁Sản	-4030
▁Sức	-4031
▁Trở	-4032
▁Ure	-4033
▁VII	-4034
▁Vật	-4035
▁bẩy	-4036
▁bụa	-4037
▁chì	-4038
▁cài	-4039
▁câm	-4040
▁cùn	-4041
▁dật	-4042
▁gài	-4043
▁gạc	-4044
▁gầm	-4045
▁hét	-4046
▁hùm	-4047
▁len	-4048
▁lùa	-4049
▁lầy	-4050
▁lật	-4051
▁mâu	-4052
▁mép	-4053
▁mắm	-4054
▁mửa	-4055
▁nan	-4056
▁neo	-4057
▁nhị	-4058
▁náo	-4059
▁náu	-4060
▁nẩy	-4061
▁nẻo	-4062
▁nọc	-4063
▁nứa	-4064
▁quì	-4065
▁rọi	-4066
▁rộn	-4067
▁rụi	-4068
▁san	-4069
▁tuệ	-4070
▁tuỳ	-4071
▁tòi	-4072
▁tơi	-4073
▁tạc	-4074
▁uốn	-4075
▁vòi	-4076
▁vóc	-4077
▁xay	-4078
▁xít	-4079
▁xốp	-4080
▁úng	-4081
▁đàm	-4082
▁đùa	-4083
▁đắc	-4084
▁đọt	-4085
▁ếch	-4086
Chung	-4087
HCSXH	-4088
tháng	-4089
▁BVTV	-4090
▁Bánh	-4091
▁Chòi	-4092
▁Drou	-4093
▁Hinh	-4094
▁Khỏi	-4095
▁Lĩnh	-4096
▁Mình	-4097
▁Mạng	-4098
▁Nghề	-4099
▁Ngọc	-4100
▁PCTT	-4101
▁Pháp	-4102
▁Phục	-4103
▁Ranh	-4104
▁Tinh	-4105
▁Trái	-4106
▁bàng	-4107
▁bưng	-4108
▁bịnh	-4109
▁chéo	-4110
▁chỏa	-4111
▁khép	-4112
▁khớp	-4113
▁lùng	-4114
▁mướn	-4115
▁mệnh	-4116
▁ngắm	-4117
▁ngắt	-4118
▁nheo	-4119
▁nhãn	-4120
▁phẫn	-4121
▁siếc	-4122
▁sánh	-4123
▁thầu	-4124
▁trổi	-4125
▁trụi	-4126
▁táng	-4127
▁vầng	-4128
▁vụng	-4129
▁xinh	-4130
▁xăng	-4131
▁đành	-4132
▁đọng	-4133
▁Chuỗi	-4134
▁Ngành	-4135
▁khống	-4136
▁liêng	-4137
▁ngạch	-4138
▁nhũng	-4139
▁phách	-4140
▁thoại	-4141
▁thăng	-4142
▁tráng	-4143
▁Khoảng	-4144
▁NHCSXH	-4145
▁Nghiên	-4146
▁Nhường	-4147
▁chuyến	-4148
▁chuộng	-4149
▁nhượng	-4150
▁Drought	-4151
BV	-4152
QH	-4153
QS	-4154
SS	-4155
TX	-4156
eâ	-4157
nu	-4158
ve	-4159
âi	-4160
ện	-4161
▁ơ	-4162
BVR	-4163
BXH	-4164
Kìa	-4165
can	-4166
dao	-4167
hút	-4168
hốp	-4169
lan	-4170
lốt	-4171
nát	-4172
túp	-4173
tốt	-4174
ãng	-4175
đen	-4176
đất	-4177
ươu	-4178
▁KM	-4179
▁NN	-4180
▁Sh	-4181
▁Sơ	-4182
▁Xi	-4183
▁bế	-4184
▁hé	-4185
▁hũ	-4186
▁kề	-4187
▁lọ	-4188
▁lồ	-4189
▁mé	-4190
▁mủ	-4191
▁ná	-4192
▁rã	-4193
▁rạ	-4194
▁te	-4195
▁vồ	-4196
▁xẻ	-4197
▁Đô	-4198
...)	-4199
Làng	-4200
Tình	-4201
ebsi	-4202
thít	-4203
▁Bảy	-4204
▁Bắt	-4205
▁Chữ	-4206
▁Coi	-4207
▁Cảm	-4208
▁Củi	-4209
▁Dao	-4210
▁Dik	-4211
▁Giữ	-4212
▁Gắn	-4213
▁Hoa	-4214
▁Hàn	-4215
▁Hạn	-4216
▁Kur	-4217
▁Lai	-4218
▁Lên	-4219
▁Men	-4220
▁Ngủ	-4221
▁Quả	-4222
▁Ríp	-4223
▁Sửa	-4224
▁Sữa	-4225
▁Tra	-4226
▁Tám	-4227
▁Tốt	-4228
▁Vay	-4229
▁XIV	-4230
▁Xem	-4231
▁Xim	-4232
▁Yên	-4233
▁búa	-4234
▁bủa	-4235
▁căm	-4236
▁cỗi	-4237
▁dãy	-4238
▁dép	-4239
▁dầy	-4240
▁dột	-4241
▁gié	-4242
▁gân	-4243
▁gục	-4244
▁húc	-4245
▁hộp	-4246
▁hớn	-4247
▁hờn	-4248
▁lái	-4249
▁lêu	-4250
▁lòa	-4251
▁lăn	-4252
▁mít	-4253
▁mền	-4254
▁nhũ	-4255
▁nhủ	-4256
▁nom	-4257
▁nòi	-4258
▁nóc	-4259
▁nản	-4260
▁oai	-4261
▁phô	-4262
▁rầy	-4263
▁sồi	-4264
▁tốn	-4265
▁tợn	-4266
▁vơi	-4267
▁vớt	-4268
▁xòe	-4269
▁Đôi	-4270
▁Đấy	-4271
▁đạc	-4272
▁đấm	-4273
▁đậm	-4274
drong	-4275
▁Binh	-4276
▁Biết	-4277
▁Chia	-4278
▁Chết	-4279
▁Cảng	-4280
▁Diện	-4281
▁Giép	-4282
▁Giúp	-4283
▁Kiên	-4284
▁Loại	-4285
▁Ngọn	-4286
▁Nhật	-4287
▁Plei	-4288
▁SKSS	-4289
▁Thóc	-4290
▁Tuấn	-4291
▁Từng	-4292
▁Viet	-4293
▁bong	-4294
▁bùng	-4295
▁bỏng	-4296
▁bừng	-4297
▁chêm	-4298
▁chìm	-4299
▁chấu	-4300
▁chẩn	-4301
▁chọi	-4302
▁còng	-4303
▁giâm	-4304
▁giếm	-4305
▁khui	-4306
▁lướt	-4307
▁lượn	-4308
▁miện	-4309
▁ngầm	-4310
▁ngửi	-4311
▁nhăn	-4312
▁nhằn	-4313
▁nhịn	-4314
▁nịnh	-4315
▁quát	-4316
▁ruồi	-4317
▁rống	-4318
▁tĩnh	-4319
▁Đứng	-4320
▁điềm	-4321
▁đoan	-4322
▁đòng	-4323
ebsite	-4324
▁Doanh	-4325
▁Phiếu	-4326
▁Thuộc	-4327
▁Trọng	-4328
▁Tuyến	-4329
▁chặng	-4330
▁cuống	-4331
▁cuồng	-4332
▁khiêu	-4333
▁khoác	-4334
▁khuấy	-4335
▁khổng	-4336
▁loáng	-4337
▁nhuận	-4338
▁nhuộm	-4339
▁pơkra	-4340
▁truân	-4341
▁khoanh	-4342
▁khoáng	-4343
▁nghênh	-4344
▁nguyệt	-4345
▁nhưỡng	-4346
▁UBMTTQVN	-4347
CL	-4348
Ha	-4349
KH	-4350
TB	-4351
VP	-4352
XD	-4353
bơ	-4354
cá	-4355
dự	-4356
id	-4357
ku	-4358
pe	-4359
to	-4360
từ	-4361
um	-4362
ệp	-4363
▁%	-4364
Cha	-4365
ICA	-4366
Tái	-4367
cua	-4368
gai	-4369
ghê	-4370
hai	-4371
líp	-4372
mai	-4373
mia	-4374
mèo	-4375
méc	-4376
mên	-4377
nam	-4378
phô	-4379
rác	-4380
rôm	-4381
suâ	-4382
sát	-4383
síp	-4384
đéc	-4385
▁Câ	-4386
▁KD	-4387
▁Ka	-4388
▁Kè	-4389
▁LĐ	-4390
▁Mồ	-4391
▁Nư	-4392
▁TP	-4393
▁VN	-4394
▁am	-4395
▁câ	-4396
▁dì	-4397
▁gõ	-4398
▁in	-4399
▁kì	-4400
▁le	-4401
▁lì	-4402
▁lề	-4403
▁má	-4404
▁pô	-4405
▁sà	-4406
▁sớ	-4407
▁ti	-4408
▁té	-4409
▁tễ	-4410
▁tủ	-4411
▁vơ	-4412
▁xó	-4413
▁yể	-4414
▁Ôi	-4415
▁ôi	-4416
▁ĐT	-4417
▁Đá	-4418
▁đu	-4419
▁ức	-4420
BCTT	-4421
HĐND	-4422
Nuôi	-4423
kích	-4424
lách	-4425
theo	-4426
thia	-4427
Đồng	-4428
▁Bio	-4429
▁Báp	-4430
▁Bến	-4431
▁Dít	-4432
▁Dạy	-4433
▁Gặp	-4434
▁Hrê	-4435
▁Hòn	-4436
▁Họp	-4437
▁Kịp	-4438
▁Lại	-4439
▁Lớp	-4440
▁Lực	-4441
▁Mất	-4442
▁Mầm	-4443
▁Mật	-4444
▁Nào	-4445
▁Nóc	-4446
▁Nầy	-4447
▁Nền	-4448
▁Nồi	-4449
▁Rim	-4450
▁Rơn	-4451
▁Sem	-4452
▁Thí	-4453
▁Trị	-4454
▁Xoa	-4455
▁Xếp	-4456
▁bia	-4457
▁bóp	-4458
▁bưu	-4459
▁bạt	-4460
▁bời	-4461
▁chả	-4462
▁cóc	-4463
▁cưu	-4464
▁cạm	-4465
▁cỡi	-4466
▁dòi	-4467
▁dằn	-4468
▁dồn	-4469
▁gen	-4470
▁ghé	-4471
▁gốm	-4472
▁lim	-4473
▁lằn	-4474
▁lọt	-4475
▁lội	-4476
▁lứa	-4477
▁mác	-4478
▁mắn	-4479
▁mớm	-4480
▁nhú	-4481
▁nái	-4482
▁nết	-4483
▁phả	-4484
▁rớt	-4485
▁sưa	-4486
▁thò	-4487
▁trà	-4488
▁trọ	-4489
▁tua	-4490
▁tơm	-4491
▁tảo	-4492
▁tụy	-4493
▁urê	-4494
▁vét	-4495
▁vạt	-4496
▁xoa	-4497
▁Đám	-4498
▁Đâu	-4499
▁Đợi	-4500
▁đun	-4501
▁đặn	-4502
Trước	-4503
loram	-4504
▁Biện	-4505
▁Chắc	-4506
▁Chặt	-4507
▁Cánh	-4508
▁Cúng	-4509
▁Cướp	-4510
▁Ghok	-4511
▁Giáp	-4512
▁Hành	-4513
▁Khái	-4514
▁Khối	-4515
▁Kích	-4516
▁Loan	-4517
▁Luận	-4518
▁Manh	-4519
▁Phun	-4520
▁Thay	-4521
▁Thim	-4522
▁Thức	-4523
▁Trọn	-4524
▁Trộn	-4525
▁VIII	-4526
▁Vườn	-4527
▁Xong	-4528
▁bổng	-4529
▁bứng	-4530
▁chài	-4531
▁chít	-4532
▁chùa	-4533
▁chụp	-4534
▁chực	-4535
▁giảo	-4536
▁giập	-4537
▁gạch	-4538
▁hiếm	-4539
▁hoâi	-4540
▁hươu	-4541
▁hừng	-4542
▁kiêm	-4543
▁lách	-4544
▁lổng	-4545
▁máng	-4546
▁mích	-4547
▁ngải	-4548
▁nhào	-4549
▁nhái	-4550
▁nhát	-4551
▁nhấp	-4552
▁nhẹn	-4553
▁nhện	-4554
▁nòng	-4555
▁plei	-4556
▁quai	-4557
▁sưng	-4558
▁thuở	-4559
▁thớt	-4560
▁tiếu	-4561
▁trèo	-4562
▁trùm	-4563
▁trúc	-4564
▁trĩu	-4565
▁tống	-4566
▁vuốt	-4567
▁vạch	-4568
Nguyện	-4569
▁Kriêm	-4570
▁Miếng	-4571
▁Phóng	-4572
▁Ruộng	-4573
▁Trang	-4574
▁Trăng	-4575
▁along	-4576
▁blang	-4577
▁bướng	-4578
▁thúng	-4579
loramin	-4580
▁Chuyển	-4581
▁Chuồng	-4582
▁Corona	-4583
▁Pleiku	-4584
▁giương	-4585
▁ngoảnh	-4586
▁pơkong	-4587
▁VietGAP	-4588
BC	-4589
CS	-4590
Cl	-4591
DA	-4592
DT	-4593
Mã	-4594
PT	-4595
cu	-4596
là	-4597
mm	-4598
pa	-4599
íu	-4600
ýt	-4601
đe	-4602
ũa	-4603
ọp	-4604
ỗm	-4605
▁:	-4606
AND	-4607
BNV	-4608
BTT	-4609
BYT	-4610
Cầu	-4611
Gia	-4612
KTN	-4613
Khu	-4614
LĐT	-4615
Như	-4616
Nầy	-4617
Tất	-4618
bin	-4619
bốc	-4620
cta	-4621
cơm	-4622
cửa	-4623
dan	-4624
gan	-4625
gis	-4626
hua	-4627
iêt	-4628
lai	-4629
len	-4630
lor	-4631
lóc	-4632
mim	-4633
nui	-4634
phe	-4635
rập	-4636
rệt	-4637
sam	-4638
sim	-4639
tic	-4640
tạc	-4641
xin	-4642
Đức	-4643
đai	-4644
đin	-4645
đối	-4646
ướu	-4647
ẵng	-4648
▁Be	-4649
▁Cố	-4650
▁Cử	-4651
▁Da	-4652
▁Dữ	-4653
▁Gu	-4654
▁Hễ	-4655
▁Pa	-4656
▁Ri	-4657
▁Sợ	-4658
▁TB	-4659
▁XH	-4660
▁bạ	-4661
▁cù	-4662
▁cữ	-4663
▁dĩ	-4664
▁dủ	-4665
▁gă	-4666
▁hơ	-4667
▁ki	-4668
▁kị	-4669
▁li	-4670
▁mẻ	-4671
▁mụ	-4672
▁nỉ	-4673
▁rú	-4674
▁sê	-4675
▁tể	-4676
▁xì	-4677
▁xỉ	-4678
▁Ôn	-4679
▁êm	-4680
▁úa	-4681
▁Đế	-4682
▁Đỏ	-4683
▁Độ	-4684
,...	-4685
GDĐT	-4686
Nước	-4687
Phải	-4688
QLCL	-4689
Tuổi	-4690
Tăng	-4691
VPCP	-4692
Việc	-4693
canh	-4694
giam	-4695
hách	-4696
khóa	-4697
phéc	-4698
rượu	-4699
tham	-4700
thác	-4701
▁Big	-4702
▁Bin	-4703
▁Bão	-4704
▁Bạo	-4705
▁Bầu	-4706
▁Cạt	-4707
▁Cụm	-4708
▁Dầu	-4709
▁Gốc	-4710
▁Hơi	-4711
▁KCl	-4712
▁KDC	-4713
▁Khỉ	-4714
▁Kíp	-4715
▁Lợi	-4716
▁Mít	-4717
▁Mẫu	-4718
▁Nhu	-4719
▁Núi	-4720
▁Quý	-4721
▁Rau	-4722
▁Rác	-4723
▁Súc	-4724
▁Thọ	-4725
▁Thử	-4726
▁Tim	-4727
▁Trò	-4728
▁Tòa	-4729
▁Tốc	-4730
▁Voi	-4731
▁bok	-4732
▁bon	-4733
▁bùa	-4734
▁bấm	-4735
▁bện	-4736
▁bọt	-4737
▁cua	-4738
▁cầy	-4739
▁cụt	-4740
▁dìu	-4741
▁dấy	-4742
▁dặm	-4743
▁hàn	-4744
▁hóc	-4745
▁hói	-4746
▁kẹp	-4747
▁kẹt	-4748
▁láo	-4749
▁lùm	-4750
▁lút	-4751
▁lạt	-4752
▁lẻn	-4753
▁lụa	-4754
▁man	-4755
▁méo	-4756
▁mạo	-4757
▁ngơ	-4758
▁nha	-4759
▁nhả	-4760
▁nón	-4761
▁nạo	-4762
▁nến	-4763
▁nức	-4764
▁phì	-4765
▁phỉ	-4766
▁ráp	-4767
▁rùa	-4768
▁rúc	-4769
▁rằm	-4770
▁sáp	-4771
▁sơn	-4772
▁sọc	-4773
▁sờn	-4774
▁tam	-4775
▁thà	-4776
▁trễ	-4777
▁táp	-4778
▁tép	-4779
▁tủi	-4780
▁tửu	-4781
▁viê	-4782
▁vãn	-4783
▁vía	-4784
▁vòm	-4785
▁vẩy	-4786
▁xửa	-4787
▁Đau	-4788
▁Đáp	-4789
▁Đầy	-4790
▁đái	-4791
▁đèo	-4792
▁đút	-4793
▁đắn	-4794
▁đới	-4795
...).	-4796
BTTTT	-4797
lorua	-4798
riêng	-4799
▁Biệt	-4800
▁Cham	-4801
▁Cung	-4802
▁Càng	-4803
▁Cành	-4804
▁GDNN	-4805
▁GDTX	-4806
▁Giết	-4807
▁Gươm	-4808
▁Hạnh	-4809
▁KTXH	-4810
▁King	-4811
▁Kông	-4812
▁Lệnh	-4813
▁Mang	-4814
▁Miên	-4815
▁Muôn	-4816
▁Măng	-4817
▁Nhập	-4818
▁PTDT	-4819
▁Phơi	-4820
▁Thao	-4821
▁Tiết	-4822
▁Tiền	-4823
▁Tiệt	-4824
▁Trải	-4825
▁Vàng	-4826
▁Vâng	-4827
▁Vầng	-4828
▁Xanh	-4829
▁Xuất	-4830
▁biêt	-4831
▁bách	-4832
▁bích	-4833
▁bồng	-4834
▁chùi	-4835
▁chấn	-4836
▁chốc	-4837
▁chồn	-4838
▁diễu	-4839
▁dong	-4840
▁dưng	-4841
▁ghẹo	-4842
▁giễu	-4843
▁huyê	-4844
▁liệm	-4845
▁lươn	-4846
▁lẳng	-4847
▁mách	-4848
▁nang	-4849
▁nanh	-4850
▁ngẫm	-4851
▁ngậm	-4852
▁nhàn	-4853
▁nhầm	-4854
▁nung	-4855
▁nách	-4856
▁phai	-4857
▁phết	-4858
▁quận	-4859
▁quật	-4860
▁rong	-4861
▁ruốc	-4862
▁rúng	-4863
▁rượt	-4864
▁siết	-4865
▁sùng	-4866
▁sưởi	-4867
▁test	-4868
▁thiu	-4869
▁thây	-4870
▁thết	-4871
▁trấu	-4872
▁túng	-4873
▁viru	-4874
▁vạng	-4875
▁vịnh	-4876
▁xiên	-4877
▁Điện	-4878
▁đính	-4879
▁đượm	-4880
LĐTBXH	-4881
gistic	-4882
▁Chàng	-4883
▁Chông	-4884
▁Cường	-4885
▁Hương	-4886
▁Thích	-4887
▁Thằng	-4888
▁Trịnh	-4889
▁Trống	-4890
▁Trứng	-4891
▁Vương	-4892
▁chạng	-4893
▁giang	-4894
▁giòng	-4895
▁gióng	-4896
▁giông	-4897
▁huyệt	-4898
▁ngoái	-4899
▁phình	-4900
▁phồng	-4901
▁sướng	-4902
▁thong	-4903
▁thỉnh	-4904
▁triền	-4905
▁Thượng	-4906
▁master	-4907
▁tôdrong	-4908
▁Cloramin	-4909
%)	-4910
;”	-4911
BB	-4912
GT	-4913
HĐ	-4914
TQ	-4915
TY	-4916
VB	-4917
bo	-4918
bá	-4919
bồ	-4920
ea	-4921
gm	-4922
ho	-4923
hy	-4924
hỗ	-4925
iv	-4926
ke	-4927
oâ	-4928
tâ	-4929
tự	-4930
us	-4931
ãn	-4932
ơd	-4933
ộp	-4934
ỡn	-4935
ụy	-4936
ửu	-4937
▁/	-4938
▁ó	-4939
▁ỷ	-4940
BTP	-4941
BXD	-4942
CCC	-4943
Làm	-4944
Năm	-4945
STC	-4946
STP	-4947
Sau	-4948
Tập	-4949
VQS	-4950
cai	-4951
các	-4952
còn	-4953
dae	-4954
eâp	-4955
gar	-4956
gát	-4957
gạo	-4958
gồm	-4959
ica	-4960
iii	-4961
ken	-4962
kèm	-4963
lao	-4964
nim	-4965
nun	-4966
nôm	-4967
pte	-4968
rau	-4969
roi	-4970
ráp	-4971
rúp	-4972
tâo	-4973
tấn	-4974
đim	-4975
đầu	-4976
▁..	-4977
▁Hạ	-4978
▁Ko	-4979
▁Kể	-4980
▁Lo	-4981
▁Lô	-4982
▁Lũ	-4983
▁My	-4984
▁So	-4985
▁Sá	-4986
▁TH	-4987
▁Tạ	-4988
▁Ví	-4989
▁Vả	-4990
▁bợ	-4991
▁cỡ	-4992
▁hí	-4993
▁kd	-4994
▁kẽ	-4995
▁lê	-4996
▁lả	-4997
▁rẻ	-4998
▁tẻ	-4999
▁ve	-5000
▁vờ	-5001
▁xư	-5002
▁Ôm	-5003
▁óc	-5004
▁Đo	-5005
▁Đà	-5006
▁Đồ	-5007
▁đả	-5008
▁đỗ	-5009
▁ảo	-5010
▁ấu	-5011
▁ắp	-5012
▁ắt	-5013
Chúa	-5014
Chắc	-5015
Giúp	-5016
Kinh	-5017
Nâng	-5018
Nông	-5019
TCCB	-5020
VBTV	-5021
bách	-5022
erpa	-5023
giốt	-5024
hoặc	-5025
hyco	-5026
lâng	-5027
ngựa	-5028
nông	-5029
phôn	-5030
phạt	-5031
phết	-5032
pper	-5033
seed	-5034
thun	-5035
trat	-5036
trâu	-5037
ơdơi	-5038
▁BVN	-5039
▁Bát	-5040
▁Bôi	-5041
▁Bạc	-5042
▁Bầm	-5043
▁CNH	-5044
▁Car	-5045
▁Chẻ	-5046
▁Chỗ	-5047
▁Cán	-5048
▁Cúm	-5049
▁Duy	-5050
▁Dại	-5051
▁Gro	-5052
▁Gửi	-5053
▁Hom	-5054
▁Hậu	-5055
▁Hốt	-5056
▁Khê	-5057
▁Khố	-5058
▁Lân	-5059
▁Lộc	-5060
▁MTV	-5061
▁Mam	-5062
▁Man	-5063
▁Mác	-5064
▁Mát	-5065
▁Mên	-5066
▁Mặn	-5067
▁Mối	-5068
▁Mộc	-5069
▁Nét	-5070
▁Nằm	-5071
▁Nẹt	-5072
▁Nỗi	-5073
▁Phô	-5074
▁Ria	-5075
▁Rít	-5076
▁Rệp	-5077
▁Sin	-5078
▁Sết	-5079
▁Thã	-5080
▁Thô	-5081
▁Trà	-5082
▁Trả	-5083
▁Trớ	-5084
▁Trừ	-5085
▁Uốn	-5086
▁Vai	-5087
▁Vài	-5088
▁Xom	-5089
▁bầm	-5090
▁bứt	-5091
▁bửu	-5092
▁cac	-5093
▁cút	-5094
▁cạp	-5095
▁cặn	-5096
▁dán	-5097
▁dùi	-5098
▁dúi	-5099
▁dẻo	-5100
▁dốt	-5101
▁dỗi	-5102
▁ghẻ	-5103
▁giũ	-5104
▁gre	-5105
▁gót	-5106
▁hoà	-5107
▁hri	-5108
▁hâm	-5109
▁hăm	-5110
▁hốt	-5111
▁kên	-5112
▁kịt	-5113
▁léo	-5114
▁lầu	-5115
▁lẩn	-5116
▁lắc	-5117
▁lặp	-5118
▁lụi	-5119
▁mâm	-5120
▁mẫn	-5121
▁mọn	-5122
▁mọp	-5123
▁mọt	-5124
▁nhô	-5125
▁nàn	-5126
▁nôn	-5127
▁núm	-5128
▁nạt	-5129
▁nần	-5130
▁nẹt	-5131
▁pôm	-5132
▁que	-5133
▁quệ	-5134
▁rôn	-5135
▁rạp	-5136
▁son	-5137
▁sải	-5138
▁sấy	-5139
▁sẩy	-5140
▁sọt	-5141
▁sục	-5142
▁the	-5143
▁thê	-5144
▁thỏ	-5145
▁thự	-5146
▁tia	-5147
▁tiê	-5148
▁trệ	-5149
▁trỏ	-5150
▁táo	-5151
▁tân	-5152
▁tóm	-5153
▁túm	-5154
▁tủa	-5155
▁vãi	-5156
▁vặt	-5157
▁vụn	-5158
▁vức	-5159
▁xẹo	-5160
▁yếm	-5161
▁yểu	-5162
▁Đao	-5163
▁Đổi	-5164
▁đót	-5165
▁đẫm	-5166
▁đẵn	-5167
▁địu	-5168
ptera	-5169
thông	-5170
▁ANTQ	-5171
▁Bích	-5172
▁Bạch	-5173
▁Chào	-5174
▁Chôn	-5175
▁Chúc	-5176
▁Củng	-5177
▁Dựng	-5178
▁Giới	-5179
▁Hoay	-5180
▁Khuy	-5181
▁Khốn	-5182
▁Kiếm	-5183
▁Liêm	-5184
▁Luôn	-5185
▁Lưng	-5186
▁Lồng	-5187
▁Muối	-5188
▁Máng	-5189
▁NVQS	-5190
▁Ngãi	-5191
▁Ngăn	-5192
▁Ninh	-5193
▁Niên	-5194
▁PCCC	-5195
▁Phản	-5196
▁Prôm	-5197
▁QLDA	-5198
▁Quán	-5199
▁Supe	-5200
▁Sách	-5201
▁TNCS	-5202
▁Thôi	-5203
▁Tuổi	-5204
▁Tưới	-5205
▁VNPT	-5206
▁Xinh	-5207
▁atâo	-5208
▁bọng	-5209
▁chen	-5210
▁chui	-5211
▁chạp	-5212
▁chỗi	-5213
▁chộp	-5214
▁cẳng	-5215
▁dang	-5216
▁giây	-5217
▁giấm	-5218
▁họng	-5219
▁khan	-5220
▁khoá	-5221
▁liếm	-5222
▁miệt	-5223
▁muỗm	-5224
▁mênh	-5225
▁nghé	-5226
▁ngán	-5227
▁ngâm	-5228
▁ngãi	-5229
▁ngấm	-5230
▁ngất	-5231
▁ngời	-5232
▁nhấc	-5233
▁nhồi	-5234
▁nấng	-5235
▁păng	-5236
▁quái	-5237
▁quây	-5238
▁quất	-5239
▁sảnh	-5240
▁sắng	-5241
▁sững	-5242
▁thắc	-5243
▁thềm	-5244
▁triê	-5245
▁tráo	-5246
▁trát	-5247
▁trêu	-5248
▁trút	-5249
▁trắm	-5250
▁tòng	-5251
▁viêm	-5252
▁việt	-5253
▁vũng	-5254
▁xoắn	-5255
▁xược	-5256
▁xẻng	-5257
▁Điển	-5258
▁Đăng	-5259
▁điểu	-5260
▁đãng	-5261
▁Huyết	-5262
▁KHHGĐ	-5263
▁Khung	-5264
▁Khánh	-5265
▁Kơdơi	-5266
▁Super	-5267
▁Thiết	-5268
▁UVBTV	-5269
▁Xương	-5270
▁chuốc	-5271
▁chánh	-5272
▁chõng	-5273
▁huỳnh	-5274
▁loang	-5275
▁loãng	-5276
▁ngheâ	-5277
▁ngạnh	-5278
▁nhiễu	-5279
▁nhung	-5280
▁nhuần	-5281
▁suông	-5282
▁thoái	-5283
▁trượt	-5284
▁tuông	-5285
▁tuếch	-5286
▁virus	-5287
▁Copper	-5288
▁Mahyco	-5289
▁Sherpa	-5290
▁clorua	-5291
▁nghiệt	-5292
▁trượng	-5293
▁Bioseed	-5294
▁nghieâp	-5295
,,	-5296
Bộ	-5297
CV	-5298
Cỏ	-5299
DL	-5300
Dù	-5301
Họ	-5302
KL	-5303
Kẻ	-5304
Kể	-5305
LV	-5306
La	-5307
Lễ	-5308
MT	-5309
PM	-5310
Sa	-5311
TĐ	-5312
Tổ	-5313
Từ	-5314
UY	-5315
VH	-5316
Về	-5317
ci	-5318
ex	-5319
go	-5320
ka	-5321
kể	-5322
le	-5323
ly	-5324
or	-5325
qu	-5326
ty	-5327
tơ	-5328
vợ	-5329
xu	-5330
ÁC	-5331
ún	-5332
ăk	-5333
Đa	-5334
để	-5335
ắk	-5336
ọe	-5337
”,	-5338
▁ù	-5339
BQH	-5340
Bảo	-5341
Dạy	-5342
HCN	-5343
LVT	-5344
Mỗi	-5345
Ngh	-5346
Nhà	-5347
Phê	-5348
Tâu	-5349
ani	-5350
anô	-5351
aêm	-5352
bai	-5353
ben	-5354
bun	-5355
bác	-5356
bíp	-5357
búc	-5358
chó	-5359
côm	-5360
của	-5361
eân	-5362
gam	-5363
giê	-5364
gió	-5365
gôn	-5366
hoa	-5367
hum	-5368
ido	-5369
khi	-5370
khu	-5371
lit	-5372
lít	-5373
lơn	-5374
lửa	-5375
mỗi	-5376
nác	-5377
oni	-5378
quả	-5379
rao	-5380
ren	-5381
rét	-5382
sin	-5383
sắc	-5384
sốt	-5385
tai	-5386
thu	-5387
thị	-5388
tín	-5389
vải	-5390
xit	-5391
xéc	-5392
xôi	-5393
yun	-5394
óat	-5395
Đất	-5396
đác	-5397
đêm	-5398
đũa	-5399
đết	-5400
ẩng	-5401
ễng	-5402
▁Cu	-5403
▁Cy	-5404
▁Cớ	-5405
▁Cự	-5406
▁Dạ	-5407
▁Gỗ	-5408
▁Hổ	-5409
▁Hộ	-5410
▁Lỡ	-5411
▁NH	-5412
▁Ná	-5413
▁Nỏ	-5414
▁Sứ	-5415
▁To	-5416
▁Tụ	-5417
▁Tủ	-5418
▁VI	-5419
▁Xà	-5420
▁Ya	-5421
▁bi	-5422
▁cỗ	-5423
▁dơ	-5424
▁dở	-5425
▁gò	-5426
▁gồ	-5427
▁gở	-5428
▁he	-5429
▁lữ	-5430
▁me	-5431
▁mi	-5432
▁mí	-5433
▁nã	-5434
▁om	-5435
▁sá	-5436
▁sú	-5437
▁sụ	-5438
▁tã	-5439
▁xế	-5440
▁ùa	-5441
▁úp	-5442
▁ải	-5443
▁ồn	-5444
▁ới	-5445
)...	-5446
Bình	-5447
Chúc	-5448
Dòng	-5449
KHCN	-5450
KTNS	-5451
Khóa	-5452
Ngài	-5453
Pháp	-5454
Phát	-5455
Sáng	-5456
TNMT	-5457
TVQH	-5458
Thôn	-5459
chai	-5460
chăn	-5461
cùng	-5462
enla	-5463
giai	-5464
giao	-5465
land	-5466
ngus	-5467
nắng	-5468
oảng	-5469
phim	-5470
phên	-5471
rote	-5472
thai	-5473
then	-5474
thịt	-5475
tiên	-5476
tuần	-5477
▁BVR	-5478
▁Bon	-5479
▁Bạt	-5480
▁Bắn	-5481
▁Bốn	-5482
▁Bụi	-5483
▁Cty	-5484
▁Cân	-5485
▁Cải	-5486
▁Cậy	-5487
▁Cối	-5488
▁Dẫu	-5489
▁Gây	-5490
▁Góc	-5491
▁Gạo	-5492
▁Gọi	-5493
▁Gồm	-5494
▁Họt	-5495
▁Hồi	-5496
▁Kha	-5497
▁Lục	-5498
▁Lừa	-5499
▁MHC	-5500
▁Mái	-5501
▁Míp	-5502
▁Mưu	-5503
▁Nga	-5504
▁Ngó	-5505
▁Nha	-5506
▁Nho	-5507
▁Nhẹ	-5508
▁Nim	-5509
▁Nạo	-5510
▁Nổi	-5511
▁Phá	-5512
▁Quá	-5513
▁Ram	-5514
▁Red	-5515
▁Roi	-5516
▁Rèn	-5517
▁Rầy	-5518
▁Rốt	-5519
▁Sép	-5520
▁Sớm	-5521
▁Sợi	-5522
▁Tum	-5523
▁Tác	-5524
▁Tạc	-5525
▁Tạt	-5526
▁Tảo	-5527
▁Tẩy	-5528
▁Vẫn	-5529
▁Vết	-5530
▁Xáp	-5531
▁Xát	-5532
▁Xíp	-5533
▁Xúc	-5534
▁Xưa	-5535
▁bai	-5536
▁bom	-5537
▁bái	-5538
▁bít	-5539
▁bập	-5540
▁bặt	-5541
▁bổn	-5542
▁bộc	-5543
▁bới	-5544
▁còi	-5545
▁cợt	-5546
▁cửu	-5547
▁dan	-5548
▁dơi	-5549
▁dạo	-5550
▁dạt	-5551
▁dầm	-5552
▁dứa	-5553
▁giở	-5554
▁gán	-5555
▁gảy	-5556
▁gấm	-5557
▁gẩy	-5558
▁gật	-5559
▁gắp	-5560
▁hin	-5561
▁hắm	-5562
▁hột	-5563
▁khờ	-5564
▁kén	-5565
▁lon	-5566
▁làn	-5567
▁lãm	-5568
▁lói	-5569
▁lõa	-5570
▁lõi	-5571
▁lún	-5572
▁lơi	-5573
▁lảo	-5574
▁lẫy	-5575
▁lận	-5576
▁lẻo	-5577
▁lẽo	-5578
▁lốc	-5579
▁lụy	-5580
▁mót	-5581
▁mơi	-5582
▁mẫm	-5583
▁naê	-5584
▁ngỡ	-5585
▁nhỉ	-5586
▁nua	-5587
▁nãm	-5588
▁nãy	-5589
▁níu	-5590
▁nôi	-5591
▁nút	-5592
▁nơm	-5593
▁nặn	-5594
▁nịt	-5595
▁oei	-5596
▁phu	-5597
▁rai	-5598
▁rát	-5599
▁rìa	-5600
▁rợp	-5601
▁rủn	-5602
▁sin	-5603
▁sém	-5604
▁sôn	-5605
▁sưu	-5606
▁sạn	-5607
▁sảo	-5608
▁sấu	-5609
▁sặc	-5610
▁sệt	-5611
▁tao	-5612
▁tem	-5613
▁thệ	-5614
▁toả	-5615
▁trù	-5616
▁trề	-5617
▁trỗ	-5618
▁tót	-5619
▁tần	-5620
▁tọa	-5621
▁ung	-5622
▁vái	-5623
▁vít	-5624
▁vút	-5625
▁vấy	-5626
▁vắn	-5627
▁vắt	-5628
▁vờn	-5629
▁xoi	-5630
▁xám	-5631
▁xâu	-5632
▁xôi	-5633
▁xăm	-5634
▁xấc	-5635
▁áng	-5636
▁Đâm	-5637
▁Đón	-5638
▁Đạt	-5639
▁Đập	-5640
▁Đắk	-5641
▁Đắt	-5642
▁đơm	-5643
▁đẫy	-5644
▁đỗi	-5645
▁đờn	-5646
▁ướp	-5647
Giăng	-5648
Tiếng	-5649
camex	-5650
chiếm	-5651
chiếu	-5652
chồng	-5653
raoke	-5654
tamin	-5655
thuốc	-5656
trồng	-5657
▁Ayun	-5658
▁Bách	-5659
▁Bảng	-5660
▁CHQS	-5661
▁Cháy	-5662
▁Chùm	-5663
▁Gian	-5664
▁Gieo	-5665
▁Giàu	-5666
▁Giạt	-5667
▁Giảm	-5668
▁Khôn	-5669
▁Khải	-5670
▁Khảo	-5671
▁Kiện	-5672
▁LLVT	-5673
▁Mong	-5674
▁Mách	-5675
▁Mừng	-5676
▁Sang	-5677
▁Sừng	-5678
▁Thuở	-5679
▁Thèm	-5680
▁Thẩm	-5681
▁Thừa	-5682
▁Tiêm	-5683
▁Trao	-5684
▁Trận	-5685
▁Urea	-5686
▁Vách	-5687
▁axit	-5688
▁bang	-5689
▁bướu	-5690
▁chóp	-5691
▁chật	-5692
▁chỉa	-5693
▁daân	-5694
▁diêm	-5695
▁giày	-5696
▁giùm	-5697
▁giầy	-5698
▁hril	-5699
▁huýt	-5700
▁hưng	-5701
▁hạch	-5702
▁khạc	-5703
▁khảm	-5704
▁kiệu	-5705
▁liêm	-5706
▁liếc	-5707
▁liễu	-5708
▁luộc	-5709
▁lửng	-5710
▁manh	-5711
▁muội	-5712
▁mượt	-5713
▁mảng	-5714
▁nghễ	-5715
▁ngòi	-5716
▁ngóc	-5717
▁ngấy	-5718
▁ngặt	-5719
▁ngớt	-5720
▁ngụy	-5721
▁nhan	-5722
▁nhuệ	-5723
▁nhàu	-5724
▁nhác	-5725
▁nháy	-5726
▁nhớp	-5727
▁nhởn	-5728
▁panô	-5729
▁phim	-5730
▁phèn	-5731
▁phôi	-5732
▁phất	-5733
▁phổi	-5734
▁quào	-5735
▁quýt	-5736
▁quẫn	-5737
▁quắc	-5738
▁rưới	-5739
▁rảnh	-5740
▁sính	-5741
▁thau	-5742
▁thoa	-5743
▁thậm	-5744
▁thằn	-5745
▁thụt	-5746
▁thửa	-5747
▁trân	-5748
▁trơn	-5749
▁trội	-5750
▁trợn	-5751
▁tành	-5752
▁tâng	-5753
▁tưng	-5754
▁tược	-5755
▁tịnh	-5756
▁váng	-5757
▁văng	-5758
▁vồng	-5759
▁xoáy	-5760
▁xước	-5761
▁ĐBQH	-5762
▁Đuổi	-5763
▁Đáng	-5764
Chuyện	-5765
UBTVQH	-5766
ealand	-5767
enlate	-5768
phường	-5769
rotein	-5770
▁Angus	-5771
▁Chuối	-5772
▁Chuột	-5773
▁Chứng	-5774
▁Giảng	-5775
▁Khuân	-5776
▁Krông	-5777
▁Ngược	-5778
▁Nhánh	-5779
▁Padan	-5780
▁Phích	-5781
▁Thuốc	-5782
▁chiêu	-5783
▁chùng	-5784
▁giọng	-5785
▁greng	-5786
▁hecta	-5787
▁hoành	-5788
▁huyên	-5789
▁khoan	-5790
▁khuân	-5791
▁muồng	-5792
▁nghén	-5793
▁nguội	-5794
▁ngùng	-5795
▁ngẩng	-5796
▁nhiếc	-5797
▁nhành	-5798
▁nhông	-5799
▁nhồng	-5800
▁nhộng	-5801
▁ruồng	-5802
▁thóat	-5803
▁thạnh	-5804
▁thịch	-5805
▁truất	-5806
▁tròng	-5807
gistics	-5808
▁Carben	-5809
▁Nitrat	-5810
▁Thuyền	-5811
▁choáng	-5812
▁huyeân	-5813
▁khoảnh	-5814
▁nghiến	-5815
▁nghiện	-5816
▁ngượng	-5817
▁sônaêm	-5818
▁truyên	-5819
▁truyện	-5820
▁Becamex	-5821
▁Benlate	-5822
▁karaoke	-5823
▁protein	-5824
▁logistics	-5825
%:	-5826
AT	-5827
An	-5828
BQ	-5829
Ba	-5830
Bà	-5831
Bệ	-5832
Ca	-5833
Cứ	-5834
Di	-5835
GP	-5836
Ga	-5837
HD	-5838
Hũ	-5839
Hỗ	-5840
IV	-5841
Kế	-5842
Lì	-5843
NS	-5844
No	-5845
Nó	-5846
PH	-5847
SP	-5848
Si	-5849
Sẽ	-5850
Sở	-5851
Tự	-5852
VV	-5853
Vệ	-5854
at	-5855
bò	-5856
do	-5857
ep	-5858
gơ	-5859
gỗ	-5860
he	-5861
hà	-5862
mẹ	-5863
ní	-5864
nó	-5865
nơ	-5866
ov	-5867
pu	-5868
rd	-5869
sẻ	-5870
ut	-5871
vn	-5872
và	-5873
về	-5874
vỏ	-5875
Ôi	-5876
òm	-5877
õm	-5878
ĐH	-5879
Đề	-5880
Để	-5881
đá	-5882
độ	-5883
ũm	-5884
ơp	-5885
ẵm	-5886
ẻm	-5887
ỉu	-5888
ủn	-5889
”;	-5890
▁?	-5891
▁ì	-5892
▁ỉ	-5893
▁ố	-5894
▁ụ	-5895
%).	-5896
BCT	-5897
BQP	-5898
Bao	-5899
bà	-5900
ie	-5901
Bàn	-5902
Bên	-5903
Bởi	-5904
CVN	-5905
Chi	-5906
Cựu	-5907
Dệt	-5908
GPS	-5909
Ghê	-5910
Giô	-5911
Góp	-5912
Gặp	-5913
Heo	-5914
HĐH	-5915
Hắn	-5916
Hết	-5917
Hội	-5918
KTT	-5919
Kri	-5920
LTS	-5921
Lak	-5922
Lúa	-5923
Mấy	-5924
Mới	-5925
NVC	-5926
Nhờ	-5927
Pha	-5928
Phù	-5929
Rèn	-5930
TND	-5931
TXH	-5932
Thế	-5933
Tội	-5934
Vua	-5935
Vui	-5936
Với	-5937
Xóa	-5938
ame	-5939
bảo	-5940
chè	-5941
chỉ	-5942
chợ	-5943
cid	-5944
cáp	-5945
cúp	-5946
cạp	-5947
dap	-5948
din	-5949
dưa	-5950
eed	-5951
ern	-5952
gôl	-5953
gúp	-5954
gọi	-5955
gốp	-5956
han	-5957
hia	-5958
hàn	-5959
hĩa	-5960
iGa	-5961
ium	-5962
kan	-5963
kết	-5964
las	-5965
leo	-5966
ler	-5967
lic	-5968
lok	-5969
lus	-5970
lut	-5971
lêt	-5972
lút	-5973
mua	-5974
mít	-5975
mút	-5976
mưa	-5977
nem	-5978
nút	-5979
nốt	-5980
oga	-5981
plơ	-5982
rah	-5983
rav	-5984
rei	-5985
rer	-5986
run	-5987
réc	-5988
rép	-5989
rên	-5990
sol	-5991
ste	-5992
sum	-5993
súp	-5994
the	-5995
thô	-5996
top	-5997
tum	-5998
tác	-5999
tùy	-6000
tập	-6001
ual	-6002
uan	-6003
uoâ	-6004
uri	-6005
ven	-6006
vết	-6007
xam	-6008
xép	-6009
xíp	-6010
xôn	-6011
Đôi	-6012
Đẩy	-6013
Đặc	-6014
Đối	-6015
đat	-6016
đeo	-6017
đua	-6018
đèn	-6019
đên	-6020
đậu	-6021
đặc	-6022
đẹp	-6023
đến	-6024
ểnh	-6025
▁Ad	-6026
▁Ao	-6027
▁At	-6028
▁Br	-6029
▁Bá	-6030
▁CA	-6031
▁CP	-6032
▁Cù	-6033
▁Củ	-6034
▁Gạ	-6035
▁HL	-6036
▁Há	-6037
▁Hỷ	-6038
▁In	-6039
▁Kỷ	-6040
▁LN	-6041
▁Lư	-6042
▁ML	-6043
▁MX	-6044
▁Mo	-6045
▁Mã	-6046
▁Mí	-6047
▁Mộ	-6048
▁NG	-6049
▁Nữ	-6050
▁Sọ	-6051
▁TR	-6052
▁Tơ	-6053
▁Tể	-6054
▁Tố	-6055
▁Tớ	-6056
▁Tử	-6057
▁VH	-6058
▁Vô	-6059
▁Vệ	-6060
▁Vỏ	-6061
▁Xí	-6062
▁Xỏ	-6063
▁Xứ	-6064
▁bă	-6065
▁bẹ	-6066
▁gã	-6067
▁gỉ	-6068
▁ké	-6069
▁kĩ	-6070
▁kơ	-6071
▁lâ	-6072
▁ló	-6073
▁lẹ	-6074
▁lể	-6075
▁mm	-6076
▁mo	-6077
▁mó	-6078
▁mă	-6079
▁ny	-6080
▁oi	-6081
▁rê	-6082
▁se	-6083
▁sọ	-6084
▁tâ	-6085
▁tă	-6086
▁tề	-6087
▁vá	-6088
▁vê	-6089
▁vó	-6090
▁vế	-6091
▁xy	-6092
▁xổ	-6093
▁ya	-6094
▁Ái	-6095
▁én	-6096
▁òa	-6097
▁ôu	-6098
▁ùn	-6099
▁Đố	-6100
▁Đủ	-6101
▁đĩ	-6102
▁ẵm	-6103
▁ẻo	-6104
▁ỏi	-6105
▁ốt	-6106
▁ổi	-6107
▁Ủa	-6108
...;	-6109
Agar	-6110
Chăn	-6111
Dung	-6112
Giỏi	-6113
LMLM	-6114
Liên	-6115
Liệt	-6116
Phần	-6117
Sống	-6118
TGAP	-6119
Theo	-6120
Thắp	-6121
Trần	-6122
VHXH	-6123
Viện	-6124
Vâng	-6125
Vĩnh	-6126
ampu	-6127
core	-6128
cula	-6129
cuốc	-6130
cũng	-6131
dinh	-6132
diện	-6133
dạng	-6134
ghên	-6135
giấy	-6136
gánh	-6137
ieâu	-6138
khóc	-6139
khăn	-6140
liên	-6141
nhei	-6142
nhân	-6143
niên	-6144
onic	-6145
pham	-6146
phần	-6147
plei	-6148
reed	-6149
rinh	-6150
step	-6151
sông	-6152
súng	-6153
sơru	-6154
taco	-6155
tiền	-6156
tính	-6157
tổng	-6158
vòng	-6159
vùng	-6160
vững	-6161
ytop	-6162
Điều	-6163
Đoàn	-6164
Đoạn	-6165
Đông	-6166
Được	-6167
Đấng	-6168
điểm	-6169
đúng	-6170
ơnia	-6171
▁BBB	-6172
▁BCD	-6173
▁BCĐ	-6174
▁BNN	-6175
▁BQL	-6176
▁Bla	-6177
▁Bun	-6178
▁Bày	-6179
▁Bãi	-6180
▁Bưu	-6181
▁Bẩy	-6182
▁Bốt	-6183
▁Bức	-6184
▁CTĐ	-6185
▁Chê	-6186
▁Chó	-6187
▁Chờ	-6188
▁Chứ	-6189
▁Cào	-6190
▁Cày	-6191
▁Cúc	-6192
▁Cút	-6193
▁Cấm	-6194
▁Cầm	-6195
▁Cậu	-6196
▁Dam	-6197
▁Dẫn	-6198
▁Dốt	-6199
▁Dục	-6200
▁Gai	-6201
▁Giả	-6202
▁Gní	-6203
▁Gái	-6204
▁Gáp	-6205
▁Gìn	-6206
▁Gíp	-6207
▁Góa	-6208
▁Gậy	-6209
▁HTX	-6210
▁Ham	-6211
▁Huế	-6212
▁Hóp	-6213
▁HĐH	-6214
▁Hại	-6215
▁Hầm	-6216
▁Họa	-6217
▁Hủy	-6218
▁Hứa	-6219
▁IPM	-6220
▁Ken	-6221
▁Khí	-6222
▁Khư	-6223
▁Kob	-6224
▁Lep	-6225
▁Lok	-6226
▁Luâ	-6227
▁Lát	-6228
▁Lít	-6229
▁Lôm	-6230
▁Lơm	-6231
▁Lưu	-6232
▁Lắm	-6233
▁Lựa	-6234
▁Mây	-6235
▁Mãn	-6236
▁Mùn	-6237
▁Mắc	-6238
▁Mẹo	-6239
▁Ngũ	-6240
▁Nhe	-6241
▁Níp	-6242
▁Nấm	-6243
▁Nọc	-6244
▁Nối	-6245
▁Phí	-6246
▁QUY	-6247
▁Qui	-6248
▁Quí	-6249
▁Rào	-6250
▁Râu	-6251
▁Rìu	-6252
▁Rấy	-6253
▁Rỗi	-6254
▁Sai	-6255
▁Sàn	-6256
▁Sáp	-6257
▁Síp	-6258
▁Sải	-6259
▁Sẵn	-6260
▁TBR	-6261
▁Tao	-6262
▁Try	-6263
▁Trợ	-6264
▁Tôm	-6265
▁Tơm	-6266
▁Tấm	-6267
▁Tỉa	-6268
▁Tọa	-6269
▁Tốp	-6270
▁Tới	-6271
▁VCA	-6272
▁Vôi	-6273
▁Vấn	-6274
▁Vực	-6275
▁XIX	-6276
▁Xâm	-6277
▁Xấc	-6278
▁anu	-6279
▁bin	-6280
▁bíu	-6281
▁băm	-6282
▁băn	-6283
▁bưt	-6284
▁bần	-6285
▁bằm	-6286
▁bẹp	-6287
▁bệt	-6288
▁bịa	-6289
▁bỡn	-6290
▁bủn	-6291
▁cau	-6292
▁châ	-6293
▁càu	-6294
▁cáp	-6295
▁cói	-6296
▁cót	-6297
▁cùm	-6298
▁cươ	-6299
▁cắc	-6300
▁cỏi	-6301
▁cời	-6302
▁cụp	-6303
▁dai	-6304
▁doa	-6305
▁dua	-6306
▁dìm	-6307
▁díu	-6308
▁dòm	-6309
▁dải	-6310
▁dất	-6311
▁dẫm	-6312
▁dằm	-6313
▁dụm	-6314
▁dừa	-6315
▁gãi	-6316
▁gập	-6317
▁gộc	-6318
▁gội	-6319
▁hiê	-6320
▁hiệ	-6321
▁hoi	-6322
▁hut	-6323
▁hòi	-6324
▁hòm	-6325
▁hưu	-6326
▁hất	-6327
▁hẻm	-6328
▁hớt	-6329
▁hụt	-6330
▁inh	-6331
▁kdơ	-6332
▁kdư	-6333
▁khê	-6334
▁kiê	-6335
▁kon	-6336
▁két	-6337
▁loè	-6338
▁luy	-6339
▁luâ	-6340
▁lào	-6341
▁lép	-6342
▁lòi	-6343
▁lôm	-6344
▁lùn	-6345
▁lươ	-6346
▁lạn	-6347
▁lậy	-6348
▁lằm	-6349
▁lọi	-6350
▁mih	-6351
▁mào	-6352
▁mân	-6353
▁mím	-6354
▁mút	-6355
▁mơm	-6356
▁mạn	-6357
▁mải	-6358
▁mấu	-6359
▁mẩy	-6360
▁mỉa	-6361
▁mỏm	-6362
▁mụn	-6363
▁ngò	-6364
▁ngỗ	-6365
▁nhă	-6366
▁nhậ	-6367
▁nhử	-6368
▁nán	-6369
▁nít	-6370
▁nạc	-6371
▁nốt	-6372
▁phâ	-6373
▁phè	-6374
▁phơ	-6375
▁por	-6376
▁pơy	-6377
▁quờ	-6378
▁râm	-6379
▁róc	-6380
▁rót	-6381
▁rảo	-6382
▁rằn	-6383
▁rền	-6384
▁rệp	-6385
▁rọc	-6386
▁rốn	-6387
▁rứt	-6388
▁rữa	-6389
▁sik	-6390
▁sum	-6391
▁suâ	-6392
▁sám	-6393
▁sán	-6394
▁sút	-6395
▁sần	-6396
▁sẫm	-6397
▁sụt	-6398
▁sủa	-6399
▁tep	-6400
▁thố	-6401
▁thừ	-6402
▁toâ	-6403
▁tuế	-6404
▁tãi	-6405
▁tía	-6406
▁tấp	-6407
▁tấu	-6408
▁tậu	-6409
▁tắp	-6410
▁tịu	-6411
▁tỏi	-6412
▁tốp	-6413
▁tụt	-6414
▁tủy	-6415
▁ure	-6416
▁uất	-6417
▁veo	-6418
▁vàm	-6419
▁vặn	-6420
▁vồn	-6421
▁vợt	-6422
▁vủa	-6423
▁xao	-6424
▁xuâ	-6425
▁xáo	-6426
▁xéo	-6427
▁xẩy	-6428
▁xộn	-6429
▁xủa	-6430
▁yến	-6431
▁Đin	-6432
▁Đèn	-6433
▁Đôn	-6434
▁Đăk	-6435
▁Đạm	-6436
▁Đắc	-6437
▁Đắp	-6438
▁Đếm	-6439
▁Đọc	-6440
▁Đốt	-6441
▁Đồn	-6442
▁đat	-6443
▁đei	-6444
▁đia	-6445
▁đon	-6446
▁đàu	-6447
▁đóm	-6448
▁đùm	-6449
▁đắm	-6450
▁đọa	-6451
▁ổng	-6452
BTNMT	-6453
Chẳng	-6454
Kring	-6455
Nghìn	-6456
Nhưng	-6457
Phong	-6458
Quyết	-6459
SGDĐT	-6460
Thanh	-6461
Thiếu	-6462
UBKTT	-6463
chung	-6464
chuối	-6465
ctara	-6466
iGate	-6467
không	-6468
lasma	-6469
logam	-6470
miệng	-6471
nghĩa	-6472
nguồn	-6473
peran	-6474
resol	-6475
strer	-6476
sương	-6477
tương	-6478
xương	-6479
đường	-6480
ơpang	-6481
▁...)	-6482
▁ATXH	-6483
▁Auri	-6484
▁BVNL	-6485
▁BigC	-6486
▁Bướm	-6487
▁Bọng	-6488
▁Bỗng	-6489
▁CAND	-6490
▁CNVC	-6491
▁CSGT	-6492
▁Cang	-6493
▁Châm	-6494
▁Chém	-6495
▁Chạy	-6496
▁Chậm	-6497
▁Chọc	-6498
▁Chồi	-6499
▁Cuốc	-6500
▁Cườm	-6501
▁Cổng	-6502
▁Diệt	-6503
▁Dual	-6504
▁Dụng	-6505
▁Ghíp	-6506
▁Giác	-6507
▁Giấu	-6508
▁Giốc	-6509
▁Giốp	-6510
▁HTND	-6511
▁Hanh	-6512
▁Hiền	-6513
▁Hiểu	-6514
▁Hroi	-6515
▁Hung	-6516
▁Kali	-6517
▁Khen	-6518
▁Khát	-6519
▁Khéo	-6520
▁Khăn	-6521
▁Khơi	-6522
▁Khấn	-6523
▁Khỏe	-6524
▁Kiêu	-6525
▁Koon	-6526
▁Liền	-6527
▁Lung	-6528
▁Lũng	-6529
▁Lưới	-6530
▁Lười	-6531
▁Miền	-6532
▁Miễn	-6533
▁Mượn	-6534
▁Neng	-6535
▁Nghệ	-6536
▁Ngẫm	-6537
▁Ngậm	-6538
▁Ngọt	-6539
▁Ngực	-6540
▁Nhin	-6541
▁Nhun	-6542
▁Nhặt	-6543
▁Nhợt	-6544
▁Nuốt	-6545
▁Nóng	-6546
▁Nẵng	-6547
▁Phép	-6548
▁Phươ	-6549
▁Phạt	-6550
▁QCVN	-6551
▁Quên	-6552
▁Rình	-6553
▁Shau	-6554
▁Siêu	-6555
▁Song	-6556
▁Srav	-6557
▁Sumi	-6558
▁Sóng	-6559
▁TAND	-6560
▁TBXH	-6561
▁Thuế	-6562
▁Thác	-6563
▁Thôn	-6564
▁Thảo	-6565
▁Thốt	-6566
▁Toản	-6567
▁Trân	-6568
▁Trôi	-6569
▁Trăm	-6570
▁Trỉa	-6571
▁Trực	-6572
▁Vạch	-6573
▁Vịnh	-6574
▁Xung	-6575
▁Xăng	-6576
▁Yuan	-6577
▁agar	-6578
▁akan	-6579
▁amem	-6580
▁amin	-6581
▁bung	-6582
▁chái	-6583
▁chát	-6584
▁chèn	-6585
▁chèo	-6586
▁chìa	-6587
▁chũm	-6588
▁chảo	-6589
▁chầm	-6590
▁chận	-6591
▁chịt	-6592
▁chọe	-6593
▁cuội	-6594
▁cóng	-6595
▁cước	-6596
▁cọng	-6597
▁diếm	-6598
▁diệc	-6599
▁duch	-6600
▁duỗi	-6601
▁dồng	-6602
▁game	-6603
▁gián	-6604
▁giãn	-6605
▁giữu	-6606
▁guộc	-6607
▁gàng	-6608
▁găng	-6609
▁gơng	-6610
▁hoay	-6611
▁hoài	-6612
▁hoán	-6613
▁hóng	-6614
▁kham	-6615
▁khua	-6616
▁khét	-6617
▁khóe	-6618
▁khản	-6619
▁khảy	-6620
▁khập	-6621
▁khủy	-6622
▁liêu	-6623
▁loay	-6624
▁luồn	-6625
▁lệch	-6626
▁lộng	-6627
▁lụng	-6628
▁miên	-6629
▁mướp	-6630
▁mọng	-6631
▁mống	-6632
▁ngút	-6633
▁nhót	-6634
▁nhún	-6635
▁nhạy	-6636
▁nhấm	-6637
▁nhẵn	-6638
▁nhỏm	-6639
▁nũng	-6640
▁oang	-6641
▁pham	-6642
▁phao	-6643
▁pháo	-6644
▁phên	-6645
▁phập	-6646
▁phủi	-6647
▁prei	-6648
▁quạt	-6649
▁quậy	-6650
▁quẹo	-6651
▁quộc	-6652
▁rinh	-6653
▁rích	-6654
▁rướm	-6655
▁supe	-6656
▁sũng	-6657
▁tanh	-6658
▁thiê	-6659
▁thoi	-6660
▁thép	-6661
▁thím	-6662
▁thòi	-6663
▁thóp	-6664
▁thơi	-6665
▁thươ	-6666
▁thản	-6667
▁thắm	-6668
▁thỉu	-6669
▁thục	-6670
▁tich	-6671
▁toạc	-6672
▁trét	-6673
▁tróc	-6674
▁trươ	-6675
▁trầy	-6676
▁trốt	-6677
▁trụy	-6678
▁tánh	-6679
▁tằng	-6680
▁uyển	-6681
▁viêc	-6682
▁vênh	-6683
▁võng	-6684
▁xiêu	-6685
▁xạch	-6686
▁xổng	-6687
▁yuoâ	-6688
▁yểng	-6689
▁Đoan	-6690
▁Đoạt	-6691
▁Đuối	-6692
▁Động	-6693
▁điọa	-6694
▁đặng	-6695
Thương	-6696
khoảng	-6697
master	-6698
▁Amăng	-6699
▁BGDĐT	-6700
▁Biang	-6701
▁Breed	-6702
▁Campu	-6703
▁Chrah	-6704
▁Chỉnh	-6705
▁Coleo	-6706
▁Cương	-6707
▁Dilan	-6708
▁Giang	-6709
▁Giàng	-6710
▁Giòng	-6711
▁Khuyê	-6712
▁Khích	-6713
▁Mnông	-6714
▁Ngừng	-6715
▁Nhanh	-6716
▁Nhiệt	-6717
▁PCCCR	-6718
▁Phanh	-6719
▁Phúng	-6720
▁Phụng	-6721
▁Quăng	-6722
▁Score	-6723
▁Thang	-6724
▁Thiệt	-6725
▁Thoát	-6726
▁Thung	-6727
▁Thách	-6728
▁Thình	-6729
▁Thươn	-6730
▁Thắng	-6731
▁Thừng	-6732
▁Triều	-6733
▁Triệu	-6734
▁Trắng	-6735
▁Tuyển	-6736
▁Tuyệt	-6737
▁Tơlok	-6738
▁Tương	-6739
▁Tướng	-6740
▁bioga	-6741
▁blông	-6742
▁chang	-6743
▁chiểu	-6744
▁chuồn	-6745
▁chằng	-6746
▁chửng	-6747
▁covid	-6748
▁hnhei	-6749
▁khoăn	-6750
▁khoắn	-6751
▁khướu	-6752
▁kiễng	-6753
▁krong	-6754
▁kơnia	-6755
▁lưỡng	-6756
▁muống	-6757
▁mônat	-6758
▁nghiê	-6759
▁nghía	-6760
▁nguyê	-6761
▁nguậy	-6762
▁nguốn	-6763
▁ngông	-6764
▁nhăng	-6765
▁noâng	-6766
▁phích	-6767
▁pôgôl	-6768
▁quãng	-6769
▁quạnh	-6770
▁silic	-6771
▁super	-6772
▁suplơ	-6773
▁thiến	-6774
▁thiển	-6775
▁thiệp	-6776
▁thuản	-6777
▁thuất	-6778
▁thòng	-6779
▁thảnh	-6780
▁toang	-6781
▁triết	-6782
▁truyê	-6783
▁trửng	-6784
▁tuyền	-6785
▁tơdap	-6786
▁xướng	-6787
▁xưởng	-6788
BLĐTBXH	-6789
SLĐTBXH	-6790
cularia	-6791
▁Actara	-6792
▁Antaco	-6793
▁Atonic	-6794
▁BVNLTS	-6795
▁Giường	-6796
▁Kenlut	-6797
▁Khoanh	-6798
▁Kontum	-6799
▁Lepido	-6800
▁Nghiệp	-6801
▁Phytop	-6802
▁Sistep	-6803
▁cacbin	-6804
▁chuông	-6805
▁corona	-6806
▁khuông	-6807
▁nghinh	-6808
▁nghành	-6809
▁nhuyễn	-6810
▁pơsơru	-6811
▁triern	-6812
UBNDngày	-6813
▁Cyperan	-6814
▁Mastrer	-6815
▁Sravani	-6816
▁Trailer	-6817
▁kilogam	-6818
▁tơdrong	-6819
▁Carbendo	-6820
▁Logistic	-6821
▁Campuchia	-6822
▁huyệnVĩnh	-6823
▁Coleoptera	-6824
▁Auricularia	-6825
▁Lepidoptera	-6826
▁Phytoplasma	-6827
▁Droughtmaster	-6828
%);	-6829
.);	-6830
..)	-6831
..,	-6832
..;	-6833
AID	-6834
ANN	-6835
BAT	-6836
BBB	-6837
BCĐ	-6838
Bọn	-6839
CCT	-6840
CST	-6841
Chị	-6842
Chủ	-6843
Cơm	-6844
DLN	-6845
Gát	-6846
Hát	-6847
Hẳn	-6848
IPM	-6849
Lót	-6850
Lúc	-6851
Mọi	-6852
Nào	-6853
Phi	-6854
Phổ	-6855
QVN	-6856
SCT	-6857
SKH	-6858
SNV	-6859
SVH	-6860
SXD	-6861
Sam	-6862
Sáu	-6863
Sản	-6864
TCL	-6865
TTR	-6866
TVT	-6867
Thu	-6868
Thủ	-6869
Tra	-6870
Tâm	-6871
Tùy	-6872
UNG	-6873
UYÊ	-6874
Xưa	-6875
aud	-6876
aux	-6877
bét	-6878
bút	-6879
cap	-6880
cea	-6881
chú	-6882
chủ	-6883
cis	-6884
cẩu	-6885
củi	-6886
deo	-6887
dấu	-6888
ega	-6889
era	-6890
erq	-6891
gov	-6892
gốc	-6893
him	-6894
hin	-6895
hun	-6896
hải	-6897
hậu	-6898
hết	-6899
Bỏ	-6900
CM	-6901
IA	-6902
IU	-6903
bẻ	-6904
pH	-6905
pr	-6906
Dẫn	-6907
ICM	-6908
IUU	-6909
bạn	-6910
dây	-6911
gas	-6912
gút	-6913
ima	-6914
inc	-6915
kem	-6916
ket	-6917
khô	-6918
két	-6919
lin	-6920
lip	-6921
lyt	-6922
láp	-6923
lâm	-6924
lêu	-6925
lúc	-6926
lúp	-6927
lớp	-6928
lựa	-6929
men	-6930
mer	-6931
mét	-6932
móc	-6933
mùa	-6934
mầm	-6935
nco	-6936
nua	-6937
nâm	-6938
nây	-6939
núp	-6940
oán	-6941
oât	-6942
pah	-6943
rcu	-6944
rde	-6945
res	-6946
rni	-6947
sia	-6948
spr	-6949
sun	-6950
tis	-6951
tiv	-6952
trổ	-6953
tua	-6954
tuỳ	-6955
túi	-6956
ura	-6957
uẩn	-6958
vil	-6959
vim	-6960
víp	-6961
vốn	-6962
vốt	-6963
xen	-6964
xim	-6965
xây	-6966
xén	-6967
yci	-6968
ÁCH	-6969
Đấy	-6970
Đồi	-6971
đêu	-6972
đập	-6973
ơlu	-6974
ưởi	-6975
ệch	-6976
▁",	-6977
▁Ap	-6978
▁Bó	-6979
▁Bẻ	-6980
▁Bỏ	-6981
▁Bồ	-6982
▁DC	-6983
▁DT	-6984
▁De	-6985
▁Dĩ	-6986
▁Gã	-6987
▁Gê	-6988
▁HD	-6989
▁Hố	-6990
▁Im	-6991
▁Kd	-6992
▁Kõ	-6993
▁LU	-6994
▁Ly	-6995
▁Lệ	-6996
▁Lộ	-6997
▁Mg	-6998
▁MÔ	-6999
Bê	-7000
Kê	-7001
SD	-7002
Sự	-7003
nỏ	-7004
vơ	-7005
vỡ	-7006
đệ	-7007
ỉm	-7008
ợc	-7009
%),	-7010
.".	-7011
Bạn	-7012
Bắt	-7013
Hòa	-7014
Lần	-7015
chị	-7016
dõi	-7017
rat	-7018
rix	-7019
usa	-7020
ơvơ	-7021
▁HP	-7022
▁Mì	-7023
▁Mơ	-7024
▁Mỏ	-7025
▁Mủ	-7026
▁NK	-7027
▁PH	-7028
▁Pó	-7029
▁Rạ	-7030
▁Rễ	-7031
▁SM	-7032
▁Se	-7033
▁St	-7034
▁Sĩ	-7035
▁Sẻ	-7036
▁Sỹ	-7037
▁UN	-7038
▁Uy	-7039
▁Xé	-7040
▁Xơ	-7041
▁Xả	-7042
▁Xế	-7043
▁Xỉ	-7044
▁Yê	-7045
▁bơ	-7046
▁ex	-7047
▁kr	-7048
▁oc	-7049
▁pH	-7050
▁po	-7051
▁um	-7052
▁ãn	-7053
▁ói	-7054
▁ưh	-7055
▁ảm	-7056
▁ọe	-7057
▁ốc	-7058
▁ộc	-7059
▁ớn	-7060
...,	-7061
AIDS	-7062
ATTP	-7063
CASP	-7064
Chín	-7065
Cuối	-7066
Cũng	-7067
Danh	-7068
GTVT	-7069
Giai	-7070
HCSN	-7071
HDLN	-7072
HĐPH	-7073
HĐĐT	-7074
Loài	-7075
Lãnh	-7076
Muôn	-7077
NHNN	-7078
Nghị	-7079
TAND	-7080
TCLN	-7081
Thân	-7082
Thôi	-7083
Thần	-7084
Thầy	-7085
Thời	-7086
Tiền	-7087
Tron	-7088
Trại	-7089
Trời	-7090
Tàng	-7091
Tổng	-7092
UYÊN	-7093
Uống	-7094
Viên	-7095
Viết	-7096
Vùng	-7097
anbo	-7098
bici	-7099
,.	-7100
:.	-7101
CĐ	-7102
Ho	-7103
Mụ	-7104
Rô	-7105
Sy	-7106
Số	-7107
Võ	-7108
ar	-7109
bx	-7110
ld	-7111
lg	-7112
vê	-7113
õa	-7114
ọm	-7115
ỗn	-7116
Ủy	-7117
▁ả	-7118
DTN	-7119
QLN	-7120
bxh	-7121
ent	-7122
găm	-7123
hlu	-7124
ldt	-7125
lge	-7126
lun	-7127
mía	-7128
qui	-7129
ral	-7130
tối	-7131
vis	-7132
▁Py	-7133
▁Re	-7134
▁Vẻ	-7135
▁gạ	-7136
▁sp	-7137
▁đở	-7138
▁ỉa	-7139
Hoài	-7140
Liệu	-7141
buộc	-7142
bệnh	-7143
card	-7144
cham	-7145
chan	-7146
chân	-7147
cung	-7148
cành	-7149
cách	-7150
cộng	-7151
dòng	-7152
dùng	-7153
dịch	-7154
eram	-7155
erme	-7156
gent	-7157
ghem	-7158
gieo	-7159
giáp	-7160
giôn	-7161
hạng	-7162
ight	-7163
inon	-7164
insu	-7165
kênh	-7166
laih	-7167
lanc	-7168
laud	-7169
litt	-7170
logo	-7171
loạn	-7172
lơng	-7173
lưng	-7174
lưỡi	-7175
lịch	-7176
mire	-7177
miệc	-7178
măng	-7179
ncol	-7180
nerq	-7181
ngứa	-7182
niêm	-7183
năng	-7184
onus	-7185
orma	-7186
oảnh	-7187
phen	-7188
phin	-7189
pháp	-7190
phạm	-7191
phải	-7192
phục	-7193
rThủ	-7194
rali	-7195
ranh	-7196
ress	-7197
rich	-7198
rích	-7199
Bọ	-7200
Dự	-7201
Hễ	-7202
Mẹ	-7203
SK	-7204
Sử	-7205
VX	-7206
bộ	-7207
sử	-7208
sự	-7209
tạ	-7210
vì	-7211
ÔN	-7212
đỏ	-7213
TrH	-7214
Tên	-7215
lot	-7216
ngô	-7217
sus	-7218
trơ	-7219
uất	-7220
Đại	-7221
Đầy	-7222
▁Cũ	-7223
TĐTN	-7224
basu	-7225
bích	-7226
ebon	-7227
nhập	-7228
sami	-7229
shim	-7230
sinh	-7231
siếc	-7232
sldt	-7233
stan	-7234
tale	-7235
thay	-7236
tinh	-7237
tiêu	-7238
trên	-7239
tuen	-7240
tung	-7241
uộng	-7242
vinh	-7243
ôlok	-7244
ôpah	-7245
Đúng	-7246
Đống	-7247
Đứng	-7248
đoán	-7249
đoạn	-7250
đích	-7251
đóng	-7252
ơlâm	-7253
ơmon	-7254
ơnơm	-7255
▁Ana	-7256
▁App	-7257
▁BaN	-7258
▁Ble	-7259
▁Bom	-7260
▁Bám	-7261
▁Bén	-7262
▁Bóp	-7263
▁Bùa	-7264
▁Bạn	-7265
▁Bầy	-7266
▁Bẹt	-7267
▁Bọt	-7268
▁Bời	-7269
▁Bứt	-7270
▁CTT	-7271
▁Cen	-7272
▁Cov	-7273
▁Cun	-7274
▁CÁC	-7275
▁Cám	-7276
▁Côn	-7277
▁Cõi	-7278
▁Cưu	-7279
▁Cắm	-7280
▁Cọc	-7281
▁Cọt	-7282
▁Cứt	-7283
▁Cực	-7284
▁Dàn	-7285
▁Dày	-7286
▁Dán	-7287
▁Dùi	-7288
▁Dăk	-7289
▁Dần	-7290
▁Dập	-7291
▁Dắt	-7292
▁Dệt	-7293
▁Dồn	-7294
▁Gan	-7295
▁Giỏ	-7296
▁Gác	-7297
▁Gân	-7298
▁Gót	-7299
Bé	-7300
Bò	-7301
BĐ	-7302
Cô	-7303
Gả	-7304
Tp	-7305
Và	-7306
cà	-7307
lò	-7308
oC	-7309
tỷ	-7310
Đi	-7311
▁;	-7312
▁ĩ	-7313
BĐG	-7314
Tốt	-7315
bấm	-7316
dậy	-7317
dứa	-7318
gum	-7319
kít	-7320
nốp	-7321
rìu	-7322
sso	-7323
tại	-7324
vẫn	-7325
đảm	-7326
▁Pê	-7327
▁SP	-7328
▁bả	-7329
▁mỳ	-7330
▁rè	-7331
▁tò	-7332
▁vố	-7333
Khốn	-7334
biệt	-7335
chín	-7336
chùm	-7337
lãnh	-7338
mite	-7339
miên	-7340
sito	-7341
tral	-7342
▁Bay	-7343
▁Búc	-7344
▁Bấm	-7345
▁GIA	-7346
▁Gút	-7347
▁Gạt	-7348
▁HIV	-7349
▁HPC	-7350
▁Hen	-7351
▁Hum	-7352
▁Huệ	-7353
▁HÔN	-7354
▁Hài	-7355
▁Hào	-7356
▁Hác	-7357
▁Hân	-7358
▁Hãm	-7359
▁Hên	-7360
▁Húc	-7361
▁Hút	-7362
▁Hăn	-7363
▁Hấp	-7364
▁Hắc	-7365
▁Hốp	-7366
▁KCN	-7367
▁KHI	-7368
▁Kdơ	-7369
▁Khe	-7370
▁Khá	-7371
▁Khô	-7372
▁Khả	-7373
▁Kèm	-7374
▁Kéo	-7375
▁Kên	-7376
▁Kêu	-7377
▁Kít	-7378
▁LVN	-7379
▁Lan	-7380
▁Lau	-7381
▁Lác	-7382
▁Láp	-7383
▁Lùa	-7384
▁Lưc	-7385
▁Lạc	-7386
▁Lấp	-7387
▁Lẫn	-7388
▁Lắp	-7389
▁Lặn	-7390
▁Lọc	-7391
▁Map	-7392
▁MgS	-7393
▁MÔI	-7394
▁Mày	-7395
▁Mãi	-7396
▁Mão	-7397
▁Mùi	-7398
▁Mắm	-7399
AC	-7400
Bt	-7401
Hi	-7402
Hà	-7403
Vợ	-7404
Xi	-7405
du	-7406
hồ	-7407
hộ	-7408
iu	-7409
lỗ	-7410
xo	-7411
ẻn	-7412
ểu	-7413
▁í	-7414
Lời	-7415
Nơi	-7416
Tuy	-7417
bay	-7418
cúc	-7419
gim	-7420
mil	-7421
mạc	-7422
num	-7423
sào	-7424
sâu	-7425
sơn	-7426
ượi	-7427
▁Bể	-7428
▁DV	-7429
▁Gơ	-7430
▁Mỡ	-7431
▁dẻ	-7432
▁nẻ	-7433
▁rẫ	-7434
▁vâ	-7435
▁vă	-7436
▁vư	-7437
▁xê	-7438
▁xạ	-7439
Dâng	-7440
KBNN	-7441
Khơi	-7442
Nhơn	-7443
imax	-7444
mani	-7445
phía	-7446
ruba	-7447
toin	-7448
định	-7449
ơnei	-7450
▁Bih	-7451
▁Bra	-7452
▁Che	-7453
▁Chà	-7454
▁Chù	-7455
▁Lật	-7456
▁Mao	-7457
▁Mốc	-7458
▁Ndu	-7459
▁Ngô	-7460
▁Ngõ	-7461
▁Ngư	-7462
▁Ngọ	-7463
▁Nhã	-7464
▁Nhỏ	-7465
▁Nik	-7466
▁Nài	-7467
▁Nái	-7468
▁Núp	-7469
▁Nạn	-7470
▁Nốt	-7471
▁Nứt	-7472
▁Nửa	-7473
▁PAC	-7474
▁Pho	-7475
▁Phơ	-7476
▁Pok	-7477
▁Pók	-7478
▁Pôm	-7479
▁Que	-7480
▁Quà	-7481
▁Quế	-7482
▁Quở	-7483
▁Quỷ	-7484
▁RAT	-7485
▁Rov	-7486
▁Rãi	-7487
▁Rót	-7488
▁Rút	-7489
▁Răn	-7490
▁Rơm	-7491
▁Rải	-7492
▁Rất	-7493
▁Rắc	-7494
▁Rắn	-7495
▁Rền	-7496
▁Rửa	-7497
▁Say	-7498
▁Shu	-7499
)/	-7500
."	-7501
.,	-7502
//	-7503
SC	-7504
TL	-7505
aê	-7506
il	-7507
kô	-7508
tp	-7509
ât	-7510
ýợ	-7511
ợm	-7512
ựt	-7513
▁ỏ	-7514
▁ừ	-7515
://	-7516
Bốn	-7517
Cao	-7518
Cậu	-7519
Giờ	-7520
Gửi	-7521
Lưu	-7522
Mai	-7523
eng	-7524
eât	-7525
ing	-7526
lối	-7527
nha	-7528
rum	-7529
son	-7530
tol	-7531
ttp	-7532
ýời	-7533
ýợu	-7534
ờng	-7535
▁cộ	-7536
▁cở	-7537
▁dả	-7538
▁hú	-7539
▁lầ	-7540
▁mớ	-7541
▁tí	-7542
▁vo	-7543
▁vớ	-7544
▁đâ	-7545
▁đọ	-7546
▁đữ	-7547
Cùng	-7548
Hưng	-7549
nuôi	-7550
roup	-7551
ĐANN	-7552
được	-7553
▁Chợ	-7554
▁Cắn	-7555
▁Hắm	-7556
▁Shơ	-7557
▁Sia	-7558
▁Soi	-7559
▁Sri	-7560
▁Suy	-7561
▁Sáo	-7562
▁Sáu	-7563
▁Sâm	-7564
▁Sân	-7565
▁Sít	-7566
▁Sóc	-7567
▁Súp	-7568
▁Săn	-7569
▁Sấm	-7570
▁Sắc	-7571
▁Sắp	-7572
▁Sắt	-7573
▁Sốt	-7574
▁Sớn	-7575
▁TTN	-7576
▁TTr	-7577
▁Tan	-7578
▁Thơ	-7579
▁Thỏ	-7580
▁Thợ	-7581
▁Tia	-7582
▁Tre	-7583
▁Tro	-7584
▁Trí	-7585
▁Trô	-7586
▁Trù	-7587
▁Trụ	-7588
▁Tuỳ	-7589
▁Tâu	-7590
▁Tóc	-7591
▁Tóm	-7592
▁Tóp	-7593
▁Tôn	-7594
▁Túm	-7595
▁Tận	-7596
▁Tắc	-7597
▁Tủy	-7598
▁USD	-7599
.)	-7600
lý	-7601
xô	-7602
ẽn	-7603
BDT	-7604
Xác	-7605
bàn	-7606
lét	-7607
lên	-7608
mác	-7609
mân	-7610
▁Bờ	-7611
▁Dư	-7612
▁HN	-7613
▁Lồ	-7614
▁bẽ	-7615
▁de	-7616
▁dế	-7617
▁dử	-7618
▁gô	-7619
▁gù	-7620
▁kă	-7621
▁lí	-7622
▁ml	-7623
▁mư	-7624
▁mợ	-7625
▁né	-7626
▁nơ	-7627
▁nỡ	-7628
▁st	-7629
▁sỗ	-7630
▁sỡ	-7631
▁vè	-7632
▁ĐH	-7633
▁Đổ	-7634
▁đò	-7635
Cháu	-7636
Giao	-7637
KTXD	-7638
rium	-7639
thuê	-7640
thóc	-7641
uang	-7642
▁Bái	-7643
▁Chò	-7644
▁Cất	-7645
▁Ksô	-7646
▁Nut	-7647
▁Sưu	-7648
▁Urê	-7649
▁Vác	-7650
▁Vét	-7651
▁Vía	-7652
▁Vùi	-7653
▁Vạt	-7654
▁Vấp	-7655
▁Vặt	-7656
▁Vẹt	-7657
▁Vớt	-7658
▁Vứt	-7659
▁Xam	-7660
▁Xóm	-7661
▁Xót	-7662
▁Xấu	-7663
▁Yến	-7664
▁Yết	-7665
▁anô	-7666
▁aên	-7667
▁bam	-7668
▁bâm	-7669
▁bâu	-7670
▁bèo	-7671
▁bêu	-7672
▁bùi	-7673
▁băl	-7674
▁băt	-7675
▁bảm	-7676
▁bấc	-7677
▁bấn	-7678
▁bấp	-7679
▁bẹt	-7680
▁bết	-7681
▁bộn	-7682
▁bờm	-7683
▁bợm	-7684
▁bục	-7685
▁cen	-7686
▁chè	-7687
▁chù	-7688
▁com	-7689
▁cui	-7690
▁còm	-7691
▁cõm	-7692
▁cằm	-7693
▁cặm	-7694
▁cốm	-7695
▁cồn	-7696
▁cứa	-7697
▁cứt	-7698
▁cửi	-7699
NC	-7700
dư	-7701
▁ồ	-7702
Mời	-7703
SDL	-7704
San	-7705
Vân	-7706
mùi	-7707
nên	-7708
phụ	-7709
poâ	-7710
tóc	-7711
tôi	-7712
địa	-7713
▁Cà	-7714
▁Cở	-7715
▁Kô	-7716
▁Nk	-7717
▁Nợ	-7718
▁Rủ	-7719
▁TL	-7720
▁Tá	-7721
▁Tù	-7722
▁Tỏ	-7723
▁Vu	-7724
▁Vồ	-7725
▁bỡ	-7726
▁kư	-7727
▁rả	-7728
▁rỉ	-7729
▁rộ	-7730
▁rớ	-7731
▁xù	-7732
▁xú	-7733
▁ĐV	-7734
CTPH	-7735
Công	-7736
Giép	-7737
Nhìn	-7738
Nhóm	-7739
TTDL	-7740
binh	-7741
ceae	-7742
cười	-7743
mười	-7744
nspr	-7745
phác	-7746
song	-7747
uran	-7748
▁ANS	-7749
▁Bươ	-7750
▁Cẩn	-7751
▁Lôi	-7752
▁May	-7753
▁Run	-7754
▁Tàn	-7755
▁Tát	-7756
▁bấu	-7757
▁bịp	-7758
▁dim	-7759
▁dnh	-7760
▁doạ	-7761
▁duh	-7762
▁dác	-7763
▁dáo	-7764
▁dúm	-7765
▁dăm	-7766
▁dĩa	-7767
▁dũa	-7768
▁dảy	-7769
▁dấm	-7770
▁dấp	-7771
▁dẫu	-7772
▁dận	-7773
▁dền	-7774
▁dễn	-7775
▁dịa	-7776
▁ghề	-7777
▁giẻ	-7778
▁giỗ	-7779
▁goi	-7780
▁gov	-7781
▁gáo	-7782
▁gát	-7783
▁gúi	-7784
▁găh	-7785
▁găm	-7786
▁gạn	-7787
▁gắt	-7788
▁gọt	-7789
▁gợn	-7790
▁hau	-7791
▁hiu	-7792
▁hoạ	-7793
▁huê	-7794
▁huề	-7795
▁huỷ	-7796
▁hác	-7797
▁hám	-7798
▁háu	-7799
cờ	-7800
Mau	-7801
Môi	-7802
bua	-7803
môi	-7804
sem	-7805
sức	-7806
tôn	-7807
xua	-7808
▁Lở	-7809
▁ất	-7810
Hình	-7811
Mình	-7812
nhất	-7813
▁Cai	-7814
▁Dia	-7815
▁Ngu	-7816
▁Ngà	-7817
▁càn	-7818
▁cựa	-7819
▁dẹt	-7820
▁giò	-7821
▁hèm	-7822
▁hít	-7823
▁húp	-7824
▁hươ	-7825
▁hạp	-7826
▁hấn	-7827
▁hẩm	-7828
▁hắc	-7829
▁hổi	-7830
▁hụp	-7831
▁hực	-7832
▁kem	-7833
▁khè	-7834
▁khẽ	-7835
▁khứ	-7836
▁kit	-7837
▁ktu	-7838
▁kut	-7839
▁kèo	-7840
▁kép	-7841
▁kỉa	-7842
▁liu	-7843
▁lom	-7844
▁loà	-7845
▁loé	-7846
▁lán	-7847
▁lóa	-7848
▁lóe	-7849
▁lạm	-7850
▁lải	-7851
▁lất	-7852
▁lẩy	-7853
▁lặt	-7854
▁lồi	-7855
▁lởm	-7856
▁lủi	-7857
▁mir	-7858
▁mui	-7859
▁mum	-7860
▁mìn	-7861
▁mói	-7862
▁môt	-7863
▁mõm	-7864
▁mũn	-7865
▁mạt	-7866
▁mẹo	-7867
▁mỉm	-7868
▁mỏn	-7869
▁mởn	-7870
▁mứa	-7871
▁nga	-7872
▁ngọ	-7873
▁ngớ	-7874
▁nhe	-7875
▁nhè	-7876
▁nhí	-7877
▁nhọ	-7878
▁nhừ	-7879
▁nhữ	-7880
▁niu	-7881
▁nép	-7882
▁nêm	-7883
▁nấp	-7884
▁oxi	-7885
▁oại	-7886
▁quơ	-7887
▁ran	-7888
▁ria	-7889
▁ràn	-7890
▁rày	-7891
▁rái	-7892
▁rén	-7893
▁róm	-7894
▁rón	-7895
▁rạc	-7896
▁rấm	-7897
▁rẫu	-7898
▁rắm	-7899
▁rắp	-7900
▁rến	-7901
▁rết	-7902
▁rịt	-7903
▁rốt	-7904
▁rụt	-7905
▁sen	-7906
▁shê	-7907
▁sit	-7908
▁soâ	-7909
▁sun	-7910
▁sây	-7911
▁sòm	-7912
▁sùi	-7913
▁sạo	-7914
▁sảy	-7915
▁sầm	-7916
▁sầy	-7917
▁sậm	-7918
▁sẳn	-7919
▁sẹo	-7920
▁sụm	-7921
▁sứa	-7922
▁sữu	-7923
▁ten	-7924
▁teo	-7925
▁thớ	-7926
▁toà	-7927
▁trồ	-7928
▁têu	-7929
▁tói	-7930
▁tóp	-7931
▁tôl	-7932
▁túa	-7933
▁tạt	-7934
▁tằm	-7935
▁tịt	-7936
▁tồi	-7937
▁tực	-7938
▁ver	-7939
▁vàn	-7940
▁vén	-7941
▁véo	-7942
▁víu	-7943
▁vói	-7944
▁văc	-7945
▁vạc	-7946
▁vạm	-7947
▁vảy	-7948
▁vầu	-7949
▁vẫy	-7950
▁vẹo	-7951
▁vời	-7952
▁vợi	-7953
▁vựa	-7954
▁xet	-7955
▁xom	-7956
▁xum	-7957
▁xuê	-7958
▁xào	-7959
▁xát	-7960
▁xén	-7961
▁xíu	-7962
▁xóc	-7963
▁xôn	-7964
▁xõa	-7965
▁xấp	-7966
▁xẩm	-7967
▁xẹp	-7968
▁xỉa	-7969
▁xỉn	-7970
▁xỉu	-7971
▁xọp	-7972
▁xối	-7973
▁xớm	-7974
▁Đak	-7975
▁Đèo	-7976
▁Đíp	-7977
▁Đòi	-7978
▁Đòn	-7979
▁Đùa	-7980
▁Đúc	-7981
▁Đấu	-7982
▁Đầm	-7983
▁Đậu	-7984
▁Đẹp	-7985
▁Đẹt	-7986
▁Đều	-7987
▁Đốm	-7988
▁Đốn	-7989
▁Đồm	-7990
▁đam	-7991
▁đom	-7992
▁đui	-7993
▁đác	-7994
▁đén	-7995
▁đìa	-7996
▁đít	-7997
▁đóa	-7998
▁đùn	-7999
▁đũa	-8000
▁đơi	-8001
▁đươ	-8002
▁đật	-8003
▁đắt	-8004
▁độp	-8005
▁ươi	-8006
▁ạch	-8007
...".	-8008
...):	-8009
....)	-8010
....;	-8011
BATGT	-8012
BGTVT	-8013
CCTPT	-8014
Chiều	-8015
Chuẩn	-8016
GDTrH	-8017
Hoàng	-8018
HĐPHT	-8019
Phòng	-8020
Phước	-8021
Quyền	-8022
Ruộng	-8023
SKHĐT	-8024
STNMT	-8025
Tháng	-8026
Thánh	-8027
Thông	-8028
Thằng	-8029
Trang	-8030
Trung	-8031
Trách	-8032
chông	-8033
chẳng	-8034
chống	-8035
ciden	-8036
cidin	-8037
ghinh	-8038
giếng	-8039
giống	-8040
idium	-8041
khách	-8042
lioni	-8043
logan	-8044
luống	-8045
lytri	-8046
merin	-8047
mulus	-8048
nasin	-8049
ngươi	-8050
phích	-8051
phòng	-8052
ruộng	-8053
sitox	-8054
stant	-8055
sudin	-8056
tadin	-8057
thrin	-8058
thuộc	-8059
thành	-8060
thạch	-8061
tiver	-8062
trước	-8063
turni	-8064
ơngao	-8065
▁....	-8066
▁Adua	-8067
▁BaNa	-8068
▁Biến	-8069
▁Biểu	-8070
▁Bleu	-8071
▁Brix	-8072
▁Bung	-8073
▁Bóng	-8074
▁Bông	-8075
▁Băng	-8076
▁Bưởi	-8077
▁Bồng	-8078
▁CTTN	-8079
▁Chru	-8080
▁Chua	-8081
▁Chín	-8082
▁Chói	-8083
▁Chùa	-8084
▁Chấm	-8085
▁Chặn	-8086
▁Chụp	-8087
▁Chức	-8088
▁Chữa	-8089
▁Covd	-8090
▁Cạnh	-8091
▁Cọng	-8092
▁Cứng	-8093
▁DTNT	-8094
▁Dang	-8095
▁Dani	-8096
▁Diêm	-8097
▁Diệm	-8098
▁Diệu	-8099
▁Dích	-8100
▁Dược	-8101
▁GDSK	-8102
▁Ghít	-8103
▁Giam	-8104
▁Giàn	-8105
▁Giát	-8106
▁Giúc	-8107
▁Giảo	-8108
▁Giọt	-8109
▁Giốt	-8110
▁Gánh	-8111
▁Gơng	-8112
▁HDND	-8113
▁Hiên	-8114
▁Hiến	-8115
▁Hiếu	-8116
▁Hoâi	-8117
▁Hoạn	-8118
▁Hách	-8119
▁Hươu	-8120
▁Hừng	-8121
▁KHÁC	-8122
▁KLót	-8123
▁KTCB	-8124
▁Khoe	-8125
▁Khòm	-8126
▁Khắc	-8127
▁Khởi	-8128
▁Klot	-8129
▁Kênh	-8130
▁Kỉnh	-8131
▁Kịch	-8132
▁Lang	-8133
▁Liệu	-8134
▁Loạn	-8135
▁Luân	-8136
▁Lính	-8137
▁Lăng	-8138
▁Lơng	-8139
▁Lắng	-8140
▁Mano	-8141
▁Muỗi	-8142
▁Muỗm	-8143
▁Móng	-8144
▁Mắng	-8145
▁Mệnh	-8146
▁Nanh	-8147
▁Nghi	-8148
▁Nguy	-8149
▁Ngâm	-8150
▁Ngây	-8151
▁Ngôn	-8152
▁Ngồi	-8153
▁Ngợi	-8154
▁Nháo	-8155
▁Nhát	-8156
▁Nhảy	-8157
▁Nhện	-8158
▁Niềm	-8159
▁Nách	-8160
▁Nặng	-8161
▁Pega	-8162
▁Phin	-8163
▁Phàm	-8164
▁Phác	-8165
▁Phái	-8166
▁Phán	-8167
▁Phút	-8168
▁Phẩm	-8169
▁Plus	-8170
▁QLCL	-8171
▁Quét	-8172
▁Quấn	-8173
▁Quần	-8174
▁Rido	-8175
▁Rong	-8176
▁Rung	-8177
▁Ruột	-8178
▁Rông	-8179
▁Răng	-8180
▁Rạch	-8181
▁Rạng	-8182
▁Rằng	-8183
▁Rộng	-8184
▁Siếc	-8185
▁Siếp	-8186
▁Soạn	-8187
▁SÁCH	-8188
▁Sùng	-8189
▁Sơri	-8190
▁Sơro	-8191
▁TQVN	-8192
▁TTNT	-8193
▁Tang	-8194
▁Tanh	-8195
▁Than	-8196
▁Thuê	-8197
▁Thây	-8198
▁Thúc	-8199
▁Thập	-8200
▁Thắp	-8201
▁Thắt	-8202
▁Thằn	-8203
▁Thỏa	-8204
▁Thổi	-8205
▁Thụy	-8206
▁Tiếc	-8207
▁Tiện	-8208
▁Toan	-8209
▁Toán	-8210
▁Treo	-8211
▁Tràn	-8212
▁Trút	-8213
▁Tuân	-8214
▁Tuôn	-8215
▁Tuốt	-8216
▁Tòng	-8217
▁Tước	-8218
▁Tảng	-8219
▁Tặng	-8220
▁VIệt	-8221
▁Visa	-8222
▁Viên	-8223
▁Viết	-8224
▁Vũng	-8225
▁Vắng	-8226
▁Vừng	-8227
▁Xích	-8228
▁Xông	-8229
▁Yàng	-8230
▁alon	-8231
▁biếc	-8232
▁boât	-8233
▁buốt	-8234
▁bành	-8235
▁bươm	-8236
▁bườm	-8237
▁bạnh	-8238
▁bẵng	-8239
▁bỉnh	-8240
▁bịch	-8241
▁cang	-8242
▁chan	-8243
▁chum	-8244
▁chác	-8245
▁cháo	-8246
▁chòe	-8247
▁chót	-8248
▁chôm	-8249
▁chĩa	-8250
▁chải	-8251
▁chần	-8252
▁chẩy	-8253
▁chắp	-8254
▁chẵn	-8255
▁chặc	-8256
▁chẹn	-8257
▁chồm	-8258
▁chớm	-8259
▁chởm	-8260
▁chợp	-8261
▁clip	-8262
▁cuồn	-8263
▁cuỗn	-8264
▁cáng	-8265
▁dông	-8266
▁dứng	-8267
▁dửng	-8268
▁ghim	-8269
▁giãi	-8270
▁gióc	-8271
▁giơt	-8272
▁giỗi	-8273
▁giỡn	-8274
▁giửa	-8275
▁giựt	-8276
▁gram	-8277
▁gừng	-8278
▁hanh	-8279
▁hnam	-8280
▁hoat	-8281
▁hoen	-8282
▁hong	-8283
▁hoãn	-8284
▁hoắt	-8285
▁http	-8286
▁hách	-8287
▁hôbo	-8288
▁hước	-8289
▁hẵng	-8290
▁họat	-8291
▁hổng	-8292
▁hửng	-8293
▁kaly	-8294
▁keât	-8295
▁khay	-8296
▁khán	-8297
▁khêu	-8298
▁khít	-8299
▁khúm	-8300
▁khấm	-8301
▁khấu	-8302
▁khểu	-8303
▁khọm	-8304
▁khốc	-8305
▁kiếp	-8306
▁kiết	-8307
▁klao	-8308
▁kềnh	-8309
▁loét	-8310
▁lênh	-8311
▁lóng	-8312
▁lườm	-8313
▁lạng	-8314
▁lảng	-8315
▁lọng	-8316
▁lủng	-8317
▁mùng	-8318
▁mưng	-8319
▁mướt	-8320
▁mẳng	-8321
▁naêr	-8322
▁nghê	-8323
▁ngát	-8324
▁ngáy	-8325
▁ngây	-8326
▁ngèo	-8327
▁ngấn	-8328
▁ngầu	-8329
▁ngẩn	-8330
▁ngốc	-8331
▁ngột	-8332
▁ngợm	-8333
▁ngụm	-8334
▁ngụp	-8335
▁ngủi	-8336
▁ngửa	-8337
▁nham	-8338
▁nhiê	-8339
▁nhom	-8340
▁nhão	-8341
▁nhét	-8342
▁nhím	-8343
▁nhòa	-8344
▁nhóc	-8345
▁nhùi	-8346
▁nhúc	-8347
▁nhúm	-8348
▁nhút	-8349
▁nhũi	-8350
▁nhũn	-8351
▁nhơn	-8352
▁nhải	-8353
▁nhảm	-8354
▁nhậy	-8355
▁nhắn	-8356
▁nhắt	-8357
▁nhổi	-8358
▁nhụt	-8359
▁nhức	-8360
▁niêu	-8361
▁niết	-8362
▁nạng	-8363
▁oanh	-8364
▁oeng	-8365
▁pheâ	-8366
▁phui	-8367
▁phàn	-8368
▁phăm	-8369
▁phảỉ	-8370
▁phật	-8371
▁phọt	-8372
▁phớt	-8373
▁phỡn	-8374
▁phực	-8375
▁pơyô	-8376
▁queo	-8377
▁quãi	-8378
▁quại	-8379
▁quầy	-8380
▁quẩn	-8381
▁quẫy	-8382
▁quắp	-8383
▁quắt	-8384
▁quằn	-8385
▁quặn	-8386
▁quặp	-8387
▁quặt	-8388
▁quệt	-8389
▁riều	-8390
▁rành	-8391
▁ráng	-8392
▁rùng	-8393
▁rýợu	-8394
▁rơmo	-8395
▁rười	-8396
▁rườm	-8397
▁rượi	-8398
▁rặng	-8399
▁suýt	-8400
▁sửng	-8401
▁thuô	-8402
▁thán	-8403
▁thãi	-8404
▁thùy	-8405
▁thúi	-8406
▁thẫm	-8407
▁thắn	-8408
▁thột	-8409
▁thụi	-8410
▁thủi	-8411
▁toái	-8412
▁tron	-8413
▁trám	-8414
▁trìu	-8415
▁trót	-8416
▁trôn	-8417
▁trũi	-8418
▁trảm	-8419
▁trọc	-8420
▁trối	-8421
▁trồi	-8422
▁trợt	-8423
▁tuấn	-8424
▁tuột	-8425
▁tạng	-8426
▁tạnh	-8427
▁urea	-8428
▁uyên	-8429
▁uổng	-8430
▁viet	-8431
▁vảng	-8432
▁vẳng	-8433
▁vống	-8434
▁xoăn	-8435
▁xuýt	-8436
▁xẳng	-8437
▁yàng	-8438
▁Điền	-8439
▁Đành	-8440
▁Đóng	-8441
▁Đẳng	-8442
▁Đỉnh	-8443
▁Đống	-8444
▁Đổng	-8445
▁Đụng	-8446
▁đong	-8447
▁đoản	-8448
▁đung	-8449
▁đuốt	-8450
▁đuợc	-8451
▁đênh	-8452
▁đười	-8453
Chuyển	-8454
Giường	-8455
Hishim	-8456
Khoảng	-8457
PBGDPL	-8458
Thường	-8459
Trường	-8460
annerq	-8461
clorua	-8462
eralit	-8463
khuyến	-8464
little	-8465
nspray	-8466
rdeaux	-8467
ssorun	-8468
uradan	-8469
vistin	-8470
ycitis	-8471
▁Anvil	-8472
▁BVCST	-8473
▁Belge	-8474
▁Blanc	-8475
▁Buông	-8476
▁Buồng	-8477
▁CHUNG	-8478
▁Canbo	-8479
▁Carbo	-8480
▁Ceram	-8481
▁Chuôi	-8482
▁Chống	-8483
▁Curcu	-8484
▁Decis	-8485
▁Duyên	-8486
▁Duyệt	-8487
▁Dương	-8488
▁Ghiệt	-8489
▁Glaih	-8490
▁Group	-8491
▁Hoạch	-8492
▁Hường	-8493
▁Karen	-8494
▁Khang	-8495
▁Khanh	-8496
▁Khinh	-8497
▁Khoai	-8498
▁Khoác	-8499
▁Khơng	-8500
▁Khổng	-8501
▁Kõdõi	-8502
▁LCASP	-8503
▁Linsu	-8504
▁Loáng	-8505
▁Luống	-8506
▁Lưỡng	-8507
▁Ngang	-8508
▁Nhuần	-8509
▁Nhúng	-8510
▁Nướng	-8511
▁Perme	-8512
▁Quyên	-8513
▁Quyển	-8514
▁Quách	-8515
▁Quặng	-8516
▁SGDĐT	-8517
▁Sương	-8518
▁Thiêu	-8519
▁Thuẫn	-8520
▁Thòng	-8521
▁Thăng	-8522
▁Tranh	-8523
▁Trinh	-8524
▁Triêm	-8525
▁Truất	-8526
▁Tránh	-8527
▁Trơvơ	-8528
▁Tuyết	-8529
▁Tượng	-8530
▁Vgiao	-8531
▁Vicap	-8532
▁Xuống	-8533
▁bơmơn	-8534
▁bơnơm	-8535
▁chiết	-8536
▁choán	-8537
▁chòng	-8538
▁chểnh	-8539
▁extra	-8540
▁ghiệp	-8541
▁ghếnh	-8542
▁giằng	-8543
▁grech	-8544
▁hoach	-8545
▁hoãng	-8546
▁hoẵng	-8547
▁huênh	-8548
▁hơmon	-8549
▁kapoâ	-8550
▁khanh	-8551
▁khoeo	-8552
▁khoái	-8553
▁khoát	-8554
▁khoải	-8555
▁khơng	-8556
▁khướt	-8557
▁khắng	-8558
▁khểnh	-8559
▁khỏng	-8560
▁kiềng	-8561
▁krông	-8562
▁ktung	-8563
▁kôpah	-8564
▁liệng	-8565
▁loạng	-8566
▁maket	-8567
▁mường	-8568
▁nghẹn	-8569
▁nghẹt	-8570
▁nghẽn	-8571
▁nghịt	-8572
▁ngoai	-8573
▁ngoáy	-8574
▁ngoèo	-8575
▁ngoạc	-8576
▁ngoắc	-8577
▁ngoằn	-8578
▁ngàng	-8579
▁ngách	-8580
▁ngóng	-8581
▁ngýời	-8582
▁ngưởi	-8583
▁nhiêm	-8584
▁nhiếp	-8585
▁nhiệp	-8586
▁nhoẻn	-8587
▁nhược	-8588
▁nhằng	-8589
▁nhặng	-8590
▁nylon	-8591
▁phiêu	-8592
▁photo	-8593
▁phèng	-8594
▁pieâu	-8595
▁pôlok	-8596
▁pơkao	-8597
▁pơyan	-8598
▁quàng	-8599
▁quáng	-8600
▁quạng	-8601
▁quầng	-8602
▁quặng	-8603
▁ruỗng	-8604
▁rơnei	-8605
▁rướng	-8606
▁rưởng	-8607
▁thiếc	-8608
▁thoải	-8609
▁thuât	-8610
▁thũng	-8611
▁thướt	-8612
▁thặng	-8613
▁toâng	-8614
▁trien	-8615
▁truớc	-8616
▁trệch	-8617
▁tôgum	-8618
▁tơhlu	-8619
▁tơtrơ	-8620
▁video	-8621
▁virut	-8622
▁vưởng	-8623
▁xoong	-8624
▁xuyến	-8625
▁Đuang	-8626
SVHTTDL	-8627
bicidae	-8628
cardium	-8629
ormalin	-8630
ralidae	-8631
sldtbxh	-8632
usarium	-8633
vitamin	-8634
▁(....)	-8635
▁Admire	-8636
▁Amnăng	-8637
▁Biogas	-8638
▁Choàng	-8639
▁Chranh	-8640
▁Comite	-8641
▁Karuba	-8642
▁Khiêng	-8643
▁Master	-8644
▁NGUYÊN	-8645
▁Nghiêm	-8646
▁Nghiến	-8647
▁Ngoảnh	-8648
▁NhơnSở	-8649
▁Ratoin	-8650
▁Regent	-8651
▁Rovral	-8652
▁Rumani	-8653
▁Rơngao	-8654
▁Rơpang	-8655
▁Stiêng	-8656
▁Thờơng	-8657
▁Trebon	-8658
▁Trướng	-8659
▁Vibasu	-8660
▁báotin	-8661
▁choạng	-8662
▁chướng	-8663
▁chường	-8664
▁hạngIV	-8665
▁khiễng	-8666
▁khoắng	-8667
▁khuynh	-8668
▁kơtuen	-8669
▁mứcvốn	-8670
▁nguệch	-8671
▁nitrat	-8672
▁pơplei	-8673
▁rơpang	-8674
▁sesami	-8675
▁stress	-8676
▁thuyên	-8677
▁thuyển	-8678
▁thuờng	-8679
▁trướng	-8680
▁tưTổng	-8681
▁vacxin	-8682
▁ĐăkTra	-8683
BCĐCCTPT	-8684
HĐNDngày	-8685
binhdinh	-8686
lionidae	-8687
lytricha	-8688
turnidae	-8689
▁Alittle	-8690
▁Applaud	-8691
▁BNNPTNT	-8692
▁Basitox	-8693
▁Basudin	-8694
▁Bitadin	-8695
▁Central	-8696
▁Cymerin	-8697
▁Danitol	-8698
▁Distant	-8699
▁Kumulus	-8700
▁Pegasus	-8701
▁Ridomil	-8702
▁Vietnam	-8703
▁Vitamin	-8704
▁anôphen	-8705
▁cChuyện	-8706
▁cuarThủ	-8707
▁hạngIII	-8708
▁occiden	-8709
▁sologan	-8710
▁tơmplei	-8711
▁vitamin	-8712
▁địnhPhê	-8713
annerqing	-8714
▁Bavistin	-8715
▁Bordeaux	-8716
▁Nissorun	-8717
▁binhdinh	-8718
▁phycitis	-8719
▁vertiver	-8720
CTUBNDngày	-8721
Hishimonus	-8722
▁Chloramin	-8723
▁Pyralidae	-8724
▁Sumicidin	-8725
▁Anacardium	-8726
▁Permethrin	-8727
▁Saturnidae	-8728
▁kaliclorua	-8729
▁nhậnChuyển	-8730
▁polytricha	-8731
▁occidentale	-8732
▁Cerambicidae	-8733
▁Curculionidae	-8734
▁Linsuannerqing	-8735
▁Auriculariaceae	-8736
Ad	-8737
Ap	-8738
Au	-8739
BL	-8740
Ce	-8741
Dí	-8742
Dắ	-8743
Dồ	-8744
Gu	-8745
Gú	-8746
HL	-8747
KC	-8748
LH	-8749
Lạ	-8750
Só	-8751
TA	-8752
TG	-8753
TR	-8754
Tơ	-8755
Tọ	-8756
Vỏ	-8757
Vụ	-8758
Vự	-8759
aN	-8760
bỡ	-8761
de	-8762
dm	-8763
dẻ	-8764
gC	-8765
ix	-8766
lẹ	-8767
nV	-8768
rb	-8769
rã	-8770
ră	-8771
tề	-8772
uo	-8773
uý	-8774
xạ	-8775
xộ	-8776
ya	-8777
ôg	-8778
ĐC	-8779
đú	-8780
ỳn	-8781
)..	-8782
ATT	-8783
BND	-8784
BTN	-8785
Biể	-8786
Bài	-8787
Bày	-8788
CHÚ	-8789
Dam	-8790
Diê	-8791
Dua	-8792
Dày	-8793
Dây	-8794
Dầu	-8795
Dập	-8796
GDT	-8797
GDĐ	-8798
Gây	-8799
AI	-8800
Ac	-8801
Ao	-8802
Bứ	-8803
Dă	-8804
Dụ	-8805
Gạ	-8806
Hỏ	-8807
Hứ	-8808
Ke	-8809
LĐ	-8810
Lụ	-8811
Mừ	-8812
Nấ	-8813
Nữ	-8814
Pa	-8815
Pl	-8816
QC	-8817
Râ	-8818
Rấ	-8819
SG	-8820
Sr	-8821
Sế	-8822
Tỉ	-8823
US	-8824
Xà	-8825
ad	-8826
av	-8827
aâ	-8828
bủ	-8829
bữ	-8830
cs	-8831
dơ	-8832
dở	-8833
gr	-8834
hr	-8835
hí	-8836
hợ	-8837
iẻ	-8838
iọ	-8839
iở	-8840
lữ	-8841
mừ	-8842
nd	-8843
nt	-8844
oã	-8845
pp	-8846
rẻ	-8847
rự	-8848
sm	-8849
sế	-8850
sỗ	-8851
tm	-8852
xỉ	-8853
ĐB	-8854
Đu	-8855
đỗ	-8856
đữ	-8857
ửn	-8858
DND	-8859
Dươ	-8860
Gân	-8861
HHG	-8862
HKT	-8863
HTT	-8864
HXH	-8865
HĐP	-8866
HĐT	-8867
Hướ	-8868
IDS	-8869
Iệt	-8870
KCN	-8871
KHC	-8872
KHH	-8873
Kho	-8874
Kôn	-8875
Kết	-8876
LML	-8877
Lao	-8878
Lát	-8879
Lật	-8880
Lối	-8881
May	-8882
Mày	-8883
Mát	-8884
Mây	-8885
Mối	-8886
NHH	-8887
NLT	-8888
NNP	-8889
NTT	-8890
Nác	-8891
Qua	-8892
Riê	-8893
Râu	-8894
Rơn	-8895
Rấy	-8896
Rắn	-8897
Rền	-8898
Rốt	-8899
Br	-8900
Bú	-8901
Bạ	-8902
Bầ	-8903
Cố	-8904
Dầ	-8905
Dữ	-8906
GA	-8907
Gl	-8908
Gã	-8909
Gồ	-8910
Gử	-8911
HQ	-8912
Hr	-8913
Lí	-8914
Mâ	-8915
Mê	-8916
Mí	-8917
Mă	-8918
Mẫ	-8919
Mố	-8920
Nô	-8921
Nú	-8922
Nă	-8923
Nằ	-8924
Nỗ	-8925
Pr	-8926
Ra	-8927
Rá	-8928
Rệ	-8929
Rố	-8930
Se	-8931
Sợ	-8932
Xư	-8933
Xấ	-8934
Xế	-8935
as	-8936
dr	-8937
dĩ	-8938
ee	-8939
há	-8940
iâ	-8941
kẹ	-8942
lẩ	-8943
lằ	-8944
mẻ	-8945
mủ	-8946
rm	-8947
rỏ	-8948
rớ	-8949
sù	-8950
sũ	-8951
sọ	-8952
tG	-8953
tằ	-8954
tể	-8955
tễ	-8956
ud	-8957
vẩ	-8958
Át	-8959
Ên	-8960
ôd	-8961
Đụ	-8962
ưh	-8963
ựn	-8964
▁ắ	-8965
Biệ	-8966
Bất	-8967
Hai	-8968
Lấy	-8969
Rồi	-8970
Rửa	-8971
SGD	-8972
STN	-8973
Say	-8974
Sem	-8975
Sàn	-8976
Săn	-8977
Sải	-8978
Sết	-8979
TCB	-8980
TDT	-8981
THP	-8982
TNM	-8983
TTL	-8984
TTT	-8985
TUB	-8986
TVQ	-8987
TYT	-8988
Tiề	-8989
UBT	-8990
Uốn	-8991
Xam	-8992
Xáp	-8993
Xát	-8994
Xúc	-8995
Yết	-8996
acc	-8997
aga	-8998
ami	-8999
Bl	-9000
Dá	-9001
DĐ	-9002
Gư	-9003
Gắ	-9004
Gặ	-9005
Hu	-9006
Hù	-9007
Hệ	-9008
In	-9009
KM	-9010
Kí	-9011
LL	-9012
Lé	-9013
Lộ	-9014
Lủ	-9015
Lự	-9016
Mì	-9017
Ná	-9018
Né	-9019
Nề	-9020
Nỏ	-9021
Py	-9022
QV	-9023
Rì	-9024
Tể	-9025
Va	-9026
Vo	-9027
Vấ	-9028
XI	-9029
bs	-9030
bắ	-9031
bổ	-9032
bợ	-9033
câ	-9034
dạ	-9035
dằ	-9036
dễ	-9037
dỡ	-9038
gì	-9039
gư	-9040
gờ	-9041
ht	-9042
kệ	-9043
ló	-9044
mử	-9045
nụ	-9046
nử	-9047
ol	-9048
oo	-9049
ou	-9050
rỡ	-9051
sồ	-9052
sừ	-9053
sỹ	-9054
té	-9055
tợ	-9056
tủ	-9057
uc	-9058
ug	-9059
uì	-9060
vã	-9061
vỗ	-9062
vờ	-9063
xẻ	-9064
xỏ	-9065
xớ	-9066
yt	-9067
yô	-9068
õd	-9069
ĐP	-9070
Đe	-9071
Đơ	-9072
ĩu	-9073
ệk	-9074
▁ậ	-9075
Bác	-9076
Dan	-9077
acx	-9078
amp	-9079
anu	-9080
aok	-9081
aru	-9082
asu	-9083
car	-9084
chu	-9085
chí	-9086
chù	-9087
chố	-9088
chồ	-9089
col	-9090
den	-9091
dmi	-9092
dua	-9093
dơi	-9094
eau	-9095
ech	-9096
eik	-9097
ein	-9098
end	-9099
/.	-9100
At	-9101
BK	-9102
Bo	-9103
Bồ	-9104
Bổ	-9105
Cấ	-9106
Dấ	-9107
Dọ	-9108
Gà	-9109
Gù	-9110
IC	-9111
Kr	-9112
Lo	-9113
Lầ	-9114
Lậ	-9115
Lợ	-9116
ML	-9117
Mũ	-9118
Mớ	-9119
Mở	-9120
NL	-9121
Nắ	-9122
Ri	-9123
Sá	-9124
Tù	-9125
Tụ	-9126
Uố	-9127
VR	-9128
Vù	-9129
Xả	-9130
bừ	-9131
ct	-9132
cở	-9133
dã	-9134
dủ	-9135
gú	-9136
ic	-9137
iầ	-9138
lõ	-9139
lặ	-9140
lễ	-9141
lọ	-9142
lủ	-9143
lử	-9144
mè	-9145
mơ	-9146
mả	-9147
oé	-9148
oằ	-9149
pi	-9150
rà	-9151
rè	-9152
ró	-9153
rẩ	-9154
rằ	-9155
rể	-9156
rỉ	-9157
sầ	-9158
tn	-9159
tờ	-9160
tở	-9161
uẫ	-9162
uệ	-9163
vó	-9164
vấ	-9165
vở	-9166
xá	-9167
õn	-9168
ẽo	-9169
ệc	-9170
Dao	-9171
dnh	-9172
enl	-9173
erm	-9174
etG	-9175
eâu	-9176
gày	-9177
hao	-9178
hay	-9179
hen	-9180
hiê	-9181
hiề	-9182
hái	-9183
hán	-9184
hây	-9185
hép	-9186
hét	-9187
hìn	-9188
hín	-9189
hít	-9190
hóa	-9191
hóc	-9192
hóm	-9193
húa	-9194
hăn	-9195
hơn	-9196
hưa	-9197
hướ	-9198
hườ	-9199
BT	-9200
Bù	-9201
Bắ	-9202
Bố	-9203
Bờ	-9204
Cơ	-9205
Cắ	-9206
Gó	-9207
HT	-9208
HÁ	-9209
Hầ	-9210
Kè	-9211
Kỳ	-9212
Lý	-9213
Lơ	-9214
Lớ	-9215
Má	-9216
Mù	-9217
Mỹ	-9218
Nu	-9219
PB	-9220
Rẫ	-9221
Su	-9222
Sê	-9223
Sữ	-9224
Tg	-9225
Tì	-9226
Tố	-9227
Tứ	-9228
Xô	-9229
bă	-9230
cọ	-9231
dí	-9232
dò	-9233
dõ	-9234
dồ	-9235
dộ	-9236
gạ	-9237
gả	-9238
gẫ	-9239
gử	-9240
hẻ	-9241
hề	-9242
hở	-9243
hỡ	-9244
lề	-9245
lỡ	-9246
mò	-9247
mệ	-9248
mỹ	-9249
nọ	-9250
oc	-9251
rH	-9252
rệ	-9253
sậ	-9254
tò	-9255
tỳ	-9256
uí	-9257
uắ	-9258
uẹ	-9259
vú	-9260
vậ	-9261
xă	-9262
xố	-9263
úy	-9264
Đí	-9265
ĐĐ	-9266
Đằ	-9267
Đợ	-9268
đẫ	-9269
đụ	-9270
▁ầ	-9271
Dần	-9272
KTX	-9273
Liề	-9274
Răn	-9275
hên	-9276
hận	-9277
hật	-9278
hắc	-9279
hắp	-9280
hốn	-9281
iac	-9282
iam	-9283
iao	-9284
ich	-9285
idi	-9286
ieo	-9287
igh	-9288
ili	-9289
iru	-9290
ita	-9291
ito	-9292
iáp	-9293
iát	-9294
iép	-9295
iêc	-9296
iúp	-9297
iườ	-9298
iải	-9299
Bi	-9300
Cạ	-9301
DP	-9302
Gâ	-9303
Há	-9304
Hằ	-9305
Hợ	-9306
Hỷ	-9307
Ka	-9308
Ký	-9309
Lâ	-9310
Lề	-9311
Lồ	-9312
Mệ	-9313
Nâ	-9314
Nố	-9315
Nồ	-9316
Rừ	-9317
Tí	-9318
Vò	-9319
Vầ	-9320
Vố	-9321
Vừ	-9322
ap	-9323
bã	-9324
bè	-9325
bể	-9326
dá	-9327
dờ	-9328
gở	-9329
hẹ	-9330
iẫ	-9331
iụ	-9332
lẻ	-9333
lổ	-9334
mù	-9335
mă	-9336
nũ	-9337
nả	-9338
nồ	-9339
nở	-9340
ob	-9341
os	-9342
ré	-9343
rầ	-9344
rợ	-9345
sấ	-9346
sủ	-9347
tã	-9348
uè	-9349
uê	-9350
uạ	-9351
uả	-9352
vo	-9353
vá	-9354
vặ	-9355
xí	-9356
êc	-9357
Đê	-9358
Đẩ	-9359
đắ	-9360
đỡ	-9361
đự	-9362
ũy	-9363
ơl	-9364
▁i	-9365
▁ò	-9366
CTP	-9367
Sươ	-9368
TTD	-9369
Xem	-9370
ach	-9371
ant	-9372
eae	-9373
iễu	-9374
iỏi	-9375
iốt	-9376
iới	-9377
kao	-9378
kra	-9379
lat	-9380
lau	-9381
lid	-9382
log	-9383
mal	-9384
mic	-9385
mit	-9386
mơn	-9387
nac	-9388
nar	-9389
nas	-9390
ner	-9391
ngh	-9392
ngè	-9393
ngắ	-9394
ngừ	-9395
nhị	-9396
nhớ	-9397
nid	-9398
niê	-9399
Al	-9400
Bó	-9401
Bẻ	-9402
Cộ	-9403
Củ	-9404
Dố	-9405
Gơ	-9406
Gố	-9407
Hế	-9408
Ko	-9409
Ku	-9410
Lấ	-9411
Lỗ	-9412
NM	-9413
Nà	-9414
PS	-9415
QP	-9416
Rơ	-9417
Sh	-9418
Tâ	-9419
Tă	-9420
Tư	-9421
Tế	-9422
Uỷ	-9423
Vư	-9424
Vạ	-9425
Xá	-9426
Yă	-9427
bự	-9428
că	-9429
cẩ	-9430
cừ	-9431
dũ	-9432
dả	-9433
dặ	-9434
dệ	-9435
gẩ	-9436
hã	-9437
hừ	-9438
io	-9439
kề	-9440
lì	-9441
lứ	-9442
mó	-9443
mũ	-9444
mẽ	-9445
mế	-9446
mổ	-9447
oạ	-9448
oẻ	-9449
pô	-9450
pă	-9451
rồ	-9452
rữ	-9453
sứ	-9454
tú	-9455
uỗ	-9456
uở	-9457
uỳ	-9458
uỷ	-9459
uỹ	-9460
vộ	-9461
xổ	-9462
Đặ	-9463
đí	-9464
đă	-9465
đằ	-9466
đẳ	-9467
đẻ	-9468
ễm	-9469
ờm	-9470
Nên	-9471
Rít	-9472
TGT	-9473
UBK	-9474
aên	-9475
isa	-9476
ngú	-9477
ngầ	-9478
nhă	-9479
nhụ	-9480
nvi	-9481
oay	-9482
oeo	-9483
oin	-9484
oly	-9485
ore	-9486
oru	-9487
ose	-9488
ovi	-9489
oái	-9490
oáy	-9491
oèo	-9492
oét	-9493
oạc	-9494
oạt	-9495
oải	-9496
oắn	-9497
oặc	-9498
phì	-9499
Be	-9500
Bì	-9501
Co	-9502
Dà	-9503
Dạ	-9504
Dẫ	-9505
Hạ	-9506
Kơ	-9507
Kỹ	-9508
Ló	-9509
Lư	-9510
Lẫ	-9511
Mọ	-9512
Nầ	-9513
Nộ	-9514
Rè	-9515
Sâ	-9516
TH	-9517
Tò	-9518
Vả	-9519
XV	-9520
Xo	-9521
dắ	-9522
gu	-9523
gũ	-9524
gớ	-9525
hặ	-9526
hủ	-9527
iG	-9528
iá	-9529
iố	-9530
kẽ	-9531
kỷ	-9532
lẫ	-9533
lớ	-9534
lự	-9535
mạ	-9536
ns	-9537
nẩ	-9538
rị	-9539
rụ	-9540
rừ	-9541
sâ	-9542
sò	-9543
tì	-9544
tị	-9545
uô	-9546
uố	-9547
vệ	-9548
yê	-9549
yế	-9550
yễ	-9551
êr	-9552
Đá	-9553
Đấ	-9554
đé	-9555
đì	-9556
đế	-9557
ơs	-9558
ếc	-9559
ệu	-9560
ịu	-9561
▁á	-9562
▁ú	-9563
Lượ	-9564
Vượ	-9565
bsi	-9566
chẳ	-9567
ine	-9568
mas	-9569
ngã	-9570
nhì	-9571
nhờ	-9572
phồ	-9573
phổ	-9574
phớ	-9575
pla	-9576
pôl	-9577
pôm	-9578
rad	-9579
rbo	-9580
rdi	-9581
rea	-9582
ree	-9583
ric	-9584
ril	-9585
riu	-9586
riê	-9587
riề	-9588
riể	-9589
rma	-9590
rua	-9591
rub	-9592
rus	-9593
rut	-9594
ràn	-9595
râu	-9596
rải	-9597
rần	-9598
rủa	-9599
Bu	-9600
Bă	-9601
Bấ	-9602
Ct	-9603
DN	-9604
DS	-9605
Hy	-9606
Hă	-9607
Hộ	-9608
IX	-9609
KS	-9610
Lã	-9611
Lú	-9612
Lĩ	-9613
Lọ	-9614
MÔ	-9615
Mờ	-9616
Mứ	-9617
Nẹ	-9618
Ro	-9619
Tộ	-9620
Vũ	-9621
Xa	-9622
bẽ	-9623
cõ	-9624
cặ	-9625
cỗ	-9626
dú	-9627
dụ	-9628
gò	-9629
gõ	-9630
hd	-9631
hấ	-9632
ik	-9633
it	-9634
kT	-9635
ký	-9636
kẻ	-9637
lờ	-9638
lở	-9639
mà	-9640
mã	-9641
mé	-9642
mỏ	-9643
mớ	-9644
mứ	-9645
nv	-9646
nấ	-9647
nầ	-9648
oà	-9649
oă	-9650
rá	-9651
rẫ	-9652
rậ	-9653
só	-9654
sở	-9655
tá	-9656
ur	-9657
uá	-9658
xủ	-9659
Án	-9660
íc	-9661
ăt	-9662
ĐA	-9663
đạ	-9664
đỉ	-9665
ũn	-9666
ỏn	-9667
ụn	-9668
▁ớ	-9669
aih	-9670
kho	-9671
nhạ	-9672
phỏ	-9673
rực	-9674
sit	-9675
sld	-9676
sma	-9677
sti	-9678
str	-9679
sud	-9680
sơr	-9681
tac	-9682
tad	-9683
tal	-9684
tbx	-9685
tep	-9686
ter	-9687
tiê	-9688
tiề	-9689
tma	-9690
tre	-9691
tri	-9692
tur	-9693
tươ	-9694
uar	-9695
uch	-9696
ugh	-9697
ula	-9698
uli	-9699
BM	-9700
Bẫ	-9701
CH	-9702
Cá	-9703
Cớ	-9704
Da	-9705
Dò	-9706
Gá	-9707
Gọ	-9708
Lá	-9709
Mỏ	-9710
PN	-9711
Rê	-9712
Rầ	-9713
SL	-9714
Sả	-9715
Tu	-9716
Tẩ	-9717
Xâ	-9718
Yế	-9719
ak	-9720
bạ	-9721
bậ	-9722
bị	-9723
cl	-9724
cũ	-9725
cố	-9726
di	-9727
dẹ	-9728
gấ	-9729
hả	-9730
hẽ	-9731
ih	-9732
iò	-9733
iù	-9734
iễ	-9735
lạ	-9736
mỉ	-9737
mộ	-9738
mự	-9739
nl	-9740
nà	-9741
né	-9742
nò	-9743
rõ	-9744
rế	-9745
sạ	-9746
tù	-9747
tỉ	-9748
tử	-9749
uồ	-9750
uợ	-9751
vé	-9752
vẫ	-9753
vẳ	-9754
Đâ	-9755
Đò	-9756
Độ	-9757
đấ	-9758
đị	-9759
đợ	-9760
ơk	-9761
ỉn	-9762
ịn	-9763
ởn	-9764
HNN	-9765
Lác	-9766
Quy	-9767
Rỗi	-9768
UBM	-9769
amb	-9770
chă	-9771
est	-9772
nhâ	-9773
nhô	-9774
ray	-9775
umi	-9776
uye	-9777
uyê	-9778
uyễ	-9779
uét	-9780
uên	-9781
uấy	-9782
uần	-9783
uận	-9784
uật	-9785
uậy	-9786
uốn	-9787
uồi	-9788
uỗi	-9789
uột	-9790
uớc	-9791
vit	-9792
vra	-9793
yco	-9794
yến	-9795
yết	-9796
yếu	-9797
Ách	-9798
áot	-9799
Bư	-9800
Bị	-9801
Cú	-9802
Cũ	-9803
Gn	-9804
Gô	-9805
Mn	-9806
Mư	-9807
Mặ	-9808
PC	-9809
Sà	-9810
Sẻ	-9811
Tả	-9812
Tỷ	-9813
Ví	-9814
Xỏ	-9815
Yu	-9816
al	-9817
ax	-9818
bỉ	-9819
bỏ	-9820
bứ	-9821
cc	-9822
cã	-9823
cả	-9824
dé	-9825
gậ	-9826
gọ	-9827
hn	-9828
hò	-9829
hụ	-9830
lã	-9831
lợ	-9832
mỗ	-9833
nư	-9834
nắ	-9835
nộ	-9836
oả	-9837
râ	-9838
rì	-9839
rý	-9840
rề	-9841
sá	-9842
sổ	-9843
sớ	-9844
sợ	-9845
ul	-9846
vă	-9847
vừ	-9848
xà	-9849
xọ	-9850
yu	-9851
êt	-9852
Đó	-9853
Đỏ	-9854
đĩ	-9855
đố	-9856
đớ	-9857
ơu	-9858
ưT	-9859
ữn	-9860
▁ứ	-9861
Chu	-9862
HDL	-9863
Hươ	-9864
Liệ	-9865
ana	-9866
eci	-9867
ion	-9868
ngơ	-9869
nhự	-9870
phọ	-9871
rôi	-9872
ver	-9873
ôlo	-9874
ôna	-9875
ôpa	-9876
ăkT	-9877
ĐTB	-9878
ĐTN	-9879
Điề	-9880
ĐĐT	-9881
điể	-9882
đườ	-9883
đượ	-9884
ơlo	-9885
ơmo	-9886
ơmp	-9887
ơnS	-9888
ơne	-9889
ơni	-9890
ơnơ	-9891
ơri	-9892
ơro	-9893
ơtu	-9894
ậnC	-9895
ệng	-9896
▁(.	-9897
▁AT	-9898
▁Al	-9899
BR	-9900
Cy	-9901
Că	-9902
Cậ	-9903
Gậ	-9904
HI	-9905
Mo	-9906
Mồ	-9907
Qu	-9908
Rã	-9909
Rắ	-9910
SN	-9911
Ty	-9912
VC	-9913
VI	-9914
Vi	-9915
Vặ	-9916
Vồ	-9917
bé	-9918
bú	-9919
bằ	-9920
bố	-9921
bỗ	-9922
cẳ	-9923
dì	-9924
dù	-9925
dề	-9926
gè	-9927
hơ	-9928
hờ	-9929
hữ	-9930
hự	-9931
ir	-9932
iữ	-9933
lẽ	-9934
mn	-9935
mõ	-9936
mắ	-9937
mồ	-9938
nú	-9939
nố	-9940
oe	-9941
ox	-9942
oá	-9943
pơ	-9944
rũ	-9945
sỉ	-9946
sờ	-9947
tă	-9948
vd	-9949
vẻ	-9950
vị	-9951
xâ	-9952
xì	-9953
xư	-9954
yn	-9955
yp	-9956
àu	-9957
Đú	-9958
đo	-9959
đư	-9960
đọ	-9961
ụm	-9962
▁ă	-9963
,..	-9964
PCP	-9965
axi	-9966
gen	-9967
hần	-9968
ngI	-9969
nhù	-9970
ote	-9971
rân	-9972
sươ	-9973
▁Au	-9974
▁Ay	-9975
▁BB	-9976
▁BG	-9977
▁BN	-9978
▁Bl	-9979
▁Bã	-9980
▁Bù	-9981
▁Bă	-9982
▁Bạ	-9983
▁Bả	-9984
▁Bấ	-9985
▁Bầ	-9986
▁Bẩ	-9987
▁Bẫ	-9988
▁Bắ	-9989
▁Bằ	-9990
▁Bẹ	-9991
▁Bệ	-9992
▁Bỗ	-9993
▁Bở	-9994
▁Bụ	-9995
▁Bứ	-9996
▁CC	-9997
▁Cl	-9998
▁Ct	-9999
Bẩ	-10000
Bẹ	-10001
Cà	-10002
Cư	-10003
Dệ	-10004
Gê	-10005
Hò	-10006
Hữ	-10007
Kì	-10008
Kỷ	-10009
Lỡ	-10010
Me	-10011
Rề	-10012
Rỗ	-10013
So	-10014
Sứ	-10015
To	-10016
VQ	-10017
Vớ	-10018
Xé	-10019
Xú	-10020
bù	-10021
bấ	-10022
bệ	-10023
bử	-10024
cạ	-10025
cớ	-10026
dố	-10027
dữ	-10028
el	-10029
ge	-10030
gâ	-10031
hẫ	-10032
hỏ	-10033
iử	-10034
kỳ	-10035
lă	-10036
lị	-10037
mọ	-10038
nẻ	-10039
rộ	-10040
rở	-10041
sư	-10042
tấ	-10043
tệ	-10044
uộ	-10045
vu	-10046
vố	-10047
vớ	-10048
xò	-10049
yề	-10050
yệ	-10051
Áo	-10052
ÚA	-10053
Đo	-10054
Đã	-10055
Đậ	-10056
Đứ	-10057
đẩ	-10058
đậ	-10059
đờ	-10060
ừn	-10061
▁ấ	-10062
Aga	-10063
Mức	-10064
Rau	-10065
her	-10066
hục	-10067
ngõ	-10068
rTh	-10069
see	-10070
uản	-10071
▁Cậ	-10072
▁Cọ	-10073
▁Dí	-10074
▁Dă	-10075
▁Dấ	-10076
▁Dẫ	-10077
▁Dệ	-10078
▁Dị	-10079
▁Dọ	-10080
▁GI	-10081
▁Gl	-10082
▁Gn	-10083
▁Gr	-10084
▁Gì	-10085
▁Gí	-10086
▁Gó	-10087
▁Gú	-10088
▁Gầ	-10089
▁Gắ	-10090
▁Gặ	-10091
▁Gọ	-10092
▁Gố	-10093
▁Gử	-10094
▁HT	-10095
▁He	-10096
▁Hr	-10097
▁Hã	-10098
▁Hò	-10099
Bằ	-10100
Bể	-10101
Cự	-10102
Dậ	-10103
Hỡ	-10104
Kô	-10105
Kị	-10106
Lù	-10107
Na	-10108
Nê	-10109
Nổ	-10110
Rờ	-10111
Sc	-10112
Tặ	-10113
Tử	-10114
Xê	-10115
Xí	-10116
bì	-10117
bầ	-10118
cò	-10119
cộ	-10120
củ	-10121
gỉ	-10122
gồ	-10123
gợ	-10124
gữ	-10125
gự	-10126
hă	-10127
hư	-10128
hầ	-10129
hậ	-10130
hỉ	-10131
ig	-10132
is	-10133
ko	-10134
má	-10135
mì	-10136
mở	-10137
nă	-10138
op	-10139
rp	-10140
rạ	-10141
rờ	-10142
rứ	-10143
sẽ	-10144
số	-10145
tà	-10146
tồ	-10147
uẩ	-10148
vũ	-10149
xấ	-10150
ye	-10151
ym	-10152
ĐV	-10153
Đè	-10154
Đạ	-10155
Đế	-10156
Đừ	-10157
ệm	-10158
ổn	-10159
Ủa	-10160
Miề	-10161
TNS	-10162
iba	-10163
iác	-10164
lar	-10165
ngó	-10166
ngữ	-10167
nhở	-10168
nhử	-10169
onu	-10170
▁Hó	-10171
▁Hú	-10172
▁Hă	-10173
▁HĐ	-10174
▁Hả	-10175
▁Hấ	-10176
▁Hầ	-10177
▁Hắ	-10178
▁Hằ	-10179
▁Hẹ	-10180
▁Hế	-10181
▁Hỏ	-10182
▁Hợ	-10183
▁Hủ	-10184
▁Hứ	-10185
▁Hừ	-10186
▁Hữ	-10187
▁IP	-10188
▁KC	-10189
▁KL	-10190
▁Ke	-10191
▁Kl	-10192
▁Ks	-10193
▁Kì	-10194
▁Kí	-10195
▁Kị	-10196
▁LM	-10197
▁LV	-10198
▁Le	-10199
AN	-10200
BY	-10201
Cu	-10202
De	-10203
Dư	-10204
Gh	-10205
Hắ	-10206
Hố	-10207
Im	-10208
Nạ	-10209
Nế	-10210
SM	-10211
ST	-10212
St	-10213
Tá	-10214
Tạ	-10215
Tấ	-10216
Tớ	-10217
Vu	-10218
ag	-10219
bả	-10220
bọ	-10221
cứ	-10222
dẫ	-10223
dọ	-10224
gó	-10225
hó	-10226
họ	-10227
hử	-10228
ià	-10229
iú	-10230
iỏ	-10231
iờ	-10232
kr	-10233
kí	-10234
kĩ	-10235
lâ	-10236
lú	-10237
lũ	-10238
mo	-10239
mí	-10240
mư	-10241
mầ	-10242
mậ	-10243
mố	-10244
nặ	-10245
nị	-10246
nỡ	-10247
pt	-10248
tí	-10249
tĩ	-10250
tụ	-10251
ue	-10252
uâ	-10253
uổ	-10254
vư	-10255
vẽ	-10256
xy	-10257
yc	-10258
Đả	-10259
Đị	-10260
đà	-10261
đè	-10262
đò	-10263
đồ	-10264
ứu	-10265
▁â	-10266
PHT	-10267
Rầy	-10268
VTV	-10269
Yến	-10270
eth	-10271
hau	-10272
ngý	-10273
ngụ	-10274
nhứ	-10275
oăn	-10276
▁Hù	-10277
▁Lã	-10278
▁Lé	-10279
▁Ló	-10280
▁Lù	-10281
▁Lú	-10282
▁Lă	-10283
▁Lĩ	-10284
▁Lơ	-10285
▁Lạ	-10286
▁Lấ	-10287
▁Lậ	-10288
▁Lắ	-10289
▁Lề	-10290
▁Lọ	-10291
▁Lớ	-10292
▁Lợ	-10293
▁Lụ	-10294
▁Lủ	-10295
▁Lự	-10296
▁MT	-10297
▁Má	-10298
▁Mó	-10299
Bô	-10300
CR	-10301
Gì	-10302
Gí	-10303
HX	-10304
He	-10305
HÔ	-10306
Hã	-10307
Hê	-10308
Hủ	-10309
Mắ	-10310
Mỗ	-10311
Rí	-10312
Sé	-10313
Sú	-10314
Să	-10315
Tý	-10316
Vá	-10317
Vĩ	-10318
Ya	-10319
Yê	-10320
bế	-10321
cầ	-10322
dà	-10323
dê	-10324
es	-10325
gắ	-10326
hé	-10327
hẩ	-10328
hắ	-10329
hẳ	-10330
hớ	-10331
iạ	-10332
iặ	-10333
kế	-10334
lù	-10335
no	-10336
nể	-10337
nợ	-10338
oặ	-10339
rĩ	-10340
rắ	-10341
rọ	-10342
sà	-10343
tế	-10344
tộ	-10345
tớ	-10346
ué	-10347
uấ	-10348
uế	-10349
võ	-10350
vự	-10351
Ôn	-10352
ôu	-10353
Đọ	-10354
Đổ	-10355
đâ	-10356
đặ	-10357
đẽ	-10358
đổ	-10359
đủ	-10360
ưt	-10361
Dàn	-10362
Giế	-10363
Huy	-10364
Lực	-10365
Mật	-10366
TTN	-10367
eop	-10368
hản	-10369
mir	-10370
miệ	-10371
rời	-10372
uen	-10373
yan	-10374
▁Lẫ	-10375
▁Mù	-10376
▁Mă	-10377
▁Mư	-10378
▁Mạ	-10379
▁Mầ	-10380
▁Mắ	-10381
▁Mặ	-10382
▁Mệ	-10383
▁Mọ	-10384
▁Mố	-10385
▁Mỗ	-10386
▁Mụ	-10387
▁NV	-10388
▁Nà	-10389
▁Né	-10390
▁Ní	-10391
▁Nạ	-10392
▁Nộ	-10393
▁Nử	-10394
▁PB	-10395
▁PC	-10396
▁PT	-10397
▁Pe	-10398
▁Po	-10399
Cả	-10400
Cọ	-10401
Cổ	-10402
Dũ	-10403
Dị	-10404
HU	-10405
IP	-10406
Lu	-10407
Lò	-10408
Lẽ	-10409
Mi	-10410
Mấ	-10411
Mỡ	-10412
NT	-10413
Nứ	-10414
SV	-10415
UN	-10416
VT	-10417
Vg	-10418
Vậ	-10419
Xử	-10420
Yô	-10421
bư	-10422
bẫ	-10423
bặ	-10424
cư	-10425
cồ	-10426
cụ	-10427
cử	-10428
dị	-10429
gă	-10430
hì	-10431
hằ	-10432
iư	-10433
iớ	-10434
kd	-10435
lĩ	-10436
lấ	-10437
mp	-10438
mâ	-10439
mẩ	-10440
nế	-10441
nỗ	-10442
nứ	-10443
rù	-10444
rả	-10445
sĩ	-10446
sẫ	-10447
tb	-10448
tó	-10449
tứ	-10450
vô	-10451
xứ	-10452
âo	-10453
Đr	-10454
Đồ	-10455
đù	-10456
đẵ	-10457
đừ	-10458
▁ế	-10459
Diệ	-10460
Ráp	-10461
Suy	-10462
ida	-10463
ngạ	-10464
ngỗ	-10465
nhừ	-10466
▁Dụ	-10467
▁Hỡ	-10468
▁Mừ	-10469
▁Nd	-10470
▁Nu	-10471
▁Pr	-10472
▁Pô	-10473
▁QC	-10474
▁QU	-10475
▁Ro	-10476
▁Rè	-10477
▁Rì	-10478
▁Rí	-10479
▁Rú	-10480
▁Rơ	-10481
▁Rẫ	-10482
▁SG	-10483
▁Sc	-10484
▁Sr	-10485
▁SÁ	-10486
▁Sâ	-10487
▁Sé	-10488
▁Sí	-10489
▁Só	-10490
▁Sú	-10491
▁Sấ	-10492
▁Sắ	-10493
▁Sẵ	-10494
▁Sớ	-10495
▁Sừ	-10496
▁Sữ	-10497
▁TA	-10498
▁TU	-10499
Ay	-10500
Bâ	-10501
Bí	-10502
CD	-10503
CÁ	-10504
Cò	-10505
HG	-10506
Hồ	-10507
Hổ	-10508
Ki	-10509
Là	-10510
Lệ	-10511
Lờ	-10512
Ma	-10513
Mơ	-10514
Mạ	-10515
Po	-10516
QU	-10517
Sẵ	-10518
Tà	-10519
Tú	-10520
Vâ	-10521
Vị	-10522
XX	-10523
ah	-10524
bl	-10525
bâ	-10526
bí	-10527
bớ	-10528
cậ	-10529
cằ	-10530
cổ	-10531
dầ	-10532
gừ	-10533
hù	-10534
hĩ	-10535
hế	-10536
hể	-10537
iă	-10538
iũ	-10539
iơ	-10540
iả	-10541
iậ	-10542
lá	-10543
lé	-10544
lầ	-10545
nC	-10546
nb	-10547
nc	-10548
nn	-10549
nạ	-10550
nằ	-10551
nổ	-10552
pl	-10553
rc	-10554
rí	-10555
rư	-10556
sẵ	-10557
sệ	-10558
tầ	-10559
tọ	-10560
uề	-10561
vò	-10562
vù	-10563
vả	-10564
vồ	-10565
vủ	-10566
vữ	-10567
xả	-10568
xẹ	-10569
Đă	-10570
Đẳ	-10571
đẹ	-10572
ưn	-10573
▁ọ	-10574
Ram	-10575
giế	-10576
ngỡ	-10577
ngợ	-10578
phả	-10579
▁BQ	-10580
▁Dá	-10581
▁Gá	-10582
▁LC	-10583
▁Tì	-10584
▁Tả	-10585
▁Tắ	-10586
▁Tỉ	-10587
▁Tộ	-10588
▁Tứ	-10589
▁US	-10590
▁UV	-10591
▁Ur	-10592
▁Va	-10593
▁Vá	-10594
▁Vă	-10595
▁Vạ	-10596
▁Vấ	-10597
▁Vầ	-10598
▁Vẫ	-10599
Bá	-10600
Bỗ	-10601
Câ	-10602
Cõ	-10603
Cử	-10604
Do	-10605
GI	-10606
Gr	-10607
Hì	-10608
Hậ	-10609
Kõ	-10610
LC	-10611
Li	-10612
Mg	-10613
Mô	-10614
Mộ	-10615
Nư	-10616
Nặ	-10617
Rà	-10618
TS	-10619
Tậ	-10620
Tắ	-10621
Xu	-10622
bó	-10623
bẹ	-10624
bờ	-10625
cú	-10626
cỡ	-10627
eg	-10628
eu	-10629
gá	-10630
gầ	-10631
gố	-10632
gỡ	-10633
hổ	-10634
ió	-10635
iô	-10636
kl	-10637
kè	-10638
lả	-10639
lế	-10640
lệ	-10641
mờ	-10642
nề	-10643
nữ	-10644
rò	-10645
rẽ	-10646
rủ	-10647
sé	-10648
sú	-10649
să	-10650
sỏ	-10651
sụ	-10652
tặ	-10653
uà	-10654
uầ	-10655
vắ	-10656
vế	-10657
xú	-10658
Đư	-10659
Đầ	-10660
Đố	-10661
ưỡ	-10662
ứn	-10663
▁ẵ	-10664
Bướ	-10665
Sức	-10666
clo	-10667
erp	-10668
iấy	-10669
nhP	-10670
phạ	-10671
tle	-10672
▁LH	-10673
▁Lâ	-10674
▁Nố	-10675
▁Vậ	-10676
▁Vế	-10677
▁Xo	-10678
▁Xó	-10679
▁Xấ	-10680
▁ak	-10681
▁al	-10682
▁at	-10683
▁bấ	-10684
▁bẩ	-10685
▁bắ	-10686
▁bẵ	-10687
▁bở	-10688
▁bừ	-10689
▁bử	-10690
▁ce	-10691
▁cõ	-10692
▁că	-10693
▁cấ	-10694
▁cẳ	-10695
▁cặ	-10696
▁dâ	-10697
▁dă	-10698
▁dầ	-10699
.;	-10700
AS	-10701
Ag	-10702
BX	-10703
Cù	-10704
Cụ	-10705
Du	-10706
GU	-10707
Gò	-10708
Hâ	-10709
Hô	-10710
Hú	-10711
Hấ	-10712
Hừ	-10713
Kd	-10714
Kl	-10715
Ké	-10716
Lặ	-10717
Lố	-10718
MX	-10719
Mà	-10720
Mó	-10721
Mủ	-10722
NK	-10723
NP	-10724
Nd	-10725
Nk	-10726
Sừ	-10727
Tó	-10728
Vẫ	-10729
Vế	-10730
Xứ	-10731
YÊ	-10732
gS	-10733
gù	-10734
gụ	-10735
hệ	-10736
iã	-10737
iấ	-10738
kị	-10739
lí	-10740
lỏ	-10741
lồ	-10742
lộ	-10743
nâ	-10744
nẹ	-10745
rq	-10746
rố	-10747
tẩ	-10748
tắ	-10749
tẻ	-10750
vĩ	-10751
xé	-10752
Áp	-10753
ÊN	-10754
Đủ	-10755
ưc	-10756
ịc	-10757
▁é	-10758
▁ẩ	-10759
Dán	-10760
Dục	-10761
Kiế	-10762
SXH	-10763
Yên	-10764
hối	-10765
ins	-10766
leu	-10767
ngả	-10768
nhã	-10769
nhí	-10770
phỡ	-10771
uội	-10772
ơsơ	-10773
▁Că	-10774
▁Hậ	-10775
▁Lặ	-10776
▁Mẫ	-10777
▁Rã	-10778
▁bầ	-10779
▁cồ	-10780
▁dẫ	-10781
▁dắ	-10782
▁dọ	-10783
▁dứ	-10784
▁dừ	-10785
▁gâ	-10786
▁gũ	-10787
▁gơ	-10788
▁gư	-10789
▁gọ	-10790
▁gớ	-10791
▁gừ	-10792
▁hr	-10793
▁hì	-10794
▁hă	-10795
▁hấ	-10796
▁hậ	-10797
▁hẳ	-10798
▁hế	-10799
Hè	-10800
Iệ	-10801
Ní	-10802
Nợ	-10803
PA	-10804
Pe	-10805
Pê	-10806
Pó	-10807
Pô	-10808
RA	-10809
Ró	-10810
Rú	-10811
Ră	-10812
Rạ	-10813
Rằ	-10814
Rộ	-10815
Rủ	-10816
Rử	-10817
SÁ	-10818
Sí	-10819
Sấ	-10820
Sắ	-10821
Sọ	-10822
Tỏ	-10823
Uy	-10824
Vé	-10825
Vă	-10826
Vắ	-10827
Vẹ	-10828
Vứ	-10829
Xỉ	-10830
bẵ	-10831
cC	-10832
dn	-10833
dô	-10834
dă	-10835
dế	-10836
dỗ	-10837
dử	-10838
hẵ	-10839
ib	-10840
ip	-10841
iằ	-10842
iỗ	-10843
iỡ	-10844
iự	-10845
lố	-10846
nS	-10847
ná	-10848
oẵ	-10849
rT	-10850
ry	-10851
rặ	-10852
uh	-10853
uă	-10854
uặ	-10855
vr	-10856
xh	-10857
yr	-10858
Ác	-10859
Ôm	-10860
ók	-10861
ăh	-10862
ăl	-10863
đũ	-10864
ơr	-10865
ơt	-10866
ơv	-10867
ờơ	-10868
Rắc	-10869
húc	-10870
hượ	-10871
ngử	-10872
omi	-10873
uyề	-10874
▁Kỉ	-10875
▁RA	-10876
▁Tọ	-10877
▁Vừ	-10878
▁Yu	-10879
▁cã	-10880
▁dấ	-10881
▁dằ	-10882
▁gặ	-10883
▁gụ	-10884
▁gử	-10885
▁hỏ	-10886
▁hớ	-10887
▁hờ	-10888
▁hỡ	-10889
▁hợ	-10890
▁hụ	-10891
▁hự	-10892
▁ke	-10893
▁kl	-10894
▁kt	-10895
▁lú	-10896
▁lẩ	-10897
▁lậ	-10898
▁lị	-10899
:/	-10900
Bã	-10901
Gầ	-10902
Hẳ	-10903
LU	-10904
Lắ	-10905
Lở	-10906
Rả	-10907
Rễ	-10908
Sù	-10909
Ur	-10910
Yà	-10911
cv	-10912
cx	-10913
cữ	-10914
dt	-10915
dâ	-10916
dứ	-10917
gI	-10918
gý	-10919
hP	-10920
kt	-10921
kă	-10922
kư	-10923
lậ	-10924
lụ	-10925
ml	-10926
mẳ	-10927
mợ	-10928
mụ	-10929
mỳ	-10930
ny	-10931
po	-10932
rt	-10933
rỗ	-10934
sp	-10935
sẹ	-10936
uơ	-10937
uằ	-10938
uớ	-10939
vè	-10940
xõ	-10941
xù	-10942
xẳ	-10943
yl	-10944
yà	-10945
Ái	-10946
ôb	-10947
ôt	-10948
ýờ	-10949
Đù	-10950
Đắ	-10951
Đỉ	-10952
Đờ	-10953
đở	-10954
ơh	-10955
ơy	-10956
ảỉ	-10957
▁ã	-10958
▁ộ	-10959
Bời	-10960
PTN	-10961
QLC	-10962
hơi	-10963
iai	-10964
nga	-10965
ngu	-10966
ngà	-10967
ngâ	-10968
ngũ	-10969
ngư	-10970
ngồ	-10971
ngự	-10972
Ánh	-10973
ớng	-10974
ợng	-10975
▁Bư	-10976
▁HI	-10977
▁Nầ	-10978
▁Tâ	-10979
▁Tấ	-10980
▁bủ	-10981
▁gr	-10982
▁hẩ	-10983
▁hẻ	-10984
▁lố	-10985
▁lổ	-10986
▁lờ	-10987
▁lự	-10988
▁mõ	-10989
▁mú	-10990
▁mấ	-10991
▁mẩ	-10992
▁mẫ	-10993
▁mẳ	-10994
▁mỗ	-10995
▁mử	-10996
▁mự	-10997
▁ní	-10998
▁nò	-10999
Sĩ	-11000
Sơ	-11001
TK	-11002
Vẻ	-11003
Xó	-11004
Xă	-11005
bẩ	-11006
bề	-11007
dậ	-11008
kì	-11009
rú	-11010
sữ	-11011
tả	-11012
tỏ	-11013
uã	-11014
vẹ	-11015
vọ	-11016
ĐG	-11017
ĐN	-11018
Đẹ	-11019
ưở	-11020
Ang	-11021
DNN	-11022
Dng	-11023
Gác	-11024
Urê	-11025
bic	-11026
háu	-11027
hảo	-11028
mul	-11029
ngò	-11030
ngậ	-11031
ngặ	-11032
ngọ	-11033
ngộ	-11034
ngớ	-11035
ngủ	-11036
ngứ	-11037
nhậ	-11038
phă	-11039
phấ	-11040
èng	-11041
ẻng	-11042
ểng	-11043
▁Ce	-11044
▁CÁ	-11045
▁Ké	-11046
▁Mũ	-11047
▁Nổ	-11048
▁Pl	-11049
▁Tò	-11050
▁Vự	-11051
▁cl	-11052
▁cạ	-11053
▁cầ	-11054
▁cẩ	-11055
▁cắ	-11056
▁cằ	-11057
▁cợ	-11058
▁cừ	-11059
▁dõ	-11060
▁dậ	-11061
▁dệ	-11062
▁hử	-11063
▁nũ	-11064
▁nư	-11065
▁nặ	-11066
▁nế	-11067
▁nố	-11068
▁nứ	-11069
▁oe	-11070
▁ox	-11071
▁oằ	-11072
▁pi	-11073
▁pr	-11074
▁ri	-11075
▁ré	-11076
▁rì	-11077
▁rí	-11078
▁rơ	-11079
▁rư	-11080
▁rậ	-11081
▁rặ	-11082
▁rế	-11083
▁rệ	-11084
▁rọ	-11085
▁rố	-11086
▁rồ	-11087
▁rỗ	-11088
▁rợ	-11089
▁rử	-11090
▁sí	-11091
▁sẩ	-11092
▁sẫ	-11093
▁sẵ	-11094
▁sặ	-11095
▁sệ	-11096
▁sủ	-11097
▁sữ	-11098
▁tó	-11099
BA	-11100
DV	-11101
Dn	-11102
Hư	-11103
Kỉ	-11104
Rồ	-11105
Sớ	-11106
Tờ	-11107
ié	-11108
lư	-11109
uậ	-11110
ăc	-11111
đứ	-11112
▁ẻ	-11113
Dắt	-11114
GTV	-11115
Lân	-11116
Mao	-11117
Rươ	-11118
Việ	-11119
hnh	-11120
ilo	-11121
iàn	-11122
nhd	-11123
nhe	-11124
nhi	-11125
nho	-11126
nhu	-11127
nhá	-11128
nhé	-11129
nhó	-11130
nhú	-11131
nhĩ	-11132
nhơ	-11133
như	-11134
nhả	-11135
nhấ	-11136
nhầ	-11137
nhẫ	-11138
nhắ	-11139
nhằ	-11140
nhẵ	-11141
nhẹ	-11142
nhỉ	-11143
nhỏ	-11144
nhố	-11145
nhồ	-11146
nhổ	-11147
nhủ	-11148
nhữ	-11149
ynh	-11150
ếnh	-11151
ềnh	-11152
▁Dồ	-11153
▁Nă	-11154
▁Nế	-11155
▁Sả	-11156
▁Yô	-11157
▁dô	-11158
▁dề	-11159
▁lằ	-11160
▁lụ	-11161
▁lừ	-11162
▁mứ	-11163
▁ră	-11164
▁tĩ	-11165
▁tấ	-11166
▁tầ	-11167
▁tẩ	-11168
▁tằ	-11169
▁tặ	-11170
▁tọ	-11171
▁tồ	-11172
▁tộ	-11173
▁tở	-11174
▁tợ	-11175
▁ur	-11176
▁uổ	-11177
▁va	-11178
▁vé	-11179
▁vù	-11180
▁vấ	-11181
▁vầ	-11182
▁vẩ	-11183
▁vẫ	-11184
▁vậ	-11185
▁vắ	-11186
▁vẳ	-11187
▁vặ	-11188
▁vẹ	-11189
▁vọ	-11190
▁vộ	-11191
▁vủ	-11192
▁vứ	-11193
▁vừ	-11194
▁vữ	-11195
▁vự	-11196
▁xâ	-11197
▁xẩ	-11198
▁xẳ	-11199
(.	-11200
Dĩ	-11201
Lô	-11202
Lừ	-11203
Lử	-11204
Nử	-11205
bở	-11206
cắ	-11207
gủ	-11208
hễ	-11209
kỉ	-11210
mú	-11211
rử	-11212
xẩ	-11213
Lai	-11214
Miệ	-11215
Rào	-11216
aân	-11217
nhũ	-11218
phế	-11219
quy	-11220
riệ	-11221
rươ	-11222
rườ	-11223
xuy	-11224
yto	-11225
ứcv	-11226
▁Bú	-11227
▁Lỗ	-11228
▁Nấ	-11229
▁Sù	-11230
▁Vư	-11231
▁dố	-11232
▁gu	-11233
▁hn	-11234
▁ht	-11235
▁hâ	-11236
▁hó	-11237
▁hù	-11238
▁hằ	-11239
▁hẵ	-11240
▁hẹ	-11241
▁hứ	-11242
▁hừ	-11243
▁hữ	-11244
▁lù	-11245
▁lă	-11246
▁lấ	-11247
▁lẳ	-11248
▁lặ	-11249
▁lỏ	-11250
▁lợ	-11251
▁lủ	-11252
▁lứ	-11253
▁lử	-11254
▁mệ	-11255
▁nâ	-11256
▁rù	-11257
▁sâ	-11258
▁sé	-11259
▁yu	-11260
▁yê	-11261
▁yế	-11262
▁ĐB	-11263
▁Đâ	-11264
▁Đì	-11265
▁Đù	-11266
▁Đú	-11267
▁Đư	-11268
▁Đắ	-11269
▁Đặ	-11270
▁Đụ	-11271
▁Đứ	-11272
▁Đừ	-11273
▁đé	-11274
▁đì	-11275
▁đă	-11276
▁đũ	-11277
▁đơ	-11278
▁đư	-11279
▁đạ	-11280
▁đấ	-11281
▁đầ	-11282
▁đẩ	-11283
▁đẫ	-11284
▁đậ	-11285
▁đắ	-11286
▁đằ	-11287
▁đẳ	-11288
▁đẵ	-11289
▁đặ	-11290
▁đẹ	-11291
▁đỉ	-11292
▁đớ	-11293
▁đờ	-11294
▁đụ	-11295
▁đứ	-11296
▁đừ	-11297
▁đự	-11298
▁ươ	-11299
Hó	-11300
LD	-11301
Le	-11302
Nẵ	-11303
Tê	-11304
cb	-11305
dấ	-11306
gứ	-11307
hâ	-11308
mặ	-11309
oè	-11310
tl	-11311
tố	-11312
tổ	-11313
Đô	-11314
đã	-11315
đầ	-11316
ớu	-11317
GDP	-11318
GUY	-11319
Lươ	-11320
Lại	-11321
Ria	-11322
etn	-11323
hức	-11324
ien	-11325
iôn	-11326
ngẩ	-11327
nhè	-11328
oản	-11329
pan	-11330
phâ	-11331
▁Bé	-11332
▁PA	-11333
▁Vg	-11334
▁Vĩ	-11335
▁Vắ	-11336
▁be	-11337
▁bo	-11338
▁bâ	-11339
▁bẫ	-11340
▁bậ	-11341
▁bằ	-11342
▁bặ	-11343
▁bỗ	-11344
▁bụ	-11345
▁bứ	-11346
▁bữ	-11347
▁bự	-11348
▁cậ	-11349
▁ge	-11350
▁gẩ	-11351
▁ko	-11352
▁ku	-11353
▁kẹ	-11354
▁kỉ	-11355
▁nồ	-11356
▁rữ	-11357
▁só	-11358
▁sù	-11359
▁să	-11360
▁sũ	-11361
▁sấ	-11362
▁sậ	-11363
▁sắ	-11364
▁sỏ	-11365
▁sồ	-11366
▁sừ	-11367
▁Đí	-11368
▁Đạ	-11369
▁đù	-11370
▁đợ	-11371
..."	-11372
ATGT	-11373
BCĐC	-11374
BGDP	-11375
BGDĐ	-11376
BLĐT	-11377
BNNP	-11378
Binh	-11379
CCCR	-11380
CTPT	-11381
DTNT	-11382
Dang	-11383
Diêu	-11384
Diện	-11385
Diệu	-11386
Duyệ	-11387
Dích	-11388
Dùng	-11389
Dũng	-11390
Dược	-11391
Dịch	-11392
GDTr	-11393
Gate	-11394
KHĐT	-11395
Kiên	-11396
Kiện	-11397
Kông	-11398
Linh	-11399
HN	-11400
Mầ	-11401
Mậ	-11402
Nơ	-11403
Rư	-11404
UU	-11405
ae	-11406
cù	-11407
hl	-11408
hú	-11409
hạ	-11410
hị	-11411
rn	-11412
sặ	-11413
tt	-11414
up	-11415
xế	-11416
âp	-11417
ỏm	-11418
Hiế	-11419
Rải	-11420
Sân	-11421
VII	-11422
gài	-11423
phá	-11424
uấn	-11425
Điệ	-11426
▁Cầ	-11427
▁Gồ	-11428
▁Hư	-11429
▁Lí	-11430
▁Nú	-11431
▁Ró	-11432
▁TQ	-11433
▁Vâ	-11434
▁cC	-11435
▁dũ	-11436
▁mầ	-11437
▁mậ	-11438
▁mắ	-11439
▁mặ	-11440
▁mế	-11441
▁mố	-11442
▁mừ	-11443
▁nú	-11444
▁nă	-11445
▁nạ	-11446
▁nả	-11447
▁nấ	-11448
▁nầ	-11449
▁nẩ	-11450
▁nắ	-11451
▁nẹ	-11452
▁nị	-11453
▁nử	-11454
▁rò	-11455
▁sh	-11456
▁sò	-11457
▁sẳ	-11458
▁sẹ	-11459
▁xố	-11460
Lười	-11461
Lồng	-11462
Manh	-11463
Minh	-11464
Miên	-11465
NDng	-11466
PBGD	-11467
Ranh	-11468
Rung	-11469
Rình	-11470
Rông	-11471
Răng	-11472
Rạch	-11473
Rằng	-11474
Rộng	-11475
Rừng	-11476
SLĐT	-11477
Sanh	-11478
Sinh	-11479
Song	-11480
TTTT	-11481
UBTV	-11482
VHTT	-11483
VIII	-11484
Xanh	-11485
Xinh	-11486
Xung	-11487
Xích	-11488
Xăng	-11489
Yang	-11490
Yàng	-11491
adan	-11492
alan	-11493
amem	-11494
amin	-11495
aoke	-11496
bend	-11497
came	-11498
cbin	-11499
Bả	-11500
Cầ	-11501
DC	-11502
Lê	-11503
Ru	-11504
Sư	-11505
Xã	-11506
cự	-11507
hè	-11508
ké	-11509
mề	-11510
og	-11511
ot	-11512
qi	-11513
rổ	-11514
sỡ	-11515
óe	-11516
Đà	-11517
CAS	-11518
Hác	-11519
Hân	-11520
MTT	-11521
Mác	-11522
Rác	-11523
Sác	-11524
Tác	-11525
Vác	-11526
ara	-11527
hác	-11528
hời	-11529
ngố	-11530
oác	-11531
phò	-11532
phư	-11533
phầ	-11534
uya	-11535
uác	-11536
xác	-11537
yra	-11538
▁Gù	-11539
▁LL	-11540
▁NT	-11541
▁Tí	-11542
▁dà	-11543
▁dá	-11544
▁dé	-11545
▁dí	-11546
▁dú	-11547
▁dặ	-11548
▁dẹ	-11549
▁dồ	-11550
▁dộ	-11551
▁dờ	-11552
▁ga	-11553
▁go	-11554
▁gá	-11555
▁gó	-11556
▁gấ	-11557
▁gầ	-11558
▁gẫ	-11559
▁gậ	-11560
▁gắ	-11561
▁gố	-11562
▁gộ	-11563
▁gợ	-11564
▁mâ	-11565
▁mỉ	-11566
▁mọ	-11567
▁pl	-11568
▁Đẳ	-11569
ccid	-11570
chiế	-11571
cine	-11572
citi	-11573
clor	-11574
culi	-11575
eaux	-11576
ecam	-11577
ecis	-11578
ecta	-11579
enlu	-11580
enta	-11581
eran	-11582
erqi	-11583
erti	-11584
esam	-11585
gasu	-11586
guyệ	-11587
gươi	-11588
gười	-11589
hang	-11590
hanh	-11591
hinh	-11592
hiên	-11593
hiến	-11594
hiếu	-11595
hiều	-11596
hiệt	-11597
hong	-11598
hung	-11599
Bở	-11600
Cở	-11601
HK	-11602
Ly	-11603
Ne	-11604
Nọ	-11605
Sỹ	-11606
Ti	-11607
dừ	-11608
hứ	-11609
lẳ	-11610
lừ	-11611
nã	-11612
sh	-11613
ss	-11614
vâ	-11615
ví	-11616
xử	-11617
yể	-11618
đề	-11619
Gan	-11620
Lên	-11621
Man	-11622
Mất	-11623
Rời	-11624
ali	-11625
mem	-11626
ngá	-11627
ngấ	-11628
ngẫ	-11629
nhặ	-11630
pho	-11631
phy	-11632
phà	-11633
phè	-11634
phé	-11635
phí	-11636
phó	-11637
phú	-11638
phẩ	-11639
phẫ	-11640
phậ	-11641
phẳ	-11642
phỉ	-11643
phố	-11644
phủ	-11645
phứ	-11646
phừ	-11647
phự	-11648
xươ	-11649
ôph	-11650
Đời	-11651
▁MH	-11652
▁Me	-11653
▁Tă	-11654
▁Vo	-11655
▁gú	-11656
▁hắ	-11657
▁lẫ	-11658
▁lắ	-11659
▁rề	-11660
▁Đơ	-11661
Bông	-11662
Sông	-11663
Xông	-11664
huyệ	-11665
hành	-11666
háng	-11667
hánh	-11668
hích	-11669
hính	-11670
hòng	-11671
hông	-11672
húng	-11673
hưng	-11674
hước	-11675
hạch	-11676
hằng	-11677
hững	-11678
iang	-11679
idae	-11680
iden	-11681
imon	-11682
iông	-11683
iăng	-11684
iống	-11685
kong	-11686
lang	-11687
late	-11688
leik	-11689
lida	-11690
lion	-11691
lông	-11692
mast	-11693
meth	-11694
mulu	-11695
naca	-11696
ngao	-11697
ngươ	-11698
nhác	-11699
BG	-11700
Bụ	-11701
Gỗ	-11702
Hơ	-11703
Hả	-11704
KB	-11705
Lă	-11706
SX	-11707
Xe	-11708
bụ	-11709
cợ	-11710
hõ	-11711
hũ	-11712
mb	-11713
sẩ	-11714
tậ	-11715
vụ	-11716
vứ	-11717
ÔI	-11718
ôp	-11719
đả	-11720
Duy	-11721
Dốt	-11722
Gai	-11723
Hiệ	-11724
Hên	-11725
Kiệ	-11726
Kên	-11727
Mua	-11728
Mên	-11729
ate	-11730
biệ	-11731
diệ	-11732
guy	-11733
heo	-11734
hiệ	-11735
huy	-11736
ngờ	-11737
nhò	-11738
nhệ	-11739
non	-11740
pid	-11741
ruy	-11742
sar	-11743
uyể	-11744
uán	-11745
yên	-11746
▁CL	-11747
▁CN	-11748
▁CT	-11749
▁Cò	-11750
▁Cõ	-11751
▁Cú	-11752
▁Cư	-11753
▁Cạ	-11754
▁Cấ	-11755
▁Cẩ	-11756
▁Cắ	-11757
▁Lử	-11758
▁Mn	-11759
▁Tó	-11760
▁Tú	-11761
▁Tậ	-11762
▁Tặ	-11763
▁nằ	-11764
▁rý	-11765
▁xă	-11766
▁xấ	-11767
▁xớ	-11768
▁Đu	-11769
▁Đọ	-11770
▁đí	-11771
nida	-11772
oang	-11773
oanh	-11774
ogis	-11775
olyt	-11776
oong	-11777
opte	-11778
oram	-11779
ovid	-11780
ovra	-11781
oàng	-11782
oành	-11783
oáng	-11784
oâng	-11785
oạch	-11786
pang	-11787
pido	-11788
plas	-11789
pray	-11790
păng	-11791
ramb	-11792
rang	-11793
rech	-11794
reng	-11795
reso	-11796
riac	-11797
ricu	-11798
ring	-11799
Lũ	-11800
MH	-11801
Tủ	-11802
ec	-11803
gã	-11804
gộ	-11805
kơ	-11806
mị	-11807
rấ	-11808
rễ	-11809
sl	-11810
uờ	-11811
vầ	-11812
đó	-11813
ợu	-11814
BTV	-11815
Dại	-11816
Kiể	-11817
Nướ	-11818
bon	-11819
che	-11820
ert	-11821
gân	-11822
gượ	-11823
hiế	-11824
hân	-11825
hầy	-11826
ngo	-11827
ngù	-11828
nhọ	-11829
▁HÔ	-11830
▁Lừ	-11831
▁NP	-11832
▁Nâ	-11833
▁Nơ	-11834
▁Nắ	-11835
▁Nằ	-11836
▁Nẵ	-11837
▁Nặ	-11838
▁Nẹ	-11839
▁Nề	-11840
▁Nồ	-11841
▁Nỗ	-11842
▁Nứ	-11843
▁Vố	-11844
▁hã	-11845
▁hầ	-11846
▁lĩ	-11847
▁mề	-11848
▁nà	-11849
▁re	-11850
▁râ	-11851
▁ró	-11852
▁rấ	-11853
▁rầ	-11854
▁rẩ	-11855
▁rắ	-11856
▁rằ	-11857
▁rị	-11858
▁rụ	-11859
▁rứ	-11860
▁rừ	-11861
▁rự	-11862
▁xò	-11863
▁xõ	-11864
▁xẹ	-11865
▁xọ	-11866
▁xộ	-11867
▁xủ	-11868
▁Đe	-11869
▁Đr	-11870
▁Đò	-11871
▁Đấ	-11872
▁Đầ	-11873
▁Đẩ	-11874
▁Đậ	-11875
▁Đằ	-11876
▁Đẹ	-11877
▁Đỉ	-11878
▁Đị	-11879
▁Đợ	-11880
▁ướ	-11881
Mười	-11882
TTQV	-11883
erin	-11884
riêm	-11885
riều	-11886
rung	-11887
rình	-11888
rông	-11889
rước	-11890
rười	-11891
rống	-11892
rồng	-11893
site	-11894
soru	-11895
stin	-11896
suan	-11897
tant	-11898
tara	-11899
Am	-11900
Cẩ	-11901
Dr	-11902
Dâ	-11903
Hẹ	-11904
KD	-11905
LN	-11906
My	-11907
Tô	-11908
Vô	-11909
Xơ	-11910
ce	-11911
gặ	-11912
lắ	-11913
lể	-11914
mẫ	-11915
mỡ	-11916
nỉ	-11917
oắ	-11918
sí	-11919
xó	-11920
ểm	-11921
"..	-11922
Biế	-11923
Bon	-11924
Dượ	-11925
Gươ	-11926
Lan	-11927
Miế	-11928
Mượ	-11929
Rượ	-11930
Siế	-11931
Tiế	-11932
Viế	-11933
Xiế	-11934
Xâm	-11935
anb	-11936
anc	-11937
and	-11938
ann	-11939
ano	-11940
ian	-11941
ngă	-11942
rượ	-11943
siế	-11944
ton	-11945
uẫn	-11946
van	-11947
Đượ	-11948
▁Gậ	-11949
▁Kơ	-11950
▁Rệ	-11951
▁VC	-11952
▁Vò	-11953
▁Vù	-11954
▁Vẹ	-11955
▁Vứ	-11956
▁ne	-11957
▁nu	-11958
▁Đè	-11959
▁Đă	-11960
▁Đả	-11961
Long	-11962
Rong	-11963
Xong	-11964
hẳng	-11965
idin	-11966
tbxh	-11967
tein	-11968
tera	-11969
tics	-11970
toni	-11971
tres	-11972
ught	-11973
uynh	-11974
uách	-11975
uông	-11976
uăng	-11977
uảng	-11978
uống	-11979
uồng	-11980
vani	-11981
xtra	-11982
xông	-11983
yang	-11984
ylon	-11985
yper	-11986
yàng	-11987
ơlok	-11988
ơmơn	-11989
ưỡng	-11990
ạngI	-11991
▁(..	-11992
▁ANT	-11993
▁ATT	-11994
▁Ali	-11995
▁Amn	-11996
▁Ang	-11997
▁Ant	-11998
▁BGD	-11999
BD	-12000
Bế	-12001
Ks	-12002
Mu	-12003
Ni	-12004
Re	-12005
Sô	-12006
cấ	-12007
dể	-12008
kỹ	-12009
mấ	-12010
sả	-12011
sắ	-12012
sẳ	-12013
ub	-12014
ux	-12015
vạ	-12016
xt	-12017
ĩn	-12018
Bôi	-12019
Bươ	-12020
Bức	-12021
Hại	-12022
Kon	-12023
Lôi	-12024
Rất	-12025
Sai	-12026
Xươ	-12027
ail	-12028
gôi	-12029
gươ	-12030
hôi	-12031
hươ	-12032
hất	-12033
iti	-12034
mon	-12035
nhộ	-12036
nướ	-12037
oai	-12038
ogi	-12039
ont	-12040
oon	-12041
phù	-12042
ron	-12043
rướ	-12044
rại	-12045
thr	-12046
tox	-12047
uyế	-12048
▁Ac	-12049
▁Cộ	-12050
▁Dr	-12051
▁NC	-12052
▁Nọ	-12053
▁Vé	-12054
▁Vặ	-12055
▁Vớ	-12056
▁hi	-12057
▁kô	-12058
▁lé	-12059
▁sầ	-12060
▁tậ	-12061
▁tắ	-12062
▁đú	-12063
Mong	-12064
hình	-12065
inhd	-12066
phườ	-12067
sari	-12068
▁BVC	-12069
▁Bah	-12070
▁Bas	-12071
▁Bav	-12072
▁Bel	-12073
▁Ben	-12074
▁Biế	-12075
▁Biể	-12076
▁Biệ	-12077
▁Bor	-12078
▁Bre	-12079
▁Bri	-12080
▁Bướ	-12081
▁CHQ	-12082
▁CHU	-12083
▁CHÚ	-12084
▁CNV	-12085
▁CSG	-12086
▁Cam	-12087
▁Can	-12088
▁Chl	-12089
▁Chr	-12090
▁Chá	-12091
▁Châ	-12092
▁Chô	-12093
▁Chă	-12094
▁Chư	-12095
▁Chạ	-12096
▁Chấ	-12097
▁Chậ	-12098
▁Chắ	-12099
BN	-12100
Đì	-12101
▁Tẩ	-12102
▁Chẳ	-12103
▁Chặ	-12104
▁Chọ	-12105
▁Chố	-12106
▁Chồ	-12107
▁Chụ	-12108
▁Clo	-12109
▁Col	-12110
▁Com	-12111
▁Cop	-12112
▁Cor	-12113
▁Cur	-12114
▁Cym	-12115
▁Cươ	-12116
▁Cướ	-12117
▁Cườ	-12118
▁DTN	-12119
▁DTT	-12120
▁Dan	-12121
▁Dil	-12122
▁Dis	-12123
▁Diê	-12124
▁Diệ	-12125
▁Dro	-12126
▁Dua	-12127
▁GDS	-12128
▁GDT	-12129
▁Gho	-12130
▁Ghí	-12131
▁Ghẹ	-12132
▁Gie	-12133
▁Gié	-12134
▁Giò	-12135
▁Giú	-12136
▁Giă	-12137
▁Giư	-12138
▁Giạ	-12139
▁Giấ	-12140
▁Giế	-12141
▁Giọ	-12142
▁Giố	-12143
▁Gươ	-12144
▁Hiế	-12145
▁Hiề	-12146
▁Hiể	-12147
▁Hiệ	-12148
▁Hoâ	-12149
▁Huỳ	-12150
▁Hươ	-12151
▁Hướ	-12152
▁Hườ	-12153
▁KHH	-12154
▁KHÁ	-12155
▁Kar	-12156
▁Khé	-12157
▁Khò	-12158
▁Khó	-12159
▁Khơ	-12160
▁Khấ	-12161
▁Khắ	-12162
▁Khỏ	-12163
▁Khổ	-12164
▁Khở	-12165
▁Kiê	-12166
▁Kiế	-12167
▁Kiể	-12168
▁Klo	-12169
▁Kum	-12170
▁Kõd	-12171
▁Kơd	-12172
▁LCA	-12173
▁LHP	-12174
▁LLV	-12175
▁Lin	-12176
▁Liê	-12177
▁Liề	-12178
▁Liệ	-12179
▁Lượ	-12180
▁MTT	-12181
▁Mah	-12182
▁Mas	-12183
▁Miế	-12184
▁Miề	-12185
▁Miệ	-12186
▁Muỗ	-12187
▁Mượ	-12188
▁NHC	-12189
▁Ngo	-12190
▁Ngâ	-12191
▁Ngã	-12192
▁Ngă	-12193
▁Ngẫ	-12194
▁Ngậ	-12195
▁Ngắ	-12196
▁Ngồ	-12197
▁Ngợ	-12198
▁Ngừ	-12199
▁Ngự	-12200
▁Nhi	-12201
▁Nhá	-12202
▁Nhó	-12203
▁Nhơ	-12204
▁Nhả	-12205
▁Nhậ	-12206
▁Nhằ	-12207
▁Nhặ	-12208
▁Nhệ	-12209
▁Nhợ	-12210
▁Nis	-12211
▁Nit	-12212
▁Niề	-12213
▁Nác	-12214
▁Nướ	-12215
▁PCC	-12216
▁PTN	-12217
▁Per	-12218
▁Phy	-12219
▁Phà	-12220
▁Phé	-12221
▁Phạ	-12222
▁Phấ	-12223
▁Phẩ	-12224
▁Plu	-12225
▁QLC	-12226
▁QLD	-12227
▁Quặ	-12228
▁Rat	-12229
▁Reg	-12230
▁Rid	-12231
▁Riê	-12232
▁Rum	-12233
▁Rơp	-12234
▁Rượ	-12235
▁SGD	-12236
▁SKS	-12237
▁Sat	-12238
▁Sco	-12239
▁Sis	-12240
▁Siê	-12241
▁Siế	-12242
▁Sra	-12243
▁Sup	-12244
▁SÁC	-12245
▁Sác	-12246
▁THC	-12247
▁THP	-12248
▁TNC	-12249
▁The	-12250
▁Tho	-12251
▁Thá	-12252
▁Thè	-12253
▁Thò	-12254
▁Thó	-12255
▁Thă	-12256
▁Thạ	-12257
▁Thả	-12258
▁Thấ	-12259
▁Thầ	-12260
▁Thẩ	-12261
▁Thậ	-12262
▁Thắ	-12263
▁Thằ	-12264
▁Thỉ	-12265
▁Thố	-12266
▁Thổ	-12267
▁Thụ	-12268
▁Thừ	-12269
▁Thự	-12270
▁Tiê	-12271
▁Tiế	-12272
▁Tiề	-12273
▁Tiể	-12274
▁Tiệ	-12275
▁Tri	-12276
▁Tru	-12277
▁Trá	-12278
▁Trâ	-12279
▁Tră	-12280
▁Trơ	-12281
▁Trư	-12282
▁Trạ	-12283
▁Trầ	-12284
▁Trậ	-12285
▁Trắ	-12286
▁Trỉ	-12287
▁Trọ	-12288
▁Trộ	-12289
▁Trứ	-12290
▁Tươ	-12291
▁Tướ	-12292
▁Tượ	-12293
▁UBM	-12294
▁UVB	-12295
▁VNP	-12296
▁Vgi	-12297
▁Vie	-12298
▁Vit	-12299
▁Viế	-12300
▁Việ	-12301
▁Vươ	-12302
▁Vườ	-12303
▁Vượ	-12304
▁Xiế	-12305
▁aga	-12306
▁atâ	-12307
▁axi	-12308
▁bio	-12309
▁biê	-12310
▁biế	-12311
▁biể	-12312
▁biệ	-12313
▁boâ	-12314
▁bơn	-12315
▁bươ	-12316
▁bướ	-12317
▁bườ	-12318
▁cCh	-12319
▁chá	-12320
▁chò	-12321
▁chô	-12322
▁chõ	-12323
▁chă	-12324
▁chĩ	-12325
▁chũ	-12326
▁chơ	-12327
▁chạ	-12328
▁chấ	-12329
▁chầ	-12330
▁chẩ	-12331
▁chậ	-12332
▁chắ	-12333
▁chằ	-12334
▁chẳ	-12335
▁chẵ	-12336
▁chặ	-12337
▁chẹ	-12338
▁chể	-12339
▁chọ	-12340
▁chỏ	-12341
▁chố	-12342
▁chồ	-12343
▁chổ	-12344
▁chộ	-12345
▁chụ	-12346
▁chừ	-12347
▁chử	-12348
▁chự	-12349
▁cli	-12350
▁clo	-12351
▁cor	-12352
▁cuỗ	-12353
▁cuộ	-12354
▁cướ	-12355
▁cườ	-12356
▁cưỡ	-12357
▁diê	-12358
▁diế	-12359
▁diề	-12360
▁diễ	-12361
▁diệ	-12362
▁dươ	-12363
▁dườ	-12364
▁dưỡ	-12365
▁dượ	-12366
▁gam	-12367
▁ghe	-12368
▁ghẹ	-12369
▁gie	-12370
▁giâ	-12371
▁giê	-12372
▁giù	-12373
▁giú	-12374
▁giă	-12375
▁giư	-12376
▁giấ	-12377
▁giầ	-12378
▁giẫ	-12379
▁giậ	-12380
▁giằ	-12381
▁giặ	-12382
▁giế	-12383
▁giề	-12384
▁giễ	-12385
▁giọ	-12386
▁giố	-12387
▁giớ	-12388
▁giỡ	-12389
▁giụ	-12390
▁giử	-12391
▁giự	-12392
▁gươ	-12393
▁hiế	-12394
▁hiề	-12395
▁hiể	-12396
▁hnh	-12397
▁hoe	-12398
▁hoâ	-12399
▁hoã	-12400
▁hoả	-12401
▁hoắ	-12402
▁hoẵ	-12403
▁hoặ	-12404
▁huý	-12405
▁huỳ	-12406
▁hôb	-12407
▁hơm	-12408
▁hướ	-12409
▁kal	-12410
▁kap	-12411
▁kar	-12412
▁keâ	-12413
▁kha	-12414
▁khâ	-12415
▁khé	-12416
▁khù	-12417
▁khú	-12418
▁khă	-12419
▁khơ	-12420
▁khư	-12421
▁khạ	-12422
▁khấ	-12423
▁khẩ	-12424
▁khậ	-12425
▁khắ	-12426
▁khẳ	-12427
▁khể	-12428
▁khọ	-12429
▁khỏ	-12430
▁khớ	-12431
▁khở	-12432
▁khủ	-12433
▁kiế	-12434
▁kiề	-12435
▁kiể	-12436
▁kiễ	-12437
▁kiệ	-12438
▁kơn	-12439
▁liê	-12440
▁liế	-12441
▁liề	-12442
▁liệ	-12443
▁log	-12444
▁loã	-12445
▁loạ	-12446
▁luồ	-12447
▁lướ	-12448
▁lườ	-12449
▁lượ	-12450
▁mak	-12451
▁mas	-12452
▁miế	-12453
▁miề	-12454
▁miệ	-12455
▁muỗ	-12456
▁muộ	-12457
▁mươ	-12458
▁mướ	-12459
▁mườ	-12460
▁mượ	-12461
▁ngá	-12462
▁ngâ	-12463
▁ngè	-12464
▁ngù	-12465
▁ngú	-12466
▁ngý	-12467
▁ngă	-12468
▁ngạ	-12469
▁ngấ	-12470
▁ngầ	-12471
▁ngẩ	-12472
▁ngẫ	-12473
▁ngậ	-12474
▁ngắ	-12475
▁ngặ	-12476
▁ngố	-12477
▁ngồ	-12478
▁ngợ	-12479
▁ngứ	-12480
▁ngừ	-12481
▁ngử	-12482
▁nhá	-12483
▁nhâ	-12484
▁nhò	-12485
▁nhó	-12486
▁nhù	-12487
▁nhạ	-12488
▁nhấ	-12489
▁nhầ	-12490
▁nhẫ	-12491
▁nhắ	-12492
▁nhằ	-12493
▁nhẵ	-12494
▁nhặ	-12495
▁nhệ	-12496
▁nhố	-12497
▁nhồ	-12498
▁nhộ	-12499
▁nhụ	-12500
▁nhứ	-12501
▁nhự	-12502
▁nil	-12503
▁nit	-12504
▁niê	-12505
▁niế	-12506
▁niề	-12507
▁niệ	-12508
▁nác	-12509
▁nươ	-12510
▁nướ	-12511
▁pan	-12512
▁phy	-12513
▁phà	-12514
▁phé	-12515
▁phò	-12516
▁phă	-12517
▁phư	-12518
▁phạ	-12519
▁phấ	-12520
▁phầ	-12521
▁phẩ	-12522
▁phẫ	-12523
▁phậ	-12524
▁phẳ	-12525
▁phọ	-12526
▁phỏ	-12527
▁phồ	-12528
▁phớ	-12529
▁phỡ	-12530
▁phứ	-12531
▁phừ	-12532
▁phự	-12533
▁pie	-12534
▁pre	-12535
▁pro	-12536
▁pôg	-12537
▁pôl	-12538
▁pơp	-12539
▁quâ	-12540
▁quã	-12541
▁qué	-12542
▁quă	-12543
▁quấ	-12544
▁quầ	-12545
▁quẩ	-12546
▁quẫ	-12547
▁quậ	-12548
▁quắ	-12549
▁quằ	-12550
▁quặ	-12551
▁quẹ	-12552
▁quố	-12553
▁quộ	-12554
▁riê	-12555
▁riề	-12556
▁ruỗ	-12557
▁rýợ	-12558
▁rơn	-12559
▁rơp	-12560
▁rươ	-12561
▁rướ	-12562
▁rườ	-12563
▁rượ	-12564
▁siê	-12565
▁siế	-12566
▁sol	-12567
▁sup	-12568
▁suý	-12569
▁sác	-12570
▁sươ	-12571
▁sướ	-12572
▁sườ	-12573
▁thá	-12574
▁thâ	-12575
▁thã	-12576
▁thè	-12577
▁thé	-12578
▁thó	-12579
▁thă	-12580
▁thũ	-12581
▁thạ	-12582
▁thấ	-12583
▁thầ	-12584
▁thẩ	-12585
▁thẫ	-12586
▁thậ	-12587
▁thắ	-12588
▁thằ	-12589
▁thẳ	-12590
▁thặ	-12591
▁thẹ	-12592
▁thỉ	-12593
▁thộ	-12594
▁tiề	-12595
▁tiể	-12596
▁tiệ	-12597
▁trâ	-12598
▁trè	-12599
▁tré	-12600
▁tró	-12601
▁trô	-12602
▁tră	-12603
▁trũ	-12604
▁trư	-12605
▁trạ	-12606
▁trấ	-12607
▁trầ	-12608
▁trậ	-12609
▁trắ	-12610
▁trỉ	-12611
▁trố	-12612
▁trộ	-12613
▁trờ	-12614
▁trứ	-12615
▁trử	-12616
▁trự	-12617
▁tôd	-12618
▁tôg	-12619
▁tơd	-12620
▁tơh	-12621
▁tơt	-12622
▁tưT	-12623
▁tươ	-12624
▁tướ	-12625
▁tườ	-12626
▁tưở	-12627
▁tượ	-12628
▁vid	-12629
▁vie	-12630
▁vit	-12631
▁viế	-12632
▁viề	-12633
▁viễ	-12634
▁việ	-12635
▁vươ	-12636
▁vướ	-12637
▁vườ	-12638
▁vượ	-12639
▁xiê	-12640
▁xiế	-12641
▁xiề	-12642
▁xuy	-12643
▁xuý	-12644
▁xuẩ	-12645
▁xươ	-12646
▁xướ	-12647
▁xượ	-12648
▁Điê	-12649
▁Điề	-12650
▁Điể	-12651
▁Điệ	-12652
▁Đru	-12653
▁Đua	-12654
▁Đườ	-12655
▁Đượ	-12656
▁điê	-12657
▁điế	-12658
▁điề	-12659
▁điể	-12660
▁điệ	-12661
▁điọ	-12662
▁đuợ	-12663
▁đườ	-12664
▁đượ	-12665
Duyên	-12666
Dương	-12667
Lương	-12668
Quyên	-12669
Rương	-12670
SVHTT	-12671
Sương	-12672
TDTNT	-12673
TTQVN	-12674
TUBND	-12675
Xương	-12676
anito	-12677
cidae	-12678
citis	-12679
ealan	-12680
egasu	-12681
enlut	-12682
entra	-12683
eopte	-12684
epido	-12685
ertiv	-12686
etGAP	-12687
ghtma	-12688
gisti	-12689
guyện	-12690
himon	-12691
huyến	-12692
huyển	-12693
hương	-12694
hường	-12695
idomi	-12696
ishim	-12697
iường	-12698
laria	-12699
lidae	-12700
malin	-12701
micid	-12702
nerqi	-12703
nidae	-12704
ovral	-12705
plaud	-12706
radan	-12707
ralit	-12708
rambi	-12709
ramin	-12710
rculi	-12711
rdium	-12712
richa	-12713
rương	-12714
rường	-12715
sorun	-12716
spray	-12717
tiêng	-12718
tress	-12719
uchia	-12720
uricu	-12721
usari	-12722
uyệnV	-12723
vitam	-12724
ônaêm	-12725
ôphen	-12726
ĐNDng	-12727
ĐTBXH	-12728
ạngII	-12729
▁Acta	-12730
▁Admi	-12731
▁Alit	-12732
▁Anta	-12733
▁Anvi	-12734
▁BVCS	-12735
▁Basi	-12736
▁Basu	-12737
▁Bavi	-12738
▁Belg	-12739
▁Bita	-12740
▁Blan	-12741
▁Bord	-12742
▁Carb	-12743
▁Chiê	-12744
▁Chiế	-12745
▁Chiề	-12746
▁Chlo	-12747
▁Chra	-12748
▁Chuy	-12749
▁Chươ	-12750
▁Comi	-12751
▁Covi	-12752
▁Duyệ	-12753
▁Giườ	-12754
▁Glai	-12755
▁Grou	-12756
▁Huyệ	-12757
▁Karu	-12758
▁Khiê	-12759
▁Kont	-12760
▁Kumu	-12761
▁Mahy	-12762
▁Mast	-12763
▁NGUY	-12764
▁NHCS	-12765
▁Nghĩ	-12766
▁Ngươ	-12767
▁Ngượ	-12768
▁Nhiệ	-12769
▁PBGD	-12770
▁Phiế	-12771
▁Pyra	-12772
▁Rato	-12773
▁Rơng	-12774
▁Satu	-12775
▁Sher	-12776
▁Thiê	-12777
▁Thiế	-12778
▁Thiệ	-12779
▁Thuy	-12780
▁Thươ	-12781
▁Thườ	-12782
▁Thượ	-12783
▁Thờơ	-12784
▁Treb	-12785
▁Triê	-12786
▁Triể	-12787
▁Triệ	-12788
▁Truy	-12789
▁Trác	-12790
▁Trướ	-12791
▁Trườ	-12792
▁Tuyệ	-12793
▁Viba	-12794
▁Vica	-12795
▁báot	-12796
▁chiê	-12797
▁chiế	-12798
▁chiề	-12799
▁chiể	-12800
▁choà	-12801
▁choá	-12802
▁choạ	-12803
▁chuy	-12804
▁chuẩ	-12805
▁chươ	-12806
▁chướ	-12807
▁chườ	-12808
▁clor	-12809
▁cuar	-12810
▁duyệ	-12811
▁ghiế	-12812
▁ghiệ	-12813
▁giươ	-12814
▁giườ	-12815
▁huye	-12816
▁huyệ	-12817
▁khiê	-12818
▁khiế	-12819
▁khiể	-12820
▁khiễ	-12821
▁khoả	-12822
▁khoắ	-12823
▁khướ	-12824
▁kilo	-12825
▁kơtu	-12826
▁logi	-12827
▁luyệ	-12828
▁mast	-12829
▁môna	-12830
▁mứcv	-12831
▁nghà	-12832
▁nghè	-12833
▁nghì	-12834
▁nghí	-12835
▁nghẹ	-12836
▁nghẽ	-12837
▁ngoá	-12838
▁ngoạ	-12839
▁ngoả	-12840
▁ngoắ	-12841
▁ngoằ	-12842
▁nguệ	-12843
▁ngác	-12844
▁ngươ	-12845
▁ngướ	-12846
▁ngượ	-12847
▁nhiế	-12848
▁nhiề	-12849
▁nhiệ	-12850
▁nhoẻ	-12851
▁nhuy	-12852
▁nhuộ	-12853
▁nhườ	-12854
▁nhưỡ	-12855
▁nhượ	-12856
▁phiê	-12857
▁phiế	-12858
▁phiề	-12859
▁phot	-12860
▁phác	-12861
▁phươ	-12862
▁phướ	-12863
▁phườ	-12864
▁phượ	-12865
▁pơsơ	-12866
▁quyể	-12867
▁quyệ	-12868
▁sili	-12869
▁solo	-12870
▁thiế	-12871
▁thiể	-12872
▁thiệ	-12873
▁thuy	-12874
▁thuâ	-12875
▁thuẫ	-12876
▁thuố	-12877
▁thuờ	-12878
▁thóa	-12879
▁thướ	-12880
▁thườ	-12881
▁thượ	-12882
▁trie	-12883
▁triế	-12884
▁triề	-12885
▁triể	-12886
▁triệ	-12887
▁trác	-12888
▁trướ	-12889
▁trườ	-12890
▁trượ	-12891
▁tuyệ	-12892
▁tơda	-12893
▁tơmp	-12894
▁vacc	-12895
▁vacx	-12896
▁ĐăkT	-12897
BCĐCCT	-12898
CTUBND	-12899
MTTQVN	-12900
NNPTNT	-12901
UBNDng	-12902
anitol	-12903
egasus	-12904
entale	-12905
ermeth	-12906
idomil	-12907
insuan	-12908
ldtbxh	-12909
nacard	-12910
onidae	-12911
optera	-12912
puchia	-12913
ravani	-12914
rnidae	-12915
rought	-12916
toplas	-12917
ạngIII	-12918
▁(....	-12919
▁Alitt	-12920
▁Atoni	-12921
▁BVNLT	-12922
▁Bahna	-12923
▁Bavis	-12924
▁Becam	-12925
▁Benla	-12926
▁Bioga	-12927
▁Biose	-12928
▁Borde	-12929
▁Chuyệ	-12930
▁Cymer	-12931
▁Cyper	-12932
▁Kontu	-12933
▁NGUYÊ	-12934
▁Nghiê	-12935
▁Nghiệ	-12936
▁Nguyệ	-12937
▁NhơnS	-12938
▁Nisso	-12939
▁Nitra	-12940
▁Pleik	-12941
▁Ruman	-12942
▁Siste	-12943
▁Trail	-12944
▁Vietn	-12945
▁Vitam	-12946
▁binhd	-12947
▁chuyệ	-12948
▁hạngI	-12949
▁kalic	-12950
▁karao	-12951
▁logis	-12952
▁nghie	-12953
▁nghiế	-12954
▁nghiề	-12955
▁nguyệ	-12956
▁nhậnC	-12957
▁nitra	-12958
▁occid	-12959
▁phyci	-12960
▁polyt	-12961
▁prote	-12962
▁sesam	-12963
▁trier	-12964
▁truyệ	-12965
▁vitam	-12966
▁địnhP	-12967
eoptera	-12968
himonus	-12969
inhdinh	-12970
nerqing	-12971
ogistic	-12972
rambici	-12973
uricula	-12974
ytoplas	-12975
ĐNDngày	-12976
▁Basito	-12977
▁Centra	-12978
▁Cloram	-12979
▁Distan	-12980
▁Pyrali	-12981
▁huyệnV	-12982
▁nghieâ	-12983
▁nhậnCh	-12984
▁vertiv	-12985
▁địnhPh	-12986
ampuchia	-12987
culariac	-12988
erambici	-12989
idoptera	-12990
leoptera	-12991
rculioni	-12992
shimonus	-12993
▁Anacard	-12994
▁Carbend	-12995
▁Chloram	-12996
▁Saturni	-12997
▁Sumicid	-12998
▁polytri	-12999
cidentale	-13000
ermethrin	-13001
ytoplasma	-13002
▁Auricula	-13003
▁logistic	-13004
insuannerq	-13005
▁Cerambici	-13006
▁Droughtma	-13007
▁Curculioni	-13008
▁Linsuannerq	-13009
▁Auriculariac	-13010
▁Auriculariacea	-13011
▁	-13012
n	-13013
h	-13014
c	-13015
t	-13016
i	-13017
g	-13018
a	-13019
u	-13020
đ	-13021
à	-13022
m	-13023
o	-13024
,	-13025
r	-13026
v	-13027
ư	-13028
y	-13029
á	-13030
l	-13031
p	-13032
ô	-13033
s	-13034
b	-13035
k	-13036
-	-13037
ê	-13038
ế	-13039
ờ	-13040
ạ	-13041
â	-13042
d	-13043
ệ	-13044
ộ	-13045
ả	-13046
T	-13047
ố	-13048
ó	-13049
C	-13050
ấ	-13051
ớ	-13052
ị	-13053
.	-13054
ề	-13055
ủ	-13056
N	-13057
ơ	-13058
ì	-13059
x	-13060
ợ	-13061
ã	-13062
ú	-13063
ể	-13064
ứ	-13065
e	-13066
ậ	-13067
ự	-13068
q	-13069
ă	-13070
Đ	-13071
H	-13072
ầ	-13073
í	-13074
ọ	-13075
1	-13076
ồ	-13077
0	-13078
ụ	-13079
2	-13080
V	-13081
ở	-13082
ắ	-13083
ữ	-13084
ò	-13085
B	-13086
ổ	-13087
ừ	-13088
A	-13089
ù	-13090
G	-13091
;	-13092
ỉ	-13093
ặ	-13094
S	-13095
K	-13096
ỏ	-13097
L	-13098
ẽ	-13099
ĩ	-13100
:	-13101
M	-13102
P	-13103
5	-13104
ẻ	-13105
ỗ	-13106
3	-13107
D	-13108
ử	-13109
ằ	-13110
é	-13111
Ú	-13112
9	-13113
ũ	-13114
4	-13115
ẩ	-13116
ễ	-13117
/	-13118
ý	-13119
è	-13120
Q	-13121
6	-13122
ẫ	-13123
Y	-13124
7	-13125
8	-13126
X	-13127
U	-13128
"	-13129
ẹ	-13130
(	-13131
)	-13132
“	-13133
ỡ	-13134
õ	-13135
%	-13136
R	-13137
ỷ	-13138
ỳ	-13139
I	-13140
ẳ	-13141
Ê	-13142
Ô	-13143
ỹ	-13144
Á	-13145
?	-13146
Ủ	-13147
”	-13148
‘	-13149
–	-13150
ẵ	-13151
